%YAML:1.0
my_boost_tree: !!opencv-ml-gradient-boosting-trees
   loss_function: DevianceLoss
   ensemble_length: 200
   shrinkage: 9.9999997764825821e-03
   subsample_portion: 8.0000001192092896e-01
   class_labels: !!opencv-matrix
      rows: 1
      cols: 4
      dt: i
      data: [ 1, 2, 3, 4 ]
   is_classifier: 1
   var_all: 4
   var_count: 4
   ord_var_count: 4
   cat_var_count: 0
   training_params:
      use_surrogates: 0
      max_categories: 10
      max_depth: 3
      min_sample_count: 10
      cross_validation_folds: 0
      priors: !!opencv-matrix
         rows: 1
         cols: 1
         dt: d
         data: [ 1. ]
   var_type: [ 0, 0, 0, 0 ]
   cat_count: !!opencv-matrix
      rows: 1
      cols: 1
      dt: i
      data: [ 1 ]
   cat_map: !!opencv-matrix
      rows: 1
      cols: 1
      dt: i
      data: [ 0 ]
   base_value: 0.
   class_count: 4
   trees_0:
      -
         best_tree_idx: -1
         nodes:
            -
               depth: 0
               sample_count: 152
               value: 1.9736842105263157e-02
               Tn: 0
               complexity: 0
               alpha: 0.
               node_risk: 2.9940789473684209e+01
               tree_risk: 0.
               tree_error: 0.
               splits:
                  - { var:3, quality:2.9023809432983398e+01,
                      le:-1.4483599662780762e+00 }
            -
               depth: 1
               sample_count: 42
               value: 7.2619047619047616e-01
               Tn: 0
               complexity: 0
               alpha: 0.
               node_risk: 9.7619047619047805e-01
               tree_risk: 0.
               tree_error: 0.
               splits:
                  - { var:0, quality:2.3125000000000000e+01,
                      le:-8.8406997919082642e-01 }
            -
               depth: 2
               sample_count: 1
               value: -1.
               Tn: 0
               complexity: 0
               alpha: 0.
               node_risk: 0.
               tree_risk: 0.
               tree_error: 0.
            -
               depth: 2
               sample_count: 41
               value: 7.5000000000000000e-01
               Tn: 0
               complexity: 0
               alpha: 0.
               node_risk: 0.
               tree_risk: 0.
               tree_error: 0.
               splits:
                  - { var:0, quality:2.3062500000000000e+01,
                      le:-6.4231425523757935e-01 }
            -
               depth: 3
               sample_count: 1
               value: 3.
               Tn: 0
               complexity: 0
               alpha: 0.
               node_risk: 0.
               tree_risk: 0.
               tree_error: 0.
            -
               depth: 3
               sample_count: 40
               value: 3.
               Tn: 0
               complexity: 0
               alpha: 0.
               node_risk: 0.
               tree_risk: 0.
               tree_error: 0.
            -
               depth: 1
               sample_count: 110
               value: -2.5000000000000000e-01
               Tn: 0
               complexity: 0
               alpha: 0.
               node_risk: 0.
               tree_risk: 0.
               tree_error: 0.
               splits:
                  - { var:0, quality:6.8750000000000000e+00,
                      le:-1.0304870605468750e+00 }
            -
               depth: 2
               sample_count: 1
               value: -1.
               Tn: 0
               complexity: 0
               alpha: 0.
               node_risk: 0.
               tree_risk: 0.
               tree_error: 0.
            -
               depth: 2
               sample_count: 109
               value: -2.5000000000000000e-01
               Tn: 0
               complexity: 0
               alpha: 0.
               node_risk: 0.
               tree_risk: 0.
               tree_error: 0.
               splits:
                  - { var:0, quality:6.8125000000000000e+00,
                      le:-8.6558842658996582e-01 }
            -
               depth: 3
               sample_count: 1
               value: -1.
               Tn: 0
               complexity: 0
               alpha: 0.
               node_risk: 0.
               tree_risk: 0.
               tree_error: 0.
            -
               depth: 3
               sample_count: 108
               value: -1.
               Tn: 0
               complexity: 0
               alpha: 0.
               node_risk: 0.
               tree_risk: 0.
               tree_error: 0.
      -
         best_tree_idx: -1
         nodes:
            -
               depth: 0
               sample_count: 152
               value: 3.2548794424847552e-02
               Tn: 0
               complexity: 0
               alpha: 0.
               node_risk: 3.0217022716555878e+01
               tree_risk: 0.
               tree_error: 0.
               splits:
                  - { var:3, quality:2.8507612228393555e+01,
                      le:-1.4463677406311035e+00 }
            -
               depth: 1
               sample_count: 45
               value: 6.9845669865608218e-01
               Tn: 0
               complexity: 0
               alpha: 0.
               node_risk: 1.8704076110165069e+00
               tree_risk: 0.
               tree_error: 0.
               splits:
                  - { var:0, quality:2.3823284149169922e+01,
                      le:-8.2366353273391724e-01 }
            -
               depth: 2
               sample_count: 2
               value: -9.9584889411926270e-01
               Tn: 0
               complexity: 0
               alpha: 0.
               node_risk: 3.0928163181620505e-06
               tree_risk: 0.
               tree_error: 0.
            -
               depth: 2
               sample_count: 43
               value: 7.4242526292800903e-01
               Tn: 0
               complexity: 0
               alpha: 0.
               node_risk: 0.
               tree_risk: 0.
               tree_error: 0.
               splits:
                  - { var:0, quality:2.3701396942138672e+01,
                      le:-5.8283567428588867e-01 }
            -
               depth: 3
               sample_count: 6
               value: 2.9117763042449951e+00
               Tn: 0
               complexity: 0
               alpha: 0.
               node_risk: 0.
               tree_risk: 0.
               tree_error: 0.
            -
               depth: 3
               sample_count: 37
               value: 2.9117763042449951e+00
               Tn: 0
               complexity: 0
               alpha: 0.
               node_risk: 0.
               tree_risk: 0.
               tree_error: 0.
            -
               depth: 1
               sample_count: 107
               value: -2.4750593165370904e-01
               Tn: 0
               complexity: 0
               alpha: 0.
               node_risk: 3.5437159708884280e-05
               tree_risk: 0.
               tree_error: 0.
               splits:
                  - { var:0, quality:6.5547418594360352e+00,
                      le:-7.5619511306285858e-02 }
            -
               depth: 2
               sample_count: 39
               value: -2.4789069707577044e-01
               Tn: 0
               complexity: 0
               alpha: 0.
               node_risk: 2.1557728679511001e-05
               tree_risk: 0.
               tree_error: 0.
               splits:
                  - { var:3, quality:2.3965597152709961e+00,
                      le:8.7370610237121582e-01 }
            -
               depth: 3
               sample_count: 10
               value: -9.9871343374252319e-01
               Tn: 0
               complexity: 0
               alpha: 0.
               node_risk: 3.6384408080847308e-06
               tree_risk: 0.
               tree_error: 0.
            -
               depth: 3
               sample_count: 29
               value: -9.9667388200759888e-01
               Tn: 0
               complexity: 0
               alpha: 0.
               node_risk: 3.9041542199136359e-07
               tree_risk: 0.
               tree_error: 0.
            -
               depth: 2
               sample_count: 68
               value: -2.4728525736752680e-01
               Tn: 0
               complexity: 0
               alpha: 0.
               node_risk: 4.7942926988397971e-06
               tree_risk: 0.
               tree_error: 0.
               splits:
                  - { var:1, quality:4.1582031250000000e+00,
                      le:7.5940895080566406e-01 }
            -
               depth: 3
               sample_count: 39
               value: -9.9664473533630371e-01
               Tn: 0
               complexity: 0
               alpha: 0.
               node_risk: 0.
               tree_risk: 0.
               tree_error: 0.
            -
               depth: 3
               sample_count: 29
               value: -9.9605584144592285e-01
               Tn: 0
               complexity: 0
               alpha: 0.
               node_risk: 1.4989053036540412e-06
               tree_risk: 0.
               tree_error: 0.
      -
         best_tree_idx: -1
         nodes:
            -
               depth: 0
               sample_count: 152
               value: -3.7324173670066030e-05
               Tn: 0
               complexity: 0
               alpha: 0.
               node_risk: 2.7365461857729720e+01
               tree_risk: 0.
               tree_error: 0.
               splits:
                  - { var:3, quality:2.5549348831176758e+01,
                      le:-1.4463677406311035e+00 }
            -
               depth: 1
               sample_count: 40
               value: 6.8599903658032413e-01
               Tn: 0
               complexity: 0
               alpha: 0.
               node_risk: 1.8159501567337877e+00
               tree_risk: 0.
               tree_error: 0.
               splits:
                  - { var:0, quality:2.0639734268188477e+01,
                      le:-8.2366353273391724e-01 }
            -
               depth: 2
               sample_count: 2
               value: -9.9043434858322144e-01
               Tn: 0
               complexity: 0
               alpha: 0.
               node_risk: 3.1343888124979458e-06
               tree_risk: 0.
               tree_error: 0.
            -
               depth: 2
               sample_count: 38
               value: 7.3488056659698486e-01
               Tn: 0
               complexity: 0
               alpha: 0.
               node_risk: 0.
               tree_risk: 0.
               tree_error: 0.
               splits:
                  - { var:0, quality:2.0521879196166992e+01,
                      le:-5.2578061819076538e-01 }
            -
               depth: 3
               sample_count: 11
               value: 2.8289136886596680e+00
               Tn: 0
               complexity: 0
               alpha: 0.
               node_risk: 0.
               tree_risk: 0.
               tree_error: 0.
            -
               depth: 3
               sample_count: 27
               value: 2.8289136886596680e+00
               Tn: 0
               complexity: 0
               alpha: 0.
               node_risk: 0.
               tree_risk: 0.
               tree_error: 0.
            -
               depth: 1
               sample_count: 112
               value: -2.4505031015723944e-01
               Tn: 0
               complexity: 0
               alpha: 0.
               node_risk: 1.6348026694146256e-04
               tree_risk: 0.
               tree_error: 0.
               splits:
                  - { var:0, quality:6.7256078720092773e+00,
                      le:-7.4474617838859558e-02 }
            -
               depth: 2
               sample_count: 39
               value: -2.4593399121211126e-01
               Tn: 0
               complexity: 0
               alpha: 0.
               node_risk: 9.6274716673505623e-05
               tree_risk: 0.
               tree_error: 0.
               splits:
                  - { var:3, quality:2.3589408397674561e+00,
                      le:9.0832185745239258e-01 }
            -
               depth: 3
               sample_count: 12
               value: -9.9751186370849609e-01
               Tn: 0
               complexity: 0
               alpha: 0.
               node_risk: 1.3077929682525635e-05
               tree_risk: 0.
               tree_error: 0.
            -
               depth: 3
               sample_count: 27
               value: -9.9332523345947266e-01
               Tn: 0
               complexity: 0
               alpha: 0.
               node_risk: 1.5814016762760730e-12
               tree_risk: 0.
               tree_error: 0.
            -
               depth: 2
               sample_count: 73
               value: -2.4457820657997914e-01
               Tn: 0
               complexity: 0
               alpha: 0.
               node_risk: 2.0480383712495609e-05
               tree_risk: 0.
               tree_error: 0.
               splits:
                  - { var:1, quality:4.3667621612548828e+00,
                      le:7.1977233886718750e-01 }
            -
               depth: 3
               sample_count: 38
               value: -9.9332517385482788e-01
               Tn: 0
               complexity: 0
               alpha: 0.
               node_risk: 1.7053025658242404e-12
               tree_risk: 0.
               tree_error: 0.
            -
               depth: 3
               sample_count: 35
               value: -9.9227935075759888e-01
               Tn: 0
               complexity: 0
               alpha: 0.
               node_risk: 8.9126347075918488e-06
               tree_risk: 0.
               tree_error: 0.
      -
         best_tree_idx: -1
         nodes:
            -
               depth: 0
               sample_count: 152
               value: 2.5594856688066533e-02
               Tn: 0
               complexity: 0
               alpha: 0.
               node_risk: 2.8582108555532916e+01
               tree_risk: 0.
               tree_error: 0.
               splits:
                  - { var:3, quality:2.6893947601318359e+01,
                      le:-1.4463677406311035e+00 }
            -
               depth: 1
               sample_count: 44
               value: 6.8338223919272423e-01
               Tn: 0
               complexity: 0
               alpha: 0.
               node_risk: 1.7876318812303182e+00
               tree_risk: 0.
               tree_error: 0.
               splits:
                  - { var:0, quality:2.2336124420166016e+01,
                      le:-8.2366353273391724e-01 }
            -
               depth: 2
               sample_count: 2
               value: -9.8723888397216797e-01
               Tn: 0
               complexity: 0
               alpha: 0.
               node_risk: 3.2604290557403104e-06
               tree_risk: 0.
               tree_error: 0.
            -
               depth: 2
               sample_count: 42
               value: 7.2736704349517822e-01
               Tn: 0
               complexity: 0
               alpha: 0.
               node_risk: 0.
               tree_risk: 0.
               tree_error: 0.
               splits:
                  - { var:0, quality:2.2220638275146484e+01,
                      le:-5.0149488449096680e-01 }
            -
               depth: 3
               sample_count: 20
               value: 2.7509512901306152e+00
               Tn: 0
               complexity: 0
               alpha: 0.
               node_risk: 0.
               tree_risk: 0.
               tree_error: 0.
            -
               depth: 3
               sample_count: 22
               value: 2.7509512901306152e+00
               Tn: 0
               complexity: 0
               alpha: 0.
               node_risk: 0.
               tree_risk: 0.
               tree_error: 0.
            -
               depth: 1
               sample_count: 108
               value: -2.4239259544346067e-01
               Tn: 0
               complexity: 0
               alpha: 0.
               node_risk: 1.0444268585985128e-04
               tree_risk: 0.
               tree_error: 0.
               splits:
                  - { var:1, quality:6.3454818725585938e+00,
                      le:7.1977233886718750e-01 }
            -
               depth: 2
               sample_count: 76
               value: -2.4274167222412010e-01
               Tn: 0
               complexity: 0
               alpha: 0.
               node_risk: 6.7261414486985416e-05
               tree_risk: 0.
               tree_error: 0.
               splits:
                  - { var:0, quality:4.4781937599182129e+00,
                      le:-7.5619511306285858e-02 }
            -
               depth: 3
               sample_count: 38
               value: -9.9079728126525879e-01
               Tn: 0
               complexity: 0
               alpha: 0.
               node_risk: 6.1062992304350416e-05
               tree_risk: 0.
               tree_error: 0.
            -
               depth: 3
               sample_count: 38
               value: -9.9004161357879639e-01
               Tn: 0
               complexity: 0
               alpha: 0.
               node_risk: 3.6144420789696596e-11
               tree_risk: 0.
               tree_error: 0.
            -
               depth: 2
               sample_count: 32
               value: -2.4156353808939457e-01
               Tn: 0
               complexity: 0
               alpha: 0.
               node_risk: 5.9255667812507795e-06
               tree_risk: 0.
               tree_error: 0.
               splits:
                  - { var:3, quality:1.8673001527786255e+00,
                      le:9.4328677654266357e-01 }
            -
               depth: 3
               sample_count: 26
               value: -9.8860704898834229e-01
               Tn: 0
               complexity: 0
               alpha: 0.
               node_risk: 0.
               tree_risk: 0.
               tree_error: 0.
            -
               depth: 3
               sample_count: 6
               value: -9.9004584550857544e-01
               Tn: 0
               complexity: 0
               alpha: 0.
               node_risk: 4.1223136015844375e-12
               tree_risk: 0.
               tree_error: 0.
      -
         best_tree_idx: -1
         nodes:
            -
               depth: 0
               sample_count: 152
               value: 6.2319184408376090e-03
               Tn: 0
               complexity: 0
               alpha: 0.
               node_risk: 2.6720262188029782e+01
               tree_risk: 0.
               tree_error: 0.
               splits:
                  - { var:3, quality:2.5836076736450195e+01,
                      le:-1.4463677406311035e+00 }
            -
               depth: 1
               sample_count: 40
               value: 6.9602824524044993e-01
               Tn: 0
               complexity: 0
               alpha: 0.
               node_risk: 8.8981390045725206e-01
               tree_risk: 0.
               tree_error: 0.
               splits:
                  - { var:0, quality:2.0268026351928711e+01,
                      le:-8.8406997919082642e-01 }
            -
               depth: 2
               sample_count: 1
               value: -9.8091191053390503e-01
               Tn: 0
               complexity: 0
               alpha: 0.
               node_risk: 0.
               tree_risk: 0.
               tree_error: 0.
            -
               depth: 2
               sample_count: 39
               value: 7.1991115808486938e-01
               Tn: 0
               complexity: 0
               alpha: 0.
               node_risk: 0.
               tree_risk: 0.
               tree_error: 0.
               splits:
                  - { var:0, quality:2.0212610244750977e+01,
                      le:-5.8283567428588867e-01 }
            -
               depth: 3
               sample_count: 6
               value: 2.6777217388153076e+00
               Tn: 0
               complexity: 0
               alpha: 0.
               node_risk: 0.
               tree_risk: 0.
               tree_error: 0.
            -
               depth: 3
               sample_count: 33
               value: 2.6777217388153076e+00
               Tn: 0
               complexity: 0
               alpha: 0.
               node_risk: 0.
               tree_risk: 0.
               tree_error: 0.
            -
               depth: 1
               sample_count: 112
               value: -2.4012391255902393e-01
               Tn: 0
               complexity: 0
               alpha: 0.
               node_risk: 2.7549654821878988e-04
               tree_risk: 0.
               tree_error: 0.
               splits:
                  - { var:0, quality:6.4579257965087891e+00,
                      le:-7.5619511306285858e-02 }
            -
               depth: 2
               sample_count: 42
               value: -2.4108708011252539e-01
               Tn: 0
               complexity: 0
               alpha: 0.
               node_risk: 1.9271768846884640e-04
               tree_risk: 0.
               tree_error: 0.
               splits:
                  - { var:3, quality:2.4413301944732666e+00,
                      le:8.7370610237121582e-01 }
            -
               depth: 3
               sample_count: 10
               value: -9.9290764331817627e-01
               Tn: 0
               complexity: 0
               alpha: 0.
               node_risk: 2.4860291066297613e-05
               tree_risk: 0.
               tree_error: 0.
            -
               depth: 3
               sample_count: 32
               value: -9.8681545257568359e-01
               Tn: 0
               complexity: 0
               alpha: 0.
               node_risk: 2.8674823080443446e-06
               tree_risk: 0.
               tree_error: 0.
            -
               depth: 2
               sample_count: 70
               value: -2.3954601202692305e-01
               Tn: 0
               complexity: 0
               alpha: 0.
               node_risk: 2.0437975088327676e-05
               tree_risk: 0.
               tree_error: 0.
               splits:
                  - { var:1, quality:4.0167751312255859e+00,
                      le:7.5940895080566406e-01 }
            -
               depth: 3
               sample_count: 40
               value: -9.8676490783691406e-01
               Tn: 0
               complexity: 0
               alpha: 0.
               node_risk: 5.4463544785221529e-11
               tree_risk: 0.
               tree_error: 0.
            -
               depth: 3
               sample_count: 30
               value: -9.8557221889495850e-01
               Tn: 0
               complexity: 0
               alpha: 0.
               node_risk: 5.9086058850077450e-06
               tree_risk: 0.
               tree_error: 0.
      -
         best_tree_idx: -1
         nodes:
            -
               depth: 0
               sample_count: 152
               value: 3.7383263440508595e-02
               Tn: 0
               complexity: 0
               alpha: 0.
               node_risk: 2.8227225771587722e+01
               tree_risk: 0.
               tree_error: 0.
               splits:
                  - { var:3, quality:2.6724084854125977e+01,
                      le:-1.4463677406311035e+00 }
            -
               depth: 1
               sample_count: 46
               value: 6.7135620149581332e-01
               Tn: 0
               complexity: 0
               alpha: 0.
               node_risk: 1.7150779621008034e+00
               tree_risk: 0.
               tree_error: 0.
               splits:
                  - { var:0, quality:2.2448143005371094e+01,
                      le:-8.2366353273391724e-01 }
            -
               depth: 2
               sample_count: 2
               value: -9.7955340147018433e-01
               Tn: 0
               complexity: 0
               alpha: 0.
               node_risk: 1.2261440188621187e-05
               tree_risk: 0.
               tree_error: 0.
            -
               depth: 2
               sample_count: 44
               value: 7.1252324635332276e-01
               Tn: 0
               complexity: 0
               alpha: 0.
               node_risk: 3.4113728126783371e-06
               tree_risk: 0.
               tree_error: 0.
               splits:
                  - { var:0, quality:2.2338335037231445e+01,
                      le:-6.2084633111953735e-01 }
            -
               depth: 3
               sample_count: 2
               value: 2.6205379962921143e+00
               Tn: 0
               complexity: 0
               alpha: 0.
               node_risk: 0.
               tree_risk: 0.
               tree_error: 0.
            -
               depth: 3
               sample_count: 42
               value: 2.6083552837371826e+00
               Tn: 0
               complexity: 0
               alpha: 0.
               node_risk: 0.
               tree_risk: 0.
               tree_error: 0.
            -
               depth: 1
               sample_count: 106
               value: -2.3773706816839721e-01
               Tn: 0
               complexity: 0
               alpha: 0.
               node_risk: 4.8337726205716081e-04
               tree_risk: 0.
               tree_error: 0.
               splits:
                  - { var:0, quality:5.9911165237426758e+00,
                      le:-7.5619511306285858e-02 }
            -
               depth: 2
               sample_count: 39
               value: -2.3908337301168686e-01
               Tn: 0
               complexity: 0
               alpha: 0.
               node_risk: 3.4162930735970320e-04
               tree_risk: 0.
               tree_error: 0.
               splits:
                  - { var:3, quality:2.2295682430267334e+00,
                      le:8.7370610237121582e-01 }
            -
               depth: 3
               sample_count: 10
               value: -9.9177801609039307e-01
               Tn: 0
               complexity: 0
               alpha: 0.
               node_risk: 4.3516397303933196e-05
               tree_risk: 0.
               tree_error: 0.
            -
               depth: 3
               sample_count: 29
               value: -9.8356741666793823e-01
               Tn: 0
               complexity: 0
               alpha: 0.
               node_risk: 3.4180977472875185e-06
               tree_risk: 0.
               tree_error: 0.
            -
               depth: 2
               sample_count: 67
               value: -2.3695339818498981e-01
               Tn: 0
               complexity: 0
               alpha: 0.
               node_risk: 2.9911733117504724e-05
               tree_risk: 0.
               tree_error: 0.
               splits:
                  - { var:1, quality:3.7618629932403564e+00,
                      le:7.1977233886718750e-01 }
            -
               depth: 3
               sample_count: 36
               value: -9.8355317115783691e-01
               Tn: 0
               complexity: 0
               alpha: 0.
               node_risk: 1.2235679136551880e-10
               tree_risk: 0.
               tree_error: 0.
            -
               depth: 3
               sample_count: 31
               value: -9.8214852809906006e-01
               Tn: 0
               complexity: 0
               alpha: 0.
               node_risk: 1.0050429070984634e-05
               tree_risk: 0.
               tree_error: 0.
      -
         best_tree_idx: -1
         nodes:
            -
               depth: 0
               sample_count: 152
               value: 5.9451098112683551e-03
               Tn: 0
               complexity: 0
               alpha: 0.
               node_risk: 2.5642742300332571e+01
               tree_risk: 0.
               tree_error: 0.
               splits:
                  - { var:3, quality:2.3979194641113281e+01,
                      le:-1.4483599662780762e+00 }
            -
               depth: 1
               sample_count: 41
               value: 6.5940118817294513e-01
               Tn: 0
               complexity: 0
               alpha: 0.
               node_risk: 1.6683397093770687e+00
               tree_risk: 0.
               tree_error: 0.
               splits:
                  - { var:0, quality:1.9495525360107422e+01,
                      le:-8.2366353273391724e-01 }
            -
               depth: 2
               sample_count: 2
               value: -9.7581052780151367e-01
               Tn: 0
               complexity: 0
               alpha: 0.
               node_risk: 1.8825888999818297e-05
               tree_risk: 0.
               tree_error: 0.
            -
               depth: 2
               sample_count: 39
               value: 7.0508163403242063e-01
               Tn: 0
               complexity: 0
               alpha: 0.
               node_risk: 1.7279186508289968e-06
               tree_risk: 0.
               tree_error: 0.
               splits:
                  - { var:0, quality:1.9388465881347656e+01,
                      le:-6.3944327831268311e-01 }
            -
               depth: 3
               sample_count: 1
               value: 2.5543148517608643e+00
               Tn: 0
               complexity: 0
               alpha: 0.
               node_risk: 0.
               tree_risk: 0.
               tree_error: 0.
            -
               depth: 3
               sample_count: 38
               value: 2.5427823066711426e+00
               Tn: 0
               complexity: 0
               alpha: 0.
               node_risk: 0.
               tree_risk: 0.
               tree_error: 0.
            -
               depth: 1
               sample_count: 111
               value: -2.3542154976376542e-01
               Tn: 0
               complexity: 0
               alpha: 0.
               node_risk: 5.8094735528335661e-04
               tree_risk: 0.
               tree_error: 0.
               splits:
                  - { var:0, quality:6.1521115303039551e+00,
                      le:-7.5619511306285858e-02 }
            -
               depth: 2
               sample_count: 43
               value: -2.3675239813882251e-01
               Tn: 0
               complexity: 0
               alpha: 0.
               node_risk: 4.2979376244600687e-04
               tree_risk: 0.
               tree_error: 0.
               splits:
                  - { var:3, quality:2.4106087684631348e+00,
                      le:7.6475036144256592e-01 }
            -
               depth: 3
               sample_count: 10
               value: -9.8970848321914673e-01
               Tn: 0
               complexity: 0
               alpha: 0.
               node_risk: 1.9266665521211479e-05
               tree_risk: 0.
               tree_error: 0.
            -
               depth: 3
               sample_count: 33
               value: -9.8052912950515747e-01
               Tn: 0
               complexity: 0
               alpha: 0.
               node_risk: 2.4807905305568312e-05
               tree_risk: 0.
               tree_error: 0.
            -
               depth: 2
               sample_count: 68
               value: -2.3457998387953816e-01
               Tn: 0
               complexity: 0
               alpha: 0.
               node_risk: 2.6833971401352130e-05
               tree_risk: 0.
               tree_error: 0.
               splits:
                  - { var:1, quality:3.7419018745422363e+00,
                      le:8.3967995643615723e-01 }
            -
               depth: 3
               sample_count: 37
               value: -9.8037678003311157e-01
               Tn: 0
               complexity: 0
               alpha: 0.
               node_risk: 1.0181633314232386e-10
               tree_risk: 0.
               tree_error: 0.
            -
               depth: 3
               sample_count: 31
               value: -9.7923344373703003e-01
               Tn: 0
               complexity: 0
               alpha: 0.
               node_risk: 1.3321039072700103e-05
               tree_risk: 0.
               tree_error: 0.
      -
         best_tree_idx: -1
         nodes:
            -
               depth: 0
               sample_count: 152
               value: 1.8189374259427973e-02
               Tn: 0
               complexity: 0
               alpha: 0.
               node_risk: 2.5924370427411844e+01
               tree_risk: 0.
               tree_error: 0.
               splits:
                  - { var:3, quality:2.4336423873901367e+01,
                      le:-1.4463677406311035e+00 }
            -
               depth: 1
               sample_count: 43
               value: 6.5459854346375135e-01
               Tn: 0
               complexity: 0
               alpha: 0.
               node_risk: 1.6376836186592953e+00
               tree_risk: 0.
               tree_error: 0.
               splits:
                  - { var:0, quality:2.0063131332397461e+01,
                      le:-8.0506658554077148e-01 }
            -
               depth: 2
               sample_count: 2
               value: -9.7281539440155029e-01
               Tn: 0
               complexity: 0
               alpha: 0.
               node_risk: 1.9203931978073463e-05
               tree_risk: 0.
               tree_error: 0.
            -
               depth: 2
               sample_count: 41
               value: 6.9770090463684831e-01
               Tn: 0
               complexity: 0
               alpha: 0.
               node_risk: 1.7803667127225253e-06
               tree_risk: 0.
               tree_error: 0.
               splits:
                  - { var:0, quality:1.9958250045776367e+01,
                      le:-6.1514461040496826e-01 }
            -
               depth: 3
               sample_count: 1
               value: 2.4918503761291504e+00
               Tn: 0
               complexity: 0
               alpha: 0.
               node_risk: 0.
               tree_risk: 0.
               tree_error: 0.
            -
               depth: 3
               sample_count: 40
               value: 2.4807162284851074e+00
               Tn: 0
               complexity: 0
               alpha: 0.
               node_risk: 0.
               tree_risk: 0.
               tree_error: 0.
            -
               depth: 1
               sample_count: 109
               value: -2.3287112368356197e-01
               Tn: 0
               complexity: 0
               alpha: 0.
               node_risk: 5.5196553238889834e-04
               tree_risk: 0.
               tree_error: 0.
               splits:
                  - { var:0, quality:5.9110665321350098e+00,
                      le:-7.5619511306285858e-02 }
            -
               depth: 2
               sample_count: 44
               value: -2.3409017073837193e-01
               Tn: 0
               complexity: 0
               alpha: 0.
               node_risk: 4.1513205550591792e-04
               tree_risk: 0.
               tree_error: 0.
               splits:
                  - { var:3, quality:2.4114854335784912e+00,
                      le:9.0832185745239258e-01 }
            -
               depth: 3
               sample_count: 11
               value: -9.8566585779190063e-01
               Tn: 0
               complexity: 0
               alpha: 0.
               node_risk: 4.9328981199470157e-05
               tree_risk: 0.
               tree_error: 0.
            -
               depth: 3
               sample_count: 33
               value: -9.7710829973220825e-01
               Tn: 0
               complexity: 0
               alpha: 0.
               node_risk: 1.4611209198100994e-06
               tree_risk: 0.
               tree_error: 0.
            -
               depth: 2
               sample_count: 65
               value: -2.3204592260030599e-01
               Tn: 0
               complexity: 0
               alpha: 0.
               node_risk: 2.7183951321951838e-05
               tree_risk: 0.
               tree_error: 0.
               splits:
                  - { var:1, quality:3.4999628067016602e+00,
                      le:8.2477879524230957e-01 }
            -
               depth: 3
               sample_count: 35
               value: -9.7723668813705444e-01
               Tn: 0
               complexity: 0
               alpha: 0.
               node_risk: 5.0766324477535818e-10
               tree_risk: 0.
               tree_error: 0.
            -
               depth: 3
               sample_count: 30
               value: -9.7590517997741699e-01
               Tn: 0
               complexity: 0
               alpha: 0.
               node_risk: 9.4262586576299157e-06
               tree_risk: 0.
               tree_error: 0.
      -
         best_tree_idx: -1
         nodes:
            -
               depth: 0
               sample_count: 152
               value: -6.2464901099079538e-03
               Tn: 0
               complexity: 0
               alpha: 0.
               node_risk: 2.3734440576302777e+01
               tree_risk: 0.
               tree_error: 0.
               splits:
                  - { var:3, quality:2.2926530838012695e+01,
                      le:-1.4463677406311035e+00 }
            -
               depth: 1
               sample_count: 38
               value: 6.6634569552383927e-01
               Tn: 0
               complexity: 0
               alpha: 0.
               node_risk: 8.1325534009797806e-01
               tree_risk: 0.
               tree_error: 0.
               splits:
                  - { var:0, quality:1.7685882568359375e+01,
                      le:-8.8406997919082642e-01 }
            -
               depth: 2
               sample_count: 1
               value: -9.6589016914367676e-01
               Tn: 0
               complexity: 0
               alpha: 0.
               node_risk: 0.
               tree_risk: 0.
               tree_error: 0.
            -
               depth: 2
               sample_count: 37
               value: 6.9039596254761160e-01
               Tn: 0
               complexity: 0
               alpha: 0.
               node_risk: 3.3665538374805237e-06
               tree_risk: 0.
               tree_error: 0.
               splits:
                  - { var:0, quality:1.7635927200317383e+01,
                      le:-6.2084633111953735e-01 }
            -
               depth: 3
               sample_count: 2
               value: 2.4323613643646240e+00
               Tn: 0
               complexity: 0
               alpha: 0.
               node_risk: 3.0152591534715611e-10
               tree_risk: 0.
               tree_error: 0.
            -
               depth: 3
               sample_count: 35
               value: 2.4218850135803223e+00
               Tn: 0
               complexity: 0
               alpha: 0.
               node_risk: 5.4943782856753387e-10
               tree_risk: 0.
               tree_error: 0.
            -
               depth: 1
               sample_count: 114
               value: -2.3044388532115703e-01
               Tn: 0
               complexity: 0
               alpha: 0.
               node_risk: 5.8599530867287086e-04
               tree_risk: 0.
               tree_error: 0.
               splits:
                  - { var:0, quality:6.0540261268615723e+00,
                      le:-7.4474617838859558e-02 }
            -
               depth: 2
               sample_count: 43
               value: -2.3179573340471402e-01
               Tn: 0
               complexity: 0
               alpha: 0.
               node_risk: 4.3115318435615890e-04
               tree_risk: 0.
               tree_error: 0.
               splits:
                  - { var:3, quality:2.3107261657714844e+00,
                      le:9.0832185745239258e-01 }
            -
               depth: 3
               sample_count: 12
               value: -9.8234343528747559e-01
               Tn: 0
               complexity: 0
               alpha: 0.
               node_risk: 6.1750763227230721e-05
               tree_risk: 0.
               tree_error: 0.
            -
               depth: 3
               sample_count: 31
               value: -9.7399532794952393e-01
               Tn: 0
               complexity: 0
               alpha: 0.
               node_risk: 1.3886241549965206e-06
               tree_risk: 0.
               tree_error: 0.
            -
               depth: 2
               sample_count: 71
               value: -2.2962516042548167e-01
               Tn: 0
               complexity: 0
               alpha: 0.
               node_risk: 2.8667872663312721e-05
               tree_risk: 0.
               tree_error: 0.
               splits:
                  - { var:1, quality:3.7436838150024414e+00,
                      le:7.1977233886718750e-01 }
            -
               depth: 3
               sample_count: 37
               value: -9.7413027286529541e-01
               Tn: 0
               complexity: 0
               alpha: 0.
               node_risk: 6.4939942312491894e-10
               tree_risk: 0.
               tree_error: 0.
            -
               depth: 3
               sample_count: 34
               value: -9.7292560338973999e-01
               Tn: 0
               complexity: 0
               alpha: 0.
               node_risk: 1.2511883328958362e-05
               tree_risk: 0.
               tree_error: 0.
      -
         best_tree_idx: -1
         nodes:
            -
               depth: 0
               sample_count: 152
               value: -6.1816303549628512e-03
               Tn: 0
               complexity: 0
               alpha: 0.
               node_risk: 2.3232472097947422e+01
               tree_risk: 0.
               tree_error: 0.
               splits:
                  - { var:3, quality:2.2444087982177734e+01,
                      le:-1.4463677406311035e+00 }
            -
               depth: 1
               sample_count: 38
               value: 6.5929622477606720e-01
               Tn: 0
               complexity: 0
               alpha: 0.
               node_risk: 7.9347707226470732e-01
               tree_risk: 0.
               tree_error: 0.
               splits:
                  - { var:0, quality:1.7310993194580078e+01,
                      le:-8.8406997919082642e-01 }
            -
               depth: 2
               sample_count: 1
               value: -9.6114081144332886e-01
               Tn: 0
               complexity: 0
               alpha: 0.
               node_risk: 0.
               tree_risk: 0.
               tree_error: 0.
            -
               depth: 2
               sample_count: 37
               value: 6.8305226596626079e-01
               Tn: 0
               complexity: 0
               alpha: 0.
               node_risk: 1.6850642872157096e-06
               tree_risk: 0.
               tree_error: 0.
               splits:
                  - { var:0, quality:1.7262737274169922e+01,
                      le:-6.3944327831268311e-01 }
            -
               depth: 3
               sample_count: 1
               value: 2.3759176731109619e+00
               Tn: 0
               complexity: 0
               alpha: 0.
               node_risk: 0.
               tree_risk: 0.
               tree_error: 0.
            -
               depth: 3
               sample_count: 36
               value: 2.3660552501678467e+00
               Tn: 0
               complexity: 0
               alpha: 0.
               node_risk: 5.6375171197942109e-10
               tree_risk: 0.
               tree_error: 0.
            -
               depth: 1
               sample_count: 114
               value: -2.2800758206530622e-01
               Tn: 0
               complexity: 0
               alpha: 0.
               node_risk: 7.1572507969008825e-04
               tree_risk: 0.
               tree_error: 0.
               splits:
                  - { var:0, quality:5.9267163276672363e+00,
                      le:-7.4474617838859558e-02 }
            -
               depth: 2
               sample_count: 43
               value: -2.2946205423321836e-01
               Tn: 0
               complexity: 0
               alpha: 0.
               node_risk: 5.2669980831021590e-04
               tree_risk: 0.
               tree_error: 0.
               splits:
                  - { var:3, quality:2.2645020484924316e+00,
                      le:7.6475036144256592e-01 }
            -
               depth: 3
               sample_count: 9
               value: -9.8121416568756104e-01
               Tn: 0
               complexity: 0
               alpha: 0.
               node_risk: 6.6035343201320540e-05
               tree_risk: 0.
               tree_error: 0.
            -
               depth: 3
               sample_count: 34
               value: -9.7129958868026733e-01
               Tn: 0
               complexity: 0
               alpha: 0.
               node_risk: 3.0479125137095053e-05
               tree_risk: 0.
               tree_error: 0.
            -
               depth: 2
               sample_count: 71
               value: -2.2712670455516223e-01
               Tn: 0
               complexity: 0
               alpha: 0.
               node_risk: 4.2967123691450837e-05
               tree_risk: 0.
               tree_error: 0.
               splits:
                  - { var:1, quality:3.6626706123352051e+00,
                      le:8.2477879524230957e-01 }
            -
               depth: 3
               sample_count: 41
               value: -9.7105914354324341e-01
               Tn: 0
               complexity: 0
               alpha: 0.
               node_risk: 8.4496232233277624e-10
               tree_risk: 0.
               tree_error: 0.
            -
               depth: 3
               sample_count: 30
               value: -9.6951514482498169e-01
               Tn: 0
               complexity: 0
               alpha: 0.
               node_risk: 1.6650255621808441e-05
               tree_risk: 0.
               tree_error: 0.
      -
         best_tree_idx: -1
         nodes:
            -
               depth: 0
               sample_count: 152
               value: 5.7494482515673892e-03
               Tn: 0
               complexity: 0
               alpha: 0.
               node_risk: 2.3556004817608194e+01
               tree_risk: 0.
               tree_error: 0.
               splits:
                  - { var:3, quality:2.2028490066528320e+01,
                      le:-1.4463677406311035e+00 }
            -
               depth: 1
               sample_count: 41
               value: 6.3206126195628465e-01
               Tn: 0
               complexity: 0
               alpha: 0.
               node_risk: 1.5315867521385336e+00
               tree_risk: 0.
               tree_error: 0.
               splits:
                  - { var:0, quality:1.7911077499389648e+01,
                      le:-8.0506658554077148e-01 }
            -
               depth: 2
               sample_count: 2
               value: -9.6343517303466797e-01
               Tn: 0
               complexity: 0
               alpha: 0.
               node_risk: 5.7576665675629357e-05
               tree_risk: 0.
               tree_error: 0.
            -
               depth: 2
               sample_count: 39
               value: 6.7582879005334318e-01
               Tn: 0
               complexity: 0
               alpha: 0.
               node_risk: 9.7611492755333984e-06
               tree_risk: 0.
               tree_error: 0.
               splits:
                  - { var:0, quality:1.7813047409057617e+01,
                      le:-6.1514461040496826e-01 }
            -
               depth: 3
               sample_count: 1
               value: 2.3358137607574463e+00
               Tn: 0
               complexity: 0
               alpha: 0.
               node_risk: 0.
               tree_risk: 0.
               tree_error: 0.
            -
               depth: 3
               sample_count: 38
               value: 2.3130130767822266e+00
               Tn: 0
               complexity: 0
               alpha: 0.
               node_risk: 0.
               tree_risk: 0.
               tree_error: 0.
            -
               depth: 1
               sample_count: 111
               value: -2.2559095140513000e-01
               Tn: 0
               complexity: 0
               alpha: 0.
               node_risk: 9.5182106130309307e-04
               tree_risk: 0.
               tree_error: 0.
               splits:
                  - { var:0, quality:5.6490964889526367e+00,
                      le:-1.0562058538198471e-01 }
            -
               depth: 2
               sample_count: 42
               value: -2.2715248309430622e-01
               Tn: 0
               complexity: 0
               alpha: 0.
               node_risk: 7.3258916650287276e-04
               tree_risk: 0.
               tree_error: 0.
               splits:
                  - { var:3, quality:2.1677744388580322e+00,
                      le:7.6475036144256592e-01 }
            -
               depth: 3
               sample_count: 8
               value: -9.8075771331787109e-01
               Tn: 0
               complexity: 0
               alpha: 0.
               node_risk: 6.6419577197995849e-05
               tree_risk: 0.
               tree_error: 0.
            -
               depth: 3
               sample_count: 34
               value: -9.6805369853973389e-01
               Tn: 0
               complexity: 0
               alpha: 0.
               node_risk: 1.8208252844376105e-05
               tree_risk: 0.
               tree_error: 0.
            -
               depth: 2
               sample_count: 69
               value: -2.2464045385519663e-01
               Tn: 0
               complexity: 0
               alpha: 0.
               node_risk: 5.4482137841205258e-05
               tree_risk: 0.
               tree_error: 0.
               splits:
                  - { var:1, quality:3.4819989204406738e+00,
                      le:7.5940895080566406e-01 }
            -
               depth: 3
               sample_count: 38
               value: -9.6802437305450439e-01
               Tn: 0
               complexity: 0
               alpha: 0.
               node_risk: 1.3480949689892441e-09
               tree_risk: 0.
               tree_error: 0.
            -
               depth: 3
               sample_count: 31
               value: -9.6640300750732422e-01
               Tn: 0
               complexity: 0
               alpha: 0.
               node_risk: 2.5471594904402650e-05
               tree_risk: 0.
               tree_error: 0.
      -
         best_tree_idx: -1
         nodes:
            -
               depth: 0
               sample_count: 152
               value: -1.7908044747616116e-02
               Tn: 0
               complexity: 0
               alpha: 0.
               node_risk: 2.1431233136561097e+01
               tree_risk: 0.
               tree_error: 0.
               splits:
                  - { var:3, quality:1.9987897872924805e+01,
                      le:-1.4463677406311035e+00 }
            -
               depth: 1
               sample_count: 37
               value: 6.2061945167747701e-01
               Tn: 0
               complexity: 0
               alpha: 0.
               node_risk: 1.4909803167889599e+00
               tree_risk: 0.
               tree_error: 0.
               splits:
                  - { var:0, quality:1.5742146492004395e+01,
                      le:-8.0506658554077148e-01 }
            -
               depth: 2
               sample_count: 2
               value: -9.6061909198760986e-01
               Tn: 0
               complexity: 0
               alpha: 0.
               node_risk: 5.8848449969062244e-05
               tree_risk: 0.
               tree_error: 0.
            -
               depth: 2
               sample_count: 35
               value: 6.6860451698303225e-01
               Tn: 0
               complexity: 0
               alpha: 0.
               node_risk: 9.6645239811010697e-06
               tree_risk: 0.
               tree_error: 0.
               splits:
                  - { var:0, quality:1.5646129608154297e+01,
                      le:-6.2084633111953735e-01 }
            -
               depth: 3
               sample_count: 1
               value: 2.2842710018157959e+00
               Tn: 0
               complexity: 0
               alpha: 0.
               node_risk: 0.
               tree_risk: 0.
               tree_error: 0.
            -
               depth: 3
               sample_count: 34
               value: 2.2625417709350586e+00
               Tn: 0
               complexity: 0
               alpha: 0.
               node_risk: 5.4917901337603325e-09
               tree_risk: 0.
               tree_error: 0.
            -
               depth: 1
               sample_count: 115
               value: -2.2334732620612435e-01
               Tn: 0
               complexity: 0
               alpha: 0.
               node_risk: 1.1010510972901955e-03
               tree_risk: 0.
               tree_error: 0.
               splits:
                  - { var:0, quality:5.7368941307067871e+00,
                      le:-7.5619511306285858e-02 }
            -
               depth: 2
               sample_count: 43
               value: -2.2518177503763243e-01
               Tn: 0
               complexity: 0
               alpha: 0.
               node_risk: 8.1668200682605274e-04
               tree_risk: 0.
               tree_error: 0.
               splits:
                  - { var:3, quality:2.1810917854309082e+00,
                      le:7.6475036144256592e-01 }
            -
               depth: 3
               sample_count: 10
               value: -9.7724783420562744e-01
               Tn: 0
               complexity: 0
               alpha: 0.
               node_risk: 8.9200493940566616e-05
               tree_risk: 0.
               tree_error: 0.
            -
               depth: 3
               sample_count: 33
               value: -9.6521133184432983e-01
               Tn: 0
               complexity: 0
               alpha: 0.
               node_risk: 2.9583057625792719e-05
               tree_risk: 0.
               tree_error: 0.
            -
               depth: 2
               sample_count: 72
               value: -2.2225175259841812e-01
               Tn: 0
               complexity: 0
               alpha: 0.
               node_risk: 5.3245112151323326e-05
               tree_risk: 0.
               tree_error: 0.
               splits:
                  - { var:1, quality:3.5565309524536133e+00,
                      le:7.5940895080566406e-01 }
            -
               depth: 3
               sample_count: 41
               value: -9.6502315998077393e-01
               Tn: 0
               complexity: 0
               alpha: 0.
               node_risk: 1.7887340497679816e-09
               tree_risk: 0.
               tree_error: 0.
            -
               depth: 3
               sample_count: 31
               value: -9.6340113878250122e-01
               Tn: 0
               complexity: 0
               alpha: 0.
               node_risk: 2.2863909268311389e-05
               tree_risk: 0.
               tree_error: 0.
      -
         best_tree_idx: -1
         nodes:
            -
               depth: 0
               sample_count: 152
               value: -2.3628564551472664e-02
               Tn: 0
               complexity: 0
               alpha: 0.
               node_risk: 2.0549370792503964e+01
               tree_risk: 0.
               tree_error: 0.
               splits:
                  - { var:3, quality:1.9179737091064453e+01,
                      le:-1.4463677406311035e+00 }
            -
               depth: 1
               sample_count: 36
               value: 6.1260174297624159e-01
               Tn: 0
               complexity: 0
               alpha: 0.
               node_risk: 1.4529044372046780e+00
               tree_risk: 0.
               tree_error: 0.
               splits:
                  - { var:0, quality:1.4962957382202148e+01,
                      le:-7.9649388790130615e-01 }
            -
               depth: 2
               sample_count: 2
               value: -9.5642048120498657e-01
               Tn: 0
               complexity: 0
               alpha: 0.
               node_risk: 5.9040982610003567e-05
               tree_risk: 0.
               tree_error: 0.
            -
               depth: 2
               sample_count: 34
               value: 6.6132473945617676e-01
               Tn: 0
               complexity: 0
               alpha: 0.
               node_risk: 0.
               tree_risk: 0.
               tree_error: 0.
               splits:
                  - { var:0, quality:1.4869914054870605e+01,
                      le:-5.7312518358230591e-01 }
            -
               depth: 3
               sample_count: 3
               value: 2.2145106792449951e+00
               Tn: 0
               complexity: 0
               alpha: 0.
               node_risk: 0.
               tree_risk: 0.
               tree_error: 0.
            -
               depth: 3
               sample_count: 31
               value: 2.2145106792449951e+00
               Tn: 0
               complexity: 0
               alpha: 0.
               node_risk: 0.
               tree_risk: 0.
               tree_error: 0.
            -
               depth: 1
               sample_count: 116
               value: -2.2107934964628057e-01
               Tn: 0
               complexity: 0
               alpha: 0.
               node_risk: 1.5919494856211358e-03
               tree_risk: 0.
               tree_error: 0.
               splits:
                  - { var:0, quality:5.6699819564819336e+00,
                      le:-7.5619511306285858e-02 }
            -
               depth: 2
               sample_count: 44
               value: -2.2332345965233716e-01
               Tn: 0
               complexity: 0
               alpha: 0.
               node_risk: 1.1595953849941054e-03
               tree_risk: 0.
               tree_error: 0.
               splits:
                  - { var:3, quality:2.1954197883605957e+00,
                      le:7.6475036144256592e-01 }
            -
               depth: 3
               sample_count: 11
               value: -9.7605454921722412e-01
               Tn: 0
               complexity: 0
               alpha: 0.
               node_risk: 1.3918951971036986e-04
               tree_risk: 0.
               tree_error: 0.
            -
               depth: 3
               sample_count: 33
               value: -9.6226221323013306e-01
               Tn: 0
               complexity: 0
               alpha: 0.
               node_risk: 2.8866254993653584e-05
               tree_risk: 0.
               tree_error: 0.
            -
               depth: 2
               sample_count: 72
               value: -2.1970794908702374e-01
               Tn: 0
               complexity: 0
               alpha: 0.
               node_risk: 7.5355549423505863e-05
               tree_risk: 0.
               tree_error: 0.
               splits:
                  - { var:1, quality:3.4756052494049072e+00,
                      le:7.5940895080566406e-01 }
            -
               depth: 3
               sample_count: 42
               value: -9.6205723285675049e-01
               Tn: 0
               complexity: 0
               alpha: 0.
               node_risk: 2.3619968203547614e-09
               tree_risk: 0.
               tree_error: 0.
            -
               depth: 3
               sample_count: 30
               value: -9.5995569229125977e-01
               Tn: 0
               complexity: 0
               alpha: 0.
               node_risk: 2.4161688029211703e-05
               tree_risk: 0.
               tree_error: 0.
      -
         best_tree_idx: -1
         nodes:
            -
               depth: 0
               sample_count: 152
               value: -2.7371482237389212e-04
               Tn: 0
               complexity: 0
               alpha: 0.
               node_risk: 2.1715688469631019e+01
               tree_risk: 0.
               tree_error: 0.
               splits:
                  - { var:3, quality:2.0991168975830078e+01,
                      le:-1.4463677406311035e+00 }
            -
               depth: 1
               sample_count: 39
               value: 6.3228860535682774e-01
               Tn: 0
               complexity: 0
               alpha: 0.
               node_risk: 7.2274434070198623e-01
               tree_risk: 0.
               tree_error: 0.
               splits:
                  - { var:0, quality:1.6314500808715820e+01,
                      le:-8.6260205507278442e-01 }
            -
               depth: 2
               sample_count: 1
               value: -9.4563156366348267e-01
               Tn: 0
               complexity: 0
               alpha: 0.
               node_risk: 0.
               tree_risk: 0.
               tree_error: 0.
            -
               depth: 2
               sample_count: 38
               value: 6.5437197057824381e-01
               Tn: 0
               complexity: 0
               alpha: 0.
               node_risk: 9.9617993569722785e-06
               tree_risk: 0.
               tree_error: 0.
               splits:
                  - { var:0, quality:1.6271711349487305e+01,
                      le:-5.7857513427734375e-01 }
            -
               depth: 3
               sample_count: 5
               value: 2.1782507896423340e+00
               Tn: 0
               complexity: 0
               alpha: 0.
               node_risk: 4.6930637154218857e-09
               tree_risk: 0.
               tree_error: 0.
            -
               depth: 3
               sample_count: 33
               value: 2.1687126159667969e+00
               Tn: 0
               complexity: 0
               alpha: 0.
               node_risk: 0.
               tree_risk: 0.
               tree_error: 0.
            -
               depth: 1
               sample_count: 113
               value: -2.1859168373377977e-01
               Tn: 0
               complexity: 0
               alpha: 0.
               node_risk: 1.7865443146973803e-03
               tree_risk: 0.
               tree_error: 0.
               splits:
                  - { var:0, quality:5.3997540473937988e+00,
                      le:-7.5619511306285858e-02 }
            -
               depth: 2
               sample_count: 44
               value: -2.2079930386760019e-01
               Tn: 0
               complexity: 0
               alpha: 0.
               node_risk: 1.3417945853997360e-03
               tree_risk: 0.
               tree_error: 0.
               splits:
                  - { var:3, quality:2.1462779045104980e+00,
                      le:7.6475036144256592e-01 }
            -
               depth: 3
               sample_count: 9
               value: -9.7536599636077881e-01
               Tn: 0
               complexity: 0
               alpha: 0.
               node_risk: 1.3770215729730362e-04
               tree_risk: 0.
               tree_error: 0.
            -
               depth: 3
               sample_count: 35
               value: -9.5930278301239014e-01
               Tn: 0
               complexity: 0
               alpha: 0.
               node_risk: 2.8722380374546219e-05
               tree_risk: 0.
               tree_error: 0.
            -
               depth: 2
               sample_count: 69
               value: -2.1718392596728558e-01
               Tn: 0
               complexity: 0
               alpha: 0.
               node_risk: 9.3568963363210855e-05
               tree_risk: 0.
               tree_error: 0.
               splits:
                  - { var:1, quality:3.2547130584716797e+00,
                      le:7.1977233886718750e-01 }
            -
               depth: 3
               sample_count: 38
               value: -9.5912754535675049e-01
               Tn: 0
               complexity: 0
               alpha: 0.
               node_risk: 3.8093306287123596e-09
               tree_risk: 0.
               tree_error: 0.
            -
               depth: 3
               sample_count: 31
               value: -9.5680361986160278e-01
               Tn: 0
               complexity: 0
               alpha: 0.
               node_risk: 3.1675414634335652e-05
               tree_risk: 0.
               tree_error: 0.
      -
         best_tree_idx: -1
         nodes:
            -
               depth: 0
               sample_count: 152
               value: -1.7690031152022513e-04
               Tn: 0
               complexity: 0
               alpha: 0.
               node_risk: 2.1259825202389742e+01
               tree_risk: 0.
               tree_error: 0.
               splits:
                  - { var:3, quality:1.9861148834228516e+01,
                      le:-1.4463677406311035e+00 }
            -
               depth: 1
               sample_count: 40
               value: 6.0468933843076234e-01
               Tn: 0
               complexity: 0
               alpha: 0.
               node_risk: 1.3966293123880700e+00
               tree_risk: 0.
               tree_error: 0.
               splits:
                  - { var:0, quality:1.6022432327270508e+01,
                      le:-8.2366353273391724e-01 }
            -
               depth: 2
               sample_count: 2
               value: -9.4931370019912720e-01
               Tn: 0
               complexity: 0
               alpha: 0.
               node_risk: 8.3855343176009178e-05
               tree_risk: 0.
               tree_error: 0.
            -
               depth: 2
               sample_count: 38
               value: 6.4755486657744965e-01
               Tn: 0
               complexity: 0
               alpha: 0.
               node_risk: 8.0794541119644236e-05
               tree_risk: 0.
               tree_error: 0.
               splits:
                  - { var:0, quality:1.5934510231018066e+01,
                      le:-6.2084633111953735e-01 }
            -
               depth: 3
               sample_count: 2
               value: 2.1640360355377197e+00
               Tn: 0
               complexity: 0
               alpha: 0.
               node_risk: 1.1741168037815441e-09
               tree_risk: 0.
               tree_error: 0.
            -
               depth: 3
               sample_count: 36
               value: 2.1260254383087158e+00
               Tn: 0
               complexity: 0
               alpha: 0.
               node_risk: 8.0386518952479946e-06
               tree_risk: 0.
               tree_error: 0.
            -
               depth: 1
               sample_count: 112
               value: -2.1620055700519256e-01
               Tn: 0
               complexity: 0
               alpha: 0.
               node_risk: 2.0525510459661334e-03
               tree_risk: 0.
               tree_error: 0.
               splits:
                  - { var:0, quality:5.2356467247009277e+00,
                      le:-7.5619511306285858e-02 }
            -
               depth: 2
               sample_count: 37
               value: -2.1910678655714602e-01
               Tn: 0
               complexity: 0
               alpha: 0.
               node_risk: 1.4583178047378187e-03
               tree_risk: 0.
               tree_error: 0.
               splits:
                  - { var:3, quality:1.7775491476058960e+00,
                      le:7.0244765281677246e-01 }
            -
               depth: 3
               sample_count: 9
               value: -9.7337311506271362e-01
               Tn: 0
               complexity: 0
               alpha: 0.
               node_risk: 1.6373906332584065e-04
               tree_risk: 0.
               tree_error: 0.
            -
               depth: 3
               sample_count: 28
               value: -9.5639163255691528e-01
               Tn: 0
               complexity: 0
               alpha: 0.
               node_risk: 3.3483859041005815e-05
               tree_risk: 0.
               tree_error: 0.
            -
               depth: 2
               sample_count: 75
               value: -2.1476681709289550e-01
               Tn: 0
               complexity: 0
               alpha: 0.
               node_risk: 1.2755418330678836e-04
               tree_risk: 0.
               tree_error: 0.
               splits:
                  - { var:1, quality:3.4594287872314453e+00,
                      le:8.2477879524230957e-01 }
            -
               depth: 3
               sample_count: 40
               value: -9.5622950792312622e-01
               Tn: 0
               complexity: 0
               alpha: 0.
               node_risk: 4.1822996177387495e-09
               tree_risk: 0.
               tree_error: 0.
            -
               depth: 3
               sample_count: 35
               value: -9.5388650894165039e-01
               Tn: 0
               complexity: 0
               alpha: 0.
               node_risk: 5.7715512391531831e-05
               tree_risk: 0.
               tree_error: 0.
      -
         best_tree_idx: -1
         nodes:
            -
               depth: 0
               sample_count: 152
               value: 5.6377882628064410e-03
               Tn: 0
               complexity: 0
               alpha: 0.
               node_risk: 2.1146929188417182e+01
               tree_risk: 0.
               tree_error: 0.
               splits:
                  - { var:3, quality:1.9784925460815430e+01,
                      le:-1.4463677406311035e+00 }
            -
               depth: 1
               sample_count: 41
               value: 5.9919412070658151e-01
               Tn: 0
               complexity: 0
               alpha: 0.
               node_risk: 1.3650551829055289e+00
               tree_risk: 0.
               tree_error: 0.
               splits:
                  - { var:0, quality:1.6085227966308594e+01,
                      le:-8.2366353273391724e-01 }
            -
               depth: 2
               sample_count: 2
               value: -9.4541680812835693e-01
               Tn: 0
               complexity: 0
               alpha: 0.
               node_risk: 8.4023315238934693e-05
               tree_risk: 0.
               tree_error: 0.
            -
               depth: 2
               sample_count: 39
               value: 6.4051154485115636e-01
               Tn: 0
               complexity: 0
               alpha: 0.
               node_risk: 1.2109400510240675e-04
               tree_risk: 0.
               tree_error: 0.
               splits:
                  - { var:0, quality:1.6000061035156250e+01,
                      le:-6.2084633111953735e-01 }
            -
               depth: 3
               sample_count: 2
               value: 2.1300227642059326e+00
               Tn: 0
               complexity: 0
               alpha: 0.
               node_risk: 1.1915108899529514e-09
               tree_risk: 0.
               tree_error: 0.
            -
               depth: 3
               sample_count: 37
               value: 2.0839869976043701e+00
               Tn: 0
               complexity: 0
               alpha: 0.
               node_risk: 6.2906076951918521e-06
               tree_risk: 0.
               tree_error: 0.
            -
               depth: 1
               sample_count: 111
               value: -2.1360373993714651e-01
               Tn: 0
               complexity: 0
               alpha: 0.
               node_risk: 1.7800010562867286e-03
               tree_risk: 0.
               tree_error: 0.
               splits:
                  - { var:0, quality:5.0648818016052246e+00,
                      le:-7.5619511306285858e-02 }
            -
               depth: 2
               sample_count: 38
               value: -2.1600717502204994e-01
               Tn: 0
               complexity: 0
               alpha: 0.
               node_risk: 1.2974596043358044e-03
               tree_risk: 0.
               tree_error: 0.
               splits:
                  - { var:3, quality:1.7740989923477173e+00,
                      le:8.7370610237121582e-01 }
            -
               depth: 3
               sample_count: 8
               value: -9.6940642595291138e-01
               Tn: 0
               complexity: 0
               alpha: 0.
               node_risk: 2.3299603226334398e-04
               tree_risk: 0.
               tree_error: 0.
            -
               depth: 3
               sample_count: 30
               value: -9.5333772897720337e-01
               Tn: 0
               complexity: 0
               alpha: 0.
               node_risk: 1.1272640679793611e-05
               tree_risk: 0.
               tree_error: 0.
            -
               depth: 2
               sample_count: 73
               value: -2.1235263674226526e-01
               Tn: 0
               complexity: 0
               alpha: 0.
               node_risk: 1.4877052216544229e-04
               tree_risk: 0.
               tree_error: 0.
               splits:
                  - { var:1, quality:3.2919225692749023e+00,
                      le:7.5940895080566406e-01 }
            -
               depth: 3
               sample_count: 41
               value: -9.5336860418319702e-01
               Tn: 0
               complexity: 0
               alpha: 0.
               node_risk: 6.7076644238994731e-09
               tree_risk: 0.
               tree_error: 0.
            -
               depth: 3
               sample_count: 32
               value: -9.5072424411773682e-01
               Tn: 0
               complexity: 0
               alpha: 0.
               node_risk: 6.1990884923313061e-05
               tree_risk: 0.
               tree_error: 0.
      -
         best_tree_idx: -1
         nodes:
            -
               depth: 0
               sample_count: 152
               value: -5.8501786307284705e-03
               Tn: 0
               complexity: 0
               alpha: 0.
               node_risk: 1.9983574003167568e+01
               tree_risk: 0.
               tree_error: 0.
               splits:
                  - { var:3, quality:1.8654466629028320e+01,
                      le:-1.4495961666107178e+00 }
            -
               depth: 1
               sample_count: 39
               value: 5.9038277925589144e-01
               Tn: 0
               complexity: 0
               alpha: 0.
               node_risk: 1.3316038906231373e+00
               tree_risk: 0.
               tree_error: 0.
               splits:
                  - { var:0, quality:1.4924973487854004e+01,
                      le:-8.0506658554077148e-01 }
            -
               depth: 2
               sample_count: 2
               value: -9.4286334514617920e-01
               Tn: 0
               complexity: 0
               alpha: 0.
               node_risk: 8.5619632159250614e-05
               tree_risk: 0.
               tree_error: 0.
            -
               depth: 2
               sample_count: 37
               value: 6.3334083234941640e-01
               Tn: 0
               complexity: 0
               alpha: 0.
               node_risk: 6.6265080603145066e-05
               tree_risk: 0.
               tree_error: 0.
               splits:
                  - { var:0, quality:1.4841520309448242e+01,
                      le:-6.2084633111953735e-01 }
            -
               depth: 3
               sample_count: 1
               value: 2.0882608890533447e+00
               Tn: 0
               complexity: 0
               alpha: 0.
               node_risk: 0.
               tree_risk: 0.
               tree_error: 0.
            -
               depth: 3
               sample_count: 36
               value: 2.0443356037139893e+00
               Tn: 0
               complexity: 0
               alpha: 0.
               node_risk: 8.3193232853773225e-06
               tree_risk: 0.
               tree_error: 0.
            -
               depth: 1
               sample_count: 113
               value: -2.1162969506947341e-01
               Tn: 0
               complexity: 0
               alpha: 0.
               node_risk: 2.7055892142255900e-03
               tree_risk: 0.
               tree_error: 0.
               splits:
                  - { var:0, quality:5.0615606307983398e+00,
                      le:-7.5619511306285858e-02 }
            -
               depth: 2
               sample_count: 42
               value: -2.1466286941653206e-01
               Tn: 0
               complexity: 0
               alpha: 0.
               node_risk: 1.9392528782138374e-03
               tree_risk: 0.
               tree_error: 0.
               splits:
                  - { var:3, quality:1.9369804859161377e+00,
                      le:7.9172849655151367e-01 }
            -
               depth: 3
               sample_count: 10
               value: -9.6882897615432739e-01
               Tn: 0
               complexity: 0
               alpha: 0.
               node_risk: 2.6321439418397485e-04
               tree_risk: 0.
               tree_error: 0.
            -
               depth: 3
               sample_count: 32
               value: -9.5081901550292969e-01
               Tn: 0
               complexity: 0
               alpha: 0.
               node_risk: 6.1795428067057401e-05
               tree_risk: 0.
               tree_error: 0.
            -
               depth: 2
               sample_count: 71
               value: -2.0983542292050913e-01
               Tn: 0
               complexity: 0
               alpha: 0.
               node_risk: 1.5135188732662286e-04
               tree_risk: 0.
               tree_error: 0.
               splits:
                  - { var:1, quality:3.1263003349304199e+00,
                      le:7.5940895080566406e-01 }
            -
               depth: 3
               sample_count: 38
               value: -9.5053958892822266e-01
               Tn: 0
               complexity: 0
               alpha: 0.
               node_risk: 6.6276577559420957e-09
               tree_risk: 0.
               tree_error: 0.
            -
               depth: 3
               sample_count: 33
               value: -9.4760423898696899e-01
               Tn: 0
               complexity: 0
               alpha: 0.
               node_risk: 4.5268594045300148e-05
               tree_risk: 0.
               tree_error: 0.
      -
         best_tree_idx: -1
         nodes:
            -
               depth: 0
               sample_count: 152
               value: -1.1446102277228707e-02
               Tn: 0
               complexity: 0
               alpha: 0.
               node_risk: 1.9199293378467836e+01
               tree_risk: 0.
               tree_error: 0.
               splits:
                  - { var:3, quality:1.7917913436889648e+01,
                      le:-1.4483599662780762e+00 }
            -
               depth: 1
               sample_count: 38
               value: 5.8290226561458491e-01
               Tn: 0
               complexity: 0
               alpha: 0.
               node_risk: 1.2976722802762861e+00
               tree_risk: 0.
               tree_error: 0.
               splits:
                  - { var:0, quality:1.4208943367004395e+01,
                      le:-8.2366353273391724e-01 }
            -
               depth: 2
               sample_count: 2
               value: -9.3899708986282349e-01
               Tn: 0
               complexity: 0
               alpha: 0.
               node_risk: 8.5488061629779288e-05
               tree_risk: 0.
               tree_error: 0.
            -
               depth: 2
               sample_count: 36
               value: 6.2645588649643791e-01
               Tn: 0
               complexity: 0
               alpha: 0.
               node_risk: 9.4954141252046043e-05
               tree_risk: 0.
               tree_error: 0.
               splits:
                  - { var:0, quality:1.4128175735473633e+01,
                      le:-6.3944327831268311e-01 }
            -
               depth: 3
               sample_count: 1
               value: 2.0577898025512695e+00
               Tn: 0
               complexity: 0
               alpha: 0.
               node_risk: 0.
               tree_risk: 0.
               tree_error: 0.
            -
               depth: 3
               sample_count: 35
               value: 2.0064046382904053e+00
               Tn: 0
               complexity: 0
               alpha: 0.
               node_risk: 1.0237661699719069e-05
               tree_risk: 0.
               tree_error: 0.
            -
               depth: 1
               sample_count: 114
               value: -2.0956222490783324e-01
               Tn: 0
               complexity: 0
               alpha: 0.
               node_risk: 3.6219891312985197e-03
               tree_risk: 0.
               tree_error: 0.
               splits:
                  - { var:0, quality:5.0073256492614746e+00,
                      le:-7.5619511306285858e-02 }
            -
               depth: 2
               sample_count: 42
               value: -2.1316767909697124e-01
               Tn: 0
               complexity: 0
               alpha: 0.
               node_risk: 2.5770586758995240e-03
               tree_risk: 0.
               tree_error: 0.
               splits:
                  - { var:3, quality:1.9106348752975464e+00,
                      le:8.7370610237121582e-01 }
            -
               depth: 3
               sample_count: 12
               value: -9.6724277734756470e-01
               Tn: 0
               complexity: 0
               alpha: 0.
               node_risk: 4.2521143973006659e-04
               tree_risk: 0.
               tree_error: 0.
            -
               depth: 3
               sample_count: 30
               value: -9.4776004552841187e-01
               Tn: 0
               complexity: 0
               alpha: 0.
               node_risk: 1.6320071737130348e-05
               tree_risk: 0.
               tree_error: 0.
            -
               depth: 2
               sample_count: 72
               value: -2.0745904329750273e-01
               Tn: 0
               complexity: 0
               alpha: 0.
               node_risk: 1.8047701139023431e-04
               tree_risk: 0.
               tree_error: 0.
               splits:
                  - { var:1, quality:3.0989341735839844e+00,
                      le:8.2477879524230957e-01 }
            -
               depth: 3
               sample_count: 37
               value: -9.4774669408798218e-01
               Tn: 0
               complexity: 0
               alpha: 0.
               node_risk: 8.8857134983300057e-09
               tree_risk: 0.
               tree_error: 0.
            -
               depth: 3
               sample_count: 35
               value: -9.4483524560928345e-01
               Tn: 0
               complexity: 0
               alpha: 0.
               node_risk: 7.2633945809252864e-05
               tree_risk: 0.
               tree_error: 0.
      -
         best_tree_idx: -1
         nodes:
            -
               depth: 0
               sample_count: 152
               value: 5.1042954192349783e-03
               Tn: 0
               complexity: 0
               alpha: 0.
               node_risk: 1.9818135737354499e+01
               tree_risk: 0.
               tree_error: 0.
               splits:
                  - { var:3, quality:1.9154745101928711e+01,
                      le:-1.3993511199951172e+00 }
            -
               depth: 1
               sample_count: 40
               value: 5.9905516356229782e-01
               Tn: 0
               complexity: 0
               alpha: 0.
               node_risk: 6.6409598029093964e-01
               tree_risk: 0.
               tree_error: 0.
               splits:
                  - { var:0, quality:1.5018602371215820e+01,
                      le:-8.2366353273391724e-01 }
            -
               depth: 2
               sample_count: 1
               value: -9.4399857521057129e-01
               Tn: 0
               complexity: 0
               alpha: 0.
               node_risk: 0.
               tree_risk: 0.
               tree_error: 0.
            -
               depth: 2
               sample_count: 39
               value: 6.1968496976754606e-01
               Tn: 0
               complexity: 0
               alpha: 0.
               node_risk: 1.7728994782650886e-04
               tree_risk: 0.
               tree_error: 0.
               splits:
                  - { var:0, quality:1.4976537704467773e+01,
                      le:-6.1514461040496826e-01 }
            -
               depth: 3
               sample_count: 2
               value: 2.0195171833038330e+00
               Tn: 0
               complexity: 0
               alpha: 0.
               node_risk: 1.4438585438369955e-08
               tree_risk: 0.
               tree_error: 0.
            -
               depth: 3
               sample_count: 37
               value: 1.9695489406585693e+00
               Tn: 0
               complexity: 0
               alpha: 0.
               node_risk: 8.8202723986796627e-06
               tree_risk: 0.
               tree_error: 0.
            -
               depth: 1
               sample_count: 112
               value: -2.0702101463185890e-01
               Tn: 0
               complexity: 0
               alpha: 0.
               node_risk: 3.2539239490700922e-03
               tree_risk: 0.
               tree_error: 0.
               splits:
                  - { var:0, quality:4.8008780479431152e+00,
                      le:-7.5619511306285858e-02 }
            -
               depth: 2
               sample_count: 37
               value: -2.1086354352332451e-01
               Tn: 0
               complexity: 0
               alpha: 0.
               node_risk: 2.2534638443012511e-03
               tree_risk: 0.
               tree_error: 0.
               splits:
                  - { var:3, quality:1.6470308303833008e+00,
                      le:9.1503900289535522e-01 }
            -
               depth: 3
               sample_count: 11
               value: -9.6399110555648804e-01
               Tn: 0
               complexity: 0
               alpha: 0.
               node_risk: 3.6853258292468549e-04
               tree_risk: 0.
               tree_error: 0.
            -
               depth: 3
               sample_count: 26
               value: -9.4484931230545044e-01
               Tn: 0
               complexity: 0
               alpha: 0.
               node_risk: 1.1501372707556357e-06
               tree_risk: 0.
               tree_error: 0.
            -
               depth: 2
               sample_count: 75
               value: -2.0512536704540252e-01
               Tn: 0
               complexity: 0
               alpha: 0.
               node_risk: 1.8464307544752145e-04
               tree_risk: 0.
               tree_error: 0.
               splits:
                  - { var:1, quality:3.1558501720428467e+00,
                      le:7.5940895080566406e-01 }
            -
               depth: 3
               sample_count: 39
               value: -9.4498318433761597e-01
               Tn: 0
               complexity: 0
               alpha: 0.
               node_risk: 6.8018057852725633e-09
               tree_risk: 0.
               tree_error: 0.
            -
               depth: 3
               sample_count: 36
               value: -9.4200253486633301e-01
               Tn: 0
               complexity: 0
               alpha: 0.
               node_risk: 6.5737140735100397e-05
               tree_risk: 0.
               tree_error: 0.
      -
         best_tree_idx: -1
         nodes:
            -
               depth: 0
               sample_count: 152
               value: 2.1082354023268347e-02
               Tn: 0
               complexity: 0
               alpha: 0.
               node_risk: 2.0317257102694754e+01
               tree_risk: 0.
               tree_error: 0.
               splits:
                  - { var:3, quality:1.9133811950683594e+01,
                      le:-1.4463677406311035e+00 }
            -
               depth: 1
               sample_count: 44
               value: 5.7595897703008214e-01
               Tn: 0
               complexity: 0
               alpha: 0.
               node_risk: 1.2472896002183695e+00
               tree_risk: 0.
               tree_error: 0.
               splits:
                  - { var:0, quality:1.5843055725097656e+01,
                      le:-8.2366353273391724e-01 }
            -
               depth: 2
               sample_count: 2
               value: -9.3262320756912231e-01
               Tn: 0
               complexity: 0
               alpha: 0.
               node_risk: 1.2230581775896088e-04
               tree_risk: 0.
               tree_error: 0.
            -
               depth: 2
               sample_count: 42
               value: 6.1269530512037729e-01
               Tn: 0
               complexity: 0
               alpha: 0.
               node_risk: 1.7588576119642596e-04
               tree_risk: 0.
               tree_error: 0.
               splits:
                  - { var:0, quality:1.5766781806945801e+01,
                      le:-6.2084633111953735e-01 }
            -
               depth: 3
               sample_count: 2
               value: 1.9824389219284058e+00
               Tn: 0
               complexity: 0
               alpha: 0.
               node_risk: 1.4652073332399596e-08
               tree_risk: 0.
               tree_error: 0.
            -
               depth: 3
               sample_count: 40
               value: 1.9342181682586670e+00
               Tn: 0
               complexity: 0
               alpha: 0.
               node_risk: 6.4203152128072816e-06
               tree_risk: 0.
               tree_error: 0.
            -
               depth: 1
               sample_count: 108
               value: -2.0497849238691507e-01
               Tn: 0
               complexity: 0
               alpha: 0.
               node_risk: 3.7138868543902248e-03
               tree_risk: 0.
               tree_error: 0.
               splits:
                  - { var:0, quality:4.5386219024658203e+00,
                      le:-7.5619511306285858e-02 }
            -
               depth: 2
               sample_count: 40
               value: -2.0868766307830811e-01
               Tn: 0
               complexity: 0
               alpha: 0.
               node_risk: 2.6409139151581940e-03
               tree_risk: 0.
               tree_error: 0.
               splits:
                  - { var:3, quality:1.7442222833633423e+00,
                      le:8.7370610237121582e-01 }
            -
               depth: 3
               sample_count: 11
               value: -9.6264874935150146e-01
               Tn: 0
               complexity: 0
               alpha: 0.
               node_risk: 4.0909905059793861e-04
               tree_risk: 0.
               tree_error: 0.
            -
               depth: 3
               sample_count: 29
               value: -9.4235867261886597e-01
               Tn: 0
               complexity: 0
               alpha: 0.
               node_risk: 3.1123835588120485e-05
               tree_risk: 0.
               tree_error: 0.
            -
               depth: 2
               sample_count: 68
               value: -2.0279662727433093e-01
               Tn: 0
               complexity: 0
               alpha: 0.
               node_risk: 1.9893864539266559e-04
               tree_risk: 0.
               tree_error: 0.
               splits:
                  - { var:1, quality:2.7967414855957031e+00,
                      le:7.5940895080566406e-01 }
            -
               depth: 3
               sample_count: 39
               value: -9.4225805997848511e-01
               Tn: 0
               complexity: 0
               alpha: 0.
               node_risk: 1.1093304053133579e-08
               tree_risk: 0.
               tree_error: 0.
            -
               depth: 3
               sample_count: 29
               value: -9.3883168697357178e-01
               Tn: 0
               complexity: 0
               alpha: 0.
               node_risk: 5.7612751853231003e-05
               tree_risk: 0.
               tree_error: 0.
      -
         best_tree_idx: -1
         nodes:
            -
               depth: 0
               sample_count: 152
               value: -1.0955946421936938e-02
               Tn: 0
               complexity: 0
               alpha: 0.
               node_risk: 1.7945946204980007e+01
               tree_risk: 0.
               tree_error: 0.
               splits:
                  - { var:3, quality:1.6751411437988281e+01,
                      le:-1.4463677406311035e+00 }
            -
               depth: 1
               sample_count: 38
               value: 5.6372646909011037e-01
               Tn: 0
               complexity: 0
               alpha: 0.
               node_risk: 1.2087490322542056e+00
               tree_risk: 0.
               tree_error: 0.
               splits:
                  - { var:0, quality:1.3284440040588379e+01,
                      le:-8.0506658554077148e-01 }
            -
               depth: 2
               sample_count: 2
               value: -9.2964774370193481e-01
               Tn: 0
               complexity: 0
               alpha: 0.
               node_risk: 1.3982150691704831e-04
               tree_risk: 0.
               tree_error: 0.
            -
               depth: 2
               sample_count: 36
               value: 6.0576018028789091e-01
               Tn: 0
               complexity: 0
               alpha: 0.
               node_risk: 9.5522839327344400e-05
               tree_risk: 0.
               tree_error: 0.
               splits:
                  - { var:0, quality:1.3210119247436523e+01,
                      le:-6.2084633111953735e-01 }
            -
               depth: 3
               sample_count: 1
               value: 1.9473363161087036e+00
               Tn: 0
               complexity: 0
               alpha: 0.
               node_risk: 0.
               tree_risk: 0.
               tree_error: 0.
            -
               depth: 3
               sample_count: 35
               value: 1.9011441469192505e+00
               Tn: 0
               complexity: 0
               alpha: 0.
               node_risk: 1.0378139618794080e-05
               tree_risk: 0.
               tree_error: 0.
            -
               depth: 1
               sample_count: 114
               value: -2.0251675159261937e-01
               Tn: 0
               complexity: 0
               alpha: 0.
               node_risk: 4.0299853219112336e-03
               tree_risk: 0.
               tree_error: 0.
               splits:
                  - { var:0, quality:4.6764135360717773e+00,
                      le:-7.5619511306285858e-02 }
            -
               depth: 2
               sample_count: 42
               value: -2.0625111212333044e-01
               Tn: 0
               complexity: 0
               alpha: 0.
               node_risk: 2.8606628357639163e-03
               tree_risk: 0.
               tree_error: 0.
               splits:
                  - { var:3, quality:1.7889988422393799e+00,
                      le:8.7370610237121582e-01 }
            -
               depth: 3
               sample_count: 11
               value: -9.6028524637222290e-01
               Tn: 0
               complexity: 0
               alpha: 0.
               node_risk: 4.8933578705601111e-04
               tree_risk: 0.
               tree_error: 0.
            -
               depth: 3
               sample_count: 31
               value: -9.3962705135345459e-01
               Tn: 0
               complexity: 0
               alpha: 0.
               node_risk: 3.2388878994371595e-05
               tree_risk: 0.
               tree_error: 0.
            -
               depth: 2
               sample_count: 72
               value: -2.0033837461637127e-01
               Tn: 0
               complexity: 0
               alpha: 0.
               node_risk: 2.4195015602668235e-04
               tree_risk: 0.
               tree_error: 0.
               splits:
                  - { var:1, quality:2.8899157047271729e+00,
                      le:8.2477879524230957e-01 }
            -
               depth: 3
               sample_count: 38
               value: -9.3956512212753296e-01
               Tn: 0
               complexity: 0
               alpha: 0.
               node_risk: 1.3321396652443696e-08
               tree_risk: 0.
               tree_error: 0.
            -
               depth: 3
               sample_count: 34
               value: -9.3605279922485352e-01
               Tn: 0
               complexity: 0
               alpha: 0.
               node_risk: 7.9680714721863666e-05
               tree_risk: 0.
               tree_error: 0.
      -
         best_tree_idx: -1
         nodes:
            -
               depth: 0
               sample_count: 152
               value: -6.6681961087804089e-04
               Tn: 0
               complexity: 0
               alpha: 0.
               node_risk: 1.8233829722709924e+01
               tree_risk: 0.
               tree_error: 0.
               splits:
                  - { var:3, quality:1.7045524597167969e+01,
                      le:-1.4463677406311035e+00 }
            -
               depth: 1
               sample_count: 40
               value: 5.5968599617481229e-01
               Tn: 0
               complexity: 0
               alpha: 0.
               node_risk: 1.1827479656997397e+00
               tree_risk: 0.
               tree_error: 0.
               splits:
                  - { var:0, quality:1.3712374687194824e+01,
                      le:-8.2366353273391724e-01 }
            -
               depth: 2
               sample_count: 2
               value: -9.2606043815612793e-01
               Tn: 0
               complexity: 0
               alpha: 0.
               node_risk: 1.3857488386292971e-04
               tree_risk: 0.
               tree_error: 0.
            -
               depth: 2
               sample_count: 38
               value: 5.9913012699077006e-01
               Tn: 0
               complexity: 0
               alpha: 0.
               node_risk: 1.7140438782448086e-04
               tree_risk: 0.
               tree_error: 0.
               splits:
                  - { var:0, quality:1.3640524864196777e+01,
                      le:-6.2084633111953735e-01 }
            -
               depth: 3
               sample_count: 2
               value: 1.9128324985504150e+00
               Tn: 0
               complexity: 0
               alpha: 0.
               node_risk: 1.5042367351725261e-08
               tree_risk: 0.
               tree_error: 0.
            -
               depth: 3
               sample_count: 36
               value: 1.8686591386795044e+00
               Tn: 0
               complexity: 0
               alpha: 0.
               node_risk: 8.6040975624257499e-06
               tree_risk: 0.
               tree_error: 0.
            -
               depth: 1
               sample_count: 112
               value: -2.0079282524862460e-01
               Tn: 0
               complexity: 0
               alpha: 0.
               node_risk: 5.6237998099266662e-03
               tree_risk: 0.
               tree_error: 0.
               splits:
                  - { var:0, quality:4.5170021057128906e+00,
                      le:-7.5619511306285858e-02 }
            -
               depth: 2
               sample_count: 43
               value: -2.0529227305290310e-01
               Tn: 0
               complexity: 0
               alpha: 0.
               node_risk: 3.9519412842299317e-03
               tree_risk: 0.
               tree_error: 0.
               splits:
                  - { var:3, quality:1.8155357837677002e+00,
                      le:8.7370610237121582e-01 }
            -
               depth: 3
               sample_count: 13
               value: -9.6008932590484619e-01
               Tn: 0
               complexity: 0
               alpha: 0.
               node_risk: 6.0757505916997356e-04
               tree_risk: 0.
               tree_error: 0.
            -
               depth: 3
               sample_count: 30
               value: -9.3694770336151123e-01
               Tn: 0
               complexity: 0
               alpha: 0.
               node_risk: 4.0072613636699117e-05
               tree_risk: 0.
               tree_error: 0.
            -
               depth: 2
               sample_count: 69
               value: -1.9798882154450900e-01
               Tn: 0
               complexity: 0
               alpha: 0.
               node_risk: 2.5881407501948672e-04
               tree_risk: 0.
               tree_error: 0.
               splits:
                  - { var:1, quality:2.7049219608306885e+00,
                      le:7.1977233886718750e-01 }
            -
               depth: 3
               sample_count: 34
               value: -9.3690520524978638e-01
               Tn: 0
               complexity: 0
               alpha: 0.
               node_risk: 1.5268898145848198e-08
               tree_risk: 0.
               tree_error: 0.
            -
               depth: 3
               sample_count: 35
               value: -9.3346750736236572e-01
               Tn: 0
               complexity: 0
               alpha: 0.
               node_risk: 1.0731846138334333e-04
               tree_risk: 0.
               tree_error: 0.
      -
         best_tree_idx: -1
         nodes:
            -
               depth: 0
               sample_count: 152
               value: -1.0844915320998743e-02
               Tn: 0
               complexity: 0
               alpha: 0.
               node_risk: 1.7172070865208688e+01
               tree_risk: 0.
               tree_error: 0.
               splits:
                  - { var:3, quality:1.6031381607055664e+01,
                      le:-1.4538946151733398e+00 }
            -
               depth: 1
               sample_count: 38
               value: 5.5134366884043340e-01
               Tn: 0
               complexity: 0
               alpha: 0.
               node_risk: 1.1534702018131640e+00
               tree_risk: 0.
               tree_error: 0.
               splits:
                  - { var:0, quality:1.2704396247863770e+01,
                      le:-8.2366353273391724e-01 }
            -
               depth: 2
               sample_count: 2
               value: -9.2376261949539185e-01
               Tn: 0
               complexity: 0
               alpha: 0.
               node_risk: 1.3880096939911102e-04
               tree_risk: 0.
               tree_error: 0.
            -
               depth: 2
               sample_count: 36
               value: 5.9240350789493990e-01
               Tn: 0
               complexity: 0
               alpha: 0.
               node_risk: 1.6869874729685819e-04
               tree_risk: 0.
               tree_error: 0.
               splits:
                  - { var:0, quality:1.2634069442749023e+01,
                      le:-6.2084633111953735e-01 }
            -
               depth: 3
               sample_count: 2
               value: 1.8801568746566772e+00
               Tn: 0
               complexity: 0
               alpha: 0.
               node_risk: 1.5229034033836797e-08
               tree_risk: 0.
               tree_error: 0.
            -
               depth: 3
               sample_count: 34
               value: 1.8377512693405151e+00
               Tn: 0
               complexity: 0
               alpha: 0.
               node_risk: 8.6345822154498819e-06
               tree_risk: 0.
               tree_error: 0.
            -
               depth: 1
               sample_count: 114
               value: -1.9824111004147613e-01
               Tn: 0
               complexity: 0
               alpha: 0.
               node_risk: 5.0964525494432422e-03
               tree_risk: 0.
               tree_error: 0.
               splits:
                  - { var:0, quality:4.4812469482421875e+00,
                      le:-7.5619511306285858e-02 }
            -
               depth: 2
               sample_count: 43
               value: -2.0223230955212615e-01
               Tn: 0
               complexity: 0
               alpha: 0.
               node_risk: 3.7384145561885074e-03
               tree_risk: 0.
               tree_error: 0.
               splits:
                  - { var:3, quality:1.7617044448852539e+00,
                      le:8.7370610237121582e-01 }
            -
               depth: 3
               sample_count: 11
               value: -9.5779889822006226e-01
               Tn: 0
               complexity: 0
               alpha: 0.
               node_risk: 6.0418717840737823e-04
               tree_risk: 0.
               tree_error: 0.
            -
               depth: 3
               sample_count: 32
               value: -9.3430578708648682e-01
               Tn: 0
               complexity: 0
               alpha: 0.
               node_risk: 3.9804443506374909e-05
               tree_risk: 0.
               tree_error: 0.
            -
               depth: 2
               sample_count: 71
               value: -1.9582390470404021e-01
               Tn: 0
               complexity: 0
               alpha: 0.
               node_risk: 2.5821743462817182e-04
               tree_risk: 0.
               tree_error: 0.
               splits:
                  - { var:1, quality:2.7228009700775146e+00,
                      le:7.5940895080566406e-01 }
            -
               depth: 3
               sample_count: 38
               value: -9.3427622318267822e-01
               Tn: 0
               complexity: 0
               alpha: 0.
               node_risk: 1.8115864808265769e-08
               tree_risk: 0.
               tree_error: 0.
            -
               depth: 3
               sample_count: 33
               value: -9.3076187372207642e-01
               Tn: 0
               complexity: 0
               alpha: 0.
               node_risk: 9.4355385279909498e-05
               tree_risk: 0.
               tree_error: 0.
      -
         best_tree_idx: -1
         nodes:
            -
               depth: 0
               sample_count: 152
               value: 4.5257258768144409e-03
               Tn: 0
               complexity: 0
               alpha: 0.
               node_risk: 1.7720748997027236e+01
               tree_risk: 0.
               tree_error: 0.
               splits:
                  - { var:3, quality:1.6587898254394531e+01,
                      le:-1.4463677406311035e+00 }
            -
               depth: 1
               sample_count: 41
               value: 5.4802966553990429e-01
               Tn: 0
               complexity: 0
               alpha: 0.
               node_risk: 1.1310722996559388e+00
               tree_risk: 0.
               tree_error: 0.
               splits:
                  - { var:0, quality:1.3444549560546875e+01,
                      le:-8.2366353273391724e-01 }
            -
               depth: 2
               sample_count: 2
               value: -9.2106556892395020e-01
               Tn: 0
               complexity: 0
               alpha: 0.
               node_risk: 1.5162791272560483e-04
               tree_risk: 0.
               tree_error: 0.
            -
               depth: 2
               sample_count: 39
               value: 5.8563716594989479e-01
               Tn: 0
               complexity: 0
               alpha: 0.
               node_risk: 1.6856411680876704e-04
               tree_risk: 0.
               tree_error: 0.
               splits:
                  - { var:0, quality:1.3376024246215820e+01,
                      le:-6.1514461040496826e-01 }
            -
               depth: 3
               sample_count: 2
               value: 1.8487807512283325e+00
               Tn: 0
               complexity: 0
               alpha: 0.
               node_risk: 1.5395926311612129e-08
               tree_risk: 0.
               tree_error: 0.
            -
               depth: 3
               sample_count: 37
               value: 1.8079602718353271e+00
               Tn: 0
               complexity: 0
               alpha: 0.
               node_risk: 9.3509536664981852e-06
               tree_risk: 0.
               tree_error: 0.
            -
               depth: 1
               sample_count: 111
               value: -1.9622798156630886e-01
               Tn: 0
               complexity: 0
               alpha: 0.
               node_risk: 4.8912009803592227e-03
               tree_risk: 0.
               tree_error: 0.
               splits:
                  - { var:0, quality:4.2752847671508789e+00,
                      le:-7.5619511306285858e-02 }
            -
               depth: 2
               sample_count: 40
               value: -2.0057773664593698e-01
               Tn: 0
               complexity: 0
               alpha: 0.
               node_risk: 3.4723370829017330e-03
               tree_risk: 0.
               tree_error: 0.
               splits:
                  - { var:3, quality:1.6121118068695068e+00,
                      le:8.7370610237121582e-01 }
            -
               depth: 3
               sample_count: 12
               value: -9.5384454727172852e-01
               Tn: 0
               complexity: 0
               alpha: 0.
               node_risk: 5.7955162772482804e-04
               tree_risk: 0.
               tree_error: 0.
            -
               depth: 3
               sample_count: 28
               value: -9.3173980712890625e-01
               Tn: 0
               complexity: 0
               alpha: 0.
               node_risk: 3.8101755332142773e-05
               tree_risk: 0.
               tree_error: 0.
            -
               depth: 2
               sample_count: 71
               value: -1.9377741532426485e-01
               Tn: 0
               complexity: 0
               alpha: 0.
               node_risk: 2.3567460898155090e-04
               tree_risk: 0.
               tree_error: 0.
               splits:
                  - { var:1, quality:2.6661663055419922e+00,
                      le:7.5940895080566406e-01 }
            -
               depth: 3
               sample_count: 40
               value: -9.3168514966964722e-01
               Tn: 0
               complexity: 0
               alpha: 0.
               node_risk: 2.7810143965467660e-08
               tree_risk: 0.
               tree_error: 0.
            -
               depth: 3
               sample_count: 31
               value: -9.2845577001571655e-01
               Tn: 0
               complexity: 0
               alpha: 0.
               node_risk: 9.7129627822267750e-05
               tree_risk: 0.
               tree_error: 0.
      -
         best_tree_idx: -1
         nodes:
            -
               depth: 0
               sample_count: 152
               value: -3.7601099986779064e-04
               Tn: 0
               complexity: 0
               alpha: 0.
               node_risk: 1.7021074835404139e+01
               tree_risk: 0.
               tree_error: 0.
               splits:
                  - { var:3, quality:1.5913474082946777e+01,
                      le:-1.4013431072235107e+00 }
            -
               depth: 1
               sample_count: 40
               value: 5.4105039387941356e-01
               Tn: 0
               complexity: 0
               alpha: 0.
               node_risk: 1.1025768064846257e+00
               tree_risk: 0.
               tree_error: 0.
               splits:
                  - { var:0, quality:1.2811623573303223e+01,
                      le:-8.2366353273391724e-01 }
            -
               depth: 2
               sample_count: 2
               value: -9.1790962219238281e-01
               Tn: 0
               complexity: 0
               alpha: 0.
               node_risk: 1.5023505693934069e-04
               tree_risk: 0.
               tree_error: 0.
            -
               depth: 2
               sample_count: 38
               value: 5.7913275768882355e-01
               Tn: 0
               complexity: 0
               alpha: 0.
               node_risk: 2.2408211037294734e-04
               tree_risk: 0.
               tree_error: 0.
               splits:
                  - { var:0, quality:1.2745208740234375e+01,
                      le:-6.2084633111953735e-01 }
            -
               depth: 3
               sample_count: 2
               value: 1.8251348733901978e+00
               Tn: 0
               complexity: 0
               alpha: 0.
               node_risk: 1.5521692375841667e-08
               tree_risk: 0.
               tree_error: 0.
            -
               depth: 3
               sample_count: 36
               value: 1.7797029018402100e+00
               Tn: 0
               complexity: 0
               alpha: 0.
               node_risk: 1.5535979695613378e-05
               tree_risk: 0.
               tree_error: 0.
            -
               depth: 1
               sample_count: 112
               value: -1.9374258417103971e-01
               Tn: 0
               complexity: 0
               alpha: 0.
               node_risk: 5.0452114635888279e-03
               tree_risk: 0.
               tree_error: 0.
               splits:
                  - { var:0, quality:4.2051954269409180e+00,
                      le:-7.5619511306285858e-02 }
            -
               depth: 2
               sample_count: 41
               value: -1.9794469163185213e-01
               Tn: 0
               complexity: 0
               alpha: 0.
               node_risk: 3.6330351075961609e-03
               tree_risk: 0.
               tree_error: 0.
               splits:
                  - { var:3, quality:1.6093772649765015e+00,
                      le:8.7370610237121582e-01 }
            -
               depth: 3
               sample_count: 11
               value: -9.5196253061294556e-01
               Tn: 0
               complexity: 0
               alpha: 0.
               node_risk: 6.8392888798746165e-04
               tree_risk: 0.
               tree_error: 0.
            -
               depth: 3
               sample_count: 30
               value: -9.2919397354125977e-01
               Tn: 0
               complexity: 0
               alpha: 0.
               node_risk: 3.7953735485540818e-05
               tree_risk: 0.
               tree_error: 0.
            -
               depth: 2
               sample_count: 71
               value: -1.9131601507395085e-01
               Tn: 0
               complexity: 0
               alpha: 0.
               node_risk: 2.7014549601034332e-04
               tree_risk: 0.
               tree_error: 0.
               splits:
                  - { var:1, quality:2.5988967418670654e+00,
                      le:7.1977233886718750e-01 }
            -
               depth: 3
               sample_count: 37
               value: -9.2912566661834717e-01
               Tn: 0
               complexity: 0
               alpha: 0.
               node_risk: 3.3715901626152345e-08
               tree_risk: 0.
               tree_error: 0.
            -
               depth: 3
               sample_count: 34
               value: -9.2561554908752441e-01
               Tn: 0
               complexity: 0
               alpha: 0.
               node_risk: 1.0235794920965269e-04
               tree_risk: 0.
               tree_error: 0.
      -
         best_tree_idx: -1
         nodes:
            -
               depth: 0
               sample_count: 152
               value: 1.4591577119733157e-02
               Tn: 0
               complexity: 0
               alpha: 0.
               node_risk: 1.7475841684819120e+01
               tree_risk: 0.
               tree_error: 0.
               splits:
                  - { var:3, quality:1.6421426773071289e+01,
                      le:-1.3993511199951172e+00 }
            -
               depth: 1
               sample_count: 43
               value: 5.3739004634147469e-01
               Tn: 0
               complexity: 0
               alpha: 0.
               node_risk: 1.0815327155909813e+00
               tree_risk: 0.
               tree_error: 0.
               splits:
                  - { var:0, quality:1.3499046325683594e+01,
                      le:-8.2366353273391724e-01 }
            -
               depth: 2
               sample_count: 2
               value: -9.1571104526519775e-01
               Tn: 0
               complexity: 0
               alpha: 0.
               node_risk: 1.4995725701583140e-04
               tree_risk: 0.
               tree_error: 0.
            -
               depth: 2
               sample_count: 41
               value: 5.7241146593559078e-01
               Tn: 0
               complexity: 0
               alpha: 0.
               node_risk: 2.2315784770121638e-04
               tree_risk: 0.
               tree_error: 0.
               splits:
                  - { var:0, quality:1.3434059143066406e+01,
                      le:-6.2084633111953735e-01 }
            -
               depth: 3
               sample_count: 2
               value: 1.7959238290786743e+00
               Tn: 0
               complexity: 0
               alpha: 0.
               node_risk: 1.5669066044665669e-08
               tree_risk: 0.
               tree_error: 0.
            -
               depth: 3
               sample_count: 39
               value: 1.7519291639328003e+00
               Tn: 0
               complexity: 0
               alpha: 0.
               node_risk: 1.3887066078410726e-05
               tree_risk: 0.
               tree_error: 0.
            -
               depth: 1
               sample_count: 109
               value: -1.9165002083012816e-01
               Tn: 0
               complexity: 0
               alpha: 0.
               node_risk: 5.2446311270832879e-03
               tree_risk: 0.
               tree_error: 0.
               splits:
                  - { var:0, quality:4.0046501159667969e+00,
                      le:-9.2776104807853699e-02 }
            -
               depth: 2
               sample_count: 39
               value: -1.9592453653995806e-01
               Tn: 0
               complexity: 0
               alpha: 0.
               node_risk: 3.8876237553611137e-03
               tree_risk: 0.
               tree_error: 0.
               splits:
                  - { var:3, quality:1.5002765655517578e+00,
                      le:8.4672790765762329e-01 }
            -
               depth: 3
               sample_count: 10
               value: -9.5137715339660645e-01
               Tn: 0
               complexity: 0
               alpha: 0.
               node_risk: 6.4339489238407488e-04
               tree_risk: 0.
               tree_error: 0.
            -
               depth: 3
               sample_count: 29
               value: -9.2662060260772705e-01
               Tn: 0
               complexity: 0
               alpha: 0.
               node_risk: 3.8170699477868553e-05
               tree_risk: 0.
               tree_error: 0.
            -
               depth: 2
               sample_count: 70
               value: -1.8926850493465150e-01
               Tn: 0
               complexity: 0
               alpha: 0.
               node_risk: 2.4740621690710896e-04
               tree_risk: 0.
               tree_error: 0.
               splits:
                  - { var:1, quality:2.5077226161956787e+00,
                      le:7.5940895080566406e-01 }
            -
               depth: 3
               sample_count: 38
               value: -9.2658919095993042e-01
               Tn: 0
               complexity: 0
               alpha: 0.
               node_risk: 2.2398675358914488e-08
               tree_risk: 0.
               tree_error: 0.
            -
               depth: 3
               sample_count: 32
               value: -9.2333686351776123e-01
               Tn: 0
               complexity: 0
               alpha: 0.
               node_risk: 1.0445085276478139e-04
               tree_risk: 0.
               tree_error: 0.
      -
         best_tree_idx: -1
         nodes:
            -
               depth: 0
               sample_count: 152
               value: -5.2887819903461560e-03
               Tn: 0
               complexity: 0
               alpha: 0.
               node_risk: 1.5964275547628574e+01
               tree_risk: 0.
               tree_error: 0.
               splits:
                  - { var:3, quality:1.4911156654357910e+01,
                      le:-1.4463677406311035e+00 }
            -
               depth: 1
               sample_count: 39
               value: 5.2777461210886634e-01
               Tn: 0
               complexity: 0
               alpha: 0.
               node_risk: 1.0522223092631702e+00
               tree_risk: 0.
               tree_error: 0.
               splits:
                  - { var:0, quality:1.1915149688720703e+01,
                      le:-8.2366353273391724e-01 }
            -
               depth: 2
               sample_count: 2
               value: -9.1353428363800049e-01
               Tn: 0
               complexity: 0
               alpha: 0.
               node_risk: 1.4961165743132554e-04
               tree_risk: 0.
               tree_error: 0.
            -
               depth: 2
               sample_count: 37
               value: 5.6595669404880422e-01
               Tn: 0
               complexity: 0
               alpha: 0.
               node_risk: 2.1849602078383157e-04
               tree_risk: 0.
               tree_error: 0.
               splits:
                  - { var:0, quality:1.1851560592651367e+01,
                      le:-6.2084633111953735e-01 }
            -
               depth: 3
               sample_count: 2
               value: 1.7678245306015015e+00
               Tn: 0
               complexity: 0
               alpha: 0.
               node_risk: 1.5806536524110015e-08
               tree_risk: 0.
               tree_error: 0.
            -
               depth: 3
               sample_count: 35
               value: 1.7257163524627686e+00
               Tn: 0
               complexity: 0
               alpha: 0.
               node_risk: 1.5712904662734672e-05
               tree_risk: 0.
               tree_error: 0.
            -
               depth: 1
               sample_count: 113
               value: -1.8926641358210977e-01
               Tn: 0
               complexity: 0
               alpha: 0.
               node_risk: 5.1486467001380376e-03
               tree_risk: 0.
               tree_error: 0.
               splits:
                  - { var:0, quality:4.0489287376403809e+00,
                      le:-7.5619511306285858e-02 }
            -
               depth: 2
               sample_count: 38
               value: -1.9358602911233902e-01
               Tn: 0
               complexity: 0
               alpha: 0.
               node_risk: 3.8194197320244871e-03
               tree_risk: 0.
               tree_error: 0.
               splits:
                  - { var:3, quality:1.4274023771286011e+00,
                      le:6.7546951770782471e-01 }
            -
               depth: 3
               sample_count: 7
               value: -9.5349550247192383e-01
               Tn: 0
               complexity: 0
               alpha: 0.
               node_risk: 1.9443390498563584e-04
               tree_risk: 0.
               tree_error: 0.
            -
               depth: 3
               sample_count: 31
               value: -9.2499721050262451e-01
               Tn: 0
               complexity: 0
               alpha: 0.
               node_risk: 2.9348938234918798e-04
               tree_risk: 0.
               tree_error: 0.
            -
               depth: 2
               sample_count: 75
               value: -1.8707780838012694e-01
               Tn: 0
               complexity: 0
               alpha: 0.
               node_risk: 2.6093253685299800e-04
               tree_risk: 0.
               tree_error: 0.
               splits:
                  - { var:1, quality:2.6250231266021729e+00,
                      le:7.5940895080566406e-01 }
            -
               depth: 3
               sample_count: 42
               value: -9.2409318685531616e-01
               Tn: 0
               complexity: 0
               alpha: 0.
               node_risk: 3.9207727509094070e-08
               tree_risk: 0.
               tree_error: 0.
            -
               depth: 3
               sample_count: 33
               value: -9.2071861028671265e-01
               Tn: 0
               complexity: 0
               alpha: 0.
               node_risk: 9.5644377369419331e-05
               tree_risk: 0.
               tree_error: 0.
      -
         best_tree_idx: -1
         nodes:
            -
               depth: 0
               sample_count: 152
               value: 1.9283926310507876e-02
               Tn: 0
               complexity: 0
               alpha: 0.
               node_risk: 1.6933665653954407e+01
               tree_risk: 0.
               tree_error: 0.
               splits:
                  - { var:3, quality:1.5952333450317383e+01,
                      le:-1.4483599662780762e+00 }
            -
               depth: 1
               sample_count: 44
               value: 5.2593045647848735e-01
               Tn: 0
               complexity: 0
               alpha: 0.
               node_risk: 1.0327208767538139e+00
               tree_risk: 0.
               tree_error: 0.
               splits:
                  - { var:0, quality:1.3202825546264648e+01,
                      le:-8.2366353273391724e-01 }
            -
               depth: 2
               sample_count: 2
               value: -9.1064548492431641e-01
               Tn: 0
               complexity: 0
               alpha: 0.
               node_risk: 1.4818014064321705e-04
               tree_risk: 0.
               tree_error: 0.
            -
               depth: 2
               sample_count: 42
               value: 5.5935511560667128e-01
               Tn: 0
               complexity: 0
               alpha: 0.
               node_risk: 2.7265445336155381e-04
               tree_risk: 0.
               tree_error: 0.
               splits:
                  - { var:0, quality:1.3141140937805176e+01,
                      le:-6.2084633111953735e-01 }
            -
               depth: 3
               sample_count: 2
               value: 1.7460145950317383e+00
               Tn: 0
               complexity: 0
               alpha: 0.
               node_risk: 1.5902060113148764e-08
               tree_risk: 0.
               tree_error: 0.
            -
               depth: 3
               sample_count: 40
               value: 1.6999131441116333e+00
               Tn: 0
               complexity: 0
               alpha: 0.
               node_risk: 1.4121729442706510e-05
               tree_risk: 0.
               tree_error: 0.
            -
               depth: 1
               sample_count: 108
               value: -1.8712762301718747e-01
               Tn: 0
               complexity: 0
               alpha: 0.
               node_risk: 5.1350986726195202e-03
               tree_risk: 0.
               tree_error: 0.
               splits:
                  - { var:0, quality:3.7829265594482422e+00,
                      le:-7.4474617838859558e-02 }
            -
               depth: 2
               sample_count: 37
               value: -1.9158427256184654e-01
               Tn: 0
               complexity: 0
               alpha: 0.
               node_risk: 3.7388584501809596e-03
               tree_risk: 0.
               tree_error: 0.
               splits:
                  - { var:3, quality:1.3611371517181396e+00,
                      le:9.0832185745239258e-01 }
            -
               depth: 3
               sample_count: 10
               value: -9.4562470912933350e-01
               Tn: 0
               complexity: 0
               alpha: 0.
               node_risk: 6.6730537241094234e-04
               tree_risk: 0.
               tree_error: 0.
            -
               depth: 3
               sample_count: 27
               value: -9.2142307758331299e-01
               Tn: 0
               complexity: 0
               alpha: 0.
               node_risk: 2.1068096256460223e-06
               tree_risk: 0.
               tree_error: 0.
            -
               depth: 2
               sample_count: 71
               value: -1.8480514367701303e-01
               Tn: 0
               complexity: 0
               alpha: 0.
               node_risk: 2.7838876110397592e-04
               tree_risk: 0.
               tree_error: 0.
               splits:
                  - { var:1, quality:2.4250061511993408e+00,
                      le:7.5940895080566406e-01 }
            -
               depth: 3
               sample_count: 36
               value: -9.2163097858428955e-01
               Tn: 0
               complexity: 0
               alpha: 0.
               node_risk: 4.6130892661366829e-08
               tree_risk: 0.
               tree_error: 0.
            -
               depth: 3
               sample_count: 35
               value: -9.1840279102325439e-01
               Tn: 0
               complexity: 0
               alpha: 0.
               node_risk: 1.3106062564438581e-04
               tree_risk: 0.
               tree_error: 0.
      -
         best_tree_idx: -1
         nodes:
            -
               depth: 0
               sample_count: 152
               value: -5.5530642796503870e-03
               Tn: 0
               complexity: 0
               alpha: 0.
               node_risk: 1.5259653145221609e+01
               tree_risk: 0.
               tree_error: 0.
               splits:
                  - { var:3, quality:1.4254164695739746e+01,
                      le:-1.4463677406311035e+00 }
            -
               depth: 1
               sample_count: 39
               value: 5.1562316333636260e-01
               Tn: 0
               complexity: 0
               alpha: 0.
               node_risk: 1.0031775690661942e+00
               tree_risk: 0.
               tree_error: 0.
               splits:
                  - { var:0, quality:1.1371589660644531e+01,
                      le:-8.2366353273391724e-01 }
            -
               depth: 2
               sample_count: 2
               value: -9.0852981805801392e-01
               Tn: 0
               complexity: 0
               alpha: 0.
               node_risk: 1.4771209572395083e-04
               tree_risk: 0.
               tree_error: 0.
            -
               depth: 2
               sample_count: 37
               value: 5.5290366830052551e-01
               Tn: 0
               complexity: 0
               alpha: 0.
               node_risk: 2.6314661915272097e-04
               tree_risk: 0.
               tree_error: 0.
               splits:
                  - { var:0, quality:1.1311246871948242e+01,
                      le:-6.1514461040496826e-01 }
            -
               depth: 3
               sample_count: 2
               value: 1.7197899818420410e+00
               Tn: 0
               complexity: 0
               alpha: 0.
               node_risk: 1.6029872540457291e-08
               tree_risk: 0.
               tree_error: 0.
            -
               depth: 3
               sample_count: 35
               value: 1.6751379966735840e+00
               Tn: 0
               complexity: 0
               alpha: 0.
               node_risk: 7.4618152989813780e-06
               tree_risk: 0.
               tree_error: 0.
            -
               depth: 1
               sample_count: 113
               value: -1.8542804549225664e-01
               Tn: 0
               complexity: 0
               alpha: 0.
               node_risk: 6.9978252205475933e-03
               tree_risk: 0.
               tree_error: 0.
               splits:
                  - { var:0, quality:3.8871309757232666e+00,
                      le:-9.2776104807853699e-02 }
            -
               depth: 2
               sample_count: 39
               value: -1.9090861043868920e-01
               Tn: 0
               complexity: 0
               alpha: 0.
               node_risk: 4.9224570353250119e-03
               tree_risk: 0.
               tree_error: 0.
               splits:
                  - { var:3, quality:1.4254603385925293e+00,
                      le:8.4672790765762329e-01 }
            -
               depth: 3
               sample_count: 12
               value: -9.4523984193801880e-01
               Tn: 0
               complexity: 0
               alpha: 0.
               node_risk: 8.2273004149024942e-04
               tree_risk: 0.
               tree_error: 0.
            -
               depth: 3
               sample_count: 27
               value: -9.1924369335174561e-01
               Tn: 0
               complexity: 0
               alpha: 0.
               node_risk: 3.7135548422773113e-05
               tree_risk: 0.
               tree_error: 0.
            -
               depth: 2
               sample_count: 74
               value: -1.8253963964210973e-01
               Tn: 0
               complexity: 0
               alpha: 0.
               node_risk: 2.8656735379772869e-04
               tree_risk: 0.
               tree_error: 0.
               splits:
                  - { var:1, quality:2.4659051895141602e+00,
                      le:8.2477879524230957e-01 }
            -
               depth: 3
               sample_count: 37
               value: -9.1918927431106567e-01
               Tn: 0
               complexity: 0
               alpha: 0.
               node_risk: 3.6142568715646917e-08
               tree_risk: 0.
               tree_error: 0.
            -
               depth: 3
               sample_count: 37
               value: -9.1578763723373413e-01
               Tn: 0
               complexity: 0
               alpha: 0.
               node_risk: 1.1467258876196595e-04
               tree_risk: 0.
               tree_error: 0.
      -
         best_tree_idx: -1
         nodes:
            -
               depth: 0
               sample_count: 152
               value: -5.9764410712217033e-04
               Tn: 0
               complexity: 0
               alpha: 0.
               node_risk: 1.5173115474215699e+01
               tree_risk: 0.
               tree_error: 0.
               splits:
                  - { var:3, quality:1.4185450553894043e+01,
                      le:-1.4483599662780762e+00 }
            -
               depth: 1
               sample_count: 40
               value: 5.1058719046413903e-01
               Tn: 0
               complexity: 0
               alpha: 0.
               node_risk: 9.8166794987985462e-01
               tree_risk: 0.
               tree_error: 0.
               splits:
                  - { var:0, quality:1.1409228324890137e+01,
                      le:-8.2366353273391724e-01 }
            -
               depth: 2
               sample_count: 2
               value: -9.0640294551849365e-01
               Tn: 0
               complexity: 0
               alpha: 0.
               node_risk: 1.4713434328783581e-04
               tree_risk: 0.
               tree_error: 0.
            -
               depth: 2
               sample_count: 38
               value: 5.4651946613663116e-01
               Tn: 0
               complexity: 0
               alpha: 0.
               node_risk: 2.6320493354781149e-04
               tree_risk: 0.
               tree_error: 0.
               splits:
                  - { var:0, quality:1.1350223541259766e+01,
                      le:-6.2084633111953735e-01 }
            -
               depth: 3
               sample_count: 2
               value: 1.6945072412490845e+00
               Tn: 0
               complexity: 0
               alpha: 0.
               node_risk: 1.6115365042423946e-08
               tree_risk: 0.
               tree_error: 0.
            -
               depth: 3
               sample_count: 36
               value: 1.6516770124435425e+00
               Tn: 0
               complexity: 0
               alpha: 0.
               node_risk: 1.3564440479285622e-05
               tree_risk: 0.
               tree_error: 0.
            -
               depth: 1
               sample_count: 112
               value: -1.8316365645400115e-01
               Tn: 0
               complexity: 0
               alpha: 0.
               node_risk: 6.0510477149939845e-03
               tree_risk: 0.
               tree_error: 0.
               splits:
                  - { var:0, quality:3.7587285041809082e+00,
                      le:-7.5619511306285858e-02 }
            -
               depth: 2
               sample_count: 43
               value: -1.8739362303600754e-01
               Tn: 0
               complexity: 0
               alpha: 0.
               node_risk: 4.5505896346442753e-03
               tree_risk: 0.
               tree_error: 0.
               splits:
                  - { var:3, quality:1.5137243270874023e+00,
                      le:8.7370610237121582e-01 }
            -
               depth: 3
               sample_count: 11
               value: -9.4175380468368530e-01
               Tn: 0
               complexity: 0
               alpha: 0.
               node_risk: 7.9324881751746679e-04
               tree_risk: 0.
               tree_error: 0.
            -
               depth: 3
               sample_count: 32
               value: -9.1681027412414551e-01
               Tn: 0
               complexity: 0
               alpha: 0.
               node_risk: 3.6871275516103807e-05
               tree_risk: 0.
               tree_error: 0.
            -
               depth: 2
               sample_count: 69
               value: -1.8052759032318558e-01
               Tn: 0
               complexity: 0
               alpha: 0.
               node_risk: 2.5160525652534460e-04
               tree_risk: 0.
               tree_error: 0.
               splits:
                  - { var:1, quality:2.2488892078399658e+00,
                      le:8.0004334449768066e-01 }
            -
               depth: 3
               sample_count: 38
               value: -9.1678434610366821e-01
               Tn: 0
               complexity: 0
               alpha: 0.
               node_risk: 4.6278410659184033e-08
               tree_risk: 0.
               tree_error: 0.
            -
               depth: 3
               sample_count: 31
               value: -9.1333377361297607e-01
               Tn: 0
               complexity: 0
               alpha: 0.
               node_risk: 8.6821239132617301e-05
               tree_risk: 0.
               tree_error: 0.
      -
         best_tree_idx: -1
         nodes:
            -
               depth: 0
               sample_count: 152
               value: 4.2090540457712976e-03
               Tn: 0
               complexity: 0
               alpha: 0.
               node_risk: 1.5077941387933121e+01
               tree_risk: 0.
               tree_error: 0.
               splits:
                  - { var:3, quality:1.4594456672668457e+01,
                      le:-1.4463677406311035e+00 }
            -
               depth: 1
               sample_count: 40
               value: 5.2266411855816841e-01
               Tn: 0
               complexity: 0
               alpha: 0.
               node_risk: 4.7971662028591489e-01
               tree_risk: 0.
               tree_error: 0.
               splits:
                  - { var:0, quality:1.1406498908996582e+01,
                      le:-8.8406997919082642e-01 }
            -
               depth: 2
               sample_count: 1
               value: -8.9392656087875366e-01
               Tn: 0
               complexity: 0
               alpha: 0.
               node_risk: 0.
               tree_risk: 0.
               tree_error: 0.
            -
               depth: 2
               sample_count: 39
               value: 5.4019409418106079e-01
               Tn: 0
               complexity: 0
               alpha: 0.
               node_risk: 3.2854955676242525e-04
               tree_risk: 0.
               tree_error: 0.
               splits:
                  - { var:0, quality:1.1380891799926758e+01,
                      le:-6.2084633111953735e-01 }
            -
               depth: 3
               sample_count: 2
               value: 1.6756607294082642e+00
               Tn: 0
               complexity: 0
               alpha: 0.
               node_risk: 1.6190357499112906e-08
               tree_risk: 0.
               tree_error: 0.
            -
               depth: 3
               sample_count: 37
               value: 1.6287853717803955e+00
               Tn: 0
               complexity: 0
               alpha: 0.
               node_risk: 1.3668706355218774e-05
               tree_risk: 0.
               tree_error: 0.
            -
               depth: 1
               sample_count: 112
               value: -1.8095346899437054e-01
               Tn: 0
               complexity: 0
               alpha: 0.
               node_risk: 6.4606977828756129e-03
               tree_risk: 0.
               tree_error: 0.
               splits:
                  - { var:0, quality:3.6687312126159668e+00,
                      le:-9.2776104807853699e-02 }
            -
               depth: 2
               sample_count: 38
               value: -1.8586161066042750e-01
               Tn: 0
               complexity: 0
               alpha: 0.
               node_risk: 4.7946811039889514e-03
               tree_risk: 0.
               tree_error: 0.
               splits:
                  - { var:3, quality:1.3166364431381226e+00,
                      le:8.4672790765762329e-01 }
            -
               depth: 3
               sample_count: 10
               value: -9.4139504432678223e-01
               Tn: 0
               complexity: 0
               alpha: 0.
               node_risk: 8.1372252538802758e-04
               tree_risk: 0.
               tree_error: 0.
            -
               depth: 3
               sample_count: 28
               value: -9.1438949108123779e-01
               Tn: 0
               complexity: 0
               alpha: 0.
               node_risk: 3.6925242322571883e-05
               tree_risk: 0.
               tree_error: 0.
            -
               depth: 2
               sample_count: 74
               value: -1.7843307192261154e-01
               Tn: 0
               complexity: 0
               alpha: 0.
               node_risk: 2.8052450000570772e-04
               tree_risk: 0.
               tree_error: 0.
               splits:
                  - { var:1, quality:2.3562023639678955e+00,
                      le:7.1977233886718750e-01 }
            -
               depth: 3
               sample_count: 40
               value: -9.1441577672958374e-01
               Tn: 0
               complexity: 0
               alpha: 0.
               node_risk: 6.3235631841962459e-08
               tree_risk: 0.
               tree_error: 0.
            -
               depth: 3
               sample_count: 34
               value: -9.1112238168716431e-01
               Tn: 0
               complexity: 0
               alpha: 0.
               node_risk: 1.1679821860588468e-04
               tree_risk: 0.
               tree_error: 0.
      -
         best_tree_idx: -1
         nodes:
            -
               depth: 0
               sample_count: 152
               value: 1.3289250433444977e-02
               Tn: 0
               complexity: 0
               alpha: 0.
               node_risk: 1.5220372142262304e+01
               tree_risk: 0.
               tree_error: 0.
               splits:
                  - { var:3, quality:1.4300960540771484e+01,
                      le:-1.4463677406311035e+00 }
            -
               depth: 1
               sample_count: 43
               value: 5.0119041287621791e-01
               Tn: 0
               complexity: 0
               alpha: 0.
               node_risk: 9.3908944955612306e-01
               tree_risk: 0.
               tree_error: 0.
               splits:
                  - { var:0, quality:1.1739835739135742e+01,
                      le:-8.2366353273391724e-01 }
            -
               depth: 2
               sample_count: 2
               value: -9.0172970294952393e-01
               Tn: 0
               complexity: 0
               alpha: 0.
               node_risk: 1.7666995811005393e-04
               tree_risk: 0.
               tree_error: 0.
            -
               depth: 2
               sample_count: 41
               value: 5.3382109287308488e-01
               Tn: 0
               complexity: 0
               alpha: 0.
               node_risk: 3.2571387144386676e-04
               tree_risk: 0.
               tree_error: 0.
               splits:
                  - { var:0, quality:1.1683875083923340e+01,
                      le:-6.2084633111953735e-01 }
            -
               depth: 3
               sample_count: 2
               value: 1.6519846916198730e+00
               Tn: 0
               complexity: 0
               alpha: 0.
               node_risk: 1.6276276326721018e-08
               tree_risk: 0.
               tree_error: 0.
            -
               depth: 3
               sample_count: 39
               value: 1.6066740751266479e+00
               Tn: 0
               complexity: 0
               alpha: 0.
               node_risk: 1.3800888831738689e-05
               tree_risk: 0.
               tree_error: 0.
            -
               depth: 1
               sample_count: 109
               value: -1.7918552007150212e-01
               Tn: 0
               complexity: 0
               alpha: 0.
               node_risk: 7.1657236252251622e-03
               tree_risk: 0.
               tree_error: 0.
               splits:
                  - { var:0, quality:3.5012426376342773e+00,
                      le:-7.5619511306285858e-02 }
            -
               depth: 2
               sample_count: 40
               value: -1.8410709723830224e-01
               Tn: 0
               complexity: 0
               alpha: 0.
               node_risk: 5.3569106364494967e-03
               tree_risk: 0.
               tree_error: 0.
               splits:
                  - { var:3, quality:1.3601738214492798e+00,
                      le:8.7370610237121582e-01 }
            -
               depth: 3
               sample_count: 11
               value: -9.3924528360366821e-01
               Tn: 0
               complexity: 0
               alpha: 0.
               node_risk: 9.5942198476189899e-04
               tree_risk: 0.
               tree_error: 0.
            -
               depth: 3
               sample_count: 29
               value: -9.1206181049346924e-01
               Tn: 0
               complexity: 0
               alpha: 0.
               node_risk: 4.0652782147598820e-05
               tree_risk: 0.
               tree_error: 0.
            -
               depth: 2
               sample_count: 69
               value: -1.7633243185886438e-01
               Tn: 0
               complexity: 0
               alpha: 0.
               node_risk: 2.7826836434075020e-04
               tree_risk: 0.
               tree_error: 0.
               splits:
                  - { var:1, quality:2.1455838680267334e+00,
                      le:8.2477879524230957e-01 }
            -
               depth: 3
               sample_count: 38
               value: -9.1207516193389893e-01
               Tn: 0
               complexity: 0
               alpha: 0.
               node_risk: 6.5656848402539936e-08
               tree_risk: 0.
               tree_error: 0.
            -
               depth: 3
               sample_count: 31
               value: -9.0873736143112183e-01
               Tn: 0
               complexity: 0
               alpha: 0.
               node_risk: 1.2016476168674739e-04
               tree_risk: 0.
               tree_error: 0.
      -
         best_tree_idx: -1
         nodes:
            -
               depth: 0
               sample_count: 152
               value: 2.2854704998041455e-02
               Tn: 0
               complexity: 0
               alpha: 0.
               node_risk: 1.5261288763713646e+01
               tree_risk: 0.
               tree_error: 0.
               splits:
                  - { var:3, quality:1.4418480873107910e+01,
                      le:-1.4463677406311035e+00 }
            -
               depth: 1
               sample_count: 45
               value: 4.9646874103281236e-01
               Tn: 0
               complexity: 0
               alpha: 0.
               node_risk: 9.1660249784225201e-01
               tree_risk: 0.
               tree_error: 0.
               splits:
                  - { var:0, quality:1.2007865905761719e+01,
                      le:-8.0506658554077148e-01 }
            -
               depth: 2
               sample_count: 2
               value: -8.9893859624862671e-01
               Tn: 0
               complexity: 0
               alpha: 0.
               node_risk: 1.7447048198182546e-04
               tree_risk: 0.
               tree_error: 0.
            -
               depth: 2
               sample_count: 43
               value: 5.2724191477132398e-01
               Tn: 0
               complexity: 0
               alpha: 0.
               node_risk: 2.1692263271866352e-04
               tree_risk: 0.
               tree_error: 0.
               splits:
                  - { var:0, quality:1.1953516960144043e+01,
                      le:-6.2084633111953735e-01 }
            -
               depth: 3
               sample_count: 1
               value: 1.6351344585418701e+00
               Tn: 0
               complexity: 0
               alpha: 0.
               node_risk: 0.
               tree_risk: 0.
               tree_error: 0.
            -
               depth: 3
               sample_count: 42
               value: 1.5853129625320435e+00
               Tn: 0
               complexity: 0
               alpha: 0.
               node_risk: 1.3950391695161102e-05
               tree_risk: 0.
               tree_error: 0.
            -
               depth: 1
               sample_count: 107
               value: -1.7632876810069395e-01
               Tn: 0
               complexity: 0
               alpha: 0.
               node_risk: 5.6007978026766381e-03
               tree_risk: 0.
               tree_error: 0.
               splits:
                  - { var:0, quality:3.3277668952941895e+00,
                      le:-9.3404805660247803e-01 }
            -
               depth: 2
               sample_count: 2
               value: -9.3509835004806519e-01
               Tn: 0
               complexity: 0
               alpha: 0.
               node_risk: 5.2599261915031725e-05
               tree_risk: 0.
               tree_error: 0.
            -
               depth: 2
               sample_count: 105
               value: -1.7591955690156846e-01
               Tn: 0
               complexity: 0
               alpha: 0.
               node_risk: 4.6075267884226889e-03
               tree_risk: 0.
               tree_error: 0.
               splits:
                  - { var:0, quality:3.2501308917999268e+00,
                      le:-9.1631218791007996e-02 }
            -
               depth: 3
               sample_count: 37
               value: -9.1438746452331543e-01
               Tn: 0
               complexity: 0
               alpha: 0.
               node_risk: 3.6871111400003098e-03
               tree_risk: 0.
               tree_error: 0.
            -
               depth: 3
               sample_count: 68
               value: -9.0815228223800659e-01
               Tn: 0
               complexity: 0
               alpha: 0.
               node_risk: 2.9703982377915494e-04
               tree_risk: 0.
               tree_error: 0.
      -
         best_tree_idx: -1
         nodes:
            -
               depth: 0
               sample_count: 152
               value: -5.4988762069689600e-03
               Tn: 0
               complexity: 0
               alpha: 0.
               node_risk: 1.3592725533416747e+01
               tree_risk: 0.
               tree_error: 0.
               splits:
                  - { var:3, quality:1.3119064331054688e+01,
                      le:-1.3993511199951172e+00 }
            -
               depth: 1
               sample_count: 38
               value: 5.0326254689379746e-01
               Tn: 0
               complexity: 0
               alpha: 0.
               node_risk: 4.6960137011898162e-01
               tree_risk: 0.
               tree_error: 0.
               splits:
                  - { var:0, quality:1.0093588829040527e+01,
                      le:-8.2366353273391724e-01 }
            -
               depth: 2
               sample_count: 1
               value: -9.0651047229766846e-01
               Tn: 0
               complexity: 0
               alpha: 0.
               node_risk: 0.
               tree_risk: 0.
               tree_error: 0.
            -
               depth: 2
               sample_count: 37
               value: 5.2153049610756541e-01
               Tn: 0
               complexity: 0
               alpha: 0.
               node_risk: 3.9390644059267288e-04
               tree_risk: 0.
               tree_error: 0.
               splits:
                  - { var:0, quality:1.0064158439636230e+01,
                      le:-6.2084633111953735e-01 }
            -
               depth: 3
               sample_count: 2
               value: 1.6125751733779907e+00
               Tn: 0
               complexity: 0
               alpha: 0.
               node_risk: 1.6394785973261605e-08
               tree_risk: 0.
               tree_error: 0.
            -
               depth: 3
               sample_count: 35
               value: 1.5650010108947754e+00
               Tn: 0
               complexity: 0
               alpha: 0.
               node_risk: 1.5671056138089057e-05
               tree_risk: 0.
               tree_error: 0.
            -
               depth: 1
               sample_count: 114
               value: -1.7508601724055775e-01
               Tn: 0
               complexity: 0
               alpha: 0.
               node_risk: 8.6560910982740324e-03
               tree_risk: 0.
               tree_error: 0.
               splits:
                  - { var:0, quality:3.4966433048248291e+00,
                      le:-7.5619511306285858e-02 }
            -
               depth: 2
               sample_count: 42
               value: -1.8051556320417494e-01
               Tn: 0
               complexity: 0
               alpha: 0.
               node_risk: 6.3621475655950555e-03
               tree_risk: 0.
               tree_error: 0.
               splits:
                  - { var:3, quality:1.3737318515777588e+00,
                      le:8.7370610237121582e-01 }
            -
               depth: 3
               sample_count: 12
               value: -9.3572425842285156e-01
               Tn: 0
               complexity: 0
               alpha: 0.
               node_risk: 1.1869604256917188e-03
               tree_risk: 0.
               tree_error: 0.
            -
               depth: 3
               sample_count: 30
               value: -9.0748322010040283e-01
               Tn: 0
               complexity: 0
               alpha: 0.
               node_risk: 4.9776829140646406e-05
               tree_risk: 0.
               tree_error: 0.
            -
               depth: 2
               sample_count: 72
               value: -1.7191878209511438e-01
               Tn: 0
               complexity: 0
               alpha: 0.
               node_risk: 3.3352556951316004e-04
               tree_risk: 0.
               tree_error: 0.
               splits:
                  - { var:1, quality:2.1282353401184082e+00,
                      le:7.1977233886718750e-01 }
            -
               depth: 3
               sample_count: 37
               value: -9.0747749805450439e-01
               Tn: 0
               complexity: 0
               alpha: 0.
               node_risk: 6.1253332628297130e-08
               tree_risk: 0.
               tree_error: 0.
            -
               depth: 3
               sample_count: 35
               value: -9.0387010574340820e-01
               Tn: 0
               complexity: 0
               alpha: 0.
               node_risk: 1.3508292610420192e-04
               tree_risk: 0.
               tree_error: 0.
      -
         best_tree_idx: -1
         nodes:
            -
               depth: 0
               sample_count: 152
               value: 8.4600690752267838e-03
               Tn: 0
               complexity: 0
               alpha: 0.
               node_risk: 1.3930197060995688e+01
               tree_risk: 0.
               tree_error: 0.
               splits:
                  - { var:3, quality:1.3500450134277344e+01,
                      le:-1.4463677406311035e+00 }
            -
               depth: 1
               sample_count: 41
               value: 4.9863019694642324e-01
               Tn: 0
               complexity: 0
               alpha: 0.
               node_risk: 4.3291890127941812e-01
               tree_risk: 0.
               tree_error: 0.
               splits:
                  - { var:0, quality:1.0626623153686523e+01,
                      le:-8.6547303199768066e-01 }
            -
               depth: 2
               sample_count: 1
               value: -8.8350039720535278e-01
               Tn: 0
               complexity: 0
               alpha: 0.
               node_risk: 0.
               tree_risk: 0.
               tree_error: 0.
            -
               depth: 2
               sample_count: 40
               value: 5.1487355083227160e-01
               Tn: 0
               complexity: 0
               alpha: 0.
               node_risk: 2.1056672353481076e-04
               tree_risk: 0.
               tree_error: 0.
               splits:
                  - { var:0, quality:1.0603987693786621e+01,
                      le:-6.2084633111953735e-01 }
            -
               depth: 3
               sample_count: 1
               value: 1.5914134979248047e+00
               Tn: 0
               complexity: 0
               alpha: 0.
               node_risk: 0.
               tree_risk: 0.
               tree_error: 0.
            -
               depth: 3
               sample_count: 39
               value: 1.5448602437973022e+00
               Tn: 0
               complexity: 0
               alpha: 0.
               node_risk: 1.3902259476950007e-05
               tree_risk: 0.
               tree_error: 0.
            -
               depth: 1
               sample_count: 111
               value: -1.7259376194026019e-01
               Tn: 0
               complexity: 0
               alpha: 0.
               node_risk: 7.7068756507530090e-03
               tree_risk: 0.
               tree_error: 0.
               splits:
                  - { var:0, quality:3.3082387447357178e+00,
                      le:-7.5619511306285858e-02 }
            -
               depth: 2
               sample_count: 36
               value: -1.7824784169594446e-01
               Tn: 0
               complexity: 0
               alpha: 0.
               node_risk: 5.6363361918638777e-03
               tree_risk: 0.
               tree_error: 0.
               splits:
                  - { var:3, quality:1.1486246585845947e+00,
                      le:8.7370610237121582e-01 }
            -
               depth: 3
               sample_count: 9
               value: -9.3600654602050781e-01
               Tn: 0
               complexity: 0
               alpha: 0.
               node_risk: 7.6683920439402087e-04
               tree_risk: 0.
               tree_error: 0.
            -
               depth: 3
               sample_count: 27
               value: -9.0533357858657837e-01
               Tn: 0
               complexity: 0
               alpha: 0.
               node_risk: 4.7380515120765132e-05
               tree_risk: 0.
               tree_error: 0.
            -
               depth: 2
               sample_count: 75
               value: -1.6987980365753175e-01
               Tn: 0
               complexity: 0
               alpha: 0.
               node_risk: 3.6725149805061363e-04
               tree_risk: 0.
               tree_error: 0.
               splits:
                  - { var:1, quality:2.1646440029144287e+00,
                      le:7.1977233886718750e-01 }
            -
               depth: 3
               sample_count: 39
               value: -9.0522837638854980e-01
               Tn: 0
               complexity: 0
               alpha: 0.
               node_risk: 7.4705298169774892e-08
               tree_risk: 0.
               tree_error: 0.
            -
               depth: 3
               sample_count: 36
               value: -9.0162950754165649e-01
               Tn: 0
               complexity: 0
               alpha: 0.
               node_risk: 1.5917749545191207e-04
               tree_risk: 0.
               tree_error: 0.
      -
         best_tree_idx: -1
         nodes:
            -
               depth: 0
               sample_count: 152
               value: 1.2432515327083437e-02
               Tn: 0
               complexity: 0
               alpha: 0.
               node_risk: 1.3858348402348978e+01
               tree_risk: 0.
               tree_error: 0.
               splits:
                  - { var:3, quality:1.3449992179870605e+01,
                      le:-1.4463677406311035e+00 }
            -
               depth: 1
               sample_count: 42
               value: 4.9341723571221036e-01
               Tn: 0
               complexity: 0
               alpha: 0.
               node_risk: 4.2271711061348860e-01
               tree_risk: 0.
               tree_error: 0.
               splits:
                  - { var:0, quality:1.0647673606872559e+01,
                      le:-8.8406997919082642e-01 }
            -
               depth: 2
               sample_count: 1
               value: -8.8097316026687622e-01
               Tn: 0
               complexity: 0
               alpha: 0.
               node_risk: 0.
               tree_risk: 0.
               tree_error: 0.
            -
               depth: 2
               sample_count: 41
               value: 5.0907786881051409e-01
               Tn: 0
               complexity: 0
               alpha: 0.
               node_risk: 3.8726180714654390e-04
               tree_risk: 0.
               tree_error: 0.
               splits:
                  - { var:0, quality:1.0625945091247559e+01,
                      le:-6.2084633111953735e-01 }
            -
               depth: 3
               sample_count: 2
               value: 1.5703614950180054e+00
               Tn: 0
               complexity: 0
               alpha: 0.
               node_risk: 1.6481244813348894e-08
               tree_risk: 0.
               tree_error: 0.
            -
               depth: 3
               sample_count: 39
               value: 1.5256158113479614e+00
               Tn: 0
               complexity: 0
               alpha: 0.
               node_risk: 1.3919131385264905e-05
               tree_risk: 0.
               tree_error: 0.
            -
               depth: 1
               sample_count: 110
               value: -1.7121619609269229e-01
               Tn: 0
               complexity: 0
               alpha: 0.
               node_risk: 9.1332268134007855e-03
               tree_risk: 0.
               tree_error: 0.
               splits:
                  - { var:0, quality:3.2269036769866943e+00,
                      le:-7.5619511306285858e-02 }
            -
               depth: 2
               sample_count: 38
               value: -1.7744892561121992e-01
               Tn: 0
               complexity: 0
               alpha: 0.
               node_risk: 6.5395291952541346e-03
               tree_risk: 0.
               tree_error: 0.
               splits:
                  - { var:3, quality:1.2017482519149780e+00,
                      le:8.7370610237121582e-01 }
            -
               depth: 3
               sample_count: 12
               value: -9.3193179368972778e-01
               Tn: 0
               complexity: 0
               alpha: 0.
               node_risk: 1.2916281942356167e-03
               tree_risk: 0.
               tree_error: 0.
            -
               depth: 3
               sample_count: 26
               value: -9.0308457612991333e-01
               Tn: 0
               complexity: 0
               alpha: 0.
               node_risk: 4.8309172053895288e-05
               tree_risk: 0.
               tree_error: 0.
            -
               depth: 2
               sample_count: 72
               value: -1.6792669995791382e-01
               Tn: 0
               complexity: 0
               alpha: 0.
               node_risk: 3.3841825551750304e-04
               tree_risk: 0.
               tree_error: 0.
               splits:
                  - { var:1, quality:2.0305485725402832e+00,
                      le:7.5940895080566406e-01 }
            -
               depth: 3
               sample_count: 39
               value: -9.0299898386001587e-01
               Tn: 0
               complexity: 0
               alpha: 0.
               node_risk: 5.8185221307738288e-08
               tree_risk: 0.
               tree_error: 0.
            -
               depth: 3
               sample_count: 33
               value: -8.9946550130844116e-01
               Tn: 0
               complexity: 0
               alpha: 0.
               node_risk: 1.4496831281274325e-04
               tree_risk: 0.
               tree_error: 0.
      -
         best_tree_idx: -1
         nodes:
            -
               depth: 0
               sample_count: 152
               value: 1.6523311502839391e-02
               Tn: 0
               complexity: 0
               alpha: 0.
               node_risk: 1.3724222741732946e+01
               tree_risk: 0.
               tree_error: 0.
               splits:
                  - { var:3, quality:1.2921836853027344e+01,
                      le:-1.4463677406311035e+00 }
            -
               depth: 1
               sample_count: 44
               value: 4.7258896346796642e-01
               Tn: 0
               complexity: 0
               alpha: 0.
               node_risk: 8.3493387164443078e-01
               tree_risk: 0.
               tree_error: 0.
               splits:
                  - { var:0, quality:1.0661442756652832e+01,
                      le:-8.2366353273391724e-01 }
            -
               depth: 2
               sample_count: 2
               value: -8.9214694499969482e-01
               Tn: 0
               complexity: 0
               alpha: 0.
               node_risk: 2.6454357195515588e-04
               tree_risk: 0.
               tree_error: 0.
            -
               depth: 2
               sample_count: 42
               value: 5.0264066457748413e-01
               Tn: 0
               complexity: 0
               alpha: 0.
               node_risk: 2.0054870444852213e-04
               tree_risk: 0.
               tree_error: 0.
               splits:
                  - { var:0, quality:1.0611387252807617e+01,
                      le:-6.3944327831268311e-01 }
            -
               depth: 3
               sample_count: 1
               value: 1.5500202178955078e+00
               Tn: 0
               complexity: 0
               alpha: 0.
               node_risk: 0.
               tree_risk: 0.
               tree_error: 0.
            -
               depth: 3
               sample_count: 41
               value: 1.5069688558578491e+00
               Tn: 0
               complexity: 0
               alpha: 0.
               node_risk: 1.4000962581306453e-05
               tree_risk: 0.
               tree_error: 0.
            -
               depth: 1
               sample_count: 108
               value: -1.6928121337184199e-01
               Tn: 0
               complexity: 0
               alpha: 0.
               node_risk: 8.9514802821080153e-03
               tree_risk: 0.
               tree_error: 0.
               splits:
                  - { var:0, quality:3.0969266891479492e+00,
                      le:-7.5619511306285858e-02 }
            -
               depth: 2
               sample_count: 40
               value: -1.7498222365975380e-01
               Tn: 0
               complexity: 0
               alpha: 0.
               node_risk: 6.5648617538114351e-03
               tree_risk: 0.
               tree_error: 0.
               splits:
                  - { var:3, quality:1.2300201654434204e+00,
                      le:8.7370610237121582e-01 }
            -
               depth: 3
               sample_count: 12
               value: -9.2943048477172852e-01
               Tn: 0
               complexity: 0
               alpha: 0.
               node_risk: 1.2481078639949850e-03
               tree_risk: 0.
               tree_error: 0.
            -
               depth: 3
               sample_count: 28
               value: -9.0087795257568359e-01
               Tn: 0
               complexity: 0
               alpha: 0.
               node_risk: 4.7696250253359551e-05
               tree_risk: 0.
               tree_error: 0.
            -
               depth: 2
               sample_count: 68
               value: -1.6592767790836446e-01
               Tn: 0
               complexity: 0
               alpha: 0.
               node_risk: 3.2181618906124143e-04
               tree_risk: 0.
               tree_error: 0.
               splits:
                  - { var:1, quality:1.8723675012588501e+00,
                      le:8.2477879524230957e-01 }
            -
               depth: 3
               sample_count: 38
               value: -9.0081447362899780e-01
               Tn: 0
               complexity: 0
               alpha: 0.
               node_risk: 8.7095942458148556e-08
               tree_risk: 0.
               tree_error: 0.
            -
               depth: 3
               sample_count: 30
               value: -8.9719748497009277e-01
               Tn: 0
               complexity: 0
               alpha: 0.
               node_risk: 1.2987778477457912e-04
               tree_risk: 0.
               tree_error: 0.
      -
         best_tree_idx: -1
         nodes:
            -
               depth: 0
               sample_count: 152
               value: -9.6441432833671570e-04
               Tn: 0
               complexity: 0
               alpha: 0.
               node_risk: 1.2581067511129122e+01
               tree_risk: 0.
               tree_error: 0.
               splits:
                  - { var:3, quality:1.1760001182556152e+01,
                      le:-1.4483599662780762e+00 }
            -
               depth: 1
               sample_count: 40
               value: 4.6446978300809860e-01
               Tn: 0
               complexity: 0
               alpha: 0.
               node_risk: 8.1133489669930370e-01
               tree_risk: 0.
               tree_error: 0.
               splits:
                  - { var:0, quality:9.4398956298828125e+00,
                      le:-8.2366353273391724e-01 }
            -
               depth: 2
               sample_count: 2
               value: -8.8955396413803101e-01
               Tn: 0
               complexity: 0
               alpha: 0.
               node_risk: 2.6079725115524255e-04
               tree_risk: 0.
               tree_error: 0.
            -
               depth: 2
               sample_count: 38
               value: 4.9712846467369481e-01
               Tn: 0
               complexity: 0
               alpha: 0.
               node_risk: 4.6608846573903406e-04
               tree_risk: 0.
               tree_error: 0.
               splits:
                  - { var:0, quality:9.3916473388671875e+00,
                      le:-6.2084633111953735e-01 }
            -
               depth: 3
               sample_count: 2
               value: 1.5361448526382446e+00
               Tn: 0
               complexity: 0
               alpha: 0.
               node_risk: 4.1887801671691705e-08
               tree_risk: 0.
               tree_error: 0.
            -
               depth: 3
               sample_count: 36
               value: 1.4890291690826416e+00
               Tn: 0
               complexity: 0
               alpha: 0.
               node_risk: 1.3801651443046126e-05
               tree_risk: 0.
               tree_error: 0.
            -
               depth: 1
               sample_count: 112
               value: -1.6719091337706363e-01
               Tn: 0
               complexity: 0
               alpha: 0.
               node_risk: 9.8730459897864442e-03
               tree_risk: 0.
               tree_error: 0.
               splits:
                  - { var:0, quality:3.1327095031738281e+00,
                      le:-7.5619511306285858e-02 }
            -
               depth: 2
               sample_count: 41
               value: -1.7274570247022117e-01
               Tn: 0
               complexity: 0
               alpha: 0.
               node_risk: 7.5444914535978125e-03
               tree_risk: 0.
               tree_error: 0.
               splits:
                  - { var:3, quality:1.2295784950256348e+00,
                      le:7.6475036144256592e-01 }
            -
               depth: 3
               sample_count: 9
               value: -9.3319594860076904e-01
               Tn: 0
               complexity: 0
               alpha: 0.
               node_risk: 1.0137599743647030e-03
               tree_risk: 0.
               tree_error: 0.
            -
               depth: 3
               sample_count: 32
               value: -8.9967113733291626e-01
               Tn: 0
               complexity: 0
               alpha: 0.
               node_risk: 4.3647461608131710e-04
               tree_risk: 0.
               tree_error: 0.
            -
               depth: 2
               sample_count: 71
               value: -1.6398321826693038e-01
               Tn: 0
               complexity: 0
               alpha: 0.
               node_risk: 3.3293071725504220e-04
               tree_risk: 0.
               tree_error: 0.
               splits:
                  - { var:1, quality:1.9094016551971436e+00,
                      le:7.5940895080566406e-01 }
            -
               depth: 3
               sample_count: 39
               value: -8.9864593744277954e-01
               Tn: 0
               complexity: 0
               alpha: 0.
               node_risk: 8.0331073792905272e-08
               tree_risk: 0.
               tree_error: 0.
            -
               depth: 3
               sample_count: 32
               value: -8.9528000354766846e-01
               Tn: 0
               complexity: 0
               alpha: 0.
               node_risk: 1.5645475326131475e-04
               tree_risk: 0.
               tree_error: 0.
      -
         best_tree_idx: -1
         nodes:
            -
               depth: 0
               sample_count: 152
               value: 7.6795529182019989e-03
               Tn: 0
               complexity: 0
               alpha: 0.
               node_risk: 1.2697817891645345e+01
               tree_risk: 0.
               tree_error: 0.
               splits:
                  - { var:3, quality:1.2303689956665039e+01,
                      le:-1.3948662281036377e+00 }
            -
               depth: 1
               sample_count: 41
               value: 4.7563789021678088e-01
               Tn: 0
               complexity: 0
               alpha: 0.
               node_risk: 3.9262870691978335e-01
               tree_risk: 0.
               tree_error: 0.
               splits:
                  - { var:0, quality:9.6676549911499023e+00,
                      le:-8.8406997919082642e-01 }
            -
               depth: 2
               sample_count: 1
               value: -8.7505471706390381e-01
               Tn: 0
               complexity: 0
               alpha: 0.
               node_risk: 0.
               tree_risk: 0.
               tree_error: 0.
            -
               depth: 2
               sample_count: 40
               value: 4.9110160619020460e-01
               Tn: 0
               complexity: 0
               alpha: 0.
               node_risk: 4.6122772076273577e-04
               tree_risk: 0.
               tree_error: 0.
               splits:
                  - { var:0, quality:9.6476783752441406e+00,
                      le:-6.2084633111953735e-01 }
            -
               depth: 3
               sample_count: 2
               value: 1.5172296762466431e+00
               Tn: 0
               complexity: 0
               alpha: 0.
               node_risk: 4.1905055425672799e-08
               tree_risk: 0.
               tree_error: 0.
            -
               depth: 3
               sample_count: 38
               value: 1.4715553522109985e+00
               Tn: 0
               complexity: 0
               alpha: 0.
               node_risk: 1.3879855085718873e-05
               tree_risk: 0.
               tree_error: 0.
            -
               depth: 1
               sample_count: 111
               value: -1.6516992302091271e-01
               Tn: 0
               complexity: 0
               alpha: 0.
               node_risk: 1.0463473488962372e-02
               tree_risk: 0.
               tree_error: 0.
               splits:
                  - { var:0, quality:3.0304656028747559e+00,
                      le:-9.2776104807853699e-02 }
            -
               depth: 2
               sample_count: 39
               value: -1.7130509324562856e-01
               Tn: 0
               complexity: 0
               alpha: 0.
               node_risk: 7.8379633324709985e-03
               tree_risk: 0.
               tree_error: 0.
               splits:
                  - { var:3, quality:1.1509965658187866e+00,
                      le:8.9110845327377319e-01 }
            -
               depth: 3
               sample_count: 11
               value: -9.2886340618133545e-01
               Tn: 0
               complexity: 0
               alpha: 0.
               node_risk: 1.3100666903131386e-03
               tree_risk: 0.
               tree_error: 0.
            -
               depth: 3
               sample_count: 28
               value: -8.9627027511596680e-01
               Tn: 0
               complexity: 0
               alpha: 0.
               node_risk: 3.3428609561569900e-06
               tree_risk: 0.
               tree_error: 0.
            -
               depth: 2
               sample_count: 72
               value: -1.6184670581585830e-01
               Tn: 0
               complexity: 0
               alpha: 0.
               node_risk: 3.6238629610885198e-04
               tree_risk: 0.
               tree_error: 0.
               splits:
                  - { var:1, quality:1.8862051963806152e+00,
                      le:7.5940895080566406e-01 }
            -
               depth: 3
               sample_count: 39
               value: -8.9651095867156982e-01
               Tn: 0
               complexity: 0
               alpha: 0.
               node_risk: 8.8661767261299929e-08
               tree_risk: 0.
               tree_error: 0.
            -
               depth: 3
               sample_count: 33
               value: -8.9286971092224121e-01
               Tn: 0
               complexity: 0
               alpha: 0.
               node_risk: 1.5074878787890711e-04
               tree_risk: 0.
               tree_error: 0.
      -
         best_tree_idx: -1
         nodes:
            -
               depth: 0
               sample_count: 152
               value: -9.4521166266579373e-03
               Tn: 0
               complexity: 0
               alpha: 0.
               node_risk: 1.1556442434070402e+01
               tree_risk: 0.
               tree_error: 0.
               splits:
                  - { var:3, quality:1.0786616325378418e+01,
                      le:-1.4463677406311035e+00 }
            -
               depth: 1
               sample_count: 38
               value: 4.5166144441617162e-01
               Tn: 0
               complexity: 0
               alpha: 0.
               node_risk: 7.7389067938438227e-01
               tree_risk: 0.
               tree_error: 0.
               splits:
                  - { var:0, quality:8.5250701904296875e+00,
                      le:-8.2366353273391724e-01 }
            -
               depth: 2
               sample_count: 2
               value: -8.8702780008316040e-01
               Tn: 0
               complexity: 0
               alpha: 0.
               node_risk: 2.9931574092600943e-04
               tree_risk: 0.
               tree_error: 0.
            -
               depth: 2
               sample_count: 36
               value: 4.8528178864055210e-01
               Tn: 0
               complexity: 0
               alpha: 0.
               node_risk: 4.4732233962641033e-04
               tree_risk: 0.
               tree_error: 0.
               splits:
                  - { var:0, quality:8.4783763885498047e+00,
                      le:-6.2084633111953735e-01 }
            -
               depth: 3
               sample_count: 2
               value: 1.4987741708755493e+00
               Tn: 0
               complexity: 0
               alpha: 0.
               node_risk: 4.1939573591776025e-08
               tree_risk: 0.
               tree_error: 0.
            -
               depth: 3
               sample_count: 34
               value: 1.4547313451766968e+00
               Tn: 0
               complexity: 0
               alpha: 0.
               node_risk: 1.3683312522161373e-05
               tree_risk: 0.
               tree_error: 0.
            -
               depth: 1
               sample_count: 114
               value: -1.6315663697426780e-01
               Tn: 0
               complexity: 0
               alpha: 0.
               node_risk: 9.5154683543317020e-03
               tree_risk: 0.
               tree_error: 0.
               splits:
                  - { var:0, quality:3.0367593765258789e+00,
                      le:-7.4474617838859558e-02 }
            -
               depth: 2
               sample_count: 42
               value: -1.6873507166192644e-01
               Tn: 0
               complexity: 0
               alpha: 0.
               node_risk: 7.1069851561087471e-03
               tree_risk: 0.
               tree_error: 0.
               splits:
                  - { var:3, quality:1.2014772891998291e+00,
                      le:8.7370610237121582e-01 }
            -
               depth: 3
               sample_count: 12
               value: -9.2333561182022095e-01
               Tn: 0
               complexity: 0
               alpha: 0.
               node_risk: 1.3832624101965951e-03
               tree_risk: 0.
               tree_error: 0.
            -
               depth: 3
               sample_count: 30
               value: -8.9434224367141724e-01
               Tn: 0
               complexity: 0
               alpha: 0.
               node_risk: 5.0429650234162793e-05
               tree_risk: 0.
               tree_error: 0.
            -
               depth: 2
               sample_count: 72
               value: -1.5990255007313359e-01
               Tn: 0
               complexity: 0
               alpha: 0.
               node_risk: 3.3907411618749883e-04
               tree_risk: 0.
               tree_error: 0.
               splits:
                  - { var:1, quality:1.8411736488342285e+00,
                      le:7.5940895080566406e-01 }
            -
               depth: 3
               sample_count: 40
               value: -8.9441120624542236e-01
               Tn: 0
               complexity: 0
               alpha: 0.
               node_risk: 1.2700120910480450e-07
               tree_risk: 0.
               tree_error: 0.
            -
               depth: 3
               sample_count: 32
               value: -8.9071542024612427e-01
               Tn: 0
               complexity: 0
               alpha: 0.
               node_risk: 1.2077102084617763e-04
               tree_risk: 0.
               tree_error: 0.
      -
         best_tree_idx: -1
         nodes:
            -
               depth: 0
               sample_count: 152
               value: -1.3315596274639432e-03
               Tn: 0
               complexity: 0
               alpha: 0.
               node_risk: 1.1721295494923297e+01
               tree_risk: 0.
               tree_error: 0.
               splits:
                  - { var:3, quality:1.0953809738159180e+01,
                      le:-1.4463677406311035e+00 }
            -
               depth: 1
               sample_count: 40
               value: 4.4786298125982282e-01
               Tn: 0
               complexity: 0
               alpha: 0.
               node_risk: 7.5624175004600680e-01
               tree_risk: 0.
               tree_error: 0.
               splits:
                  - { var:0, quality:8.7786598205566406e+00,
                      le:-8.2366353273391724e-01 }
            -
               depth: 2
               sample_count: 2
               value: -8.8456797599792480e-01
               Tn: 0
               complexity: 0
               alpha: 0.
               node_risk: 2.9499470010252438e-04
               tree_risk: 0.
               tree_error: 0.
            -
               depth: 2
               sample_count: 38
               value: 4.7939011925145197e-01
               Tn: 0
               complexity: 0
               alpha: 0.
               node_risk: 5.3682858905368391e-04
               tree_risk: 0.
               tree_error: 0.
               splits:
                  - { var:0, quality:8.7334909439086914e+00,
                      le:-6.2084633111953735e-01 }
            -
               depth: 3
               sample_count: 2
               value: 1.4856264591217041e+00
               Tn: 0
               complexity: 0
               alpha: 0.
               node_risk: 4.1922312732367573e-08
               tree_risk: 0.
               tree_error: 0.
            -
               depth: 3
               sample_count: 36
               value: 1.4381992816925049e+00
               Tn: 0
               complexity: 0
               alpha: 0.
               node_risk: 1.1614622570377264e-05
               tree_risk: 0.
               tree_error: 0.
            -
               depth: 1
               sample_count: 112
               value: -1.6175818137292350e-01
               Tn: 0
               complexity: 0
               alpha: 0.
               node_risk: 1.1513814317690496e-02
               tree_risk: 0.
               tree_error: 0.
               splits:
                  - { var:0, quality:2.9331047534942627e+00,
                      le:-7.5619511306285858e-02 }
            -
               depth: 2
               sample_count: 43
               value: -1.6779704287994740e-01
               Tn: 0
               complexity: 0
               alpha: 0.
               node_risk: 8.6289334084270752e-03
               tree_risk: 0.
               tree_error: 0.
               splits:
                  - { var:3, quality:1.2176666259765625e+00,
                      le:8.7370610237121582e-01 }
            -
               depth: 3
               sample_count: 13
               value: -9.2340695858001709e-01
               Tn: 0
               complexity: 0
               alpha: 0.
               node_risk: 1.6043321993603477e-03
               tree_risk: 0.
               tree_error: 0.
            -
               depth: 3
               sample_count: 30
               value: -8.9225322008132935e-01
               Tn: 0
               complexity: 0
               alpha: 0.
               node_risk: 5.9476041012418435e-05
               tree_risk: 0.
               tree_error: 0.
            -
               depth: 2
               sample_count: 69
               value: -1.5799483289753180e-01
               Tn: 0
               complexity: 0
               alpha: 0.
               node_risk: 3.3953080176263306e-04
               tree_risk: 0.
               tree_error: 0.
               splits:
                  - { var:1, quality:1.7225955724716187e+00,
                      le:7.1977233886718750e-01 }
            -
               depth: 3
               sample_count: 38
               value: -8.9232879877090454e-01
               Tn: 0
               complexity: 0
               alpha: 0.
               node_risk: 1.1495104301761927e-07
               tree_risk: 0.
               tree_error: 0.
            -
               depth: 3
               sample_count: 31
               value: -8.8881194591522217e-01
               Tn: 0
               complexity: 0
               alpha: 0.
               node_risk: 1.4712816198725331e-04
               tree_risk: 0.
               tree_error: 0.
      -
         best_tree_idx: -1
         nodes:
            -
               depth: 0
               sample_count: 152
               value: -5.3814961329886786e-03
               Tn: 0
               complexity: 0
               alpha: 0.
               node_risk: 1.1212902473306608e+01
               tree_risk: 0.
               tree_error: 0.
               splits:
                  - { var:3, quality:1.0469829559326172e+01,
                      le:-1.4463677406311035e+00 }
            -
               depth: 1
               sample_count: 39
               value: 4.4126467444957829e-01
               Tn: 0
               complexity: 0
               alpha: 0.
               node_risk: 7.3618159652361204e-01
               tree_risk: 0.
               tree_error: 0.
               splits:
                  - { var:0, quality:8.3294715881347656e+00,
                      le:-8.0506658554077148e-01 }
            -
               depth: 2
               sample_count: 2
               value: -8.8279908895492554e-01
               Tn: 0
               complexity: 0
               alpha: 0.
               node_risk: 2.9345266449531948e-04
               tree_risk: 0.
               tree_error: 0.
            -
               depth: 2
               sample_count: 37
               value: 4.7319507759970586e-01
               Tn: 0
               complexity: 0
               alpha: 0.
               node_risk: 2.8235325375547404e-04
               tree_risk: 0.
               tree_error: 0.
               splits:
                  - { var:0, quality:8.2850713729858398e+00,
                      le:-6.2084633111953735e-01 }
            -
               depth: 3
               sample_count: 1
               value: 1.4687507152557373e+00
               Tn: 0
               complexity: 0
               alpha: 0.
               node_risk: 0.
               tree_risk: 0.
               tree_error: 0.
            -
               depth: 3
               sample_count: 36
               value: 1.4224665164947510e+00
               Tn: 0
               complexity: 0
               alpha: 0.
               node_risk: 1.3725546926579568e-05
               tree_risk: 0.
               tree_error: 0.
            -
               depth: 1
               sample_count: 113
               value: -1.5953371429865340e-01
               Tn: 0
               complexity: 0
               alpha: 0.
               node_risk: 1.1293191346636089e-02
               tree_risk: 0.
               tree_error: 0.
               splits:
                  - { var:0, quality:2.8785390853881836e+00,
                      le:-7.5619511306285858e-02 }
            -
               depth: 2
               sample_count: 40
               value: -1.6598310284316539e-01
               Tn: 0
               complexity: 0
               alpha: 0.
               node_risk: 8.3502928322412018e-03
               tree_risk: 0.
               tree_error: 0.
               splits:
                  - { var:3, quality:1.1087628602981567e+00,
                      le:8.4215891361236572e-01 }
            -
               depth: 3
               sample_count: 11
               value: -9.2333030700683594e-01
               Tn: 0
               complexity: 0
               alpha: 0.
               node_risk: 1.3412924246280489e-03
               tree_risk: 0.
               tree_error: 0.
            -
               depth: 3
               sample_count: 29
               value: -8.9078009128570557e-01
               Tn: 0
               complexity: 0
               alpha: 0.
               node_risk: 2.6175228157521158e-04
               tree_risk: 0.
               tree_error: 0.
            -
               depth: 2
               sample_count: 73
               value: -1.5599980276741393e-01
               Tn: 0
               complexity: 0
               alpha: 0.
               node_risk: 3.6745126859649702e-04
               tree_risk: 0.
               tree_error: 0.
               splits:
                  - { var:1, quality:1.7767530679702759e+00,
                      le:8.8409143686294556e-01 }
            -
               depth: 3
               sample_count: 41
               value: -8.9027804136276245e-01
               Tn: 0
               complexity: 0
               alpha: 0.
               node_risk: 1.2522570380646414e-07
               tree_risk: 0.
               tree_error: 0.
            -
               depth: 3
               sample_count: 32
               value: -8.8654613494873047e-01
               Tn: 0
               complexity: 0
               alpha: 0.
               node_risk: 1.3773604466504885e-04
               tree_risk: 0.
               tree_error: 0.
      -
         best_tree_idx: -1
         nodes:
            -
               depth: 0
               sample_count: 152
               value: 1.5638708087958787e-02
               Tn: 0
               complexity: 0
               alpha: 0.
               node_risk: 1.1870875839368878e+01
               tree_risk: 0.
               tree_error: 0.
               splits:
                  - { var:3, quality:1.1514838218688965e+01,
                      le:-1.4463677406311035e+00 }
            -
               depth: 1
               sample_count: 43
               value: 4.5314466329508052e-01
               Tn: 0
               complexity: 0
               alpha: 0.
               node_risk: 3.8516885763283959e-01
               tree_risk: 0.
               tree_error: 0.
               splits:
                  - { var:0, quality:9.2142686843872070e+00,
                      le:-8.2366353273391724e-01 }
            -
               depth: 2
               sample_count: 1
               value: -8.9264357089996338e-01
               Tn: 0
               complexity: 0
               alpha: 0.
               node_risk: 0.
               tree_risk: 0.
               tree_error: 0.
            -
               depth: 2
               sample_count: 42
               value: 4.6773856026785715e-01
               Tn: 0
               complexity: 0
               alpha: 0.
               node_risk: 5.2367472609304855e-04
               tree_risk: 0.
               tree_error: 0.
               splits:
                  - { var:0, quality:9.1892433166503906e+00,
                      le:-6.2084633111953735e-01 }
            -
               depth: 3
               sample_count: 2
               value: 1.4515731334686279e+00
               Tn: 0
               complexity: 0
               alpha: 0.
               node_risk: 4.1836061726030493e-08
               tree_risk: 0.
               tree_error: 0.
            -
               depth: 3
               sample_count: 40
               value: 1.4070246219635010e+00
               Tn: 0
               complexity: 0
               alpha: 0.
               node_risk: 1.3848938007043898e-05
               tree_risk: 0.
               tree_error: 0.
            -
               depth: 1
               sample_count: 109
               value: -1.5695538433319930e-01
               Tn: 0
               complexity: 0
               alpha: 0.
               node_risk: 8.0436050266521342e-03
               tree_risk: 0.
               tree_error: 0.
               splits:
                  - { var:0, quality:2.6867907047271729e+00,
                      le:-7.5619511306285858e-02 }
            -
               depth: 2
               sample_count: 40
               value: -1.6195033229887484e-01
               Tn: 0
               complexity: 0
               alpha: 0.
               node_risk: 6.1360005891137881e-03
               tree_risk: 0.
               tree_error: 0.
               splits:
                  - { var:3, quality:1.0539841651916504e+00,
                      le:8.7370610237121582e-01 }
            -
               depth: 3
               sample_count: 10
               value: -9.1656291484832764e-01
               Tn: 0
               complexity: 0
               alpha: 0.
               node_risk: 1.2098350831081794e-03
               tree_risk: 0.
               tree_error: 0.
            -
               depth: 3
               sample_count: 30
               value: -8.8819813728332520e-01
               Tn: 0
               complexity: 0
               alpha: 0.
               node_risk: 5.8448643263209199e-05
               tree_risk: 0.
               tree_error: 0.
            -
               depth: 2
               sample_count: 69
               value: -1.5405976232411206e-01
               Tn: 0
               complexity: 0
               alpha: 0.
               node_risk: 3.3108497980438578e-04
               tree_risk: 0.
               tree_error: 0.
               splits:
                  - { var:1, quality:1.6378878355026245e+00,
                      le:7.5940895080566406e-01 }
            -
               depth: 3
               sample_count: 38
               value: -8.8825577497482300e-01
               Tn: 0
               complexity: 0
               alpha: 0.
               node_risk: 1.1136240130049657e-07
               tree_risk: 0.
               tree_error: 0.
            -
               depth: 3
               sample_count: 31
               value: -8.8457697629928589e-01
               Tn: 0
               complexity: 0
               alpha: 0.
               node_risk: 1.1746135304058214e-04
               tree_risk: 0.
               tree_error: 0.
      -
         best_tree_idx: -1
         nodes:
            -
               depth: 0
               sample_count: 152
               value: 1.1351151882033599e-02
               Tn: 0
               complexity: 0
               alpha: 0.
               node_risk: 1.1412237891513980e+01
               tree_risk: 0.
               tree_error: 0.
               splits:
                  - { var:3, quality:1.1047264099121094e+01,
                      le:-1.3993511199951172e+00 }
            -
               depth: 1
               sample_count: 42
               value: 4.4725626103934790e-01
               Tn: 0
               complexity: 0
               alpha: 0.
               node_risk: 3.7574650806848453e-01
               tree_risk: 0.
               tree_error: 0.
               splits:
                  - { var:0, quality:8.7768373489379883e+00,
                      le:-8.2366353273391724e-01 }
            -
               depth: 2
               sample_count: 1
               value: -8.9070582389831543e-01
               Tn: 0
               complexity: 0
               alpha: 0.
               node_risk: 0.
               tree_risk: 0.
               tree_error: 0.
            -
               depth: 2
               sample_count: 41
               value: 4.6201790542137333e-01
               Tn: 0
               complexity: 0
               alpha: 0.
               node_risk: 5.1212661718302854e-04
               tree_risk: 0.
               tree_error: 0.
               splits:
                  - { var:0, quality:8.7523841857910156e+00,
                      le:-6.1514461040496826e-01 }
            -
               depth: 3
               sample_count: 2
               value: 1.4353325366973877e+00
               Tn: 0
               complexity: 0
               alpha: 0.
               node_risk: 4.1749899537535384e-08
               tree_risk: 0.
               tree_error: 0.
            -
               depth: 3
               sample_count: 39
               value: 1.3920490741729736e+00
               Tn: 0
               complexity: 0
               alpha: 0.
               node_risk: 9.8690521159738864e-06
               tree_risk: 0.
               tree_error: 0.
            -
               depth: 1
               sample_count: 110
               value: -1.5508534434166821e-01
               Tn: 0
               complexity: 0
               alpha: 0.
               node_risk: 8.8124872141577271e-03
               tree_risk: 0.
               tree_error: 0.
               splits:
                  - { var:0, quality:2.6474144458770752e+00,
                      le:-7.4474617838859558e-02 }
            -
               depth: 2
               sample_count: 40
               value: -1.6036691106855869e-01
               Tn: 0
               complexity: 0
               alpha: 0.
               node_risk: 6.6812942776104389e-03
               tree_risk: 0.
               tree_error: 0.
               splits:
                  - { var:3, quality:1.0341471433639526e+00,
                      le:8.7370610237121582e-01 }
            -
               depth: 3
               sample_count: 10
               value: -9.1600477695465088e-01
               Tn: 0
               complexity: 0
               alpha: 0.
               node_risk: 1.1759995233453502e-03
               tree_risk: 0.
               tree_error: 0.
            -
               depth: 3
               sample_count: 30
               value: -8.8615155220031738e-01
               Tn: 0
               complexity: 0
               alpha: 0.
               node_risk: 6.0000333583554166e-05
               tree_risk: 0.
               tree_error: 0.
            -
               depth: 2
               sample_count: 70
               value: -1.5206730621201650e-01
               Tn: 0
               complexity: 0
               alpha: 0.
               node_risk: 3.7779626228640062e-04
               tree_risk: 0.
               tree_error: 0.
               splits:
                  - { var:1, quality:1.6189352273941040e+00,
                      le:7.5940895080566406e-01 }
            -
               depth: 3
               sample_count: 37
               value: -8.8626468181610107e-01
               Tn: 0
               complexity: 0
               alpha: 0.
               node_risk: 1.2637496982215168e-07
               tree_risk: 0.
               tree_error: 0.
            -
               depth: 3
               sample_count: 33
               value: -8.8257104158401489e-01
               Tn: 0
               complexity: 0
               alpha: 0.
               node_risk: 1.5500738826890181e-04
               tree_risk: 0.
               tree_error: 0.
      -
         best_tree_idx: -1
         nodes:
            -
               depth: 0
               sample_count: 152
               value: -9.3641303675739383e-03
               Tn: 0
               complexity: 0
               alpha: 0.
               node_risk: 1.0249639858363526e+01
               tree_risk: 0.
               tree_error: 0.
               splits:
                  - { var:3, quality:9.8862323760986328e+00,
                      le:-1.4463677406311035e+00 }
            -
               depth: 1
               sample_count: 37
               value: 4.3994860512179296e-01
               Tn: 0
               complexity: 0
               alpha: 0.
               node_risk: 3.6571275493631550e-01
               tree_risk: 0.
               tree_error: 0.
               splits:
                  - { var:0, quality:7.5267391204833984e+00,
                      le:-8.2366353273391724e-01 }
            -
               depth: 2
               sample_count: 1
               value: -8.8879078626632690e-01
               Tn: 0
               complexity: 0
               alpha: 0.
               node_risk: 0.
               tree_risk: 0.
               tree_error: 0.
            -
               depth: 2
               sample_count: 36
               value: 4.5650709006521439e-01
               Tn: 0
               complexity: 0
               alpha: 0.
               node_risk: 5.0043467245952655e-04
               tree_risk: 0.
               tree_error: 0.
               splits:
                  - { var:0, quality:7.5028414726257324e+00,
                      le:-6.2084633111953735e-01 }
            -
               depth: 3
               sample_count: 2
               value: 1.4195895195007324e+00
               Tn: 0
               complexity: 0
               alpha: 0.
               node_risk: 4.1663826166882245e-08
               tree_risk: 0.
               tree_error: 0.
            -
               depth: 3
               sample_count: 34
               value: 1.3777027130126953e+00
               Tn: 0
               complexity: 0
               alpha: 0.
               node_risk: 1.2988158306193043e-05
               tree_risk: 0.
               tree_error: 0.
            -
               depth: 1
               sample_count: 115
               value: -1.5392561917719633e-01
               Tn: 0
               complexity: 0
               alpha: 0.
               node_risk: 1.1022769940256527e-02
               tree_risk: 0.
               tree_error: 0.
               splits:
                  - { var:0, quality:2.7266149520874023e+00,
                      le:-6.3053756952285767e-02 }
            -
               depth: 2
               sample_count: 48
               value: -1.5873908034215370e-01
               Tn: 0
               complexity: 0
               alpha: 0.
               node_risk: 8.8003136726582110e-03
               tree_risk: 0.
               tree_error: 0.
               splits:
                  - { var:3, quality:1.2166038751602173e+00,
                      le:8.4215891361236572e-01 }
            -
               depth: 3
               sample_count: 11
               value: -9.1661077737808228e-01
               Tn: 0
               complexity: 0
               alpha: 0.
               node_risk: 1.4560386535111824e-03
               tree_risk: 0.
               tree_error: 0.
            -
               depth: 3
               sample_count: 37
               value: -8.8459479808807373e-01
               Tn: 0
               complexity: 0
               alpha: 0.
               node_risk: 2.4903589001123994e-04
               tree_risk: 0.
               tree_error: 0.
            -
               depth: 2
               sample_count: 67
               value: -1.5047716938737613e-01
               Tn: 0
               complexity: 0
               alpha: 0.
               node_risk: 3.1357366620077265e-04
               tree_risk: 0.
               tree_error: 0.
               splits:
                  - { var:1, quality:1.5172650814056396e+00,
                      le:7.5940895080566406e-01 }
            -
               depth: 3
               sample_count: 37
               value: -8.8429111242294312e-01
               Tn: 0
               complexity: 0
               alpha: 0.
               node_risk: 1.0936690397755910e-07
               tree_risk: 0.
               tree_error: 0.
            -
               depth: 3
               sample_count: 30
               value: -8.8111174106597900e-01
               Tn: 0
               complexity: 0
               alpha: 0.
               node_risk: 1.5476002555114832e-04
               tree_risk: 0.
               tree_error: 0.
      -
         best_tree_idx: -1
         nodes:
            -
               depth: 0
               sample_count: 152
               value: 3.2069302703204906e-03
               Tn: 0
               complexity: 0
               alpha: 0.
               node_risk: 1.0521638954482270e+01
               tree_risk: 0.
               tree_error: 0.
               splits:
                  - { var:3, quality:9.8453998565673828e+00,
                      le:-1.4463677406311035e+00 }
            -
               depth: 1
               sample_count: 41
               value: 4.2193296006539971e-01
               Tn: 0
               complexity: 0
               alpha: 0.
               node_risk: 6.6731246012675349e-01
               tree_risk: 0.
               tree_error: 0.
               splits:
                  - { var:0, quality:7.9655885696411133e+00,
                      le:-8.2366353273391724e-01 }
            -
               depth: 2
               sample_count: 2
               value: -8.7445557117462158e-01
               Tn: 0
               complexity: 0
               alpha: 0.
               node_risk: 3.5254409398721709e-04
               tree_risk: 0.
               tree_error: 0.
            -
               depth: 2
               sample_count: 39
               value: 4.5080511080913055e-01
               Tn: 0
               complexity: 0
               alpha: 0.
               node_risk: 4.9584572207805877e-04
               tree_risk: 0.
               tree_error: 0.
               splits:
                  - { var:0, quality:7.9262676239013672e+00,
                      le:-6.2084633111953735e-01 }
            -
               depth: 3
               sample_count: 2
               value: 1.4043302536010742e+00
               Tn: 0
               complexity: 0
               alpha: 0.
               node_risk: 4.1543472661942360e-08
               tree_risk: 0.
               tree_error: 0.
            -
               depth: 3
               sample_count: 37
               value: 1.3636064529418945e+00
               Tn: 0
               complexity: 0
               alpha: 0.
               node_risk: 1.3066685245810561e-05
               tree_risk: 0.
               tree_error: 0.
            -
               depth: 1
               sample_count: 111
               value: -1.5145763929362768e-01
               Tn: 0
               complexity: 0
               alpha: 0.
               node_risk: 1.0490157507059727e-02
               tree_risk: 0.
               tree_error: 0.
               splits:
                  - { var:0, quality:2.5479938983917236e+00,
                      le:-7.4474617838859558e-02 }
            -
               depth: 2
               sample_count: 44
               value: -1.5631339936093849e-01
               Tn: 0
               complexity: 0
               alpha: 0.
               node_risk: 8.4000561053780842e-03
               tree_risk: 0.
               tree_error: 0.
               splits:
                  - { var:3, quality:1.0818471908569336e+00,
                      le:7.6475036144256592e-01 }
            -
               depth: 3
               sample_count: 8
               value: -9.1848862171173096e-01
               Tn: 0
               complexity: 0
               alpha: 0.
               node_risk: 1.2280123133798782e-03
               tree_risk: 0.
               tree_error: 0.
            -
               depth: 3
               sample_count: 36
               value: -8.8292270898818970e-01
               Tn: 0
               complexity: 0
               alpha: 0.
               node_risk: 4.1546328392749743e-04
               tree_risk: 0.
               tree_error: 0.
            -
               depth: 2
               sample_count: 67
               value: -1.4826878193599075e-01
               Tn: 0
               complexity: 0
               alpha: 0.
               node_risk: 3.7134119153559020e-04
               tree_risk: 0.
               tree_error: 0.
               splits:
                  - { var:1, quality:1.4731496572494507e+00,
                      le:7.8514218330383301e-01 }
            -
               depth: 3
               sample_count: 37
               value: -8.8234806060791016e-01
               Tn: 0
               complexity: 0
               alpha: 0.
               node_risk: 1.1196438287619515e-07
               tree_risk: 0.
               tree_error: 0.
            -
               depth: 3
               sample_count: 30
               value: -8.7839287519454956e-01
               Tn: 0
               complexity: 0
               alpha: 0.
               node_risk: 1.2491308635664833e-04
               tree_risk: 0.
               tree_error: 0.
      -
         best_tree_idx: -1
         nodes:
            -
               depth: 0
               sample_count: 152
               value: 3.3245966034500221e-03
               Tn: 0
               complexity: 0
               alpha: 0.
               node_risk: 1.0257926286645993e+01
               tree_risk: 0.
               tree_error: 0.
               splits:
                  - { var:3, quality:9.9308252334594727e+00,
                      le:-1.4483599662780762e+00 }
            -
               depth: 1
               sample_count: 40
               value: 4.3099888823926447e-01
               Tn: 0
               complexity: 0
               alpha: 0.
               node_risk: 3.1898401777664365e-01
               tree_risk: 0.
               tree_error: 0.
               splits:
                  - { var:0, quality:7.7488985061645508e+00,
                      le:-8.8406997919082642e-01 }
            -
               depth: 2
               sample_count: 1
               value: -8.5837632417678833e-01
               Tn: 0
               complexity: 0
               alpha: 0.
               node_risk: 0.
               tree_risk: 0.
               tree_error: 0.
            -
               depth: 2
               sample_count: 39
               value: 4.4528751037059688e-01
               Tn: 0
               complexity: 0
               alpha: 0.
               node_risk: 4.8705081392075300e-04
               tree_risk: 0.
               tree_error: 0.
               splits:
                  - { var:0, quality:7.7334299087524414e+00,
                      le:-6.2084633111953735e-01 }
            -
               depth: 3
               sample_count: 2
               value: 1.3895353078842163e+00
               Tn: 0
               complexity: 0
               alpha: 0.
               node_risk: 4.1406138961974648e-08
               tree_risk: 0.
               tree_error: 0.
            -
               depth: 3
               sample_count: 37
               value: 1.3500853776931763e+00
               Tn: 0
               complexity: 0
               alpha: 0.
               node_risk: 1.4981685443338222e-05
               tree_risk: 0.
               tree_error: 0.
            -
               depth: 1
               sample_count: 112
               value: -1.4941622183791228e-01
               Tn: 0
               complexity: 0
               alpha: 0.
               node_risk: 9.7974265901816793e-03
               tree_risk: 0.
               tree_error: 0.
               splits:
                  - { var:0, quality:2.5024092197418213e+00,
                      le:-7.5619511306285858e-02 }
            -
               depth: 2
               sample_count: 40
               value: -1.5506588779389857e-01
               Tn: 0
               complexity: 0
               alpha: 0.
               node_risk: 7.4048568110902657e-03
               tree_risk: 0.
               tree_error: 0.
               splits:
                  - { var:3, quality:9.6774214506149292e-01,
                      le:7.6475036144256592e-01 }
            -
               depth: 3
               sample_count: 8
               value: -9.1477888822555542e-01
               Tn: 0
               complexity: 0
               alpha: 0.
               node_risk: 1.0371968715316982e-03
               tree_risk: 0.
               tree_error: 0.
            -
               depth: 3
               sample_count: 32
               value: -8.8139218091964722e-01
               Tn: 0
               complexity: 0
               alpha: 0.
               node_risk: 4.4271599583012300e-04
               tree_risk: 0.
               tree_error: 0.
            -
               depth: 2
               sample_count: 72
               value: -1.4627751852903101e-01
               Tn: 0
               complexity: 0
               alpha: 0.
               node_risk: 4.0651575332084633e-04
               tree_risk: 0.
               tree_error: 0.
               splits:
                  - { var:1, quality:1.5408704280853271e+00,
                      le:7.8514218330383301e-01 }
            -
               depth: 3
               sample_count: 38
               value: -8.8042372465133667e-01
               Tn: 0
               complexity: 0
               alpha: 0.
               node_risk: 8.1165040355379858e-08
               tree_risk: 0.
               tree_error: 0.
            -
               depth: 3
               sample_count: 34
               value: -8.7639850378036499e-01
               Tn: 0
               complexity: 0
               alpha: 0.
               node_risk: 1.2807049302887563e-04
               tree_risk: 0.
               tree_error: 0.
      -
         best_tree_idx: -1
         nodes:
            -
               depth: 0
               sample_count: 152
               value: 2.7457061958940407e-03
               Tn: 0
               complexity: 0
               alpha: 0.
               node_risk: 1.0048765672479377e+01
               tree_risk: 0.
               tree_error: 0.
               splits:
                  - { var:3, quality:9.3988924026489258e+00,
                      le:-1.4483599662780762e+00 }
            -
               depth: 1
               sample_count: 41
               value: 4.1187411292297083e-01
               Tn: 0
               complexity: 0
               alpha: 0.
               node_risk: 6.3722801845283872e-01
               tree_risk: 0.
               tree_error: 0.
               splits:
                  - { var:0, quality:7.5915474891662598e+00,
                      le:-8.2366353273391724e-01 }
            -
               depth: 2
               sample_count: 2
               value: -8.7173175811767578e-01
               Tn: 0
               complexity: 0
               alpha: 0.
               node_risk: 3.8733628066822678e-04
               tree_risk: 0.
               tree_error: 0.
            -
               depth: 2
               sample_count: 39
               value: 4.4008522920119458e-01
               Tn: 0
               complexity: 0
               alpha: 0.
               node_risk: 5.4495038223389969e-04
               tree_risk: 0.
               tree_error: 0.
               splits:
                  - { var:0, quality:7.5538625717163086e+00,
                      le:-6.1514461040496826e-01 }
            -
               depth: 3
               sample_count: 2
               value: 1.3788076639175415e+00
               Tn: 0
               complexity: 0
               alpha: 0.
               node_risk: 4.1286158491971037e-08
               tree_risk: 0.
               tree_error: 0.
            -
               depth: 3
               sample_count: 37
               value: 1.3374291658401489e+00
               Tn: 0
               complexity: 0
               alpha: 0.
               node_risk: 7.4904167481903983e-06
               tree_risk: 0.
               tree_error: 0.
            -
               depth: 1
               sample_count: 111
               value: -1.4837379538798118e-01
               Tn: 0
               complexity: 0
               alpha: 0.
               node_risk: 1.3790955949648076e-02
               tree_risk: 0.
               tree_error: 0.
               splits:
                  - { var:0, quality:2.4467575550079346e+00,
                      le:-7.4474617838859558e-02 }
            -
               depth: 2
               sample_count: 38
               value: -1.5571808579720950e-01
               Tn: 0
               complexity: 0
               alpha: 0.
               node_risk: 1.0277178547230870e-02
               tree_risk: 0.
               tree_error: 0.
               splits:
                  - { var:3, quality:9.3009835481643677e-01,
                      le:7.9172849655151367e-01 }
            -
               depth: 3
               sample_count: 10
               value: -9.1659080982208252e-01
               Tn: 0
               complexity: 0
               alpha: 0.
               node_risk: 1.3710364155673505e-03
               tree_risk: 0.
               tree_error: 0.
            -
               depth: 3
               sample_count: 28
               value: -8.7899094820022583e-01
               Tn: 0
               complexity: 0
               alpha: 0.
               node_risk: 2.3643509932724793e-04
               tree_risk: 0.
               tree_error: 0.
            -
               depth: 2
               sample_count: 73
               value: -1.4455074010646507e-01
               Tn: 0
               complexity: 0
               alpha: 0.
               node_risk: 3.9716066800132843e-04
               tree_risk: 0.
               tree_error: 0.
               splits:
                  - { var:1, quality:1.5255622863769531e+00,
                      le:6.3981342315673828e-01 }
            -
               depth: 3
               sample_count: 37
               value: -8.7854355573654175e-01
               Tn: 0
               complexity: 0
               alpha: 0.
               node_risk: 1.1176405079194041e-07
               tree_risk: 0.
               tree_error: 0.
            -
               depth: 3
               sample_count: 36
               value: -8.7491101026535034e-01
               Tn: 0
               complexity: 0
               alpha: 0.
               node_risk: 1.6367915594928117e-04
               tree_risk: 0.
               tree_error: 0.
      -
         best_tree_idx: -1
         nodes:
            -
               depth: 0
               sample_count: 152
               value: 3.1893200388080196e-03
               Tn: 0
               complexity: 0
               alpha: 0.
               node_risk: 9.7801181532596537e+00
               tree_risk: 0.
               tree_error: 0.
               splits:
                  - { var:3, quality:9.1504878997802734e+00,
                      le:-1.4463677406311035e+00 }
            -
               depth: 1
               sample_count: 41
               value: 4.0686556406137420e-01
               Tn: 0
               complexity: 0
               alpha: 0.
               node_risk: 6.2152532223791557e-01
               tree_risk: 0.
               tree_error: 0.
               splits:
                  - { var:0, quality:7.4077186584472656e+00,
                      le:-8.2366353273391724e-01 }
            -
               depth: 2
               sample_count: 2
               value: -8.6993473768234253e-01
               Tn: 0
               complexity: 0
               alpha: 0.
               node_risk: 3.9413404010879560e-04
               tree_risk: 0.
               tree_error: 0.
            -
               depth: 2
               sample_count: 39
               value: 4.3472645680109662e-01
               Tn: 0
               complexity: 0
               alpha: 0.
               node_risk: 5.3582746648039858e-04
               tree_risk: 0.
               tree_error: 0.
               splits:
                  - { var:0, quality:7.3710179328918457e+00,
                      le:-6.2084633111953735e-01 }
            -
               depth: 3
               sample_count: 2
               value: 1.3647580146789551e+00
               Tn: 0
               complexity: 0
               alpha: 0.
               node_risk: 4.1115059801200005e-08
               tree_risk: 0.
               tree_error: 0.
            -
               depth: 3
               sample_count: 37
               value: 1.3248012065887451e+00
               Tn: 0
               complexity: 0
               alpha: 0.
               node_risk: 1.4466593161621688e-05
               tree_risk: 0.
               tree_error: 0.
            -
               depth: 1
               sample_count: 111
               value: -1.4591631964520291e-01
               Tn: 0
               complexity: 0
               alpha: 0.
               node_risk: 9.6513333077710151e-03
               tree_risk: 0.
               tree_error: 0.
               splits:
                  - { var:0, quality:2.3649349212646484e+00,
                      le:-1.0562058538198471e-01 }
            -
               depth: 2
               sample_count: 39
               value: -1.5102697947086433e-01
               Tn: 0
               complexity: 0
               alpha: 0.
               node_risk: 7.7515654918041133e-03
               tree_risk: 0.
               tree_error: 0.
               splits:
                  - { var:3, quality:8.9613002538681030e-01,
                      le:7.9629755020141602e-01 }
            -
               depth: 3
               sample_count: 8
               value: -9.1171950101852417e-01
               Tn: 0
               complexity: 0
               alpha: 0.
               node_risk: 1.1238104913297853e-03
               tree_risk: 0.
               tree_error: 0.
            -
               depth: 3
               sample_count: 31
               value: -8.7662297487258911e-01
               Tn: 0
               complexity: 0
               alpha: 0.
               node_risk: 5.4493295243651652e-05
               tree_risk: 0.
               tree_error: 0.
            -
               depth: 2
               sample_count: 72
               value: -1.4314804557296965e-01
               Tn: 0
               complexity: 0
               alpha: 0.
               node_risk: 3.2937232926744109e-04
               tree_risk: 0.
               tree_error: 0.
               splits:
                  - { var:1, quality:1.4755516052246094e+00,
                      le:8.8409143686294556e-01 }
            -
               depth: 3
               sample_count: 41
               value: -8.7667787075042725e-01
               Tn: 0
               complexity: 0
               alpha: 0.
               node_risk: 1.0138856454400269e-07
               tree_risk: 0.
               tree_error: 0.
            -
               depth: 3
               sample_count: 31
               value: -8.7351369857788086e-01
               Tn: 0
               complexity: 0
               alpha: 0.
               node_risk: 1.5583806258689936e-04
               tree_risk: 0.
               tree_error: 0.
      -
         best_tree_idx: -1
         nodes:
            -
               depth: 0
               sample_count: 152
               value: -4.9061686486790053e-03
               Tn: 0
               complexity: 0
               alpha: 0.
               node_risk: 9.1930010067699968e+00
               tree_risk: 0.
               tree_error: 0.
               splits:
                  - { var:3, quality:8.5837316513061523e+00,
                      le:-1.4483599662780762e+00 }
            -
               depth: 1
               sample_count: 39
               value: 3.9951196332008410e-01
               Tn: 0
               complexity: 0
               alpha: 0.
               node_risk: 6.0185210719411497e-01
               tree_risk: 0.
               tree_error: 0.
               splits:
                  - { var:0, quality:6.8262238502502441e+00,
                      le:-8.0219560861587524e-01 }
            -
               depth: 2
               sample_count: 2
               value: -8.6816513538360596e-01
               Tn: 0
               complexity: 0
               alpha: 0.
               node_risk: 4.0036473237695103e-04
               tree_risk: 0.
               tree_error: 0.
            -
               depth: 2
               sample_count: 37
               value: 4.2838407207179713e-01
               Tn: 0
               complexity: 0
               alpha: 0.
               node_risk: 1.0306551144978471e-05
               tree_risk: 0.
               tree_error: 0.
               splits:
                  - { var:0, quality:6.7899875640869141e+00,
                      le:-5.7879549264907837e-01 }
            -
               depth: 3
               sample_count: 3
               value: 1.3160817623138428e+00
               Tn: 0
               complexity: 0
               alpha: 0.
               node_risk: 3.9689265207698554e-07
               tree_risk: 0.
               tree_error: 0.
            -
               depth: 3
               sample_count: 34
               value: 1.3117170333862305e+00
               Tn: 0
               complexity: 0
               alpha: 0.
               node_risk: 0.
               tree_risk: 0.
               tree_error: 0.
            -
               depth: 1
               sample_count: 113
               value: -1.4448410800073000e-01
               Tn: 0
               complexity: 0
               alpha: 0.
               node_risk: 1.1075776061420850e-02
               tree_risk: 0.
               tree_error: 0.
               splits:
                  - { var:0, quality:2.3609378337860107e+00,
                      le:-7.5619511306285858e-02 }
            -
               depth: 2
               sample_count: 42
               value: -1.4993830238069808e-01
               Tn: 0
               complexity: 0
               alpha: 0.
               node_risk: 8.7504006145102675e-03
               tree_risk: 0.
               tree_error: 0.
               splits:
                  - { var:3, quality:9.5117199420928955e-01,
                      le:7.6475036144256592e-01 }
            -
               depth: 3
               sample_count: 9
               value: -9.0960949659347534e-01
               Tn: 0
               complexity: 0
               alpha: 0.
               node_risk: 1.4158679644929451e-03
               tree_risk: 0.
               tree_error: 0.
            -
               depth: 3
               sample_count: 33
               value: -8.7545466423034668e-01
               Tn: 0
               complexity: 0
               alpha: 0.
               node_risk: 3.8530359816535409e-04
               tree_risk: 0.
               tree_error: 0.
            -
               depth: 2
               sample_count: 71
               value: -1.4125768315624182e-01
               Tn: 0
               complexity: 0
               alpha: 0.
               node_risk: 3.3685249418735630e-04
               tree_risk: 0.
               tree_error: 0.
               splits:
                  - { var:1, quality:1.4169182777404785e+00,
                      le:8.3967995643615723e-01 }
            -
               depth: 3
               sample_count: 41
               value: -8.7484449148178101e-01
               Tn: 0
               complexity: 0
               alpha: 0.
               node_risk: 1.2378244917954362e-07
               tree_risk: 0.
               tree_error: 0.
            -
               depth: 3
               sample_count: 30
               value: -8.7139582633972168e-01
               Tn: 0
               complexity: 0
               alpha: 0.
               node_risk: 1.3353282063699456e-04
               tree_risk: 0.
               tree_error: 0.
      -
         best_tree_idx: -1
         nodes:
            -
               depth: 0
               sample_count: 152
               value: 1.7228726346633937e-02
               Tn: 0
               complexity: 0
               alpha: 0.
               node_risk: 9.9358994777719865e+00
               tree_risk: 0.
               tree_error: 0.
               splits:
                  - { var:3, quality:9.6794080734252930e+00,
                      le:-1.4463677406311035e+00 }
            -
               depth: 1
               sample_count: 44
               value: 4.1166204569691961e-01
               Tn: 0
               complexity: 0
               alpha: 0.
               node_risk: 2.8833782248222306e-01
               tree_risk: 0.
               tree_error: 0.
               splits:
                  - { var:0, quality:7.7441987991333008e+00,
                      le:-8.8406997919082642e-01 }
            -
               depth: 2
               sample_count: 1
               value: -8.5091346502304077e-01
               Tn: 0
               complexity: 0
               alpha: 0.
               node_risk: 0.
               tree_risk: 0.
               tree_error: 0.
            -
               depth: 2
               sample_count: 43
               value: 4.2399358749389648e-01
               Tn: 0
               complexity: 0
               alpha: 0.
               node_risk: 6.2720399483140454e-04
               tree_risk: 0.
               tree_error: 0.
               splits:
                  - { var:0, quality:7.7307291030883789e+00,
                      le:-6.2084633111953735e-01 }
            -
               depth: 3
               sample_count: 2
               value: 1.3412792682647705e+00
               Tn: 0
               complexity: 0
               alpha: 0.
               node_risk: 4.0773928233761580e-08
               tree_risk: 0.
               tree_error: 0.
            -
               depth: 3
               sample_count: 41
               value: 1.3002189397811890e+00
               Tn: 0
               complexity: 0
               alpha: 0.
               node_risk: 3.2416998886120041e-05
               tree_risk: 0.
               tree_error: 0.
            -
               depth: 1
               sample_count: 108
               value: -1.4346632968496392e-01
               Tn: 0
               complexity: 0
               alpha: 0.
               node_risk: 1.3272033523854088e-02
               tree_risk: 0.
               tree_error: 0.
               splits:
                  - { var:0, quality:2.2258973121643066e+00,
                      le:-7.5619511306285858e-02 }
            -
               depth: 2
               sample_count: 37
               value: -1.5074027108179555e-01
               Tn: 0
               complexity: 0
               alpha: 0.
               node_risk: 9.9896643231575100e-03
               tree_risk: 0.
               tree_error: 0.
               splits:
                  - { var:3, quality:8.4866696596145630e-01,
                      le:7.6475036144256592e-01 }
            -
               depth: 3
               sample_count: 10
               value: -9.0990859270095825e-01
               Tn: 0
               complexity: 0
               alpha: 0.
               node_risk: 1.6534545704572912e-03
               tree_risk: 0.
               tree_error: 0.
            -
               depth: 3
               sample_count: 27
               value: -8.7406182289123535e-01
               Tn: 0
               complexity: 0
               alpha: 0.
               node_risk: 4.0655182264004441e-04
               tree_risk: 0.
               tree_error: 0.
            -
               depth: 2
               sample_count: 71
               value: -1.3967568416830520e-01
               Tn: 0
               complexity: 0
               alpha: 0.
               node_risk: 3.0449239950991469e-04
               tree_risk: 0.
               tree_error: 0.
               splits:
                  - { var:1, quality:1.3853276968002319e+00,
                      le:7.1977233886718750e-01 }
            -
               depth: 3
               sample_count: 43
               value: -8.7302267551422119e-01
               Tn: 0
               complexity: 0
               alpha: 0.
               node_risk: 9.7027938350535692e-08
               tree_risk: 0.
               tree_error: 0.
            -
               depth: 3
               sample_count: 28
               value: -8.6987453699111938e-01
               Tn: 0
               complexity: 0
               alpha: 0.
               node_risk: 1.3671570824236312e-04
               tree_risk: 0.
               tree_error: 0.
      -
         best_tree_idx: -1
         nodes:
            -
               depth: 0
               sample_count: 152
               value: -8.4086670295188300e-03
               Tn: 0
               complexity: 0
               alpha: 0.
               node_risk: 8.6076282580449082e+00
               tree_risk: 0.
               tree_error: 0.
               splits:
                  - { var:3, quality:8.2957792282104492e+00,
                      le:-1.3993511199951172e+00 }
            -
               depth: 1
               sample_count: 37
               value: 4.0318942794928680e-01
               Tn: 0
               complexity: 0
               alpha: 0.
               node_risk: 3.1049317867539994e-01
               tree_risk: 0.
               tree_error: 0.
               splits:
                  - { var:0, quality:6.3249573707580566e+00,
                      le:-8.2366353273391724e-01 }
            -
               depth: 2
               sample_count: 1
               value: -8.7839043140411377e-01
               Tn: 0
               complexity: 0
               alpha: 0.
               node_risk: 0.
               tree_risk: 0.
               tree_error: 0.
            -
               depth: 2
               sample_count: 36
               value: 4.1844928926891750e-01
               Tn: 0
               complexity: 0
               alpha: 0.
               node_risk: 3.1917317290997005e-04
               tree_risk: 0.
               tree_error: 0.
               splits:
                  - { var:0, quality:6.3038849830627441e+00,
                      le:-6.3374161720275879e-01 }
            -
               depth: 3
               sample_count: 1
               value: 1.3281344175338745e+00
               Tn: 0
               complexity: 0
               alpha: 0.
               node_risk: 0.
               tree_risk: 0.
               tree_error: 0.
            -
               depth: 3
               sample_count: 35
               value: 1.2885928153991699e+00
               Tn: 0
               complexity: 0
               alpha: 0.
               node_risk: 2.7178270095795654e-05
               tree_risk: 0.
               tree_error: 0.
            -
               depth: 1
               sample_count: 115
               value: -1.4083588019661281e-01
               Tn: 0
               complexity: 0
               alpha: 0.
               node_risk: 1.2103202604452079e-02
               tree_risk: 0.
               tree_error: 0.
               splits:
                  - { var:0, quality:2.2833521366119385e+00,
                      le:-1.0562058538198471e-01 }
            -
               depth: 2
               sample_count: 40
               value: -1.4703420847654342e-01
               Tn: 0
               complexity: 0
               alpha: 0.
               node_risk: 9.3896193689052554e-03
               tree_risk: 0.
               tree_error: 0.
               splits:
                  - { var:3, quality:8.7264674901962280e-01,
                      le:7.6475036144256592e-01 }
            -
               depth: 3
               sample_count: 9
               value: -9.0787452459335327e-01
               Tn: 0
               complexity: 0
               alpha: 0.
               node_risk: 1.2524834803995244e-03
               tree_risk: 0.
               tree_error: 0.
            -
               depth: 3
               sample_count: 31
               value: -8.7161451578140259e-01
               Tn: 0
               complexity: 0
               alpha: 0.
               node_risk: 2.5270194851001460e-04
               tree_risk: 0.
               tree_error: 0.
            -
               depth: 2
               sample_count: 75
               value: -1.3753010511398314e-01
               Tn: 0
               complexity: 0
               alpha: 0.
               node_risk: 3.5720112964598982e-04
               tree_risk: 0.
               tree_error: 0.
               splits:
                  - { var:1, quality:1.4187840223312378e+00,
                      le:7.5940895080566406e-01 }
            -
               depth: 3
               sample_count: 37
               value: -8.7124311923980713e-01
               Tn: 0
               complexity: 0
               alpha: 0.
               node_risk: 1.1047051873269709e-07
               tree_risk: 0.
               tree_error: 0.
            -
               depth: 3
               sample_count: 38
               value: -8.6802905797958374e-01
               Tn: 0
               complexity: 0
               alpha: 0.
               node_risk: 1.6284281771938858e-04
               tree_risk: 0.
               tree_error: 0.
      -
         best_tree_idx: -1
         nodes:
            -
               depth: 0
               sample_count: 152
               value: 2.6968539153274739e-03
               Tn: 0
               complexity: 0
               alpha: 0.
               node_risk: 8.8796575662562258e+00
               tree_risk: 0.
               tree_error: 0.
               splits:
                  - { var:3, quality:8.3058137893676758e+00,
                      le:-1.4463677406311035e+00 }
            -
               depth: 1
               sample_count: 41
               value: 3.8729745222301015e-01
               Tn: 0
               complexity: 0
               alpha: 0.
               node_risk: 5.6202503241744317e-01
               tree_risk: 0.
               tree_error: 0.
               splits:
                  - { var:0, quality:6.7112050056457520e+00,
                      le:-8.2366353273391724e-01 }
            -
               depth: 2
               sample_count: 2
               value: -8.6304426193237305e-01
               Tn: 0
               complexity: 0
               alpha: 0.
               node_risk: 4.2167230611944717e-04
               tree_risk: 0.
               tree_error: 0.
            -
               depth: 2
               sample_count: 39
               value: 4.1379235952328414e-01
               Tn: 0
               complexity: 0
               alpha: 0.
               node_risk: 3.7025988766092865e-04
               tree_risk: 0.
               tree_error: 0.
               splits:
                  - { var:0, quality:6.6780662536621094e+00,
                      le:-6.3944327831268311e-01 }
            -
               depth: 3
               sample_count: 1
               value: 1.3194950819015503e+00
               Tn: 0
               complexity: 0
               alpha: 0.
               node_risk: 0.
               tree_risk: 0.
               tree_error: 0.
            -
               depth: 3
               sample_count: 38
               value: 1.2783943414688110e+00
               Tn: 0
               complexity: 0
               alpha: 0.
               node_risk: 4.4775377694428187e-05
               tree_risk: 0.
               tree_error: 0.
            -
               depth: 1
               sample_count: 111
               value: -1.3936282654066343e-01
               Tn: 0
               complexity: 0
               alpha: 0.
               node_risk: 1.2924342825407109e-02
               tree_risk: 0.
               tree_error: 0.
               splits:
                  - { var:0, quality:2.1586792469024658e+00,
                      le:-7.5619511306285858e-02 }
            -
               depth: 2
               sample_count: 39
               value: -1.4623261071168459e-01
               Tn: 0
               complexity: 0
               alpha: 0.
               node_risk: 9.7238280976567060e-03
               tree_risk: 0.
               tree_error: 0.
               splits:
                  - { var:3, quality:8.4220892190933228e-01,
                      le:7.6475036144256592e-01 }
            -
               depth: 3
               sample_count: 9
               value: -9.0734243392944336e-01
               Tn: 0
               complexity: 0
               alpha: 0.
               node_risk: 1.0096597194291790e-03
               tree_risk: 0.
               tree_error: 0.
            -
               depth: 3
               sample_count: 30
               value: -8.7046337127685547e-01
               Tn: 0
               complexity: 0
               alpha: 0.
               node_risk: 4.8031308548068807e-04
               tree_risk: 0.
               tree_error: 0.
            -
               depth: 2
               sample_count: 72
               value: -1.3564169344802698e-01
               Tn: 0
               complexity: 0
               alpha: 0.
               node_risk: 3.6297941254570532e-04
               tree_risk: 0.
               tree_error: 0.
               splits:
                  - { var:1, quality:1.3249584436416626e+00,
                      le:7.5940895080566406e-01 }
            -
               depth: 3
               sample_count: 38
               value: -8.6948388814926147e-01
               Tn: 0
               complexity: 0
               alpha: 0.
               node_risk: 1.2404730065362912e-07
               tree_risk: 0.
               tree_error: 0.
            -
               depth: 3
               sample_count: 34
               value: -8.6572974920272827e-01
               Tn: 0
               complexity: 0
               alpha: 0.
               node_risk: 1.0857815727949305e-04
               tree_risk: 0.
               tree_error: 0.
      -
         best_tree_idx: -1
         nodes:
            -
               depth: 0
               sample_count: 152
               value: -1.5407814399192208e-02
               Tn: 0
               complexity: 0
               alpha: 0.
               node_risk: 7.9236586124068253e+00
               tree_risk: 0.
               tree_error: 0.
               splits:
                  - { var:3, quality:7.6501145362854004e+00,
                      le:-1.4463677406311035e+00 }
            -
               depth: 1
               sample_count: 35
               value: 3.9380044894559041e-01
               Tn: 0
               complexity: 0
               alpha: 0.
               node_risk: 2.9600263582547459e-01
               tree_risk: 0.
               tree_error: 0.
               splits:
                  - { var:0, quality:5.7230057716369629e+00,
                      le:-8.2366353273391724e-01 }
            -
               depth: 2
               sample_count: 1
               value: -8.7386929988861084e-01
               Tn: 0
               complexity: 0
               alpha: 0.
               node_risk: 0.
               tree_risk: 0.
               tree_error: 0.
            -
               depth: 2
               sample_count: 34
               value: 4.0955187643275542e-01
               Tn: 0
               complexity: 0
               alpha: 0.
               node_risk: 7.5474904420858024e-04
               tree_risk: 0.
               tree_error: 0.
               splits:
                  - { var:0, quality:5.7036352157592773e+00,
                      le:-6.2084633111953735e-01 }
            -
               depth: 3
               sample_count: 2
               value: 1.3111536502838135e+00
               Tn: 0
               complexity: 0
               alpha: 0.
               node_risk: 1.1568506153025737e-07
               tree_risk: 0.
               tree_error: 0.
            -
               depth: 3
               sample_count: 32
               value: 1.2677534818649292e+00
               Tn: 0
               complexity: 0
               alpha: 0.
               node_risk: 3.2637138325242177e-05
               tree_risk: 0.
               tree_error: 0.
            -
               depth: 1
               sample_count: 117
               value: -1.3782054275019556e-01
               Tn: 0
               complexity: 0
               alpha: 0.
               node_risk: 1.3626379650127696e-02
               tree_risk: 0.
               tree_error: 0.
               splits:
                  - { var:0, quality:2.2250993251800537e+00,
                      le:-7.5619511306285858e-02 }
            -
               depth: 2
               sample_count: 43
               value: -1.4417195077552353e-01
               Tn: 0
               complexity: 0
               alpha: 0.
               node_risk: 1.0552984995196968e-02
               tree_risk: 0.
               tree_error: 0.
               splits:
                  - { var:3, quality:9.0229356288909912e-01,
                      le:7.6475036144256592e-01 }
            -
               depth: 3
               sample_count: 10
               value: -9.0432810783386230e-01
               Tn: 0
               complexity: 0
               alpha: 0.
               node_risk: 1.5617701224593383e-03
               tree_risk: 0.
               tree_error: 0.
            -
               depth: 3
               sample_count: 33
               value: -8.6858981847763062e-01
               Tn: 0
               complexity: 0
               alpha: 0.
               node_risk: 4.7638520665904682e-04
               tree_risk: 0.
               tree_error: 0.
            -
               depth: 2
               sample_count: 74
               value: -1.3412985970845093e-01
               Tn: 0
               complexity: 0
               alpha: 0.
               node_risk: 3.3079368976962620e-04
               tree_risk: 0.
               tree_error: 0.
               splits:
                  - { var:1, quality:1.3315328359603882e+00,
                      le:7.5940895080566406e-01 }
            -
               depth: 3
               sample_count: 40
               value: -8.6774522066116333e-01
               Tn: 0
               complexity: 0
               alpha: 0.
               node_risk: 1.2747115529787578e-07
               tree_risk: 0.
               tree_error: 0.
            -
               depth: 3
               sample_count: 34
               value: -8.6437356472015381e-01
               Tn: 0
               complexity: 0
               alpha: 0.
               node_risk: 1.1849251358397872e-04
               tree_risk: 0.
               tree_error: 0.
      -
         best_tree_idx: -1
         nodes:
            -
               depth: 0
               sample_count: 152
               value: -4.7810375690460205e-03
               Tn: 0
               complexity: 0
               alpha: 0.
               node_risk: 8.1804667391328305e+00
               tree_risk: 0.
               tree_error: 0.
               splits:
                  - { var:3, quality:7.8808255195617676e+00,
                      le:-1.4463677406311035e+00 }
            -
               depth: 1
               sample_count: 38
               value: 3.8952092277376277e-01
               Tn: 0
               complexity: 0
               alpha: 0.
               node_risk: 2.8779984447099061e-01
               tree_risk: 0.
               tree_error: 0.
               splits:
                  - { var:0, quality:6.0529961585998535e+00,
                      le:-8.0506658554077148e-01 }
            -
               depth: 2
               sample_count: 1
               value: -8.7154924869537354e-01
               Tn: 0
               complexity: 0
               alpha: 0.
               node_risk: 0.
               tree_risk: 0.
               tree_error: 0.
            -
               depth: 2
               sample_count: 37
               value: 4.0381779702934056e-01
               Tn: 0
               complexity: 0
               alpha: 0.
               node_risk: 4.1258191838622338e-04
               tree_risk: 0.
               tree_error: 0.
               splits:
                  - { var:0, quality:6.0339202880859375e+00,
                      le:-6.2084633111953735e-01 }
            -
               depth: 3
               sample_count: 1
               value: 1.2995866537094116e+00
               Tn: 0
               complexity: 0
               alpha: 0.
               node_risk: 0.
               tree_risk: 0.
               tree_error: 0.
            -
               depth: 3
               sample_count: 36
               value: 1.2568931579589844e+00
               Tn: 0
               complexity: 0
               alpha: 0.
               node_risk: 3.8595355494663863e-05
               tree_risk: 0.
               tree_error: 0.
            -
               depth: 1
               sample_count: 114
               value: -1.3621502434998228e-01
               Tn: 0
               complexity: 0
               alpha: 0.
               node_risk: 1.5315740865966987e-02
               tree_risk: 0.
               tree_error: 0.
               splits:
                  - { var:0, quality:2.1182904243469238e+00,
                      le:-7.5619511306285858e-02 }
            -
               depth: 2
               sample_count: 38
               value: -1.4355838534079099e-01
               Tn: 0
               complexity: 0
               alpha: 0.
               node_risk: 1.1884622607524764e-02
               tree_risk: 0.
               tree_error: 0.
               splits:
                  - { var:3, quality:7.9375177621841431e-01,
                      le:6.7546951770782471e-01 }
            -
               depth: 3
               sample_count: 8
               value: -9.1068595647811890e-01
               Tn: 0
               complexity: 0
               alpha: 0.
               node_risk: 7.4521396143223395e-04
               tree_risk: 0.
               tree_error: 0.
            -
               depth: 3
               sample_count: 30
               value: -8.6711293458938599e-01
               Tn: 0
               complexity: 0
               alpha: 0.
               node_risk: 5.3001756428328051e-04
               tree_risk: 0.
               tree_error: 0.
            -
               depth: 2
               sample_count: 76
               value: -1.3254334385457792e-01
               Tn: 0
               complexity: 0
               alpha: 0.
               node_risk: 3.5739607188656208e-04
               tree_risk: 0.
               tree_error: 0.
               splits:
                  - { var:1, quality:1.3353404998779297e+00,
                      le:7.5940895080566406e-01 }
            -
               depth: 3
               sample_count: 42
               value: -8.6602574586868286e-01
               Tn: 0
               complexity: 0
               alpha: 0.
               node_risk: 1.1684041600901196e-07
               tree_risk: 0.
               tree_error: 0.
            -
               depth: 3
               sample_count: 34
               value: -8.6287432909011841e-01
               Tn: 0
               complexity: 0
               alpha: 0.
               node_risk: 1.6488014180782162e-04
               tree_risk: 0.
               tree_error: 0.
      -
         best_tree_idx: -1
         nodes:
            -
               depth: 0
               sample_count: 152
               value: -8.4873652085661888e-03
               Tn: 0
               complexity: 0
               alpha: 0.
               node_risk: 7.8419151113703816e+00
               tree_risk: 0.
               tree_error: 0.
               splits:
                  - { var:3, quality:7.3188495635986328e+00,
                      le:-1.4483599662780762e+00 }
            -
               depth: 1
               sample_count: 38
               value: 3.7129529389111621e-01
               Tn: 0
               complexity: 0
               alpha: 0.
               node_risk: 5.1713618100929537e-01
               tree_risk: 0.
               tree_error: 0.
               splits:
                  - { var:0, quality:5.7549796104431152e+00,
                      le:-8.2366353273391724e-01 }
            -
               depth: 2
               sample_count: 2
               value: -8.5698688030242920e-01
               Tn: 0
               complexity: 0
               alpha: 0.
               node_risk: 3.9595792296179266e-04
               tree_risk: 0.
               tree_error: 0.
            -
               depth: 2
               sample_count: 36
               value: 3.9876915680037606e-01
               Tn: 0
               complexity: 0
               alpha: 0.
               node_risk: 4.4803316707930918e-04
               tree_risk: 0.
               tree_error: 0.
               splits:
                  - { var:0, quality:5.7250161170959473e+00,
                      le:-6.3944327831268311e-01 }
            -
               depth: 3
               sample_count: 1
               value: 1.2902817726135254e+00
               Tn: 0
               complexity: 0
               alpha: 0.
               node_risk: 0.
               tree_risk: 0.
               tree_error: 0.
            -
               depth: 3
               sample_count: 35
               value: 1.2462644577026367e+00
               Tn: 0
               complexity: 0
               alpha: 0.
               node_risk: 3.8147113163411461e-05
               tree_risk: 0.
               tree_error: 0.
            -
               depth: 1
               sample_count: 114
               value: -1.3508158490846031e-01
               Tn: 0
               complexity: 0
               alpha: 0.
               node_risk: 1.6878943951264436e-02
               tree_risk: 0.
               tree_error: 0.
               splits:
                  - { var:0, quality:2.0838418006896973e+00,
                      le:-7.5619511306285858e-02 }
            -
               depth: 2
               sample_count: 41
               value: -1.4266279303446050e-01
               Tn: 0
               complexity: 0
               alpha: 0.
               node_risk: 1.2864965021754160e-02
               tree_risk: 0.
               tree_error: 0.
               splits:
                  - { var:3, quality:8.4496992826461792e-01,
                      le:7.6475036144256592e-01 }
            -
               depth: 3
               sample_count: 11
               value: -9.0373158454895020e-01
               Tn: 0
               complexity: 0
               alpha: 0.
               node_risk: 1.8668459235549051e-03
               tree_risk: 0.
               tree_error: 0.
            -
               depth: 3
               sample_count: 30
               value: -8.6514168977737427e-01
               Tn: 0
               complexity: 0
               alpha: 0.
               node_risk: 4.8778944115490663e-04
               tree_risk: 0.
               tree_error: 0.
            -
               depth: 2
               sample_count: 73
               value: -1.3082364609796707e-01
               Tn: 0
               complexity: 0
               alpha: 0.
               node_risk: 3.3402241415747547e-04
               tree_risk: 0.
               tree_error: 0.
               splits:
                  - { var:1, quality:1.2495611906051636e+00,
                      le:8.2477879524230957e-01 }
            -
               depth: 3
               sample_count: 39
               value: -8.6433917284011841e-01
               Tn: 0
               complexity: 0
               alpha: 0.
               node_risk: 1.2257502779444707e-07
               tree_risk: 0.
               tree_error: 0.
            -
               depth: 3
               sample_count: 34
               value: -8.6125981807708740e-01
               Tn: 0
               complexity: 0
               alpha: 0.
               node_risk: 1.5506399025155826e-04
               tree_risk: 0.
               tree_error: 0.
      -
         best_tree_idx: -1
         nodes:
            -
               depth: 0
               sample_count: 152
               value: 9.5405599690581624e-03
               Tn: 0
               complexity: 0
               alpha: 0.
               node_risk: 8.2989979106789953e+00
               tree_risk: 0.
               tree_error: 0.
               splits:
                  - { var:3, quality:7.7919640541076660e+00,
                      le:-1.4463677406311035e+00 }
            -
               depth: 1
               sample_count: 43
               value: 3.6969998704139578e-01
               Tn: 0
               complexity: 0
               alpha: 0.
               node_risk: 5.0751147818264286e-01
               tree_risk: 0.
               tree_error: 0.
               splits:
                  - { var:0, quality:6.3838081359863281e+00,
                      le:-8.0506658554077148e-01 }
            -
               depth: 2
               sample_count: 2
               value: -8.5555273294448853e-01
               Tn: 0
               complexity: 0
               alpha: 0.
               node_risk: 3.9056699515763182e-04
               tree_risk: 0.
               tree_error: 0.
            -
               depth: 2
               sample_count: 41
               value: 3.9367413375435806e-01
               Tn: 0
               complexity: 0
               alpha: 0.
               node_risk: 4.7022628067949768e-04
               tree_risk: 0.
               tree_error: 0.
               splits:
                  - { var:0, quality:6.3545784950256348e+00,
                      le:-6.2084633111953735e-01 }
            -
               depth: 3
               sample_count: 1
               value: 1.2800104618072510e+00
               Tn: 0
               complexity: 0
               alpha: 0.
               node_risk: 0.
               tree_risk: 0.
               tree_error: 0.
            -
               depth: 3
               sample_count: 40
               value: 1.2359250783920288e+00
               Tn: 0
               complexity: 0
               alpha: 0.
               node_risk: 4.3949342675375647e-05
               tree_risk: 0.
               tree_error: 0.
            -
               depth: 1
               sample_count: 109
               value: -1.3254068190351539e-01
               Tn: 0
               complexity: 0
               alpha: 0.
               node_risk: 1.3357834572420124e-02
               tree_risk: 0.
               tree_error: 0.
               splits:
                  - { var:0, quality:1.9169732332229614e+00,
                      le:-7.4474617838859558e-02 }
            -
               depth: 2
               sample_count: 41
               value: -1.3828246622550777e-01
               Tn: 0
               complexity: 0
               alpha: 0.
               node_risk: 1.0874532846716689e-02
               tree_risk: 0.
               tree_error: 0.
               splits:
                  - { var:3, quality:7.9320609569549561e-01,
                      le:6.4673769474029541e-01 }
            -
               depth: 3
               sample_count: 8
               value: -9.0333628654479980e-01
               Tn: 0
               complexity: 0
               alpha: 0.
               node_risk: 1.3956972299890846e-03
               tree_risk: 0.
               tree_error: 0.
            -
               depth: 3
               sample_count: 33
               value: -8.6303120851516724e-01
               Tn: 0
               complexity: 0
               alpha: 0.
               node_risk: 2.7639428596193394e-04
               tree_risk: 0.
               tree_error: 0.
            -
               depth: 2
               sample_count: 68
               value: -1.2907872370937290e-01
               Tn: 0
               complexity: 0
               alpha: 0.
               node_risk: 3.1661964190909941e-04
               tree_risk: 0.
               tree_error: 0.
               splits:
                  - { var:1, quality:1.1331467628479004e+00,
                      le:7.5940895080566406e-01 }
            -
               depth: 3
               sample_count: 36
               value: -8.6266463994979858e-01
               Tn: 0
               complexity: 0
               alpha: 0.
               node_risk: 9.3918603782938703e-08
               tree_risk: 0.
               tree_error: 0.
            -
               depth: 3
               sample_count: 32
               value: -8.5950100421905518e-01
               Tn: 0
               complexity: 0
               alpha: 0.
               node_risk: 1.3932148351614160e-04
               tree_risk: 0.
               tree_error: 0.
      -
         best_tree_idx: -1
         nodes:
            -
               depth: 0
               sample_count: 152
               value: -4.6458592344271509e-03
               Tn: 0
               complexity: 0
               alpha: 0.
               node_risk: 7.6056541573302816e+00
               tree_risk: 0.
               tree_error: 0.
               splits:
                  - { var:3, quality:7.5910758972167969e+00,
                      le:-1.3993511199951172e+00 }
            -
               depth: 1
               sample_count: 37
               value: 3.8925240651981252e-01
               Tn: 0
               complexity: 0
               alpha: 0.
               node_risk: 9.4621553995377639e-04
               tree_risk: 0.
               tree_error: 0.
               splits:
                  - { var:0, quality:5.6070594787597656e+00,
                      le:-6.2084633111953735e-01 }
            -
               depth: 2
               sample_count: 2
               value: 1.2712880373001099e+00
               Tn: 0
               complexity: 0
               alpha: 0.
               node_risk: 1.6924616552671523e-07
               tree_risk: 0.
               tree_error: 0.
            -
               depth: 2
               sample_count: 35
               value: 3.8806414604187012e-01
               Tn: 0
               complexity: 0
               alpha: 0.
               node_risk: 3.1800274960858133e-05
               tree_risk: 0.
               tree_error: 0.
               splits:
                  - { var:0, quality:5.2708120346069336e+00,
                      le:-5.7831215858459473e-01 }
            -
               depth: 3
               sample_count: 3
               value: 1.2316902875900269e+00
               Tn: 0
               complexity: 0
               alpha: 0.
               node_risk: 1.9753008497214175e-06
               tree_risk: 0.
               tree_error: 0.
            -
               depth: 3
               sample_count: 32
               value: 1.2250528335571289e+00
               Tn: 0
               complexity: 0
               alpha: 0.
               node_risk: 0.
               tree_risk: 0.
               tree_error: 0.
            -
               depth: 1
               sample_count: 115
               value: -1.3137834473796514e-01
               Tn: 0
               complexity: 0
               alpha: 0.
               node_risk: 1.6912591096013285e-02
               tree_risk: 0.
               tree_error: 0.
               splits:
                  - { var:0, quality:1.9881116151809692e+00,
                      le:-7.5619511306285858e-02 }
            -
               depth: 2
               sample_count: 42
               value: -1.3831169264657156e-01
               Tn: 0
               complexity: 0
               alpha: 0.
               node_risk: 1.3387793449421648e-02
               tree_risk: 0.
               tree_error: 0.
               splits:
                  - { var:3, quality:8.1514883041381836e-01,
                      le:7.6475036144256592e-01 }
            -
               depth: 3
               sample_count: 9
               value: -9.0470737218856812e-01
               Tn: 0
               complexity: 0
               alpha: 0.
               node_risk: 1.1546824125718835e-03
               tree_risk: 0.
               tree_error: 0.
            -
               depth: 3
               sample_count: 33
               value: -8.6180150508880615e-01
               Tn: 0
               complexity: 0
               alpha: 0.
               node_risk: 5.4953076395214406e-04
               tree_risk: 0.
               tree_error: 0.
            -
               depth: 2
               sample_count: 73
               value: -1.2738929525630116e-01
               Tn: 0
               complexity: 0
               alpha: 0.
               node_risk: 3.4418884027398455e-04
               tree_risk: 0.
               tree_error: 0.
               splits:
                  - { var:1, quality:1.1848465204238892e+00,
                      le:7.5940895080566406e-01 }
            -
               depth: 3
               sample_count: 39
               value: -8.6101543903350830e-01
               Tn: 0
               complexity: 0
               alpha: 0.
               node_risk: 7.2376737714208161e-08
               tree_risk: 0.
               tree_error: 0.
            -
               depth: 3
               sample_count: 34
               value: -8.5777950286865234e-01
               Tn: 0
               complexity: 0
               alpha: 0.
               node_risk: 1.4393681519864199e-04
               tree_risk: 0.
               tree_error: 0.
      -
         best_tree_idx: -1
         nodes:
            -
               depth: 0
               sample_count: 152
               value: 1.2551333706237768e-02
               Tn: 0
               complexity: 0
               alpha: 0.
               node_risk: 8.0339867268441587e+00
               tree_risk: 0.
               tree_error: 0.
               splits:
                  - { var:3, quality:7.8058071136474609e+00,
                      le:-1.4463677406311035e+00 }
            -
               depth: 1
               sample_count: 43
               value: 3.7279717277648838e-01
               Tn: 0
               complexity: 0
               alpha: 0.
               node_risk: 2.3773994856912051e-01
               tree_risk: 0.
               tree_error: 0.
               splits:
                  - { var:0, quality:6.2128438949584961e+00,
                      le:-8.8406997919082642e-01 }
            -
               depth: 2
               sample_count: 1
               value: -8.4093326330184937e-01
               Tn: 0
               complexity: 0
               alpha: 0.
               node_risk: 0.
               tree_risk: 0.
               tree_error: 0.
            -
               depth: 2
               sample_count: 42
               value: 3.8424790898958844e-01
               Tn: 0
               complexity: 0
               alpha: 0.
               node_risk: 9.3838473058749372e-04
               tree_risk: 0.
               tree_error: 0.
               splits:
                  - { var:0, quality:6.2020463943481445e+00,
                      le:-6.2084633111953735e-01 }
            -
               depth: 3
               sample_count: 2
               value: 1.2602885961532593e+00
               Tn: 0
               complexity: 0
               alpha: 0.
               node_risk: 1.6793096513367800e-07
               tree_risk: 0.
               tree_error: 0.
            -
               depth: 3
               sample_count: 40
               value: 1.2159891128540039e+00
               Tn: 0
               complexity: 0
               alpha: 0.
               node_risk: 4.2720125924766705e-05
               tree_risk: 0.
               tree_error: 0.
            -
               depth: 1
               sample_count: 109
               value: -1.2956399730312715e-01
               Tn: 0
               complexity: 0
               alpha: 0.
               node_risk: 1.4385365314346421e-02
               tree_risk: 0.
               tree_error: 0.
               splits:
                  - { var:0, quality:1.8327647447586060e+00,
                      le:-7.5619511306285858e-02 }
            -
               depth: 2
               sample_count: 39
               value: -1.3659293147233817e-01
               Tn: 0
               complexity: 0
               alpha: 0.
               node_risk: 1.1063952464656412e-02
               tree_risk: 0.
               tree_error: 0.
               splits:
                  - { var:3, quality:7.3650217056274414e-01,
                      le:6.7546951770782471e-01 }
            -
               depth: 3
               sample_count: 9
               value: -8.9844143390655518e-01
               Tn: 0
               complexity: 0
               alpha: 0.
               node_risk: 1.6512297038502322e-03
               tree_risk: 0.
               tree_error: 0.
            -
               depth: 3
               sample_count: 30
               value: -8.6057025194168091e-01
               Tn: 0
               complexity: 0
               alpha: 0.
               node_risk: 5.5808889275565932e-04
               tree_risk: 0.
               tree_error: 0.
            -
               depth: 2
               sample_count: 70
               value: -1.2564787683742387e-01
               Tn: 0
               complexity: 0
               alpha: 0.
               node_risk: 3.2106217790794922e-04
               tree_risk: 0.
               tree_error: 0.
               splits:
                  - { var:1, quality:1.1052857637405396e+00,
                      le:6.3981342315673828e-01 }
            -
               depth: 3
               sample_count: 33
               value: -8.5939311981201172e-01
               Tn: 0
               complexity: 0
               alpha: 0.
               node_risk: 6.9819073189592018e-08
               tree_risk: 0.
               tree_error: 0.
            -
               depth: 3
               sample_count: 37
               value: -8.5637503862380981e-01
               Tn: 0
               complexity: 0
               alpha: 0.
               node_risk: 1.5241024699463868e-04
               tree_risk: 0.
               tree_error: 0.
      -
         best_tree_idx: -1
         nodes:
            -
               depth: 0
               sample_count: 152
               value: 2.2535645304933974e-02
               Tn: 0
               complexity: 0
               alpha: 0.
               node_risk: 8.1473617902201561e+00
               tree_risk: 0.
               tree_error: 0.
               splits:
                  - { var:3, quality:7.9809789657592773e+00,
                      le:-1.3993511199951172e+00 }
            -
               depth: 1
               sample_count: 46
               value: 3.6868998181560764e-01
               Tn: 0
               complexity: 0
               alpha: 0.
               node_risk: 2.3162165764723053e-01
               tree_risk: 0.
               tree_error: 0.
               splits:
                  - { var:0, quality:6.4835810661315918e+00,
                      le:-8.8406997919082642e-01 }
            -
               depth: 2
               sample_count: 1
               value: -8.3927148580551147e-01
               Tn: 0
               complexity: 0
               alpha: 0.
               node_risk: 0.
               tree_risk: 0.
               tree_error: 0.
            -
               depth: 2
               sample_count: 45
               value: 3.7924682166841295e-01
               Tn: 0
               complexity: 0
               alpha: 0.
               node_risk: 9.2664155422994554e-04
               tree_risk: 0.
               tree_error: 0.
               splits:
                  - { var:0, quality:6.4731507301330566e+00,
                      le:-6.2084633111953735e-01 }
            -
               depth: 3
               sample_count: 2
               value: 1.2495745420455933e+00
               Tn: 0
               complexity: 0
               alpha: 0.
               node_risk: 1.6655208590066195e-07
               tree_risk: 0.
               tree_error: 0.
            -
               depth: 3
               sample_count: 43
               value: 1.2063573598861694e+00
               Tn: 0
               complexity: 0
               alpha: 0.
               node_risk: 4.2699530691692189e-05
               tree_risk: 0.
               tree_error: 0.
            -
               depth: 1
               sample_count: 106
               value: -1.2768227431290555e-01
               Tn: 0
               complexity: 0
               alpha: 0.
               node_risk: 1.1955319379233442e-02
               tree_risk: 0.
               tree_error: 0.
               splits:
                  - { var:0, quality:1.7303034067153931e+00,
                      le:-7.5619511306285858e-02 }
            -
               depth: 2
               sample_count: 40
               value: -1.3354822136461736e-01
               Tn: 0
               complexity: 0
               alpha: 0.
               node_risk: 9.4337769231768176e-03
               tree_risk: 0.
               tree_error: 0.
               splits:
                  - { var:3, quality:7.2069638967514038e-01,
                      le:8.7370610237121582e-01 }
            -
               depth: 3
               sample_count: 10
               value: -8.9101713895797729e-01
               Tn: 0
               complexity: 0
               alpha: 0.
               node_risk: 2.0909789419791824e-03
               tree_risk: 0.
               tree_error: 0.
            -
               depth: 3
               sample_count: 30
               value: -8.5789483785629272e-01
               Tn: 0
               complexity: 0
               alpha: 0.
               node_risk: 5.1532553849709117e-05
               tree_risk: 0.
               tree_error: 0.
            -
               depth: 2
               sample_count: 66
               value: -1.2412715488762567e-01
               Tn: 0
               complexity: 0
               alpha: 0.
               node_risk: 3.1100337106892972e-04
               tree_risk: 0.
               tree_error: 0.
               splits:
                  - { var:1, quality:1.0170868635177612e+00,
                      le:7.1977233886718750e-01 }
            -
               depth: 3
               sample_count: 36
               value: -8.5779953002929688e-01
               Tn: 0
               complexity: 0
               alpha: 0.
               node_risk: 9.5999237004207316e-08
               tree_risk: 0.
               tree_error: 0.
            -
               depth: 3
               sample_count: 30
               value: -8.5451519489288330e-01
               Tn: 0
               complexity: 0
               alpha: 0.
               node_risk: 1.2242657265587598e-04
               tree_risk: 0.
               tree_error: 0.
      -
         best_tree_idx: -1
         nodes:
            -
               depth: 0
               sample_count: 152
               value: 2.1532971411943436e-02
               Tn: 0
               complexity: 0
               alpha: 0.
               node_risk: 7.9800968983366749e+00
               tree_risk: 0.
               tree_error: 0.
               splits:
                  - { var:3, quality:7.7783226966857910e+00,
                      le:-1.4463677406311035e+00 }
            -
               depth: 1
               sample_count: 46
               value: 3.6336968839168549e-01
               Tn: 0
               complexity: 0
               alpha: 0.
               node_risk: 2.5520894744579525e-01
               tree_risk: 0.
               tree_error: 0.
               splits:
                  - { var:0, quality:6.3279128074645996e+00,
                      le:-8.2366353273391724e-01 }
            -
               depth: 2
               sample_count: 1
               value: -8.6734217405319214e-01
               Tn: 0
               complexity: 0
               alpha: 0.
               node_risk: 0.
               tree_risk: 0.
               tree_error: 0.
            -
               depth: 2
               sample_count: 45
               value: 3.7445100016064115e-01
               Tn: 0
               complexity: 0
               alpha: 0.
               node_risk: 1.0223234677493309e-03
               tree_risk: 0.
               tree_error: 0.
               splits:
                  - { var:0, quality:6.3105897903442383e+00,
                      le:-6.2084633111953735e-01 }
            -
               depth: 3
               sample_count: 2
               value: 1.2419036626815796e+00
               Tn: 0
               complexity: 0
               alpha: 0.
               node_risk: 1.6548736425647803e-07
               tree_risk: 0.
               tree_error: 0.
            -
               depth: 3
               sample_count: 43
               value: 1.1970261335372925e+00
               Tn: 0
               complexity: 0
               alpha: 0.
               node_risk: 4.2266743996322020e-05
               tree_risk: 0.
               tree_error: 0.
            -
               depth: 1
               sample_count: 106
               value: -1.2681126425851066e-01
               Tn: 0
               complexity: 0
               alpha: 0.
               node_risk: 1.7042962213382085e-02
               tree_risk: 0.
               tree_error: 0.
               splits:
                  - { var:0, quality:1.7073510885238647e+00,
                      le:-9.2776104807853699e-02 }
            -
               depth: 2
               sample_count: 41
               value: -1.3323009850048437e-01
               Tn: 0
               complexity: 0
               alpha: 0.
               node_risk: 1.4006516339388098e-02
               tree_risk: 0.
               tree_error: 0.
               splits:
                  - { var:3, quality:7.4056756496429443e-01,
                      le:8.3091330528259277e-01 }
            -
               depth: 3
               sample_count: 9
               value: -9.0074396133422852e-01
               Tn: 0
               complexity: 0
               alpha: 0.
               node_risk: 1.1973055925492693e-03
               tree_risk: 0.
               tree_error: 0.
            -
               depth: 3
               sample_count: 32
               value: -8.5602533817291260e-01
               Tn: 0
               complexity: 0
               alpha: 0.
               node_risk: 2.2764462067614843e-06
               tree_risk: 0.
               tree_error: 0.
            -
               depth: 2
               sample_count: 65
               value: -1.2276246112126571e-01
               Tn: 0
               complexity: 0
               alpha: 0.
               node_risk: 2.8165467506024999e-04
               tree_risk: 0.
               tree_error: 0.
               splits:
                  - { var:1, quality:9.7974389791488647e-01,
                      le:7.5940895080566406e-01 }
            -
               depth: 3
               sample_count: 38
               value: -8.5622084140777588e-01
               Tn: 0
               complexity: 0
               alpha: 0.
               node_risk: 9.1823898262788362e-08
               tree_risk: 0.
               tree_error: 0.
            -
               depth: 3
               sample_count: 27
               value: -8.5322165489196777e-01
               Tn: 0
               complexity: 0
               alpha: 0.
               node_risk: 1.2807706842610234e-04
               tree_risk: 0.
               tree_error: 0.
      -
         best_tree_idx: -1
         nodes:
            -
               depth: 0
               sample_count: 152
               value: 8.8070501132231013e-03
               Tn: 0
               complexity: 0
               alpha: 0.
               node_risk: 7.3274371785260399e+00
               tree_risk: 0.
               tree_error: 0.
               splits:
                  - { var:3, quality:6.8706703186035156e+00,
                      le:-1.3993511199951172e+00 }
            -
               depth: 1
               sample_count: 43
               value: 3.4701502721670063e-01
               Tn: 0
               complexity: 0
               alpha: 0.
               node_risk: 4.5552856083857840e-01
               tree_risk: 0.
               tree_error: 0.
               splits:
                  - { var:0, quality:5.6320915222167969e+00,
                      le:-8.2366353273391724e-01 }
            -
               depth: 2
               sample_count: 2
               value: -8.5252660512924194e-01
               Tn: 0
               complexity: 0
               alpha: 0.
               node_risk: 4.7658833548627766e-04
               tree_risk: 0.
               tree_error: 0.
            -
               depth: 2
               sample_count: 41
               value: 3.6971072743578653e-01
               Tn: 0
               complexity: 0
               alpha: 0.
               node_risk: 9.9589886797701865e-04
               tree_risk: 0.
               tree_error: 0.
               splits:
                  - { var:0, quality:5.6050863265991211e+00,
                      le:-6.2084633111953735e-01 }
            -
               depth: 3
               sample_count: 2
               value: 1.2316782474517822e+00
               Tn: 0
               complexity: 0
               alpha: 0.
               node_risk: 1.6401614466587944e-07
               tree_risk: 0.
               tree_error: 0.
            -
               depth: 3
               sample_count: 39
               value: 1.1878697872161865e+00
               Tn: 0
               complexity: 0
               alpha: 0.
               node_risk: 3.6101176416281078e-05
               tree_risk: 0.
               tree_error: 0.
            -
               depth: 1
               sample_count: 109
               value: -1.2461444544135977e-01
               Tn: 0
               complexity: 0
               alpha: 0.
               node_risk: 1.3028072414770664e-02
               tree_risk: 0.
               tree_error: 0.
               splits:
                  - { var:0, quality:1.6953706741333008e+00,
                      le:-5.1518447697162628e-02 }
            -
               depth: 2
               sample_count: 40
               value: -1.3119445312768221e-01
               Tn: 0
               complexity: 0
               alpha: 0.
               node_risk: 9.9699025469764946e-03
               tree_risk: 0.
               tree_error: 0.
               splits:
                  - { var:3, quality:6.9642215967178345e-01,
                      le:7.6475036144256592e-01 }
            -
               depth: 3
               sample_count: 9
               value: -8.9113885164260864e-01
               Tn: 0
               complexity: 0
               alpha: 0.
               node_risk: 1.4631057662425617e-03
               tree_risk: 0.
               tree_error: 0.
            -
               depth: 3
               sample_count: 31
               value: -8.5591906309127808e-01
               Tn: 0
               complexity: 0
               alpha: 0.
               node_risk: 5.6401474909201221e-04
               tree_risk: 0.
               tree_error: 0.
            -
               depth: 2
               sample_count: 69
               value: -1.2079994823189749e-01
               Tn: 0
               complexity: 0
               alpha: 0.
               node_risk: 3.2233298340322847e-04
               tree_risk: 0.
               tree_error: 0.
               splits:
                  - { var:1, quality:1.0070875883102417e+00,
                      le:7.5940895080566406e-01 }
            -
               depth: 3
               sample_count: 35
               value: -8.5466420650482178e-01
               Tn: 0
               complexity: 0
               alpha: 0.
               node_risk: 8.8912360807213986e-08
               tree_risk: 0.
               tree_error: 0.
            -
               depth: 3
               sample_count: 34
               value: -8.5142105817794800e-01
               Tn: 0
               complexity: 0
               alpha: 0.
               node_risk: 1.2594221963102559e-04
               tree_risk: 0.
               tree_error: 0.
      -
         best_tree_idx: -1
         nodes:
            -
               depth: 0
               sample_count: 152
               value: -1.1223949737062580e-02
               Tn: 0
               complexity: 0
               alpha: 0.
               node_risk: 6.4365473895527581e+00
               tree_risk: 0.
               tree_error: 0.
               splits:
                  - { var:3, quality:5.9987998008728027e+00,
                      le:-1.4483599662780762e+00 }
            -
               depth: 1
               sample_count: 37
               value: 3.3845073347156113e-01
               Tn: 0
               complexity: 0
               alpha: 0.
               node_risk: 4.3927560306467495e-01
               tree_risk: 0.
               tree_error: 0.
               splits:
                  - { var:0, quality:4.6766152381896973e+00,
                      le:-8.2366353273391724e-01 }
            -
               depth: 2
               sample_count: 2
               value: -8.5117995738983154e-01
               Tn: 0
               complexity: 0
               alpha: 0.
               node_risk: 4.7008780862622945e-04
               tree_risk: 0.
               tree_error: 0.
            -
               depth: 2
               sample_count: 35
               value: 3.6446842636380877e-01
               Tn: 0
               complexity: 0
               alpha: 0.
               node_risk: 4.9959288168377469e-04
               tree_risk: 0.
               tree_error: 0.
               splits:
                  - { var:0, quality:4.6497731208801270e+00,
                      le:-6.3944327831268311e-01 }
            -
               depth: 3
               sample_count: 1
               value: 1.2211594581604004e+00
               Tn: 0
               complexity: 0
               alpha: 0.
               node_risk: 0.
               tree_risk: 0.
               tree_error: 0.
            -
               depth: 3
               sample_count: 34
               value: 1.1789534091949463e+00
               Tn: 0
               complexity: 0
               alpha: 0.
               node_risk: 2.9873973320881930e-05
               tree_risk: 0.
               tree_error: 0.
            -
               depth: 1
               sample_count: 115
               value: -1.2372797824766325e-01
               Tn: 0
               complexity: 0
               alpha: 0.
               node_risk: 1.7620586059064802e-02
               tree_risk: 0.
               tree_error: 0.
               splits:
                  - { var:0, quality:1.7640503644943237e+00,
                      le:-7.4474617838859558e-02 }
            -
               depth: 2
               sample_count: 43
               value: -1.3092751558436905e-01
               Tn: 0
               complexity: 0
               alpha: 0.
               node_risk: 1.3744004012851696e-02
               tree_risk: 0.
               tree_error: 0.
               splits:
                  - { var:3, quality:7.4871659278869629e-01,
                      le:7.6475036144256592e-01 }
            -
               depth: 3
               sample_count: 10
               value: -8.9472371339797974e-01
               Tn: 0
               complexity: 0
               alpha: 0.
               node_risk: 1.5680730379285523e-03
               tree_risk: 0.
               tree_error: 0.
            -
               depth: 3
               sample_count: 33
               value: -8.5423642396926880e-01
               Tn: 0
               complexity: 0
               alpha: 0.
               node_risk: 5.6595688404381672e-04
               tree_risk: 0.
               tree_error: 0.
            -
               depth: 2
               sample_count: 72
               value: -1.1942825456046396e-01
               Tn: 0
               complexity: 0
               alpha: 0.
               node_risk: 3.1663960551031600e-04
               tree_risk: 0.
               tree_error: 0.
               splits:
                  - { var:1, quality:1.0271270275115967e+00,
                      le:8.0004334449768066e-01 }
            -
               depth: 3
               sample_count: 39
               value: -8.5314112901687622e-01
               Tn: 0
               complexity: 0
               alpha: 0.
               node_risk: 1.1703405866647643e-07
               tree_risk: 0.
               tree_error: 0.
            -
               depth: 3
               sample_count: 33
               value: -8.5007828474044800e-01
               Tn: 0
               complexity: 0
               alpha: 0.
               node_risk: 1.3328861426536998e-04
               tree_risk: 0.
               tree_error: 0.
      -
         best_tree_idx: -1
         nodes:
            -
               depth: 0
               sample_count: 152
               value: 1.1676399380360780e-02
               Tn: 0
               complexity: 0
               alpha: 0.
               node_risk: 7.0832006761640249e+00
               tree_risk: 0.
               tree_error: 0.
               splits:
                  - { var:3, quality:6.6554722785949707e+00,
                      le:-1.4463677406311035e+00 }
            -
               depth: 1
               sample_count: 44
               value: 3.3899899301203812e-01
               Tn: 0
               complexity: 0
               alpha: 0.
               node_risk: 4.3412874467207185e-01
               tree_risk: 0.
               tree_error: 0.
               splits:
                  - { var:0, quality:5.4892420768737793e+00,
                      le:-8.2366353273391724e-01 }
            -
               depth: 2
               sample_count: 2
               value: -8.4983271360397339e-01
               Tn: 0
               complexity: 0
               alpha: 0.
               node_risk: 4.6345020814619886e-04
               tree_risk: 0.
               tree_error: 0.
            -
               depth: 2
               sample_count: 42
               value: 3.6064020792643231e-01
               Tn: 0
               complexity: 0
               alpha: 0.
               node_risk: 9.1711739872568643e-04
               tree_risk: 0.
               tree_error: 0.
               splits:
                  - { var:0, quality:5.4634647369384766e+00,
                      le:-6.2084633111953735e-01 }
            -
               depth: 3
               sample_count: 2
               value: 1.2120269536972046e+00
               Tn: 0
               complexity: 0
               alpha: 0.
               node_risk: 2.2234897301132150e-07
               tree_risk: 0.
               tree_error: 0.
            -
               depth: 3
               sample_count: 40
               value: 1.1711689233779907e+00
               Tn: 0
               complexity: 0
               alpha: 0.
               node_risk: 2.9079276927745923e-05
               tree_risk: 0.
               tree_error: 0.
            -
               depth: 1
               sample_count: 108
               value: -1.2167724987698926e-01
               Tn: 0
               complexity: 0
               alpha: 0.
               node_risk: 1.4323255026897908e-02
               tree_risk: 0.
               tree_error: 0.
               splits:
                  - { var:0, quality:1.6015746593475342e+00,
                      le:-7.5619511306285858e-02 }
            -
               depth: 2
               sample_count: 40
               value: -1.2807036153972148e-01
               Tn: 0
               complexity: 0
               alpha: 0.
               node_risk: 1.1439120260357982e-02
               tree_risk: 0.
               tree_error: 0.
               splits:
                  - { var:3, quality:6.6535848379135132e-01,
                      le:7.9172849655151367e-01 }
            -
               depth: 3
               sample_count: 9
               value: -8.9038228988647461e-01
               Tn: 0
               complexity: 0
               alpha: 0.
               node_risk: 1.8708950821029746e-03
               tree_risk: 0.
               tree_error: 0.
            -
               depth: 3
               sample_count: 31
               value: -8.5221707820892334e-01
               Tn: 0
               complexity: 0
               alpha: 0.
               node_risk: 2.9046092579504412e-04
               tree_risk: 0.
               tree_error: 0.
            -
               depth: 2
               sample_count: 68
               value: -1.1791659595773500e-01
               Tn: 0
               complexity: 0
               alpha: 0.
               node_risk: 2.8756848002642332e-04
               tree_risk: 0.
               tree_error: 0.
               splits:
                  - { var:1, quality:9.4565731287002563e-01,
                      le:7.1977233886718750e-01 }
            -
               depth: 3
               sample_count: 37
               value: -8.5162931680679321e-01
               Tn: 0
               complexity: 0
               alpha: 0.
               node_risk: 1.0144320483629343e-07
               tree_risk: 0.
               tree_error: 0.
            -
               depth: 3
               sample_count: 31
               value: -8.4866392612457275e-01
               Tn: 0
               complexity: 0
               alpha: 0.
               node_risk: 1.2414365842478015e-04
               tree_risk: 0.
               tree_error: 0.
      -
         best_tree_idx: -1
         nodes:
            -
               depth: 0
               sample_count: 152
               value: -1.0614017710873955e-02
               Tn: 0
               complexity: 0
               alpha: 0.
               node_risk: 6.1369981296664760e+00
               tree_risk: 0.
               tree_error: 0.
               splits:
                  - { var:3, quality:5.7170467376708984e+00,
                      le:-1.4463677406311035e+00 }
            -
               depth: 1
               sample_count: 37
               value: 3.3078381016447739e-01
               Tn: 0
               complexity: 0
               alpha: 0.
               node_risk: 4.1905912472634199e-01
               tree_risk: 0.
               tree_error: 0.
               splits:
                  - { var:0, quality:4.4661803245544434e+00,
                      le:-8.2366353273391724e-01 }
            -
               depth: 2
               sample_count: 2
               value: -8.4812760353088379e-01
               Tn: 0
               complexity: 0
               alpha: 0.
               node_risk: 4.5383927847986172e-04
               tree_risk: 0.
               tree_error: 0.
            -
               depth: 2
               sample_count: 35
               value: 3.5618307931082588e-01
               Tn: 0
               complexity: 0
               alpha: 0.
               node_risk: 8.8822507116059768e-04
               tree_risk: 0.
               tree_error: 0.
               splits:
                  - { var:0, quality:4.4411902427673340e+00,
                      le:-6.2084633111953735e-01 }
            -
               depth: 3
               sample_count: 2
               value: 1.2026841640472412e+00
               Tn: 0
               complexity: 0
               alpha: 0.
               node_risk: 2.2016821965564759e-07
               tree_risk: 0.
               tree_error: 0.
            -
               depth: 3
               sample_count: 33
               value: 1.1627185344696045e+00
               Tn: 0
               complexity: 0
               alpha: 0.
               node_risk: 2.1477967080407723e-05
               tree_risk: 0.
               tree_error: 0.
            -
               depth: 1
               sample_count: 115
               value: -1.2045505798381308e-01
               Tn: 0
               complexity: 0
               alpha: 0.
               node_risk: 1.8016135706078185e-02
               tree_risk: 0.
               tree_error: 0.
               splits:
                  - { var:0, quality:1.6720529794692993e+00,
                      le:-7.5619511306285858e-02 }
            -
               depth: 2
               sample_count: 42
               value: -1.2769652938558942e-01
               Tn: 0
               complexity: 0
               alpha: 0.
               node_risk: 1.4234057155826707e-02
               tree_risk: 0.
               tree_error: 0.
               splits:
                  - { var:3, quality:6.9683241844177246e-01,
                      le:7.0244765281677246e-01 }
            -
               depth: 3
               sample_count: 10
               value: -8.9194756746292114e-01
               Tn: 0
               complexity: 0
               alpha: 0.
               node_risk: 1.9827818842136358e-03
               tree_risk: 0.
               tree_error: 0.
            -
               depth: 3
               sample_count: 32
               value: -8.5066598653793335e-01
               Tn: 0
               complexity: 0
               alpha: 0.
               node_risk: 2.8782416558104096e-04
               tree_risk: 0.
               tree_error: 0.
            -
               depth: 2
               sample_count: 73
               value: -1.1628873197183218e-01
               Tn: 0
               complexity: 0
               alpha: 0.
               node_risk: 3.1249052363446772e-04
               tree_risk: 0.
               tree_error: 0.
               splits:
                  - { var:1, quality:9.8734498023986816e-01,
                      le:7.8514218330383301e-01 }
            -
               depth: 3
               sample_count: 36
               value: -8.5014158487319946e-01
               Tn: 0
               complexity: 0
               alpha: 0.
               node_risk: 1.0411263812182270e-07
               tree_risk: 0.
               tree_error: 0.
            -
               depth: 3
               sample_count: 37
               value: -8.4732341766357422e-01
               Tn: 0
               complexity: 0
               alpha: 0.
               node_risk: 1.5146035529262081e-04
               tree_risk: 0.
               tree_error: 0.
      -
         best_tree_idx: -1
         nodes:
            -
               depth: 0
               sample_count: 152
               value: -4.7276022991067481e-03
               Tn: 0
               complexity: 0
               alpha: 0.
               node_risk: 6.1814733958109507e+00
               tree_risk: 0.
               tree_error: 0.
               splits:
                  - { var:3, quality:5.9467840194702148e+00,
                      le:-1.4463677406311035e+00 }
            -
               depth: 1
               sample_count: 38
               value: 3.3776865585854177e-01
               Tn: 0
               complexity: 0
               alpha: 0.
               node_risk: 2.2213433082994083e-01
               tree_risk: 0.
               tree_error: 0.
               splits:
                  - { var:0, quality:4.5574498176574707e+00,
                      le:-7.9649388790130615e-01 }
            -
               depth: 2
               sample_count: 1
               value: -8.5938519239425659e-01
               Tn: 0
               complexity: 0
               alpha: 0.
               node_risk: 0.
               tree_risk: 0.
               tree_error: 0.
            -
               depth: 2
               sample_count: 37
               value: 3.5033762132799301e-01
               Tn: 0
               complexity: 0
               alpha: 0.
               node_risk: 1.6007310946974940e-05
               tree_risk: 0.
               tree_error: 0.
               splits:
                  - { var:0, quality:4.5412645339965820e+00,
                      le:-5.7719063758850098e-01 }
            -
               depth: 3
               sample_count: 4
               value: 1.1578127145767212e+00
               Tn: 0
               complexity: 0
               alpha: 0.
               node_risk: 0.
               tree_risk: 0.
               tree_error: 0.
            -
               depth: 3
               sample_count: 33
               value: 1.1540390253067017e+00
               Tn: 0
               complexity: 0
               alpha: 0.
               node_risk: 0.
               tree_risk: 0.
               tree_error: 0.
            -
               depth: 1
               sample_count: 114
               value: -1.1889302168498959e-01
               Tn: 0
               complexity: 0
               alpha: 0.
               node_risk: 1.5952264480147305e-02
               tree_risk: 0.
               tree_error: 0.
               splits:
                  - { var:0, quality:1.6146889925003052e+00,
                      le:-7.5619511306285858e-02 }
            -
               depth: 2
               sample_count: 41
               value: -1.2600250996467544e-01
               Tn: 0
               complexity: 0
               alpha: 0.
               node_risk: 1.2416255194887538e-02
               tree_risk: 0.
               tree_error: 0.
               splits:
                  - { var:3, quality:6.6093122959136963e-01,
                      le:7.6475036144256592e-01 }
            -
               depth: 3
               sample_count: 10
               value: -8.8727504014968872e-01
               Tn: 0
               complexity: 0
               alpha: 0.
               node_risk: 1.8883013355810718e-03
               tree_risk: 0.
               tree_error: 0.
            -
               depth: 3
               sample_count: 31
               value: -8.4965187311172485e-01
               Tn: 0
               complexity: 0
               alpha: 0.
               node_risk: 5.3864141765719298e-04
               tree_risk: 0.
               tree_error: 0.
            -
               depth: 2
               sample_count: 73
               value: -1.1490002141831672e-01
               Tn: 0
               complexity: 0
               alpha: 0.
               node_risk: 2.9975578523699919e-04
               tree_risk: 0.
               tree_error: 0.
               splits:
                  - { var:1, quality:9.6390312910079956e-01,
                      le:7.5940895080566406e-01 }
            -
               depth: 3
               sample_count: 39
               value: -8.4867072105407715e-01
               Tn: 0
               complexity: 0
               alpha: 0.
               node_risk: 1.0655052695707212e-07
               tree_risk: 0.
               tree_error: 0.
            -
               depth: 3
               sample_count: 34
               value: -8.4590113162994385e-01
               Tn: 0
               complexity: 0
               alpha: 0.
               node_risk: 1.4363127077859916e-04
               tree_risk: 0.
               tree_error: 0.
      -
         best_tree_idx: -1
         nodes:
            -
               depth: 0
               sample_count: 152
               value: -7.0034940481970183e-03
               Tn: 0
               complexity: 0
               alpha: 0.
               node_risk: 5.9216116006879762e+00
               tree_risk: 0.
               tree_error: 0.
               splits:
                  - { var:3, quality:5.5173954963684082e+00,
                      le:-1.3948662281036377e+00 }
            -
               depth: 1
               sample_count: 38
               value: 3.2276736454744087e-01
               Tn: 0
               complexity: 0
               alpha: 0.
               node_risk: 3.9835776883588681e-01
               tree_risk: 0.
               tree_error: 0.
               splits:
                  - { var:0, quality:4.3558526039123535e+00,
                      le:-8.2366353273391724e-01 }
            -
               depth: 2
               sample_count: 2
               value: -8.4545099735260010e-01
               Tn: 0
               complexity: 0
               alpha: 0.
               node_risk: 4.4013522036448482e-04
               tree_risk: 0.
               tree_error: 0.
            -
               depth: 2
               sample_count: 36
               value: 3.4686085085074109e-01
               Tn: 0
               complexity: 0
               alpha: 0.
               node_risk: 8.5831335835973022e-04
               tree_risk: 0.
               tree_error: 0.
               splits:
                  - { var:0, quality:4.3320980072021484e+00,
                      le:-6.0366225242614746e-01 }
            -
               depth: 3
               sample_count: 2
               value: 1.1846352815628052e+00
               Tn: 0
               complexity: 0
               alpha: 0.
               node_risk: 2.1560404839249259e-07
               tree_risk: 0.
               tree_error: 0.
            -
               depth: 3
               sample_count: 34
               value: 1.1462336778640747e+00
               Tn: 0
               complexity: 0
               alpha: 0.
               node_risk: 8.2761479367476909e-06
               tree_risk: 0.
               tree_error: 0.
            -
               depth: 1
               sample_count: 114
               value: -1.1692711358007632e-01
               Tn: 0
               complexity: 0
               alpha: 0.
               node_risk: 1.3313660120950033e-02
               tree_risk: 0.
               tree_error: 0.
               splits:
                  - { var:0, quality:1.5611977577209473e+00,
                      le:-7.5619511306285858e-02 }
            -
               depth: 2
               sample_count: 41
               value: -1.2329392135143280e-01
               Tn: 0
               complexity: 0
               alpha: 0.
               node_risk: 1.0418984322309033e-02
               tree_risk: 0.
               tree_error: 0.
               splits:
                  - { var:3, quality:6.3147908449172974e-01,
                      le:8.4215891361236572e-01 }
            -
               depth: 3
               sample_count: 10
               value: -8.8185793161392212e-01
               Tn: 0
               complexity: 0
               alpha: 0.
               node_risk: 1.9206025439101049e-03
               tree_risk: 0.
               tree_error: 0.
            -
               depth: 3
               sample_count: 31
               value: -8.4777212142944336e-01
               Tn: 0
               complexity: 0
               alpha: 0.
               node_risk: 2.7633969675977532e-04
               tree_risk: 0.
               tree_error: 0.
            -
               depth: 2
               sample_count: 73
               value: -1.1335123524273912e-01
               Tn: 0
               complexity: 0
               alpha: 0.
               node_risk: 2.9924578005768865e-04
               tree_risk: 0.
               tree_error: 0.
               splits:
                  - { var:1, quality:9.3809807300567627e-01,
                      le:7.1977233886718750e-01 }
            -
               depth: 3
               sample_count: 38
               value: -8.4722834825515747e-01
               Tn: 0
               complexity: 0
               alpha: 0.
               node_risk: 1.1764532215075008e-07
               tree_risk: 0.
               tree_error: 0.
            -
               depth: 3
               sample_count: 35
               value: -8.4445899724960327e-01
               Tn: 0
               complexity: 0
               alpha: 0.
               node_risk: 1.4173000466272123e-04
               tree_risk: 0.
               tree_error: 0.
      -
         best_tree_idx: -1
         nodes:
            -
               depth: 0
               sample_count: 152
               value: 4.4138271263555479e-03
               Tn: 0
               complexity: 0
               alpha: 0.
               node_risk: 6.2056109643252091e+00
               tree_risk: 0.
               tree_error: 0.
               splits:
                  - { var:3, quality:6.0033001899719238e+00,
                      le:-1.4463677406311035e+00 }
            -
               depth: 1
               sample_count: 41
               value: 3.3132944019829352e-01
               Tn: 0
               complexity: 0
               alpha: 0.
               node_risk: 1.8645254531412547e-01
               tree_risk: 0.
               tree_error: 0.
               splits:
                  - { var:0, quality:4.6868734359741211e+00,
                      le:-8.6547303199768066e-01 }
            -
               depth: 2
               sample_count: 1
               value: -8.2833719253540039e-01
               Tn: 0
               complexity: 0
               alpha: 0.
               node_risk: 0.
               tree_risk: 0.
               tree_error: 0.
            -
               depth: 2
               sample_count: 40
               value: 3.4197696745395662e-01
               Tn: 0
               complexity: 0
               alpha: 0.
               node_risk: 5.2601319158096516e-04
               tree_risk: 0.
               tree_error: 0.
               splits:
                  - { var:0, quality:4.6784167289733887e+00,
                      le:-6.2084633111953735e-01 }
            -
               depth: 3
               sample_count: 1
               value: 1.1788114309310913e+00
               Tn: 0
               complexity: 0
               alpha: 0.
               node_risk: 0.
               tree_risk: 0.
               tree_error: 0.
            -
               depth: 3
               sample_count: 39
               value: 1.1388158798217773e+00
               Tn: 0
               complexity: 0
               alpha: 0.
               node_risk: 3.9082545852942019e-05
               tree_risk: 0.
               tree_error: 0.
            -
               depth: 1
               sample_count: 111
               value: -1.1633878671102696e-01
               Tn: 0
               complexity: 0
               alpha: 0.
               node_risk: 1.8819372042678362e-02
               tree_risk: 0.
               tree_error: 0.
               splits:
                  - { var:0, quality:1.5060883760452271e+00,
                      le:-9.2776104807853699e-02 }
            -
               depth: 2
               sample_count: 43
               value: -1.2363365708395492e-01
               Tn: 0
               complexity: 0
               alpha: 0.
               node_risk: 1.4799382899242874e-02
               tree_risk: 0.
               tree_error: 0.
               splits:
                  - { var:3, quality:6.6943645477294922e-01,
                      le:7.6475036144256592e-01 }
            -
               depth: 3
               sample_count: 11
               value: -8.8620477914810181e-01
               Tn: 0
               complexity: 0
               alpha: 0.
               node_risk: 2.2915916554115401e-03
               tree_risk: 0.
               tree_error: 0.
            -
               depth: 3
               sample_count: 32
               value: -8.4637057781219482e-01
               Tn: 0
               complexity: 0
               alpha: 0.
               node_risk: 3.3840330162981935e-04
               tree_risk: 0.
               tree_error: 0.
            -
               depth: 2
               sample_count: 68
               value: -1.1172585397520486e-01
               Tn: 0
               complexity: 0
               alpha: 0.
               node_risk: 2.8475629893465193e-04
               tree_risk: 0.
               tree_error: 0.
               splits:
                  - { var:1, quality:8.4901428222656250e-01,
                      le:7.5940895080566406e-01 }
            -
               depth: 3
               sample_count: 37
               value: -8.4580218791961670e-01
               Tn: 0
               complexity: 0
               alpha: 0.
               node_risk: 1.1973235791717940e-07
               tree_risk: 0.
               tree_error: 0.
            -
               depth: 3
               sample_count: 31
               value: -8.4261363744735718e-01
               Tn: 0
               complexity: 0
               alpha: 0.
               node_risk: 9.1659242282382536e-05
               tree_risk: 0.
               tree_error: 0.
      -
         best_tree_idx: -1
         nodes:
            -
               depth: 0
               sample_count: 152
               value: -8.9043712145403812e-04
               Tn: 0
               complexity: 0
               alpha: 0.
               node_risk: 5.8168667687408062e+00
               tree_risk: 0.
               tree_error: 0.
               splits:
                  - { var:3, quality:5.4250001907348633e+00,
                      le:-1.4495961666107178e+00 }
            -
               depth: 1
               sample_count: 40
               value: 3.1522978246212008e-01
               Tn: 0
               complexity: 0
               alpha: 0.
               node_risk: 3.7855891243740114e-01
               tree_risk: 0.
               tree_error: 0.
               splits:
                  - { var:0, quality:4.3523378372192383e+00,
                      le:-8.2366353273391724e-01 }
            -
               depth: 2
               sample_count: 2
               value: -8.4305632114410400e-01
               Tn: 0
               complexity: 0
               alpha: 0.
               node_risk: 4.6139330352457097e-04
               tree_risk: 0.
               tree_error: 0.
            -
               depth: 2
               sample_count: 38
               value: 3.3751811636121648e-01
               Tn: 0
               complexity: 0
               alpha: 0.
               node_risk: 5.5244985569125049e-04
               tree_risk: 0.
               tree_error: 0.
               splits:
                  - { var:0, quality:4.3294267654418945e+00,
                      le:-6.3944327831268311e-01 }
            -
               depth: 3
               sample_count: 1
               value: 1.1720836162567139e+00
               Tn: 0
               complexity: 0
               alpha: 0.
               node_risk: 0.
               tree_risk: 0.
               tree_error: 0.
            -
               depth: 3
               sample_count: 37
               value: 1.1310676336288452e+00
               Tn: 0
               complexity: 0
               alpha: 0.
               node_risk: 2.8080371738958831e-05
               tree_risk: 0.
               tree_error: 0.
            -
               depth: 1
               sample_count: 112
               value: -1.1379051554415907e-01
               Tn: 0
               complexity: 0
               alpha: 0.
               node_risk: 1.3428223841195797e-02
               tree_risk: 0.
               tree_error: 0.
               splits:
                  - { var:0, quality:1.4528981447219849e+00,
                      le:-7.5619511306285858e-02 }
            -
               depth: 2
               sample_count: 37
               value: -1.2076870734627182e-01
               Tn: 0
               complexity: 0
               alpha: 0.
               node_risk: 1.0431890937376953e-02
               tree_risk: 0.
               tree_error: 0.
               splits:
                  - { var:3, quality:5.4779833555221558e-01,
                      le:6.7546951770782471e-01 }
            -
               depth: 3
               sample_count: 8
               value: -8.8280814886093140e-01
               Tn: 0
               complexity: 0
               alpha: 0.
               node_risk: 1.6828958701194940e-03
               tree_risk: 0.
               tree_error: 0.
            -
               depth: 3
               sample_count: 29
               value: -8.4569561481475830e-01
               Tn: 0
               complexity: 0
               alpha: 0.
               node_risk: 5.9862907933794229e-04
               tree_risk: 0.
               tree_error: 0.
            -
               depth: 2
               sample_count: 75
               value: -1.1034794092178345e-01
               Tn: 0
               complexity: 0
               alpha: 0.
               node_risk: 3.0576295092066275e-04
               tree_risk: 0.
               tree_error: 0.
               splits:
                  - { var:1, quality:9.1342818737030029e-01,
                      le:7.5940895080566406e-01 }
            -
               depth: 3
               sample_count: 40
               value: -8.4439420700073242e-01
               Tn: 0
               complexity: 0
               alpha: 0.
               node_risk: 1.2287134198984972e-07
               tree_risk: 0.
               tree_error: 0.
            -
               depth: 3
               sample_count: 35
               value: -8.4149986505508423e-01
               Tn: 0
               complexity: 0
               alpha: 0.
               node_risk: 1.2758336200735521e-04
               tree_risk: 0.
               tree_error: 0.
      -
         best_tree_idx: -1
         nodes:
            -
               depth: 0
               sample_count: 152
               value: 4.6568183032305614e-03
               Tn: 0
               complexity: 0
               alpha: 0.
               node_risk: 5.8991715138123118e+00
               tree_risk: 0.
               tree_error: 0.
               splits:
                  - { var:3, quality:5.8847870826721191e+00,
                      le:-1.4463677406311035e+00 }
            -
               depth: 1
               sample_count: 40
               value: 3.3381218463182449e-01
               Tn: 0
               complexity: 0
               alpha: 0.
               node_risk: 1.1959099381630978e-03
               tree_risk: 0.
               tree_error: 0.
               splits:
                  - { var:0, quality:4.4583835601806641e+00,
                      le:-6.2084633111953735e-01 }
            -
               depth: 2
               sample_count: 2
               value: 1.1669362783432007e+00
               Tn: 0
               complexity: 0
               alpha: 0.
               node_risk: 2.7626939136382589e-07
               tree_risk: 0.
               tree_error: 0.
            -
               depth: 2
               sample_count: 38
               value: 3.3257645682284709e-01
               Tn: 0
               complexity: 0
               alpha: 0.
               node_risk: 3.5096023181857561e-05
               tree_risk: 0.
               tree_error: 0.
               splits:
                  - { var:0, quality:4.2031006813049316e+00,
                      le:-5.7857513427734375e-01 }
            -
               depth: 3
               sample_count: 4
               value: 1.1281607151031494e+00
               Tn: 0
               complexity: 0
               alpha: 0.
               node_risk: 4.3757965890733885e-06
               tree_risk: 0.
               tree_error: 0.
            -
               depth: 3
               sample_count: 34
               value: 1.1232051849365234e+00
               Tn: 0
               complexity: 0
               alpha: 0.
               node_risk: 0.
               tree_risk: 0.
               tree_error: 0.
            -
               depth: 1
               sample_count: 112
               value: -1.1289866967126727e-01
               Tn: 0
               complexity: 0
               alpha: 0.
               node_risk: 1.6484608230416420e-02
               tree_risk: 0.
               tree_error: 0.
               splits:
                  - { var:0, quality:1.4304169416427612e+00,
                      le:-7.5619511306285858e-02 }
            -
               depth: 2
               sample_count: 44
               value: -1.1917269212955778e-01
               Tn: 0
               complexity: 0
               alpha: 0.
               node_risk: 1.3347565439829401e-02
               tree_risk: 0.
               tree_error: 0.
               splits:
                  - { var:3, quality:6.3540720939636230e-01,
                      le:7.6475036144256592e-01 }
            -
               depth: 3
               sample_count: 9
               value: -8.8366007804870605e-01
               Tn: 0
               complexity: 0
               alpha: 0.
               node_risk: 2.1571833527609385e-03
               tree_risk: 0.
               tree_error: 0.
            -
               depth: 3
               sample_count: 35
               value: -8.4412682056427002e-01
               Tn: 0
               complexity: 0
               alpha: 0.
               node_risk: 6.7693738377183621e-04
               tree_risk: 0.
               tree_error: 0.
            -
               depth: 2
               sample_count: 68
               value: -1.0883900808060870e-01
               Tn: 0
               complexity: 0
               alpha: 0.
               node_risk: 2.8435709538843223e-04
               tree_risk: 0.
               tree_error: 0.
               splits:
                  - { var:1, quality:8.0568313598632812e-01,
                      le:8.2477879524230957e-01 }
            -
               depth: 3
               sample_count: 35
               value: -8.4300750494003296e-01
               Tn: 0
               complexity: 0
               alpha: 0.
               node_risk: 1.0378734910387877e-07
               tree_risk: 0.
               tree_error: 0.
            -
               depth: 3
               sample_count: 33
               value: -8.4014284610748291e-01
               Tn: 0
               complexity: 0
               alpha: 0.
               node_risk: 1.2431309354232756e-04
               tree_risk: 0.
               tree_error: 0.
      -
         best_tree_idx: -1
         nodes:
            -
               depth: 0
               sample_count: 152
               value: 9.2401580983086636e-04
               Tn: 0
               complexity: 0
               alpha: 0.
               node_risk: 5.6593530450814891e+00
               tree_risk: 0.
               tree_error: 0.
               splits:
                  - { var:3, quality:5.4394259452819824e+00,
                      le:-1.3993511199951172e+00 }
            -
               depth: 1
               sample_count: 40
               value: 3.1746399961411953e-01
               Tn: 0
               complexity: 0
               alpha: 0.
               node_risk: 1.9975395649467576e-01
               tree_risk: 0.
               tree_error: 0.
               splits:
                  - { var:0, quality:4.2304930686950684e+00,
                      le:-8.2366353273391724e-01 }
            -
               depth: 2
               sample_count: 1
               value: -8.5537612438201904e-01
               Tn: 0
               complexity: 0
               alpha: 0.
               node_risk: 0.
               tree_risk: 0.
               tree_error: 0.
            -
               depth: 2
               sample_count: 39
               value: 3.2876289043671048e-01
               Tn: 0
               complexity: 0
               alpha: 0.
               node_risk: 5.9665973418177032e-04
               tree_risk: 0.
               tree_error: 0.
               splits:
                  - { var:0, quality:4.2158861160278320e+00,
                      le:-6.3944327831268311e-01 }
            -
               depth: 3
               sample_count: 1
               value: 1.1579750776290894e+00
               Tn: 0
               complexity: 0
               alpha: 0.
               node_risk: 0.
               tree_risk: 0.
               tree_error: 0.
            -
               depth: 3
               sample_count: 38
               value: 1.1163126230239868e+00
               Tn: 0
               complexity: 0
               alpha: 0.
               node_risk: 2.7230358481844519e-05
               tree_risk: 0.
               tree_error: 0.
            -
               depth: 1
               sample_count: 112
               value: -1.1212597840598651e-01
               Tn: 0
               complexity: 0
               alpha: 0.
               node_risk: 2.0302901188034683e-02
               tree_risk: 0.
               tree_error: 0.
               splits:
                  - { var:0, quality:1.4120393991470337e+00,
                      le:-7.4474617838859558e-02 }
            -
               depth: 2
               sample_count: 43
               value: -1.1964791008206301e-01
               Tn: 0
               complexity: 0
               alpha: 0.
               node_risk: 1.6062930616343896e-02
               tree_risk: 0.
               tree_error: 0.
               splits:
                  - { var:3, quality:6.2873917818069458e-01,
                      le:7.9172849655151367e-01 }
            -
               depth: 3
               sample_count: 11
               value: -8.8344979286193848e-01
               Tn: 0
               complexity: 0
               alpha: 0.
               node_risk: 2.5666639725569762e-03
               tree_risk: 0.
               tree_error: 0.
            -
               depth: 3
               sample_count: 32
               value: -8.4220653772354126e-01
               Tn: 0
               complexity: 0
               alpha: 0.
               node_risk: 3.2882275813617134e-04
               tree_risk: 0.
               tree_error: 0.
            -
               depth: 2
               sample_count: 69
               value: -1.0743839779625768e-01
               Tn: 0
               complexity: 0
               alpha: 0.
               node_risk: 2.9088853157421823e-04
               tree_risk: 0.
               tree_error: 0.
               splits:
                  - { var:1, quality:7.9666745662689209e-01,
                      le:7.5940895080566406e-01 }
            -
               depth: 3
               sample_count: 40
               value: -8.4164446592330933e-01
               Tn: 0
               complexity: 0
               alpha: 0.
               node_risk: 1.3244596885897408e-07
               tree_risk: 0.
               tree_error: 0.
            -
               depth: 3
               sample_count: 29
               value: -8.3842873573303223e-01
               Tn: 0
               complexity: 0
               alpha: 0.
               node_risk: 9.0941525345833440e-05
               tree_risk: 0.
               tree_error: 0.
      -
         best_tree_idx: -1
         nodes:
            -
               depth: 0
               sample_count: 152
               value: 9.7445772568646224e-03
               Tn: 0
               complexity: 0
               alpha: 0.
               node_risk: 5.7980592848943644e+00
               tree_risk: 0.
               tree_error: 0.
               splits:
                  - { var:3, quality:5.4355187416076660e+00,
                      le:-1.4463677406311035e+00 }
            -
               depth: 1
               sample_count: 44
               value: 3.0561861920763145e-01
               Tn: 0
               complexity: 0
               alpha: 0.
               node_risk: 3.5718997771335204e-01
               tree_risk: 0.
               tree_error: 0.
               splits:
                  - { var:0, quality:4.4651579856872559e+00,
                      le:-8.2366353273391724e-01 }
            -
               depth: 2
               sample_count: 2
               value: -8.4116220474243164e-01
               Tn: 0
               complexity: 0
               alpha: 0.
               node_risk: 4.5066792995654414e-04
               tree_risk: 0.
               tree_error: 0.
            -
               depth: 2
               sample_count: 42
               value: 3.2523168694405330e-01
               Tn: 0
               complexity: 0
               alpha: 0.
               node_risk: 1.3019881284677126e-03
               tree_risk: 0.
               tree_error: 0.
               splits:
                  - { var:0, quality:4.4438419342041016e+00,
                      le:-6.2084633111953735e-01 }
            -
               depth: 3
               sample_count: 2
               value: 1.1534434556961060e+00
               Tn: 0
               complexity: 0
               alpha: 0.
               node_risk: 3.4523758252191783e-07
               tree_risk: 0.
               tree_error: 0.
            -
               depth: 3
               sample_count: 40
               value: 1.1094797849655151e+00
               Tn: 0
               complexity: 0
               alpha: 0.
               node_risk: 3.6910326739914012e-05
               tree_risk: 0.
               tree_error: 0.
            -
               depth: 1
               sample_count: 108
               value: -1.1079669909344779e-01
               Tn: 0
               complexity: 0
               alpha: 0.
               node_risk: 1.9784039518968344e-02
               tree_risk: 0.
               tree_error: 0.
               splits:
                  - { var:0, quality:1.3293477296829224e+00,
                      le:-7.5619511306285858e-02 }
            -
               depth: 2
               sample_count: 44
               value: -1.1771091869608923e-01
               Tn: 0
               complexity: 0
               alpha: 0.
               node_risk: 1.5966405491550706e-02
               tree_risk: 0.
               tree_error: 0.
               splits:
                  - { var:3, quality:6.2235969305038452e-01,
                      le:7.6475036144256592e-01 }
            -
               depth: 3
               sample_count: 10
               value: -8.8315278291702271e-01
               Tn: 0
               complexity: 0
               alpha: 0.
               node_risk: 2.5782384237892364e-03
               tree_risk: 0.
               tree_error: 0.
            -
               depth: 3
               sample_count: 34
               value: -8.4145104885101318e-01
               Tn: 0
               complexity: 0
               alpha: 0.
               node_risk: 6.8631959443066215e-04
               tree_risk: 0.
               tree_error: 0.
            -
               depth: 2
               sample_count: 64
               value: -1.0604317311663181e-01
               Tn: 0
               complexity: 0
               alpha: 0.
               node_risk: 2.6800639843793661e-04
               tree_risk: 0.
               tree_error: 0.
               splits:
                  - { var:1, quality:7.1985566616058350e-01,
                      le:7.5940895080566406e-01 }
            -
               depth: 3
               sample_count: 36
               value: -8.4030085802078247e-01
               Tn: 0
               complexity: 0
               alpha: 0.
               node_risk: 1.2481900624194964e-07
               tree_risk: 0.
               tree_error: 0.
            -
               depth: 3
               sample_count: 28
               value: -8.3729028701782227e-01
               Tn: 0
               complexity: 0
               alpha: 0.
               node_risk: 1.0211548465288711e-04
               tree_risk: 0.
               tree_error: 0.
      -
         best_tree_idx: -1
         nodes:
            -
               depth: 0
               sample_count: 152
               value: -1.9076793993774213e-03
               Tn: 0
               complexity: 0
               alpha: 0.
               node_risk: 5.2873637882926117e+00
               tree_risk: 0.
               tree_error: 0.
               splits:
                  - { var:3, quality:4.9220099449157715e+00,
                      le:-1.4463677406311035e+00 }
            -
               depth: 1
               sample_count: 40
               value: 2.9918768443167210e-01
               Tn: 0
               complexity: 0
               alpha: 0.
               node_risk: 3.4504051696777793e-01
               tree_risk: 0.
               tree_error: 0.
               splits:
                  - { var:0, quality:3.9244389533996582e+00,
                      le:-8.0506658554077148e-01 }
            -
               depth: 2
               sample_count: 2
               value: -8.3996021747589111e-01
               Tn: 0
               complexity: 0
               alpha: 0.
               node_risk: 4.4399950835982693e-04
               tree_risk: 0.
               tree_error: 0.
            -
               depth: 2
               sample_count: 38
               value: 3.2045998385078028e-01
               Tn: 0
               complexity: 0
               alpha: 0.
               node_risk: 6.8836830151353112e-04
               tree_risk: 0.
               tree_error: 0.
               splits:
                  - { var:0, quality:3.9030499458312988e+00,
                      le:-6.2084633111953735e-01 }
            -
               depth: 3
               sample_count: 1
               value: 1.1462880373001099e+00
               Tn: 0
               complexity: 0
               alpha: 0.
               node_risk: 0.
               tree_risk: 0.
               tree_error: 0.
            -
               depth: 3
               sample_count: 37
               value: 1.1025848388671875e+00
               Tn: 0
               complexity: 0
               alpha: 0.
               node_risk: 3.3355099654297504e-05
               tree_risk: 0.
               tree_error: 0.
            -
               depth: 1
               sample_count: 112
               value: -1.0944173791046653e-01
               Tn: 0
               complexity: 0
               alpha: 0.
               node_risk: 2.0866287637723913e-02
               tree_risk: 0.
               tree_error: 0.
               splits:
                  - { var:0, quality:1.3458362817764282e+00,
                      le:-7.5619511306285858e-02 }
            -
               depth: 2
               sample_count: 43
               value: -1.1734255992395934e-01
               Tn: 0
               complexity: 0
               alpha: 0.
               node_risk: 1.6205323370703462e-02
               tree_risk: 0.
               tree_error: 0.
               splits:
                  - { var:3, quality:6.0505950450897217e-01,
                      le:7.6475036144256592e-01 }
            -
               depth: 3
               sample_count: 11
               value: -8.8085746765136719e-01
               Tn: 0
               complexity: 0
               alpha: 0.
               node_risk: 2.5548163190851902e-03
               tree_risk: 0.
               tree_error: 0.
            -
               depth: 3
               sample_count: 32
               value: -8.4019607305526733e-01
               Tn: 0
               complexity: 0
               alpha: 0.
               node_risk: 6.6988989316779657e-04
               tree_risk: 0.
               tree_error: 0.
            -
               depth: 2
               sample_count: 69
               value: -1.0451803723539131e-01
               Tn: 0
               complexity: 0
               alpha: 0.
               node_risk: 3.0402060669565412e-04
               tree_risk: 0.
               tree_error: 0.
               splits:
                  - { var:1, quality:7.5392234325408936e-01,
                      le:7.5940895080566406e-01 }
            -
               depth: 3
               sample_count: 35
               value: -8.3896559476852417e-01
               Tn: 0
               complexity: 0
               alpha: 0.
               node_risk: 9.9280393572875880e-08
               tree_risk: 0.
               tree_error: 0.
            -
               depth: 3
               sample_count: 34
               value: -8.3611011505126953e-01
               Tn: 0
               complexity: 0
               alpha: 0.
               node_risk: 1.3896071245733665e-04
               tree_risk: 0.
               tree_error: 0.
      -
         best_tree_idx: -1
         nodes:
            -
               depth: 0
               sample_count: 152
               value: -1.5009562484920025e-02
               Tn: 0
               complexity: 0
               alpha: 0.
               node_risk: 4.6682130860674134e+00
               tree_risk: 0.
               tree_error: 0.
               splits:
                  - { var:3, quality:4.4995532035827637e+00,
                      le:-1.4463677406311035e+00 }
            -
               depth: 1
               sample_count: 34
               value: 3.0429529858862653e-01
               Tn: 0
               complexity: 0
               alpha: 0.
               node_risk: 1.8519652281405286e-01
               tree_risk: 0.
               tree_error: 0.
               splits:
                  - { var:0, quality:3.3320960998535156e+00,
                      le:-8.2366353273391724e-01 }
            -
               depth: 2
               sample_count: 1
               value: -8.5045897960662842e-01
               Tn: 0
               complexity: 0
               alpha: 0.
               node_risk: 0.
               tree_risk: 0.
               tree_error: 0.
            -
               depth: 2
               sample_count: 33
               value: 3.1709586129044043e-01
               Tn: 0
               complexity: 0
               alpha: 0.
               node_risk: 1.3518798620495431e-03
               tree_risk: 0.
               tree_error: 0.
               splits:
                  - { var:0, quality:3.3194797039031982e+00,
                      le:-6.1514461040496826e-01 }
            -
               depth: 3
               sample_count: 2
               value: 1.1400840282440186e+00
               Tn: 0
               complexity: 0
               alpha: 0.
               node_risk: 3.3814233013629291e-07
               tree_risk: 0.
               tree_error: 0.
            -
               depth: 3
               sample_count: 31
               value: 1.0956594944000244e+00
               Tn: 0
               complexity: 0
               alpha: 0.
               node_risk: 1.4777121100095769e-05
               tree_risk: 0.
               tree_error: 0.
            -
               depth: 1
               sample_count: 118
               value: -1.0701265804848428e-01
               Tn: 0
               complexity: 0
               alpha: 0.
               node_risk: 1.7707144869809621e-02
               tree_risk: 0.
               tree_error: 0.
               splits:
                  - { var:0, quality:1.3543926477432251e+00,
                      le:-7.5619511306285858e-02 }
            -
               depth: 2
               sample_count: 42
               value: -1.1389745949279695e-01
               Tn: 0
               complexity: 0
               alpha: 0.
               node_risk: 1.4301111280808798e-02
               tree_risk: 0.
               tree_error: 0.
               splits:
                  - { var:3, quality:5.5691051483154297e-01,
                      le:7.6475036144256592e-01 }
            -
               depth: 3
               sample_count: 8
               value: -8.8251954317092896e-01
               Tn: 0
               complexity: 0
               alpha: 0.
               node_risk: 1.5828328960069971e-03
               tree_risk: 0.
               tree_error: 0.
            -
               depth: 3
               sample_count: 34
               value: -8.3879572153091431e-01
               Tn: 0
               complexity: 0
               alpha: 0.
               node_risk: 6.5826717441164195e-04
               tree_risk: 0.
               tree_error: 0.
            -
               depth: 2
               sample_count: 76
               value: -1.0320789935557466e-01
               Tn: 0
               complexity: 0
               alpha: 0.
               node_risk: 3.1502262798621672e-04
               tree_risk: 0.
               tree_error: 0.
               splits:
                  - { var:1, quality:8.0973732471466064e-01,
                      le:7.5940895080566406e-01 }
            -
               depth: 3
               sample_count: 42
               value: -8.3766090869903564e-01
               Tn: 0
               complexity: 0
               alpha: 0.
               node_risk: 1.2836103097102480e-07
               tree_risk: 0.
               tree_error: 0.
            -
               depth: 3
               sample_count: 34
               value: -8.3468890190124512e-01
               Tn: 0
               complexity: 0
               alpha: 0.
               node_risk: 1.1975247590306770e-04
               tree_risk: 0.
               tree_error: 0.
      -
         best_tree_idx: -1
         nodes:
            -
               depth: 0
               sample_count: 152
               value: -1.4152398921157185e-03
               Tn: 0
               complexity: 0
               alpha: 0.
               node_risk: 5.0235438210126349e+00
               tree_risk: 0.
               tree_error: 0.
               splits:
                  - { var:3, quality:4.6752495765686035e+00,
                      le:-1.3993511199951172e+00 }
            -
               depth: 1
               sample_count: 40
               value: 2.9204243365675209e-01
               Tn: 0
               complexity: 0
               alpha: 0.
               node_risk: 3.2877186725496621e-01
               tree_risk: 0.
               tree_error: 0.
               splits:
                  - { var:0, quality:3.7385532855987549e+00,
                      le:-8.2366353273391724e-01 }
            -
               depth: 2
               sample_count: 2
               value: -8.3720678091049194e-01
               Tn: 0
               complexity: 0
               alpha: 0.
               node_risk: 4.2713216592329961e-04
               tree_risk: 0.
               tree_error: 0.
            -
               depth: 2
               sample_count: 38
               value: 3.1278528037824127e-01
               Tn: 0
               complexity: 0
               alpha: 0.
               node_risk: 1.3428106045352273e-03
               tree_risk: 0.
               tree_error: 0.
               splits:
                  - { var:0, quality:3.7190270423889160e+00,
                      le:-6.2084633111953735e-01 }
            -
               depth: 3
               sample_count: 2
               value: 1.1324260234832764e+00
               Tn: 0
               complexity: 0
               alpha: 0.
               node_risk: 3.3389131459671262e-07
               tree_risk: 0.
               tree_error: 0.
            -
               depth: 3
               sample_count: 36
               value: 1.0891722440719604e+00
               Tn: 0
               complexity: 0
               alpha: 0.
               node_risk: 3.1534904370467132e-05
               tree_risk: 0.
               tree_error: 0.
            -
               depth: 1
               sample_count: 112
               value: -1.0622155187385422e-01
               Tn: 0
               complexity: 0
               alpha: 0.
               node_risk: 1.9827047673192988e-02
               tree_risk: 0.
               tree_error: 0.
               splits:
                  - { var:0, quality:1.2671231031417847e+00,
                      le:-7.5619511306285858e-02 }
            -
               depth: 2
               sample_count: 44
               value: -1.1309620941227133e-01
               Tn: 0
               complexity: 0
               alpha: 0.
               node_risk: 1.6120241425892079e-02
               tree_risk: 0.
               tree_error: 0.
               splits:
                  - { var:3, quality:5.7622146606445312e-01,
                      le:6.7546951770782471e-01 }
            -
               depth: 3
               sample_count: 9
               value: -8.8140499591827393e-01
               Tn: 0
               complexity: 0
               alpha: 0.
               node_risk: 2.0435849730627009e-03
               tree_risk: 0.
               tree_error: 0.
            -
               depth: 3
               sample_count: 35
               value: -8.3744162321090698e-01
               Tn: 0
               complexity: 0
               alpha: 0.
               node_risk: 6.4829308784586370e-04
               tree_risk: 0.
               tree_error: 0.
            -
               depth: 2
               sample_count: 68
               value: -1.0177324405487846e-01
               Tn: 0
               complexity: 0
               alpha: 0.
               node_risk: 2.8177984463884087e-04
               tree_risk: 0.
               tree_error: 0.
               splits:
                  - { var:1, quality:7.0451122522354126e-01,
                      le:7.5940895080566406e-01 }
            -
               depth: 3
               sample_count: 37
               value: -8.3637005090713501e-01
               Tn: 0
               complexity: 0
               alpha: 0.
               node_risk: 1.0822871493454400e-07
               tree_risk: 0.
               tree_error: 0.
            -
               depth: 3
               sample_count: 31
               value: -8.3335357904434204e-01
               Tn: 0
               complexity: 0
               alpha: 0.
               node_risk: 1.0039441064962906e-04
               tree_risk: 0.
               tree_error: 0.
      -
         best_tree_idx: -1
         nodes:
            -
               depth: 0
               sample_count: 152
               value: 1.0419733969396666e-02
               Tn: 0
               complexity: 0
               alpha: 0.
               node_risk: 5.1722294966649027e+00
               tree_risk: 0.
               tree_error: 0.
               splits:
                  - { var:3, quality:4.8546171188354492e+00,
                      le:-1.4463677406311035e+00 }
            -
               depth: 1
               sample_count: 44
               value: 2.8993259895254264e-01
               Tn: 0
               complexity: 0
               alpha: 0.
               node_risk: 3.2169438406198969e-01
               tree_risk: 0.
               tree_error: 0.
               splits:
                  - { var:0, quality:4.0186309814453125e+00,
                      le:-8.2366353273391724e-01 }
            -
               depth: 2
               sample_count: 2
               value: -8.3605140447616577e-01
               Tn: 0
               complexity: 0
               alpha: 0.
               node_risk: 4.2055464248538788e-04
               tree_risk: 0.
               tree_error: 0.
            -
               depth: 2
               sample_count: 42
               value: 3.0854085371607826e-01
               Tn: 0
               complexity: 0
               alpha: 0.
               node_risk: 1.3229871210511668e-03
               tree_risk: 0.
               tree_error: 0.
               splits:
                  - { var:0, quality:3.9995818138122559e+00,
                      le:-6.2084633111953735e-01 }
            -
               depth: 3
               sample_count: 2
               value: 1.1249648332595825e+00
               Tn: 0
               complexity: 0
               alpha: 0.
               node_risk: 3.2961879270487771e-07
               tree_risk: 0.
               tree_error: 0.
            -
               depth: 3
               sample_count: 40
               value: 1.0827276706695557e+00
               Tn: 0
               complexity: 0
               alpha: 0.
               node_risk: 3.4079757728289195e-05
               tree_risk: 0.
               tree_error: 0.
            -
               depth: 1
               sample_count: 108
               value: -1.0345587769040356e-01
               Tn: 0
               complexity: 0
               alpha: 0.
               node_risk: 1.2420945658595306e-02
               tree_risk: 0.
               tree_error: 0.
               splits:
                  - { var:0, quality:1.1576875448226929e+00,
                      le:-7.5619511306285858e-02 }
            -
               depth: 2
               sample_count: 38
               value: -1.0892045674355406e-01
               Tn: 0
               complexity: 0
               alpha: 0.
               node_risk: 1.0393492355643519e-02
               tree_risk: 0.
               tree_error: 0.
               splits:
                  - { var:3, quality:4.5947849750518799e-01,
                      le:7.0244765281677246e-01 }
            -
               depth: 3
               sample_count: 6
               value: -8.7765288352966309e-01
               Tn: 0
               complexity: 0
               alpha: 0.
               node_risk: 1.4372542452399384e-03
               tree_risk: 0.
               tree_error: 0.
            -
               depth: 3
               sample_count: 32
               value: -8.3563095331192017e-01
               Tn: 0
               complexity: 0
               alpha: 0.
               node_risk: 2.9703379942225272e-04
               tree_risk: 0.
               tree_error: 0.
            -
               depth: 2
               sample_count: 70
               value: -1.0048939191869327e-01
               Tn: 0
               complexity: 0
               alpha: 0.
               node_risk: 2.7670893392073292e-04
               tree_risk: 0.
               tree_error: 0.
               splits:
                  - { var:1, quality:7.0701611042022705e-01,
                      le:8.2477879524230957e-01 }
            -
               depth: 3
               sample_count: 36
               value: -8.3509796857833862e-01
               Tn: 0
               complexity: 0
               alpha: 0.
               node_risk: 1.1125552268342886e-07
               tree_risk: 0.
               tree_error: 0.
            -
               depth: 3
               sample_count: 34
               value: -8.3243823051452637e-01
               Tn: 0
               complexity: 0
               alpha: 0.
               node_risk: 1.2875652640914614e-04
               tree_risk: 0.
               tree_error: 0.
      -
         best_tree_idx: -1
         nodes:
            -
               depth: 0
               sample_count: 152
               value: 4.4436831713507048e-03
               Tn: 0
               complexity: 0
               alpha: 0.
               node_risk: 4.9045648885128994e+00
               tree_risk: 0.
               tree_error: 0.
               splits:
                  - { var:3, quality:4.5790438652038574e+00,
                      le:-1.4463677406311035e+00 }
            -
               depth: 1
               sample_count: 42
               value: 2.8524227121046614e-01
               Tn: 0
               complexity: 0
               alpha: 0.
               node_risk: 3.1275686020089744e-01
               tree_risk: 0.
               tree_error: 0.
               splits:
                  - { var:0, quality:3.7283024787902832e+00,
                      le:-8.2366353273391724e-01 }
            -
               depth: 2
               sample_count: 2
               value: -8.3490854501724243e-01
               Tn: 0
               complexity: 0
               alpha: 0.
               node_risk: 4.1398935224634670e-04
               tree_risk: 0.
               tree_error: 0.
            -
               depth: 2
               sample_count: 40
               value: 3.0448539406061170e-01
               Tn: 0
               complexity: 0
               alpha: 0.
               node_risk: 1.2927381469829413e-03
               tree_risk: 0.
               tree_error: 0.
               splits:
                  - { var:0, quality:3.7097158432006836e+00,
                      le:-6.2084633111953735e-01 }
            -
               depth: 3
               sample_count: 2
               value: 1.1176778078079224e+00
               Tn: 0
               complexity: 0
               alpha: 0.
               node_risk: 3.2527762527934101e-07
               tree_risk: 0.
               tree_error: 0.
            -
               depth: 3
               sample_count: 38
               value: 1.0763484239578247e+00
               Tn: 0
               complexity: 0
               alpha: 0.
               node_risk: 3.0793878609269854e-05
               tree_risk: 0.
               tree_error: 0.
            -
               depth: 1
               sample_count: 110
               value: -1.0277032317085699e-01
               Tn: 0
               complexity: 0
               alpha: 0.
               node_risk: 1.5765705277877684e-02
               tree_risk: 0.
               tree_error: 0.
               splits:
                  - { var:0, quality:1.1644450426101685e+00,
                      le:-7.5619511306285858e-02 }
            -
               depth: 2
               sample_count: 39
               value: -1.0939753877046780e-01
               Tn: 0
               complexity: 0
               alpha: 0.
               node_risk: 1.2832630551349755e-02
               tree_risk: 0.
               tree_error: 0.
               splits:
                  - { var:3, quality:4.7755083441734314e-01,
                      le:7.6475036144256592e-01 }
            -
               depth: 3
               sample_count: 7
               value: -8.7861073017120361e-01
               Tn: 0
               complexity: 0
               alpha: 0.
               node_risk: 1.4133278829389084e-03
               tree_risk: 0.
               tree_error: 0.
            -
               depth: 3
               sample_count: 32
               value: -8.3500427007675171e-01
               Tn: 0
               complexity: 0
               alpha: 0.
               node_risk: 6.1349176652325532e-04
               tree_risk: 0.
               tree_error: 0.
            -
               depth: 2
               sample_count: 71
               value: -9.9130021644310215e-02
               Tn: 0
               complexity: 0
               alpha: 0.
               node_risk: 2.7931778948719899e-04
               tree_risk: 0.
               tree_error: 0.
               splits:
                  - { var:1, quality:6.9787371158599854e-01,
                      le:7.0518326759338379e-01 }
            -
               depth: 3
               sample_count: 39
               value: -8.3383989334106445e-01
               Tn: 0
               complexity: 0
               alpha: 0.
               node_risk: 8.3580288134932346e-08
               tree_risk: 0.
               tree_error: 0.
            -
               depth: 3
               sample_count: 32
               value: -8.3096712827682495e-01
               Tn: 0
               complexity: 0
               alpha: 0.
               node_risk: 1.0555480030566278e-04
               tree_risk: 0.
               tree_error: 0.
      -
         best_tree_idx: -1
         nodes:
            -
               depth: 0
               sample_count: 152
               value: 1.1336081416199082e-03
               Tn: 0
               complexity: 0
               alpha: 0.
               node_risk: 4.7181061388089285e+00
               tree_risk: 0.
               tree_error: 0.
               splits:
                  - { var:3, quality:4.6997961997985840e+00,
                      le:-1.4463677406311035e+00 }
            -
               depth: 1
               sample_count: 39
               value: 3.0043974442359728e-01
               Tn: 0
               complexity: 0
               alpha: 0.
               node_risk: 1.2654942938246094e-03
               tree_risk: 0.
               tree_error: 0.
               splits:
                  - { var:0, quality:3.5215351581573486e+00,
                      le:-6.2084633111953735e-01 }
            -
               depth: 2
               sample_count: 2
               value: 1.1105679273605347e+00
               Tn: 0
               complexity: 0
               alpha: 0.
               node_risk: 3.2086973078548908e-07
               tree_risk: 0.
               tree_error: 0.
            -
               depth: 2
               sample_count: 37
               value: 2.9913003541327809e-01
               Tn: 0
               complexity: 0
               alpha: 0.
               node_risk: 2.7557279524526024e-05
               tree_risk: 0.
               tree_error: 0.
               splits:
                  - { var:0, quality:3.3107395172119141e+00,
                      le:-5.7877022027969360e-01 }
            -
               depth: 3
               sample_count: 3
               value: 1.0743283033370972e+00
               Tn: 0
               complexity: 0
               alpha: 0.
               node_risk: 2.7553225573351270e-06
               tree_risk: 0.
               tree_error: 0.
            -
               depth: 3
               sample_count: 34
               value: 1.0697274208068848e+00
               Tn: 0
               complexity: 0
               alpha: 0.
               node_risk: 0.
               tree_risk: 0.
               tree_error: 0.
            -
               depth: 1
               sample_count: 113
               value: -1.0216673977870856e-01
               Tn: 0
               complexity: 0
               alpha: 0.
               node_risk: 1.7239586597247003e-02
               tree_risk: 0.
               tree_error: 0.
               splits:
                  - { var:0, quality:1.1831008195877075e+00,
                      le:-7.4474617838859558e-02 }
            -
               depth: 2
               sample_count: 40
               value: -1.0979397017508745e-01
               Tn: 0
               complexity: 0
               alpha: 0.
               node_risk: 1.3390385441727048e-02
               tree_risk: 0.
               tree_error: 0.
               splits:
                  - { var:3, quality:4.9291223287582397e-01,
                      le:7.6475036144256592e-01 }
            -
               depth: 3
               sample_count: 10
               value: -8.7173861265182495e-01
               Tn: 0
               complexity: 0
               alpha: 0.
               node_risk: 2.0677854729616030e-03
               tree_risk: 0.
               tree_error: 0.
            -
               depth: 3
               sample_count: 30
               value: -8.3383339643478394e-01
               Tn: 0
               complexity: 0
               alpha: 0.
               node_risk: 5.9901298969067263e-04
               tree_risk: 0.
               tree_error: 0.
            -
               depth: 2
               sample_count: 73
               value: -9.7987435451925620e-02
               Tn: 0
               complexity: 0
               alpha: 0.
               node_risk: 2.4715473486436323e-04
               tree_risk: 0.
               tree_error: 0.
               splits:
                  - { var:1, quality:7.0105272531509399e-01,
                      le:7.1977233886718750e-01 }
            -
               depth: 3
               sample_count: 41
               value: -8.3260524272918701e-01
               Tn: 0
               complexity: 0
               alpha: 0.
               node_risk: 9.0823830289910035e-08
               tree_risk: 0.
               tree_error: 0.
            -
               depth: 3
               sample_count: 32
               value: -8.3006083965301514e-01
               Tn: 0
               complexity: 0
               alpha: 0.
               node_risk: 1.0659015417652240e-04
               tree_risk: 0.
               tree_error: 0.
      -
         best_tree_idx: -1
         nodes:
            -
               depth: 0
               sample_count: 152
               value: 4.1141967828336517e-03
               Tn: 0
               complexity: 0
               alpha: 0.
               node_risk: 4.6536341052914727e+00
               tree_risk: 0.
               tree_error: 0.
               splits:
                  - { var:3, quality:4.4983005523681641e+00,
                      le:-1.4463677406311035e+00 }
            -
               depth: 1
               sample_count: 41
               value: 2.8708900493092654e-01
               Tn: 0
               complexity: 0
               alpha: 0.
               node_risk: 1.4335972690685850e-01
               tree_risk: 0.
               tree_error: 0.
               splits:
                  - { var:0, quality:3.5213518142700195e+00,
                      le:-8.8406997919082642e-01 }
            -
               depth: 2
               sample_count: 1
               value: -8.1992620229721069e-01
               Tn: 0
               complexity: 0
               alpha: 0.
               node_risk: 0.
               tree_risk: 0.
               tree_error: 0.
            -
               depth: 2
               sample_count: 40
               value: 2.9639831781387327e-01
               Tn: 0
               complexity: 0
               alpha: 0.
               node_risk: 1.2319044885971131e-03
               tree_risk: 0.
               tree_error: 0.
               splits:
                  - { var:0, quality:3.5152933597564697e+00,
                      le:-6.1514461040496826e-01 }
            -
               depth: 3
               sample_count: 2
               value: 1.1036241054534912e+00
               Tn: 0
               complexity: 0
               alpha: 0.
               node_risk: 3.1653932985875599e-07
               tree_risk: 0.
               tree_error: 0.
            -
               depth: 3
               sample_count: 38
               value: 1.0640343427658081e+00
               Tn: 0
               complexity: 0
               alpha: 0.
               node_risk: 1.6734500984050271e-05
               tree_risk: 0.
               tree_error: 0.
            -
               depth: 1
               sample_count: 111
               value: -1.0040802965024570e-01
               Tn: 0
               complexity: 0
               alpha: 0.
               node_risk: 1.4546518623576032e-02
               tree_risk: 0.
               tree_error: 0.
               splits:
                  - { var:0, quality:1.1217912435531616e+00,
                      le:-7.5619511306285858e-02 }
            -
               depth: 2
               sample_count: 41
               value: -1.0686961216170614e-01
               Tn: 0
               complexity: 0
               alpha: 0.
               node_risk: 1.1579822391533656e-02
               tree_risk: 0.
               tree_error: 0.
               splits:
                  - { var:3, quality:4.7745254635810852e-01,
                      le:7.6475036144256592e-01 }
            -
               depth: 3
               sample_count: 9
               value: -8.6863666772842407e-01
               Tn: 0
               complexity: 0
               alpha: 0.
               node_risk: 1.8026957195919069e-03
               tree_risk: 0.
               tree_error: 0.
            -
               depth: 3
               sample_count: 32
               value: -8.3251708745956421e-01
               Tn: 0
               complexity: 0
               alpha: 0.
               node_risk: 5.9026695246777727e-04
               tree_risk: 0.
               tree_error: 0.
            -
               depth: 2
               sample_count: 70
               value: -9.6623388464961726e-02
               Tn: 0
               complexity: 0
               alpha: 0.
               node_risk: 2.5221661829955000e-04
               tree_risk: 0.
               tree_error: 0.
               splits:
                  - { var:1, quality:6.5367698669433594e-01,
                      le:7.5940895080566406e-01 }
            -
               depth: 3
               sample_count: 40
               value: -8.3139079809188843e-01
               Tn: 0
               complexity: 0
               alpha: 0.
               node_risk: 1.0207596629063787e-07
               tree_risk: 0.
               tree_error: 0.
            -
               depth: 3
               sample_count: 30
               value: -8.2869303226470947e-01
               Tn: 0
               complexity: 0
               alpha: 0.
               node_risk: 1.0068707802296517e-04
               tree_risk: 0.
               tree_error: 0.
      -
         best_tree_idx: -1
         nodes:
            -
               depth: 0
               sample_count: 152
               value: 1.2290657154823605e-03
               Tn: 0
               complexity: 0
               alpha: 0.
               node_risk: 4.4734220278534789e+00
               tree_risk: 0.
               tree_error: 0.
               splits:
                  - { var:3, quality:4.1625809669494629e+00,
                      le:-1.4463677406311035e+00 }
            -
               depth: 1
               sample_count: 41
               value: 2.7350993563489218e-01
               Tn: 0
               complexity: 0
               alpha: 0.
               node_risk: 2.9312331673971315e-01
               tree_risk: 0.
               tree_error: 0.
               splits:
                  - { var:0, quality:3.3585855960845947e+00,
                      le:-8.2366353273391724e-01 }
            -
               depth: 2
               sample_count: 2
               value: -8.3431518077850342e-01
               Tn: 0
               complexity: 0
               alpha: 0.
               node_risk: 4.4339758835265641e-04
               tree_risk: 0.
               tree_error: 0.
            -
               depth: 2
               sample_count: 39
               value: 2.9260355081313694e-01
               Tn: 0
               complexity: 0
               alpha: 0.
               node_risk: 1.2092897617286269e-03
               tree_risk: 0.
               tree_error: 0.
               splits:
                  - { var:0, quality:3.3402371406555176e+00,
                      le:-6.2084633111953735e-01 }
            -
               depth: 3
               sample_count: 2
               value: 1.0969207286834717e+00
               Tn: 0
               complexity: 0
               alpha: 0.
               node_risk: 3.1214415230351733e-07
               tree_risk: 0.
               tree_error: 0.
            -
               depth: 3
               sample_count: 37
               value: 1.0583161115646362e+00
               Tn: 0
               complexity: 0
               alpha: 0.
               node_risk: 2.8492787373046724e-05
               tree_risk: 0.
               tree_error: 0.
            -
               depth: 1
               sample_count: 111
               value: -9.9343147497993334e-02
               Tn: 0
               complexity: 0
               alpha: 0.
               node_risk: 1.7947476183967082e-02
               tree_risk: 0.
               tree_error: 0.
               splits:
                  - { var:0, quality:1.0987792015075684e+00,
                      le:-9.1631218791007996e-02 }
            -
               depth: 2
               sample_count: 43
               value: -1.0621383231739666e-01
               Tn: 0
               complexity: 0
               alpha: 0.
               node_risk: 1.4361033648735533e-02
               tree_risk: 0.
               tree_error: 0.
               splits:
                  - { var:3, quality:4.9686202406883240e-01,
                      le:7.6475036144256592e-01 }
            -
               depth: 3
               sample_count: 10
               value: -8.6996769905090332e-01
               Tn: 0
               complexity: 0
               alpha: 0.
               node_risk: 2.2344565977048259e-03
               tree_risk: 0.
               tree_error: 0.
            -
               depth: 3
               sample_count: 33
               value: -8.3076965808868408e-01
               Tn: 0
               complexity: 0
               alpha: 0.
               node_risk: 3.6381722744893707e-04
               tree_risk: 0.
               tree_error: 0.
            -
               depth: 2
               sample_count: 68
               value: -9.4998449744547117e-02
               Tn: 0
               complexity: 0
               alpha: 0.
               node_risk: 2.7297610738830080e-04
               tree_risk: 0.
               tree_error: 0.
               splits:
                  - { var:1, quality:6.1387550830841064e-01,
                      le:7.5940895080566406e-01 }
            -
               depth: 3
               sample_count: 36
               value: -8.3019459247589111e-01
               Tn: 0
               complexity: 0
               alpha: 0.
               node_risk: 1.0023003249592932e-07
               tree_risk: 0.
               tree_error: 0.
            -
               depth: 3
               sample_count: 32
               value: -8.2710766792297363e-01
               Tn: 0
               complexity: 0
               alpha: 0.
               node_risk: 7.7321330941904076e-05
               tree_risk: 0.
               tree_error: 0.
      -
         best_tree_idx: -1
         nodes:
            -
               depth: 0
               sample_count: 152
               value: 3.1746939118755492e-03
               Tn: 0
               complexity: 0
               alpha: 0.
               node_risk: 4.4425990152058121e+00
               tree_risk: 0.
               tree_error: 0.
               splits:
                  - { var:3, quality:4.1386065483093262e+00,
                      le:-1.4463677406311035e+00 }
            -
               depth: 1
               sample_count: 42
               value: 2.7016566179337953e-01
               Tn: 0
               complexity: 0
               alpha: 0.
               node_risk: 2.8466742207350171e-01
               tree_risk: 0.
               tree_error: 0.
               splits:
                  - { var:0, quality:3.3491504192352295e+00,
                      le:-8.2366353273391724e-01 }
            -
               depth: 2
               sample_count: 2
               value: -8.3291220664978027e-01
               Tn: 0
               complexity: 0
               alpha: 0.
               node_risk: 4.3354920623042692e-04
               tree_risk: 0.
               tree_error: 0.
            -
               depth: 2
               sample_count: 40
               value: 2.8853981643915178e-01
               Tn: 0
               complexity: 0
               alpha: 0.
               node_risk: 6.4184335199879428e-04
               tree_risk: 0.
               tree_error: 0.
               splits:
                  - { var:0, quality:3.3308198451995850e+00,
                      le:-6.3944327831268311e-01 }
            -
               depth: 3
               sample_count: 1
               value: 1.0916155576705933e+00
               Tn: 0
               complexity: 0
               alpha: 0.
               node_risk: 0.
               tree_risk: 0.
               tree_error: 0.
            -
               depth: 3
               sample_count: 39
               value: 1.0532476902008057e+00
               Tn: 0
               complexity: 0
               alpha: 0.
               node_risk: 3.0960809061397754e-05
               tree_risk: 0.
               tree_error: 0.
            -
               depth: 1
               sample_count: 110
               value: -9.8767312006516894e-02
               Tn: 0
               complexity: 0
               alpha: 0.
               node_risk: 2.0857179286406291e-02
               tree_risk: 0.
               tree_error: 0.
               splits:
                  - { var:0, quality:1.0769886970520020e+00,
                      le:-7.5619511306285858e-02 }
            -
               depth: 2
               sample_count: 43
               value: -1.0623852544745734e-01
               Tn: 0
               complexity: 0
               alpha: 0.
               node_risk: 1.6680888109792735e-02
               tree_risk: 0.
               tree_error: 0.
               splits:
                  - { var:3, quality:4.9916839599609375e-01,
                      le:7.6475036144256592e-01 }
            -
               depth: 3
               sample_count: 10
               value: -8.7251901626586914e-01
               Tn: 0
               complexity: 0
               alpha: 0.
               node_risk: 2.2028436988769384e-03
               tree_risk: 0.
               tree_error: 0.
            -
               depth: 3
               sample_count: 33
               value: -8.3016109466552734e-01
               Tn: 0
               complexity: 0
               alpha: 0.
               node_risk: 6.3450429055972313e-04
               tree_risk: 0.
               tree_error: 0.
            -
               depth: 2
               sample_count: 67
               value: -9.3972354126510338e-02
               Tn: 0
               complexity: 0
               alpha: 0.
               node_risk: 2.3563426281170141e-04
               tree_risk: 0.
               tree_error: 0.
               splits:
                  - { var:0, quality:5.9181046485900879e-01,
                      le:5.0338208675384521e-01 }
            -
               depth: 3
               sample_count: 37
               value: -8.2900828123092651e-01
               Tn: 0
               complexity: 0
               alpha: 0.
               node_risk: 8.6476388105882762e-08
               tree_risk: 0.
               tree_error: 0.
            -
               depth: 3
               sample_count: 30
               value: -8.2632005214691162e-01
               Tn: 0
               complexity: 0
               alpha: 0.
               node_risk: 8.8888470163639433e-05
               tree_risk: 0.
               tree_error: 0.
      -
         best_tree_idx: -1
         nodes:
            -
               depth: 0
               sample_count: 152
               value: 7.0187154863225786e-03
               Tn: 0
               complexity: 0
               alpha: 0.
               node_risk: 4.3624642226165342e+00
               tree_risk: 0.
               tree_error: 0.
               splits:
                  - { var:2, quality:4.0778222084045410e+00,
                      le:-7.9218995571136475e-01 }
            -
               depth: 1
               sample_count: 43
               value: 2.6755743768326073e-01
               Tn: 0
               complexity: 0
               alpha: 0.
               node_risk: 2.7892835045504505e-01
               tree_risk: 0.
               tree_error: 0.
               splits:
                  - { var:0, quality:3.3554983139038086e+00,
                      le:-8.2366353273391724e-01 }
            -
               depth: 2
               sample_count: 2
               value: -8.3172684907913208e-01
               Tn: 0
               complexity: 0
               alpha: 0.
               node_risk: 4.3239355275659364e-04
               tree_risk: 0.
               tree_error: 0.
            -
               depth: 2
               sample_count: 41
               value: 2.8529242626050622e-01
               Tn: 0
               complexity: 0
               alpha: 0.
               node_risk: 1.2379207177106721e-03
               tree_risk: 0.
               tree_error: 0.
               splits:
                  - { var:0, quality:3.3382697105407715e+00,
                      le:-6.2084633111953735e-01 }
            -
               depth: 3
               sample_count: 2
               value: 1.0857816934585571e+00
               Tn: 0
               complexity: 0
               alpha: 0.
               node_risk: 3.7188378776420450e-07
               tree_risk: 0.
               tree_error: 0.
            -
               depth: 3
               sample_count: 39
               value: 1.0475832223892212e+00
               Tn: 0
               complexity: 0
               alpha: 0.
               node_risk: 3.0464956037423718e-05
               tree_risk: 0.
               tree_error: 0.
            -
               depth: 1
               sample_count: 109
               value: -9.5762615288616321e-02
               Tn: 0
               complexity: 0
               alpha: 0.
               node_risk: 1.3201351119370375e-02
               tree_risk: 0.
               tree_error: 0.
               splits:
                  - { var:0, quality:1.0021443367004395e+00,
                      le:-7.5619511306285858e-02 }
            -
               depth: 2
               sample_count: 32
               value: -1.0328334383666515e-01
               Tn: 0
               complexity: 0
               alpha: 0.
               node_risk: 1.0366108259383222e-02
               tree_risk: 0.
               tree_error: 0.
               splits:
                  - { var:3, quality:3.4996971487998962e-01,
                      le:7.6475036144256592e-01 }
            -
               depth: 3
               sample_count: 6
               value: -8.7089955806732178e-01
               Tn: 0
               complexity: 0
               alpha: 0.
               node_risk: 1.1458850706163870e-03
               tree_risk: 0.
               tree_error: 0.
            -
               depth: 3
               sample_count: 26
               value: -8.2932347059249878e-01
               Tn: 0
               complexity: 0
               alpha: 0.
               node_risk: 6.0887699424197472e-04
               tree_risk: 0.
               tree_error: 0.
            -
               depth: 2
               sample_count: 77
               value: -9.2637117710206413e-02
               Tn: 0
               complexity: 0
               alpha: 0.
               node_risk: 2.7308680372450933e-04
               tree_risk: 0.
               tree_error: 0.
               splits:
                  - { var:1, quality:6.6095697879791260e-01,
                      le:7.5940895080566406e-01 }
            -
               depth: 3
               sample_count: 41
               value: -8.2784545421600342e-01
               Tn: 0
               complexity: 0
               alpha: 0.
               node_risk: 1.0045431836358532e-07
               tree_risk: 0.
               tree_error: 0.
            -
               depth: 3
               sample_count: 36
               value: -8.2515293359756470e-01
               Tn: 0
               complexity: 0
               alpha: 0.
               node_risk: 1.0192468918140962e-04
               tree_risk: 0.
               tree_error: 0.
      -
         best_tree_idx: -1
         nodes:
            -
               depth: 0
               sample_count: 152
               value: 1.0979388056224898e-02
               Tn: 0
               complexity: 0
               alpha: 0.
               node_risk: 4.4086688323081979e+00
               tree_risk: 0.
               tree_error: 0.
               splits:
                  - { var:3, quality:4.1371746063232422e+00,
                      le:-1.4463677406311035e+00 }
            -
               depth: 1
               sample_count: 45
               value: 2.6481461773316067e-01
               Tn: 0
               complexity: 0
               alpha: 0.
               node_risk: 2.7238349297915621e-01
               tree_risk: 0.
               tree_error: 0.
               splits:
                  - { var:0, quality:3.4264390468597412e+00,
                      le:-8.2366353273391724e-01 }
            -
               depth: 2
               sample_count: 2
               value: -8.3063966035842896e-01
               Tn: 0
               complexity: 0
               alpha: 0.
               node_risk: 4.2536488235114800e-04
               tree_risk: 0.
               tree_error: 0.
            -
               depth: 2
               sample_count: 43
               value: 2.8154268652893777e-01
               Tn: 0
               complexity: 0
               alpha: 0.
               node_risk: 1.2242617437316916e-03
               tree_risk: 0.
               tree_error: 0.
               splits:
                  - { var:0, quality:3.4096217155456543e+00,
                      le:-6.2084633111953735e-01 }
            -
               depth: 3
               sample_count: 2
               value: 1.0794087648391724e+00
               Tn: 0
               complexity: 0
               alpha: 0.
               node_risk: 3.6645490020248417e-07
               tree_risk: 0.
               tree_error: 0.
            -
               depth: 3
               sample_count: 41
               value: 1.0422376394271851e+00
               Tn: 0
               complexity: 0
               alpha: 0.
               node_risk: 5.2480031756285683e-05
               tree_risk: 0.
               tree_error: 0.
            -
               depth: 1
               sample_count: 107
               value: -9.5773745920056497e-02
               Tn: 0
               complexity: 0
               alpha: 0.
               node_risk: 1.7433984525532908e-02
               tree_risk: 0.
               tree_error: 0.
               splits:
                  - { var:0, quality:9.8429435491561890e-01,
                      le:-7.5619511306285858e-02 }
            -
               depth: 2
               sample_count: 44
               value: -1.0192217796363613e-01
               Tn: 0
               complexity: 0
               alpha: 0.
               node_risk: 1.4395592164435644e-02
               tree_risk: 0.
               tree_error: 0.
               splits:
                  - { var:3, quality:4.6900105476379395e-01,
                      le:7.6475036144256592e-01 }
            -
               depth: 3
               sample_count: 9
               value: -8.6800420284271240e-01
               Tn: 0
               complexity: 0
               alpha: 0.
               node_risk: 1.8916057586034762e-03
               tree_risk: 0.
               tree_error: 0.
            -
               depth: 3
               sample_count: 35
               value: -8.2758796215057373e-01
               Tn: 0
               complexity: 0
               alpha: 0.
               node_risk: 5.8067933885519452e-04
               tree_risk: 0.
               tree_error: 0.
            -
               depth: 2
               sample_count: 63
               value: -9.1479602905492938e-02
               Tn: 0
               complexity: 0
               alpha: 0.
               node_risk: 2.1335198447880455e-04
               tree_risk: 0.
               tree_error: 0.
               splits:
                  - { var:1, quality:5.2733314037322998e-01,
                      le:7.1977233886718750e-01 }
            -
               depth: 3
               sample_count: 33
               value: -8.2669812440872192e-01
               Tn: 0
               complexity: 0
               alpha: 0.
               node_risk: 8.0745174657614882e-08
               tree_risk: 0.
               tree_error: 0.
            -
               depth: 3
               sample_count: 30
               value: -8.2425636053085327e-01
               Tn: 0
               complexity: 0
               alpha: 0.
               node_risk: 9.6725492877813846e-05
               tree_risk: 0.
               tree_error: 0.
      -
         best_tree_idx: -1
         nodes:
            -
               depth: 0
               sample_count: 152
               value: 1.1905813589692116e-03
               Tn: 0
               complexity: 0
               alpha: 0.
               node_risk: 4.0376290308003373e+00
               tree_risk: 0.
               tree_error: 0.
               splits:
                  - { var:3, quality:3.7565178871154785e+00,
                      le:-1.3993511199951172e+00 }
            -
               depth: 1
               sample_count: 41
               value: 2.5984984945233275e-01
               Tn: 0
               complexity: 0
               alpha: 0.
               node_risk: 2.6438485182395111e-01
               tree_risk: 0.
               tree_error: 0.
               splits:
                  - { var:0, quality:3.0311825275421143e+00,
                      le:-8.2366353273391724e-01 }
            -
               depth: 2
               sample_count: 2
               value: -8.2956445217132568e-01
               Tn: 0
               complexity: 0
               alpha: 0.
               node_risk: 4.1836600518999068e-04
               tree_risk: 0.
               tree_error: 0.
            -
               depth: 2
               sample_count: 39
               value: 2.7797949008452588e-01
               Tn: 0
               complexity: 0
               alpha: 0.
               node_risk: 1.1837321915133536e-03
               tree_risk: 0.
               tree_error: 0.
               splits:
                  - { var:0, quality:3.0147624015808105e+00,
                      le:-6.2084633111953735e-01 }
            -
               depth: 3
               sample_count: 2
               value: 1.0731819868087769e+00
               Tn: 0
               complexity: 0
               alpha: 0.
               node_risk: 3.6096463595924888e-07
               tree_risk: 0.
               tree_error: 0.
            -
               depth: 3
               sample_count: 37
               value: 1.0369607210159302e+00
               Tn: 0
               complexity: 0
               alpha: 0.
               node_risk: 5.2261821142707277e-05
               tree_risk: 0.
               tree_error: 0.
            -
               depth: 1
               sample_count: 111
               value: -9.4350229378219116e-02
               Tn: 0
               complexity: 0
               alpha: 0.
               node_risk: 1.6941719870577243e-02
               tree_risk: 0.
               tree_error: 0.
               splits:
                  - { var:0, quality:9.9130797386169434e-01,
                      le:-7.5619511306285858e-02 }
            -
               depth: 2
               sample_count: 41
               value: -1.0135471929864186e-01
               Tn: 0
               complexity: 0
               alpha: 0.
               node_risk: 1.3533722491472167e-02
               tree_risk: 0.
               tree_error: 0.
               splits:
                  - { var:3, quality:4.3220043182373047e-01,
                      le:6.7546951770782471e-01 }
            -
               depth: 3
               sample_count: 9
               value: -8.6593347787857056e-01
               Tn: 0
               complexity: 0
               alpha: 0.
               node_risk: 1.9272687291106982e-03
               tree_risk: 0.
               tree_error: 0.
            -
               depth: 3
               sample_count: 32
               value: -8.2677477598190308e-01
               Tn: 0
               complexity: 0
               alpha: 0.
               node_risk: 5.8996606520062000e-04
               tree_risk: 0.
               tree_error: 0.
            -
               depth: 2
               sample_count: 70
               value: -9.0247599567685813e-02
               Tn: 0
               complexity: 0
               alpha: 0.
               node_risk: 2.1820934288951932e-04
               tree_risk: 0.
               tree_error: 0.
               splits:
                  - { var:1, quality:5.7025229930877686e-01,
                      le:7.5940895080566406e-01 }
            -
               depth: 3
               sample_count: 37
               value: -8.2556015253067017e-01
               Tn: 0
               complexity: 0
               alpha: 0.
               node_risk: 7.1401044687835480e-08
               tree_risk: 0.
               tree_error: 0.
            -
               depth: 3
               sample_count: 33
               value: -8.2313114404678345e-01
               Tn: 0
               complexity: 0
               alpha: 0.
               node_risk: 8.9892042587691456e-05
               tree_risk: 0.
               tree_error: 0.
      -
         best_tree_idx: -1
         nodes:
            -
               depth: 0
               sample_count: 152
               value: -3.8358277494185849e-03
               Tn: 0
               complexity: 0
               alpha: 0.
               node_risk: 3.8048442487620702e+00
               tree_risk: 0.
               tree_error: 0.
               splits:
                  - { var:3, quality:3.6453859806060791e+00,
                      le:-1.4463677406311035e+00 }
            -
               depth: 1
               sample_count: 38
               value: 2.6431388231484515e-01
               Tn: 0
               complexity: 0
               alpha: 0.
               node_risk: 1.4265261650112038e-01
               tree_risk: 0.
               tree_error: 0.
               splits:
                  - { var:0, quality:2.7962505817413330e+00,
                      le:-8.2366353273391724e-01 }
            -
               depth: 2
               sample_count: 1
               value: -8.3974331617355347e-01
               Tn: 0
               complexity: 0
               alpha: 0.
               node_risk: 0.
               tree_risk: 0.
               tree_error: 0.
            -
               depth: 2
               sample_count: 37
               value: 2.7434587800824967e-01
               Tn: 0
               complexity: 0
               alpha: 0.
               node_risk: 1.1514582460843137e-03
               tree_risk: 0.
               tree_error: 0.
               splits:
                  - { var:0, quality:2.7859296798706055e+00,
                      le:-6.2084633111953735e-01 }
            -
               depth: 3
               sample_count: 2
               value: 1.0670979022979736e+00
               Tn: 0
               complexity: 0
               alpha: 0.
               node_risk: 3.5551581056836312e-07
               tree_risk: 0.
               tree_error: 0.
            -
               depth: 3
               sample_count: 35
               value: 1.0317044258117676e+00
               Tn: 0
               complexity: 0
               alpha: 0.
               node_risk: 5.0794287738575861e-05
               tree_risk: 0.
               tree_error: 0.
            -
               depth: 1
               sample_count: 114
               value: -9.3219064437506494e-02
               Tn: 0
               complexity: 0
               alpha: 0.
               node_risk: 1.9042103878490368e-02
               tree_risk: 0.
               tree_error: 0.
               splits:
                  - { var:0, quality:9.9420541524887085e-01,
                      le:-7.5619511306285858e-02 }
            -
               depth: 2
               sample_count: 41
               value: -1.0068501314012016e-01
               Tn: 0
               complexity: 0
               alpha: 0.
               node_risk: 1.5239525790908315e-02
               tree_risk: 0.
               tree_error: 0.
               splits:
                  - { var:3, quality:4.2824363708496094e-01,
                      le:7.6475036144256592e-01 }
            -
               depth: 3
               sample_count: 9
               value: -8.6750680208206177e-01
               Tn: 0
               complexity: 0
               alpha: 0.
               node_risk: 2.0501339705816246e-03
               tree_risk: 0.
               tree_error: 0.
            -
               depth: 3
               sample_count: 32
               value: -8.2561331987380981e-01
               Tn: 0
               complexity: 0
               alpha: 0.
               node_risk: 5.8208898233463868e-04
               tree_risk: 0.
               tree_error: 0.
            -
               depth: 2
               sample_count: 73
               value: -8.9025860371654983e-02
               Tn: 0
               complexity: 0
               alpha: 0.
               node_risk: 2.3366599168561653e-04
               tree_risk: 0.
               tree_error: 0.
               splits:
                  - { var:1, quality:5.7871270179748535e-01,
                      le:7.5940895080566406e-01 }
            -
               depth: 3
               sample_count: 40
               value: -8.2444745302200317e-01
               Tn: 0
               complexity: 0
               alpha: 0.
               node_risk: 8.4620392137857436e-08
               tree_risk: 0.
               tree_error: 0.
            -
               depth: 3
               sample_count: 33
               value: -8.2192939519882202e-01
               Tn: 0
               complexity: 0
               alpha: 0.
               node_risk: 8.9977171772781528e-05
               tree_risk: 0.
               tree_error: 0.
      -
         best_tree_idx: -1
         nodes:
            -
               depth: 0
               sample_count: 152
               value: 5.1500814917840457e-03
               Tn: 0
               complexity: 0
               alpha: 0.
               node_risk: 3.9356400143128494e+00
               tree_risk: 0.
               tree_error: 0.
               splits:
                  - { var:3, quality:3.8031167984008789e+00,
                      le:-1.4463677406311035e+00 }
            -
               depth: 1
               sample_count: 42
               value: 2.6100244284385726e-01
               Tn: 0
               complexity: 0
               alpha: 0.
               node_risk: 1.1694753474726660e-01
               tree_risk: 0.
               tree_error: 0.
               splits:
                  - { var:0, quality:2.9780330657958984e+00,
                      le:-8.6260205507278442e-01 }
            -
               depth: 2
               sample_count: 1
               value: -8.1239670515060425e-01
               Tn: 0
               complexity: 0
               alpha: 0.
               node_risk: 0.
               tree_risk: 0.
               tree_error: 0.
            -
               depth: 2
               sample_count: 41
               value: 2.6924166592156012e-01
               Tn: 0
               complexity: 0
               alpha: 0.
               node_risk: 4.9914443877696613e-05
               tree_risk: 0.
               tree_error: 0.
               splits:
                  - { var:2, quality:2.9721577167510986e+00,
                      le:-7.7695995569229126e-01 }
            -
               depth: 3
               sample_count: 39
               value: 1.0260930061340332e+00
               Tn: 0
               complexity: 0
               alpha: 0.
               node_risk: 2.6256460122997538e-05
               tree_risk: 0.
               tree_error: 0.
            -
               depth: 3
               sample_count: 2
               value: 1.0310640335083008e+00
               Tn: 0
               complexity: 0
               alpha: 0.
               node_risk: 0.
               tree_risk: 0.
               tree_error: 0.
            -
               depth: 1
               sample_count: 110
               value: -9.2539001933553008e-02
               Tn: 0
               complexity: 0
               alpha: 0.
               node_risk: 1.9607113316382652e-02
               tree_risk: 0.
               tree_error: 0.
               splits:
                  - { var:0, quality:9.4567710161209106e-01,
                      le:-7.5619511306285858e-02 }
            -
               depth: 2
               sample_count: 42
               value: -9.9914411171561190e-02
               Tn: 0
               complexity: 0
               alpha: 0.
               node_risk: 1.5710684132373809e-02
               tree_risk: 0.
               tree_error: 0.
               splits:
                  - { var:3, quality:4.3203198909759521e-01,
                      le:7.6475036144256592e-01 }
            -
               depth: 3
               sample_count: 10
               value: -8.6496007442474365e-01
               Tn: 0
               complexity: 0
               alpha: 0.
               node_risk: 2.3922902588086048e-03
               tree_risk: 0.
               tree_error: 0.
            -
               depth: 3
               sample_count: 32
               value: -8.2451200485229492e-01
               Tn: 0
               complexity: 0
               alpha: 0.
               node_risk: 5.6776665303787111e-04
               tree_risk: 0.
               tree_error: 0.
            -
               depth: 2
               sample_count: 68
               value: -8.7983602110077358e-02
               Tn: 0
               complexity: 0
               alpha: 0.
               node_risk: 2.0065601051311166e-04
               tree_risk: 0.
               tree_error: 0.
               splits:
                  - { var:1, quality:5.2649444341659546e-01,
                      le:7.5940895080566406e-01 }
            -
               depth: 3
               sample_count: 37
               value: -8.2334893941879272e-01
               Tn: 0
               complexity: 0
               alpha: 0.
               node_risk: 7.6010740202026028e-08
               tree_risk: 0.
               tree_error: 0.
            -
               depth: 3
               sample_count: 31
               value: -8.2120293378829956e-01
               Tn: 0
               complexity: 0
               alpha: 0.
               node_risk: 1.0192874410119845e-04
               tree_risk: 0.
               tree_error: 0.
      -
         best_tree_idx: -1
         nodes:
            -
               depth: 0
               sample_count: 152
               value: -1.2950206175446510e-02
               Tn: 0
               complexity: 0
               alpha: 0.
               node_risk: 3.2857356289139523e+00
               tree_risk: 0.
               tree_error: 0.
               splits:
                  - { var:3, quality:3.0553185939788818e+00,
                      le:-1.4463677406311035e+00 }
            -
               depth: 1
               sample_count: 35
               value: 2.4518428402287620e-01
               Tn: 0
               complexity: 0
               alpha: 0.
               node_risk: 2.3947815037321574e-01
               tree_risk: 0.
               tree_error: 0.
               splits:
                  - { var:0, quality:2.3430433273315430e+00,
                      le:-8.0219560861587524e-01 }
            -
               depth: 2
               sample_count: 2
               value: -8.2682448625564575e-01
               Tn: 0
               complexity: 0
               alpha: 0.
               node_risk: 4.3957635257818595e-04
               tree_risk: 0.
               tree_error: 0.
            -
               depth: 2
               sample_count: 33
               value: 2.6552794557629211e-01
               Tn: 0
               complexity: 0
               alpha: 0.
               node_risk: 3.1787502176694460e-05
               tree_risk: 0.
               tree_error: 0.
               splits:
                  - { var:0, quality:2.3266832828521729e+00,
                      le:-5.7857513427734375e-01 }
            -
               depth: 3
               sample_count: 3
               value: 1.0241488218307495e+00
               Tn: 0
               complexity: 0
               alpha: 0.
               node_risk: 2.9301359655842241e-06
               tree_risk: 0.
               tree_error: 0.
            -
               depth: 3
               sample_count: 30
               value: 1.0208448171615601e+00
               Tn: 0
               complexity: 0
               alpha: 0.
               node_risk: 1.3561117586657900e-05
               tree_risk: 0.
               tree_error: 0.
            -
               depth: 1
               sample_count: 117
               value: -9.0169925465543047e-02
               Tn: 0
               complexity: 0
               alpha: 0.
               node_risk: 1.6430401965334740e-02
               tree_risk: 0.
               tree_error: 0.
               splits:
                  - { var:0, quality:9.5391392707824707e-01,
                      le:-1.0447569191455841e-01 }
            -
               depth: 2
               sample_count: 41
               value: -9.6627349533685819e-02
               Tn: 0
               complexity: 0
               alpha: 0.
               node_risk: 1.3569546478286398e-02
               tree_risk: 0.
               tree_error: 0.
               splits:
                  - { var:3, quality:3.9428901672363281e-01,
                      le:6.7546951770782471e-01 }
            -
               depth: 3
               sample_count: 8
               value: -8.6432743072509766e-01
               Tn: 0
               complexity: 0
               alpha: 0.
               node_risk: 1.7377229155395302e-03
               tree_risk: 0.
               tree_error: 0.
            -
               depth: 3
               sample_count: 33
               value: -8.2282876968383789e-01
               Tn: 0
               complexity: 0
               alpha: 0.
               node_risk: 3.5345110041945516e-04
               tree_risk: 0.
               tree_error: 0.
            -
               depth: 2
               sample_count: 76
               value: -8.6686315112992338e-02
               Tn: 0
               complexity: 0
               alpha: 0.
               node_risk: 2.2892301490162748e-04
               tree_risk: 0.
               tree_error: 0.
               splits:
                  - { var:1, quality:5.7124680280685425e-01,
                      le:7.5940895080566406e-01 }
            -
               depth: 3
               sample_count: 43
               value: -8.2226932048797607e-01
               Tn: 0
               complexity: 0
               alpha: 0.
               node_risk: 1.0510885056769226e-07
               tree_risk: 0.
               tree_error: 0.
            -
               depth: 3
               sample_count: 33
               value: -8.1980490684509277e-01
               Tn: 0
               complexity: 0
               alpha: 0.
               node_risk: 8.5321756748968358e-05
               tree_risk: 0.
               tree_error: 0.
      -
         best_tree_idx: -1
         nodes:
            -
               depth: 0
               sample_count: 152
               value: 3.9747474028875955e-03
               Tn: 0
               complexity: 0
               alpha: 0.
               node_risk: 3.6743781732923595e+00
               tree_risk: 0.
               tree_error: 0.
               splits:
                  - { var:3, quality:3.4265131950378418e+00,
                      le:-1.4483599662780762e+00 }
            -
               depth: 1
               sample_count: 42
               value: 2.4687271157190913e-01
               Tn: 0
               complexity: 0
               alpha: 0.
               node_risk: 2.3862342756669497e-01
               tree_risk: 0.
               tree_error: 0.
               splits:
                  - { var:0, quality:2.7967526912689209e+00,
                      le:-8.2366353273391724e-01 }
            -
               depth: 2
               sample_count: 2
               value: -8.2552587985992432e-01
               Tn: 0
               complexity: 0
               alpha: 0.
               node_risk: 4.2902575882533545e-04
               tree_risk: 0.
               tree_error: 0.
            -
               depth: 2
               sample_count: 40
               value: 2.6367035210132600e-01
               Tn: 0
               complexity: 0
               alpha: 0.
               node_risk: 1.1793908292427879e-03
               tree_risk: 0.
               tree_error: 0.
               splits:
                  - { var:0, quality:2.7820224761962891e+00,
                      le:-6.2084633111953735e-01 }
            -
               depth: 3
               sample_count: 2
               value: 1.0518106222152710e+00
               Tn: 0
               complexity: 0
               alpha: 0.
               node_risk: 3.4123743830605235e-07
               tree_risk: 0.
               tree_error: 0.
            -
               depth: 3
               sample_count: 38
               value: 1.0168793201446533e+00
               Tn: 0
               complexity: 0
               alpha: 0.
               node_risk: 3.8774075964198573e-05
               tree_risk: 0.
               tree_error: 0.
            -
               depth: 1
               sample_count: 110
               value: -8.8768111643466083e-02
               Tn: 0
               complexity: 0
               alpha: 0.
               node_risk: 1.1642894382447366e-02
               tree_risk: 0.
               tree_error: 0.
               splits:
                  - { var:0, quality:8.6908775568008423e-01,
                      le:-7.5619511306285858e-02 }
            -
               depth: 2
               sample_count: 36
               value: -9.5341376960277557e-02
               Tn: 0
               complexity: 0
               alpha: 0.
               node_risk: 9.1154662513804885e-03
               tree_risk: 0.
               tree_error: 0.
               splits:
                  - { var:3, quality:3.3455687761306763e-01,
                      le:8.4215891361236572e-01 }
            -
               depth: 3
               sample_count: 9
               value: -8.5369229316711426e-01
               Tn: 0
               complexity: 0
               alpha: 0.
               node_risk: 1.5423400761702677e-03
               tree_risk: 0.
               tree_error: 0.
            -
               depth: 3
               sample_count: 27
               value: -8.2166439294815063e-01
               Tn: 0
               complexity: 0
               alpha: 0.
               node_risk: 2.5544808218375126e-04
               tree_risk: 0.
               tree_error: 0.
            -
               depth: 2
               sample_count: 74
               value: -8.5570306894746984e-02
               Tn: 0
               complexity: 0
               alpha: 0.
               node_risk: 2.1522603615287128e-04
               tree_risk: 0.
               tree_error: 0.
               splits:
                  - { var:1, quality:5.4197323322296143e-01,
                      le:7.5940895080566406e-01 }
            -
               depth: 3
               sample_count: 42
               value: -8.2120102643966675e-01
               Tn: 0
               complexity: 0
               alpha: 0.
               node_risk: 1.0441502468205854e-07
               tree_risk: 0.
               tree_error: 0.
            -
               depth: 3
               sample_count: 32
               value: -8.1888151168823242e-01
               Tn: 0
               complexity: 0
               alpha: 0.
               node_risk: 9.0399173766797514e-05
               tree_risk: 0.
               tree_error: 0.
      -
         best_tree_idx: -1
         nodes:
            -
               depth: 0
               sample_count: 152
               value: -4.1493536708386318e-03
               Tn: 0
               complexity: 0
               alpha: 0.
               node_risk: 3.4454272262351830e+00
               tree_risk: 0.
               tree_error: 0.
               splits:
                  - { var:3, quality:3.2973330020904541e+00,
                      le:-1.4463677406311035e+00 }
            -
               depth: 1
               sample_count: 38
               value: 2.5085513587844999e-01
               Tn: 0
               complexity: 0
               alpha: 0.
               node_risk: 1.2927541865379721e-01
               tree_risk: 0.
               tree_error: 0.
               splits:
                  - { var:0, quality:2.5193085670471191e+00,
                      le:-8.2366353273391724e-01 }
            -
               depth: 2
               sample_count: 1
               value: -8.3539652824401855e-01
               Tn: 0
               complexity: 0
               alpha: 0.
               node_risk: 0.
               tree_risk: 0.
               tree_error: 0.
            -
               depth: 2
               sample_count: 37
               value: 2.6039778219686971e-01
               Tn: 0
               complexity: 0
               alpha: 0.
               node_risk: 1.2421077994169138e-03
               tree_risk: 0.
               tree_error: 0.
               splits:
                  - { var:0, quality:2.5100574493408203e+00,
                      le:-6.2084633111953735e-01 }
            -
               depth: 3
               sample_count: 2
               value: 1.0477854013442993e+00
               Tn: 0
               complexity: 0
               alpha: 0.
               node_risk: 3.3730955806277052e-07
               tree_risk: 0.
               tree_error: 0.
            -
               depth: 3
               sample_count: 35
               value: 1.0122034549713135e+00
               Tn: 0
               complexity: 0
               alpha: 0.
               node_risk: 4.3528024776584573e-05
               tree_risk: 0.
               tree_error: 0.
            -
               depth: 1
               sample_count: 114
               value: -8.9150850187268177e-02
               Tn: 0
               complexity: 0
               alpha: 0.
               node_risk: 2.1435796606539714e-02
               tree_risk: 0.
               tree_error: 0.
               splits:
                  - { var:0, quality:9.1079103946685791e-01,
                      le:-7.5619511306285858e-02 }
            -
               depth: 2
               sample_count: 41
               value: -9.7748968477656198e-02
               Tn: 0
               complexity: 0
               alpha: 0.
               node_risk: 1.6493397813140409e-02
               tree_risk: 0.
               tree_error: 0.
               splits:
                  - { var:3, quality:4.0504094958305359e-01,
                      le:7.6475036144256592e-01 }
            -
               depth: 3
               sample_count: 11
               value: -8.6139523983001709e-01
               Tn: 0
               complexity: 0
               alpha: 0.
               node_risk: 2.5746788518812291e-03
               tree_risk: 0.
               tree_error: 0.
            -
               depth: 3
               sample_count: 30
               value: -8.2154595851898193e-01
               Tn: 0
               complexity: 0
               alpha: 0.
               node_risk: 6.2707816739446254e-04
               tree_risk: 0.
               tree_error: 0.
            -
               depth: 2
               sample_count: 73
               value: -8.4321770051570794e-02
               Tn: 0
               complexity: 0
               alpha: 0.
               node_risk: 2.0900453798455843e-04
               tree_risk: 0.
               tree_error: 0.
               splits:
                  - { var:1, quality:5.1917511224746704e-01,
                      le:7.5940895080566406e-01 }
            -
               depth: 3
               sample_count: 40
               value: -8.2016497850418091e-01
               Tn: 0
               complexity: 0
               alpha: 0.
               node_risk: 1.4803857580902857e-06
               tree_risk: 0.
               tree_error: 0.
            -
               depth: 3
               sample_count: 33
               value: -8.1776034832000732e-01
               Tn: 0
               complexity: 0
               alpha: 0.
               node_risk: 7.4173777171560040e-05
               tree_risk: 0.
               tree_error: 0.
      -
         best_tree_idx: -1
         nodes:
            -
               depth: 0
               sample_count: 152
               value: 5.5417081733283241e-03
               Tn: 0
               complexity: 0
               alpha: 0.
               node_risk: 3.5626367748124199e+00
               tree_risk: 0.
               tree_error: 0.
               splits:
                  - { var:3, quality:3.3232808113098145e+00,
                      le:-1.4463677406311035e+00 }
            -
               depth: 1
               sample_count: 43
               value: 2.4079490037158477e-01
               Tn: 0
               complexity: 0
               alpha: 0.
               node_risk: 2.2628569148197730e-01
               tree_risk: 0.
               tree_error: 0.
               splits:
                  - { var:0, quality:2.7178759574890137e+00,
                      le:-8.2366353273391724e-01 }
            -
               depth: 2
               sample_count: 2
               value: -8.2316952943801880e-01
               Tn: 0
               complexity: 0
               alpha: 0.
               node_risk: 4.1951982028901047e-04
               tree_risk: 0.
               tree_error: 0.
            -
               depth: 2
               sample_count: 41
               value: 2.5675862736818267e-01
               Tn: 0
               complexity: 0
               alpha: 0.
               node_risk: 1.2242007249763098e-03
               tree_risk: 0.
               tree_error: 0.
               splits:
                  - { var:0, quality:2.7041008472442627e+00,
                      le:-6.2084633111953735e-01 }
            -
               depth: 3
               sample_count: 2
               value: 1.0422601699829102e+00
               Tn: 0
               complexity: 0
               alpha: 0.
               node_risk: 3.3180016778544541e-07
               tree_risk: 0.
               tree_error: 0.
            -
               depth: 3
               sample_count: 39
               value: 1.0074559450149536e+00
               Tn: 0
               complexity: 0
               alpha: 0.
               node_risk: 4.7778138273280035e-05
               tree_risk: 0.
               tree_error: 0.
            -
               depth: 1
               sample_count: 109
               value: -8.7264597005800373e-02
               Tn: 0
               complexity: 0
               alpha: 0.
               node_risk: 1.7738191804075765e-02
               tree_risk: 0.
               tree_error: 0.
               splits:
                  - { var:0, quality:8.3314162492752075e-01,
                      le:-7.4474617838859558e-02 }
            -
               depth: 2
               sample_count: 39
               value: -9.4403101656681448e-02
               Tn: 0
               complexity: 0
               alpha: 0.
               node_risk: 1.4446064454219698e-02
               tree_risk: 0.
               tree_error: 0.
               splits:
                  - { var:3, quality:3.5979637503623962e-01,
                      le:7.6475036144256592e-01 }
            -
               depth: 3
               sample_count: 8
               value: -8.6290079355239868e-01
               Tn: 0
               complexity: 0
               alpha: 0.
               node_risk: 1.6294222035457273e-03
               tree_risk: 0.
               tree_error: 0.
            -
               depth: 3
               sample_count: 31
               value: -8.2023543119430542e-01
               Tn: 0
               complexity: 0
               alpha: 0.
               node_risk: 5.8613356808318029e-04
               tree_risk: 0.
               tree_error: 0.
            -
               depth: 2
               sample_count: 70
               value: -8.3287430128880915e-02
               Tn: 0
               complexity: 0
               alpha: 0.
               node_risk: 1.9750570680038271e-04
               tree_risk: 0.
               tree_error: 0.
               splits:
                  - { var:1, quality:4.8568394780158997e-01,
                      le:8.2477879524230957e-01 }
            -
               depth: 3
               sample_count: 39
               value: -8.1913179159164429e-01
               Tn: 0
               complexity: 0
               alpha: 0.
               node_risk: 1.4566012572769793e-06
               tree_risk: 0.
               tree_error: 0.
            -
               depth: 3
               sample_count: 31
               value: -8.1692886352539062e-01
               Tn: 0
               complexity: 0
               alpha: 0.
               node_risk: 8.7825554810488926e-05
               tree_risk: 0.
               tree_error: 0.
      -
         best_tree_idx: -1
         nodes:
            -
               depth: 0
               sample_count: 152
               value: 2.9259875514789633e-03
               Tn: 0
               complexity: 0
               alpha: 0.
               node_risk: 3.4246906598649240e+00
               tree_risk: 0.
               tree_error: 0.
               splits:
                  - { var:3, quality:3.4048817157745361e+00,
                      le:-1.4463677406311035e+00 }
            -
               depth: 1
               sample_count: 40
               value: 2.5332074463367460e-01
               Tn: 0
               complexity: 0
               alpha: 0.
               node_risk: 1.1938125506216757e-03
               tree_risk: 0.
               tree_error: 0.
               splits:
                  - { var:0, quality:2.5680027008056641e+00,
                      le:-6.2084633111953735e-01 }
            -
               depth: 2
               sample_count: 2
               value: 1.0368578433990479e+00
               Tn: 0
               complexity: 0
               alpha: 0.
               node_risk: 3.2638429736664420e-07
               tree_risk: 0.
               tree_error: 0.
            -
               depth: 2
               sample_count: 38
               value: 2.5209235360747889e-01
               Tn: 0
               complexity: 0
               alpha: 0.
               node_risk: 4.6688336263311925e-05
               tree_risk: 0.
               tree_error: 0.
               splits:
                  - { var:2, quality:2.4149417877197266e+00,
                      le:-7.7695995569229126e-01 }
            -
               depth: 3
               sample_count: 36
               value: 1.0025686025619507e+00
               Tn: 0
               complexity: 0
               alpha: 0.
               node_risk: 2.6052876803905889e-05
               tree_risk: 0.
               tree_error: 0.
            -
               depth: 3
               sample_count: 2
               value: 1.0070071220397949e+00
               Tn: 0
               complexity: 0
               alpha: 0.
               node_risk: 0.
               tree_risk: 0.
               tree_error: 0.
            -
               depth: 1
               sample_count: 112
               value: -8.6500711406448064e-02
               Tn: 0
               complexity: 0
               alpha: 0.
               node_risk: 1.9916409854923822e-02
               tree_risk: 0.
               tree_error: 0.
               splits:
                  - { var:0, quality:8.4174180030822754e-01,
                      le:-7.5619511306285858e-02 }
            -
               depth: 2
               sample_count: 41
               value: -9.4080660401321042e-02
               Tn: 0
               complexity: 0
               alpha: 0.
               node_risk: 1.6002143429322935e-02
               tree_risk: 0.
               tree_error: 0.
               splits:
                  - { var:3, quality:3.7608677148818970e-01,
                      le:7.9172849655151367e-01 }
            -
               depth: 3
               sample_count: 10
               value: -8.5976332426071167e-01
               Tn: 0
               complexity: 0
               alpha: 0.
               node_risk: 2.5229007032061546e-03
               tree_risk: 0.
               tree_error: 0.
            -
               depth: 3
               sample_count: 31
               value: -8.1878244876861572e-01
               Tn: 0
               complexity: 0
               alpha: 0.
               node_risk: 2.9046093326418054e-04
               tree_risk: 0.
               tree_error: 0.
            -
               depth: 2
               sample_count: 71
               value: -8.2123557761521401e-02
               Tn: 0
               complexity: 0
               alpha: 0.
               node_risk: 1.9826307202075455e-04
               tree_risk: 0.
               tree_error: 0.
               splits:
                  - { var:1, quality:4.7895440459251404e-01,
                      le:8.2477879524230957e-01 }
            -
               depth: 3
               sample_count: 40
               value: -8.1808274984359741e-01
               Tn: 0
               complexity: 0
               alpha: 0.
               node_risk: 8.2245674881686881e-08
               tree_risk: 0.
               tree_error: 0.
            -
               depth: 3
               sample_count: 31
               value: -8.1587433815002441e-01
               Tn: 0
               complexity: 0
               alpha: 0.
               node_risk: 8.7579380836061427e-05
               tree_risk: 0.
               tree_error: 0.
      -
         best_tree_idx: -1
         nodes:
            -
               depth: 0
               sample_count: 152
               value: 5.3851943659154991e-04
               Tn: 0
               complexity: 0
               alpha: 0.
               node_risk: 3.2639428655850056e+00
               tree_risk: 0.
               tree_error: 0.
               splits:
                  - { var:3, quality:3.0304582118988037e+00,
                      le:-1.4463677406311035e+00 }
            -
               depth: 1
               sample_count: 41
               value: 2.3286502190479419e-01
               Tn: 0
               complexity: 0
               alpha: 0.
               node_risk: 2.1539243685038700e-01
               tree_risk: 0.
               tree_error: 0.
               splits:
                  - { var:0, quality:2.4375982284545898e+00,
                      le:-8.0506658554077148e-01 }
            -
               depth: 2
               sample_count: 2
               value: -8.2315832376480103e-01
               Tn: 0
               complexity: 0
               alpha: 0.
               node_risk: 4.2611146288121238e-04
               tree_risk: 0.
               tree_error: 0.
            -
               depth: 2
               sample_count: 39
               value: 2.4923807382583618e-01
               Tn: 0
               complexity: 0
               alpha: 0.
               node_risk: 6.3890043480085978e-04
               tree_risk: 0.
               tree_error: 0.
               splits:
                  - { var:0, quality:2.4232623577117920e+00,
                      le:-6.2084633111953735e-01 }
            -
               depth: 3
               sample_count: 1
               value: 1.0321480035781860e+00
               Tn: 0
               complexity: 0
               alpha: 0.
               node_risk: 0.
               tree_risk: 0.
               tree_error: 0.
            -
               depth: 3
               sample_count: 38
               value: 9.9814707040786743e-01
               Tn: 0
               complexity: 0
               alpha: 0.
               node_risk: 4.1720123196142822e-05
               tree_risk: 0.
               tree_error: 0.
            -
               depth: 1
               sample_count: 111
               value: -8.5275774267879689e-02
               Tn: 0
               complexity: 0
               alpha: 0.
               node_risk: 1.8136351577511811e-02
               tree_risk: 0.
               tree_error: 0.
               splits:
                  - { var:0, quality:8.1117630004882812e-01,
                      le:-7.5619511306285858e-02 }
            -
               depth: 2
               sample_count: 38
               value: -9.3584581033179640e-02
               Tn: 0
               complexity: 0
               alpha: 0.
               node_risk: 1.3934675892192272e-02
               tree_risk: 0.
               tree_error: 0.
               splits:
                  - { var:3, quality:3.4387072920799255e-01,
                      le:7.6475036144256592e-01 }
            -
               depth: 3
               sample_count: 10
               value: -8.5617142915725708e-01
               Tn: 0
               complexity: 0
               alpha: 0.
               node_risk: 2.2842791206636459e-03
               tree_risk: 0.
               tree_error: 0.
            -
               depth: 3
               sample_count: 28
               value: -8.1845426559448242e-01
               Tn: 0
               complexity: 0
               alpha: 0.
               node_risk: 5.8646845672088999e-04
               tree_risk: 0.
               tree_error: 0.
            -
               depth: 2
               sample_count: 73
               value: -8.0950641979093421e-02
               Tn: 0
               complexity: 0
               alpha: 0.
               node_risk: 2.1270327049183191e-04
               tree_risk: 0.
               tree_error: 0.
               splits:
                  - { var:1, quality:4.7849765419960022e-01,
                      le:7.5940895080566406e-01 }
            -
               depth: 3
               sample_count: 41
               value: -8.1710183620452881e-01
               Tn: 0
               complexity: 0
               alpha: 0.
               node_risk: 1.4062949754700682e-06
               tree_risk: 0.
               tree_error: 0.
            -
               depth: 3
               sample_count: 32
               value: -8.1475985050201416e-01
               Tn: 0
               complexity: 0
               alpha: 0.
               node_risk: 8.3105875163635989e-05
               tree_risk: 0.
               tree_error: 0.
      -
         best_tree_idx: -1
         nodes:
            -
               depth: 0
               sample_count: 152
               value: -5.7952812823810077e-03
               Tn: 0
               complexity: 0
               alpha: 0.
               node_risk: 3.0270975488372098e+00
               tree_risk: 0.
               tree_error: 0.
               splits:
                  - { var:3, quality:2.8032491207122803e+00,
                      le:-1.4463677406311035e+00 }
            -
               depth: 1
               sample_count: 38
               value: 2.2920797529973483e-01
               Tn: 0
               complexity: 0
               alpha: 0.
               node_risk: 2.1020480945746223e-01
               tree_risk: 0.
               tree_error: 0.
               splits:
                  - { var:0, quality:2.2049326896667480e+00,
                      le:-8.2366353273391724e-01 }
            -
               depth: 2
               sample_count: 2
               value: -8.2195585966110229e-01
               Tn: 0
               complexity: 0
               alpha: 0.
               node_risk: 4.1594902482444684e-04
               tree_risk: 0.
               tree_error: 0.
            -
               depth: 2
               sample_count: 36
               value: 2.4666943649450937e-01
               Tn: 0
               complexity: 0
               alpha: 0.
               node_risk: 1.2354635259113067e-03
               tree_risk: 0.
               tree_error: 0.
               splits:
                  - { var:0, quality:2.1916441917419434e+00,
                      le:-6.2084633111953735e-01 }
            -
               depth: 3
               sample_count: 2
               value: 1.0279954671859741e+00
               Tn: 0
               complexity: 0
               alpha: 0.
               node_risk: 3.1725110716251947e-07
               tree_risk: 0.
               tree_error: 0.
            -
               depth: 3
               sample_count: 34
               value: 9.9374198913574219e-01
               Tn: 0
               complexity: 0
               alpha: 0.
               node_risk: 4.0177072750502418e-05
               tree_risk: 0.
               tree_error: 0.
            -
               depth: 1
               sample_count: 114
               value: -8.4129700143086281e-02
               Tn: 0
               complexity: 0
               alpha: 0.
               node_risk: 1.8748522100303311e-02
               tree_risk: 0.
               tree_error: 0.
               splits:
                  - { var:0, quality:8.1024700403213501e-01,
                      le:-7.5619511306285858e-02 }
            -
               depth: 2
               sample_count: 43
               value: -9.1123480263144471e-02
               Tn: 0
               complexity: 0
               alpha: 0.
               node_risk: 1.5178178043252444e-02
               tree_risk: 0.
               tree_error: 0.
               splits:
                  - { var:3, quality:3.6916849017143250e-01,
                      le:7.6475036144256592e-01 }
            -
               depth: 3
               sample_count: 10
               value: -8.5585373640060425e-01
               Tn: 0
               complexity: 0
               alpha: 0.
               node_risk: 2.5081343539311018e-03
               tree_risk: 0.
               tree_error: 0.
            -
               depth: 3
               sample_count: 33
               value: -8.1707030534744263e-01
               Tn: 0
               complexity: 0
               alpha: 0.
               node_risk: 5.5157162422636574e-04
               tree_risk: 0.
               tree_error: 0.
            -
               depth: 2
               sample_count: 71
               value: -7.9894030492910204e-02
               Tn: 0
               complexity: 0
               alpha: 0.
               node_risk: 1.9328304687521447e-04
               tree_risk: 0.
               tree_error: 0.
               splits:
                  - { var:1, quality:4.5330959558486938e-01,
                      le:7.5940895080566406e-01 }
            -
               depth: 3
               sample_count: 40
               value: -8.1610733270645142e-01
               Tn: 0
               complexity: 0
               alpha: 0.
               node_risk: 1.3662386313395558e-06
               tree_risk: 0.
               tree_error: 0.
            -
               depth: 3
               sample_count: 31
               value: -8.1388682126998901e-01
               Tn: 0
               complexity: 0
               alpha: 0.
               node_risk: 7.9294041690991524e-05
               tree_risk: 0.
               tree_error: 0.
      -
         best_tree_idx: -1
         nodes:
            -
               depth: 0
               sample_count: 152
               value: 6.5329538560227344e-04
               Tn: 0
               complexity: 0
               alpha: 0.
               node_risk: 3.0890215042287754e+00
               tree_risk: 0.
               tree_error: 0.
               splits:
                  - { var:3, quality:2.8672645092010498e+00,
                      le:-1.4463677406311035e+00 }
            -
               depth: 1
               sample_count: 41
               value: 2.2663680064242062e-01
               Tn: 0
               complexity: 0
               alpha: 0.
               node_risk: 2.0395453641871342e-01
               tree_risk: 0.
               tree_error: 0.
               splits:
                  - { var:0, quality:2.3088536262512207e+00,
                      le:-8.2366353273391724e-01 }
            -
               depth: 2
               sample_count: 2
               value: -8.2097625732421875e-01
               Tn: 0
               complexity: 0
               alpha: 0.
               node_risk: 4.0812341023446774e-04
               tree_risk: 0.
               tree_error: 0.
            -
               depth: 2
               sample_count: 39
               value: 2.4256816888466859e-01
               Tn: 0
               complexity: 0
               alpha: 0.
               node_risk: 6.2652199942769826e-04
               tree_risk: 0.
               tree_error: 0.
               splits:
                  - { var:0, quality:2.2953157424926758e+00,
                      le:-6.3944327831268311e-01 }
            -
               depth: 3
               sample_count: 1
               value: 1.0223423242568970e+00
               Tn: 0
               complexity: 0
               alpha: 0.
               node_risk: 0.
               tree_risk: 0.
               tree_error: 0.
            -
               depth: 3
               sample_count: 38
               value: 9.8937553167343140e-01
               Tn: 0
               complexity: 0
               alpha: 0.
               node_risk: 4.4081203565582427e-05
               tree_risk: 0.
               tree_error: 0.
            -
               depth: 1
               sample_count: 111
               value: -8.2818089438988288e-02
               Tn: 0
               complexity: 0
               alpha: 0.
               node_risk: 1.7867235852201735e-02
               tree_risk: 0.
               tree_error: 0.
               splits:
                  - { var:0, quality:7.6465910673141479e-01,
                      le:-7.5619511306285858e-02 }
            -
               depth: 2
               sample_count: 39
               value: -9.0258314059330866e-02
               Tn: 0
               complexity: 0
               alpha: 0.
               node_risk: 1.4351350111095285e-02
               tree_risk: 0.
               tree_error: 0.
               splits:
                  - { var:3, quality:3.2923591136932373e-01,
                      le:6.1975955963134766e-01 }
            -
               depth: 3
               sample_count: 9
               value: -8.5590320825576782e-01
               Tn: 0
               complexity: 0
               alpha: 0.
               node_risk: 2.2944363470837059e-03
               tree_risk: 0.
               tree_error: 0.
            -
               depth: 3
               sample_count: 30
               value: -8.1616324186325073e-01
               Tn: 0
               complexity: 0
               alpha: 0.
               node_risk: 5.3696422407140121e-04
               tree_risk: 0.
               tree_error: 0.
            -
               depth: 2
               sample_count: 72
               value: -7.8787967769636050e-02
               Tn: 0
               complexity: 0
               alpha: 0.
               node_risk: 1.8754957923905469e-04
               tree_risk: 0.
               tree_error: 0.
               splits:
                  - { var:1, quality:4.4705581665039062e-01,
                      le:7.5940895080566406e-01 }
            -
               depth: 3
               sample_count: 40
               value: -8.1513518095016479e-01
               Tn: 0
               complexity: 0
               alpha: 0.
               node_risk: 1.3517321759137779e-06
               tree_risk: 0.
               tree_error: 0.
            -
               depth: 3
               sample_count: 32
               value: -8.1293684244155884e-01
               Tn: 0
               complexity: 0
               alpha: 0.
               node_risk: 7.3533204543840824e-05
               tree_risk: 0.
               tree_error: 0.
      -
         best_tree_idx: -1
         nodes:
            -
               depth: 0
               sample_count: 152
               value: -1.7096626229192082e-03
               Tn: 0
               complexity: 0
               alpha: 0.
               node_risk: 2.9629187964278314e+00
               tree_risk: 0.
               tree_error: 0.
               splits:
                  - { var:3, quality:2.9416003227233887e+00,
                      le:-1.4463677406311035e+00 }
            -
               depth: 1
               sample_count: 38
               value: 2.3922421587140938e-01
               Tn: 0
               complexity: 0
               alpha: 0.
               node_risk: 6.5925227050378510e-04
               tree_risk: 0.
               tree_error: 0.
               splits:
                  - { var:0, quality:2.1752989292144775e+00,
                      le:-6.3374161720275879e-01 }
            -
               depth: 2
               sample_count: 1
               value: 1.0189083814620972e+00
               Tn: 0
               complexity: 0
               alpha: 0.
               node_risk: 0.
               tree_risk: 0.
               tree_error: 0.
            -
               depth: 2
               sample_count: 37
               value: 2.3855681354935104e-01
               Tn: 0
               complexity: 0
               alpha: 0.
               node_risk: 3.2983512062489950e-05
               tree_risk: 0.
               tree_error: 0.
               splits:
                  - { var:2, quality:2.1056661605834961e+00,
                      le:-7.7955317497253418e-01 }
            -
               depth: 3
               sample_count: 35
               value: 9.8474526405334473e-01
               Tn: 0
               complexity: 0
               alpha: 0.
               node_risk: 1.2778796903090139e-05
               tree_risk: 0.
               tree_error: 0.
            -
               depth: 3
               sample_count: 2
               value: 9.8898684978485107e-01
               Tn: 0
               complexity: 0
               alpha: 0.
               node_risk: 0.
               tree_risk: 0.
               tree_error: 0.
            -
               depth: 1
               sample_count: 114
               value: -8.2020955454362068e-02
               Tn: 0
               complexity: 0
               alpha: 0.
               node_risk: 2.1103431303788001e-02
               tree_risk: 0.
               tree_error: 0.
               splits:
                  - { var:0, quality:7.7080494165420532e-01,
                      le:-7.5619511306285858e-02 }
            -
               depth: 2
               sample_count: 41
               value: -8.9802566098003855e-02
               Tn: 0
               complexity: 0
               alpha: 0.
               node_risk: 1.7030060813781445e-02
               tree_risk: 0.
               tree_error: 0.
               splits:
                  - { var:3, quality:3.4496834874153137e-01,
                      le:7.9172849655151367e-01 }
            -
               depth: 3
               sample_count: 10
               value: -8.5685729980468750e-01
               Tn: 0
               complexity: 0
               alpha: 0.
               node_risk: 2.4500190253071708e-03
               tree_risk: 0.
               tree_error: 0.
            -
               depth: 3
               sample_count: 31
               value: -8.1458967924118042e-01
               Tn: 0
               complexity: 0
               alpha: 0.
               node_risk: 2.5621613347662220e-04
               tree_risk: 0.
               tree_error: 0.
            -
               depth: 2
               sample_count: 73
               value: -7.7650461805193388e-02
               Tn: 0
               complexity: 0
               alpha: 0.
               node_risk: 1.9628978159758059e-04
               tree_risk: 0.
               tree_error: 0.
               splits:
                  - { var:1, quality:4.4026741385459900e-01,
                      le:7.5940895080566406e-01 }
            -
               depth: 3
               sample_count: 38
               value: -8.1416702270507812e-01
               Tn: 0
               complexity: 0
               alpha: 0.
               node_risk: 1.3146581473166830e-06
               tree_risk: 0.
               tree_error: 0.
            -
               depth: 3
               sample_count: 35
               value: -8.1205880641937256e-01
               Tn: 0
               complexity: 0
               alpha: 0.
               node_risk: 8.7926834933166331e-05
               tree_risk: 0.
               tree_error: 0.
      -
         best_tree_idx: -1
         nodes:
            -
               depth: 0
               sample_count: 152
               value: 5.3903853128615181e-03
               Tn: 0
               complexity: 0
               alpha: 0.
               node_risk: 3.0165977329804936e+00
               tree_risk: 0.
               tree_error: 0.
               splits:
                  - { var:3, quality:2.8099799156188965e+00,
                      le:-1.4463677406311035e+00 }
            -
               depth: 1
               sample_count: 43
               value: 2.2169574038233869e-01
               Tn: 0
               complexity: 0
               alpha: 0.
               node_risk: 1.9790446905005243e-01
               tree_risk: 0.
               tree_error: 0.
               splits:
                  - { var:0, quality:2.3096230030059814e+00,
                      le:-8.2366353273391724e-01 }
            -
               depth: 2
               sample_count: 2
               value: -8.2110345363616943e-01
               Tn: 0
               complexity: 0
               alpha: 0.
               node_risk: 4.1064375972757472e-04
               tree_risk: 0.
               tree_error: 0.
            -
               depth: 2
               sample_count: 41
               value: 2.3661529727098418e-01
               Tn: 0
               complexity: 0
               alpha: 0.
               node_risk: 1.2779391005888208e-03
               tree_risk: 0.
               tree_error: 0.
               splits:
                  - { var:0, quality:2.2967026233673096e+00,
                      le:-6.2084633111953735e-01 }
            -
               depth: 3
               sample_count: 2
               value: 1.0148011445999146e+00
               Tn: 0
               complexity: 0
               alpha: 0.
               node_risk: 4.1003156248109462e-07
               tree_risk: 0.
               tree_error: 0.
            -
               depth: 3
               sample_count: 39
               value: 9.8086863756179810e-01
               Tn: 0
               complexity: 0
               alpha: 0.
               node_risk: 3.3650947643959483e-05
               tree_risk: 0.
               tree_error: 0.
            -
               depth: 1
               sample_count: 109
               value: -7.9941085035647827e-02
               Tn: 0
               complexity: 0
               alpha: 0.
               node_risk: 1.3129857095546038e-02
               tree_risk: 0.
               tree_error: 0.
               splits:
                  - { var:0, quality:6.9846993684768677e-01,
                      le:-7.5619511306285858e-02 }
            -
               depth: 2
               sample_count: 38
               value: -8.5643564007784195e-02
               Tn: 0
               complexity: 0
               alpha: 0.
               node_risk: 1.1081089901920305e-02
               tree_risk: 0.
               tree_error: 0.
               splits:
                  - { var:3, quality:2.8776845335960388e-01,
                      le:7.9172849655151367e-01 }
            -
               depth: 3
               sample_count: 7
               value: -8.5249429941177368e-01
               Tn: 0
               complexity: 0
               alpha: 0.
               node_risk: 1.7506683021003278e-03
               tree_risk: 0.
               tree_error: 0.
            -
               depth: 3
               sample_count: 31
               value: -8.1382822990417480e-01
               Tn: 0
               complexity: 0
               alpha: 0.
               node_risk: 2.8512454870388559e-04
               tree_risk: 0.
               tree_error: 0.
            -
               depth: 2
               sample_count: 71
               value: -7.6889054036476237e-02
               Tn: 0
               complexity: 0
               alpha: 0.
               node_risk: 1.5171565076249616e-04
               tree_risk: 0.
               tree_error: 0.
               splits:
                  - { var:1, quality:4.1982445120811462e-01,
                      le:8.2477879524230957e-01 }
            -
               depth: 3
               sample_count: 43
               value: -8.1321388483047485e-01
               Tn: 0
               complexity: 0
               alpha: 0.
               node_risk: 1.3028199948861285e-06
               tree_risk: 0.
               tree_error: 0.
            -
               depth: 3
               sample_count: 28
               value: -8.1136107444763184e-01
               Tn: 0
               complexity: 0
               alpha: 0.
               node_risk: 7.2748596995714232e-05
               tree_risk: 0.
               tree_error: 0.
      -
         best_tree_idx: -1
         nodes:
            -
               depth: 0
               sample_count: 152
               value: -9.0149322426632834e-03
               Tn: 0
               complexity: 0
               alpha: 0.
               node_risk: 2.5979071496055108e+00
               tree_risk: 0.
               tree_error: 0.
               splits:
                  - { var:3, quality:2.5049276351928711e+00,
                      le:-1.4463677406311035e+00 }
            -
               depth: 1
               sample_count: 35
               value: 2.2511730300528662e-01
               Tn: 0
               complexity: 0
               alpha: 0.
               node_risk: 9.0224428239202403e-02
               tree_risk: 0.
               tree_error: 0.
               splits:
                  - { var:0, quality:1.8627185821533203e+00,
                      le:-8.8406997919082642e-01 }
            -
               depth: 2
               sample_count: 1
               value: -8.0550861358642578e-01
               Tn: 0
               complexity: 0
               alpha: 0.
               node_risk: 0.
               tree_risk: 0.
               tree_error: 0.
            -
               depth: 2
               sample_count: 34
               value: 2.3376520241008086e-01
               Tn: 0
               complexity: 0
               alpha: 0.
               node_risk: 1.2288929418284855e-03
               tree_risk: 0.
               tree_error: 0.
               splits:
                  - { var:0, quality:1.8591591119766235e+00,
                      le:-6.2084633111953735e-01 }
            -
               depth: 3
               sample_count: 2
               value: 1.0099978446960449e+00
               Tn: 0
               complexity: 0
               alpha: 0.
               node_risk: 4.0283062396895275e-07
               tree_risk: 0.
               tree_error: 0.
            -
               depth: 3
               sample_count: 32
               value: 9.7693371772766113e-01
               Tn: 0
               complexity: 0
               alpha: 0.
               node_risk: 3.9108603817616938e-05
               tree_risk: 0.
               tree_error: 0.
            -
               depth: 1
               sample_count: 117
               value: -7.9054489795468808e-02
               Tn: 0
               complexity: 0
               alpha: 0.
               node_risk: 1.5107960192711323e-02
               tree_risk: 0.
               tree_error: 0.
               splits:
                  - { var:0, quality:7.3388409614562988e-01,
                      le:-7.5619511306285858e-02 }
            -
               depth: 2
               sample_count: 44
               value: -8.5218541324138641e-02
               Tn: 0
               complexity: 0
               alpha: 0.
               node_risk: 1.2227491729029816e-02
               tree_risk: 0.
               tree_error: 0.
               splits:
                  - { var:3, quality:3.2927644252777100e-01,
                      le:7.6475036144256592e-01 }
            -
               depth: 3
               sample_count: 9
               value: -8.4881216287612915e-01
               Tn: 0
               complexity: 0
               alpha: 0.
               node_risk: 1.9114083398026893e-03
               tree_risk: 0.
               tree_error: 0.
            -
               depth: 3
               sample_count: 35
               value: -8.1334847211837769e-01
               Tn: 0
               complexity: 0
               alpha: 0.
               node_risk: 5.7643373627982997e-04
               tree_risk: 0.
               tree_error: 0.
            -
               depth: 2
               sample_count: 73
               value: -7.5339171065859592e-02
               Tn: 0
               complexity: 0
               alpha: 0.
               node_risk: 2.0100278059775878e-04
               tree_risk: 0.
               tree_error: 0.
               splits:
                  - { var:1, quality:4.1447404026985168e-01,
                      le:7.5940895080566406e-01 }
            -
               depth: 3
               sample_count: 36
               value: -8.1228196620941162e-01
               Tn: 0
               complexity: 0
               alpha: 0.
               node_risk: 1.2527177707943871e-06
               tree_risk: 0.
               tree_error: 0.
            -
               depth: 3
               sample_count: 37
               value: -8.0999314785003662e-01
               Tn: 0
               complexity: 0
               alpha: 0.
               node_risk: 7.3036892414168886e-05
               tree_risk: 0.
               tree_error: 0.
      -
         best_tree_idx: -1
         nodes:
            -
               depth: 0
               sample_count: 152
               value: -1.1934674786109674e-03
               Tn: 0
               complexity: 0
               alpha: 0.
               node_risk: 2.7222310329897943e+00
               tree_risk: 0.
               tree_error: 0.
               splits:
                  - { var:3, quality:2.6026954650878906e+00,
                      le:-1.4495961666107178e+00 }
            -
               depth: 1
               sample_count: 39
               value: 2.2153654446204504e-01
               Tn: 0
               complexity: 0
               alpha: 0.
               node_risk: 1.0477143102165010e-01
               tree_risk: 0.
               tree_error: 0.
               splits:
                  - { var:0, quality:2.0182051658630371e+00,
                      le:-8.2366353273391724e-01 }
            -
               depth: 2
               sample_count: 1
               value: -8.3057934045791626e-01
               Tn: 0
               complexity: 0
               alpha: 0.
               node_risk: 0.
               tree_risk: 0.
               tree_error: 0.
            -
               depth: 2
               sample_count: 38
               value: 2.2991950104111120e-01
               Tn: 0
               complexity: 0
               alpha: 0.
               node_risk: 6.2542081000449556e-04
               tree_risk: 0.
               tree_error: 0.
               splits:
                  - { var:0, quality:2.0093894004821777e+00,
                      le:-6.3944327831268311e-01 }
            -
               depth: 3
               sample_count: 1
               value: 1.0053790807723999e+00
               Tn: 0
               complexity: 0
               alpha: 0.
               node_risk: 0.
               tree_risk: 0.
               tree_error: 0.
            -
               depth: 3
               sample_count: 37
               value: 9.7310566902160645e-01
               Tn: 0
               complexity: 0
               alpha: 0.
               node_risk: 2.9249672061970600e-05
               tree_risk: 0.
               tree_error: 0.
            -
               depth: 1
               sample_count: 113
               value: -7.8064887528925875e-02
               Tn: 0
               complexity: 0
               alpha: 0.
               node_risk: 1.4980611501475449e-02
               tree_risk: 0.
               tree_error: 0.
               splits:
                  - { var:0, quality:6.9132983684539795e-01,
                      le:-9.2776104807853699e-02 }
            -
               depth: 2
               sample_count: 39
               value: -8.4790103519574195e-02
               Tn: 0
               complexity: 0
               alpha: 0.
               node_risk: 1.2106064619809676e-02
               tree_risk: 0.
               tree_error: 0.
               splits:
                  - { var:3, quality:2.9020857810974121e-01,
                      le:7.6475036144256592e-01 }
            -
               depth: 3
               sample_count: 9
               value: -8.4811985492706299e-01
               Tn: 0
               complexity: 0
               alpha: 0.
               node_risk: 1.9708460500414970e-03
               tree_risk: 0.
               tree_error: 0.
            -
               depth: 3
               sample_count: 30
               value: -8.1189376115798950e-01
               Tn: 0
               complexity: 0
               alpha: 0.
               node_risk: 3.1174234674155588e-04
               tree_risk: 0.
               tree_error: 0.
            -
               depth: 2
               sample_count: 74
               value: -7.4520516939259859e-02
               Tn: 0
               complexity: 0
               alpha: 0.
               node_risk: 1.8100455406272475e-04
               tree_risk: 0.
               tree_error: 0.
               splits:
                  - { var:1, quality:4.1105198860168457e-01,
                      le:7.5940895080566406e-01 }
            -
               depth: 3
               sample_count: 40
               value: -8.1136405467987061e-01
               Tn: 0
               complexity: 0
               alpha: 0.
               node_risk: 1.2442143023372321e-06
               tree_risk: 0.
               tree_error: 0.
            -
               depth: 3
               sample_count: 34
               value: -8.0927449464797974e-01
               Tn: 0
               complexity: 0
               alpha: 0.
               node_risk: 7.2532025077787221e-05
               tree_risk: 0.
               tree_error: 0.
      -
         best_tree_idx: -1
         nodes:
            -
               depth: 0
               sample_count: 152
               value: -9.3593577805318323e-03
               Tn: 0
               complexity: 0
               alpha: 0.
               node_risk: 2.4838535912492890e+00
               tree_risk: 0.
               tree_error: 0.
               splits:
                  - { var:3, quality:2.4771833419799805e+00,
                      le:-1.4463677406311035e+00 }
            -
               depth: 1
               sample_count: 34
               value: 2.2782634636935065e-01
               Tn: 0
               complexity: 0
               alpha: 0.
               node_risk: 1.1851809667466906e-03
               tree_risk: 0.
               tree_error: 0.
               splits:
                  - { var:0, quality:1.7659106254577637e+00,
                      le:-6.2084633111953735e-01 }
            -
               depth: 2
               sample_count: 2
               value: 1.0014008283615112e+00
               Tn: 0
               complexity: 0
               alpha: 0.
               node_risk: 4.4519154762667767e-07
               tree_risk: 0.
               tree_error: 0.
            -
               depth: 2
               sample_count: 32
               value: 2.2637497819960117e-01
               Tn: 0
               complexity: 0
               alpha: 0.
               node_risk: 3.8816332295077416e-05
               tree_risk: 0.
               tree_error: 0.
               splits:
                  - { var:2, quality:1.6398769617080688e+00,
                      le:-7.7955317497253418e-01 }
            -
               depth: 3
               sample_count: 30
               value: 9.6923196315765381e-01
               Tn: 0
               complexity: 0
               alpha: 0.
               node_risk: 2.2063295579188846e-05
               tree_risk: 0.
               tree_error: 0.
            -
               depth: 3
               sample_count: 2
               value: 9.7298640012741089e-01
               Tn: 0
               complexity: 0
               alpha: 0.
               node_risk: 0.
               tree_risk: 0.
               tree_error: 0.
            -
               depth: 1
               sample_count: 118
               value: -7.7701001349142040e-02
               Tn: 0
               complexity: 0
               alpha: 0.
               node_risk: 1.8799960690220385e-02
               tree_risk: 0.
               tree_error: 0.
               splits:
                  - { var:0, quality:7.1591812372207642e-01,
                      le:-7.5619511306285858e-02 }
            -
               depth: 2
               sample_count: 43
               value: -8.4893178108126618e-02
               Tn: 0
               complexity: 0
               alpha: 0.
               node_risk: 1.5125141297403666e-02
               tree_risk: 0.
               tree_error: 0.
               splits:
                  - { var:3, quality:3.2191196084022522e-01,
                      le:7.6475036144256592e-01 }
            -
               depth: 3
               sample_count: 10
               value: -8.4979975223541260e-01
               Tn: 0
               complexity: 0
               alpha: 0.
               node_risk: 2.5094887270291355e-03
               tree_risk: 0.
               tree_error: 0.
            -
               depth: 3
               sample_count: 33
               value: -8.1162691116333008e-01
               Tn: 0
               complexity: 0
               alpha: 0.
               node_risk: 5.9832622673658409e-04
               tree_risk: 0.
               tree_error: 0.
            -
               depth: 2
               sample_count: 75
               value: -7.3577486673990888e-02
               Tn: 0
               complexity: 0
               alpha: 0.
               node_risk: 1.7528791620735618e-04
               tree_risk: 0.
               tree_error: 0.
               splits:
                  - { var:1, quality:4.0611624717712402e-01,
                      le:7.5940895080566406e-01 }
            -
               depth: 3
               sample_count: 41
               value: -8.1045210361480713e-01
               Tn: 0
               complexity: 0
               alpha: 0.
               node_risk: 1.2161802234456065e-06
               tree_risk: 0.
               tree_error: 0.
            -
               depth: 3
               sample_count: 34
               value: -8.0852890014648438e-01
               Tn: 0
               complexity: 0
               alpha: 0.
               node_risk: 8.1321257793032231e-05
               tree_risk: 0.
               tree_error: 0.
      -
         best_tree_idx: -1
         nodes:
            -
               depth: 0
               sample_count: 152
               value: 2.1732035338094362e-03
               Tn: 0
               complexity: 0
               alpha: 0.
               node_risk: 2.7010156393824247e+00
               tree_risk: 0.
               tree_error: 0.
               splits:
                  - { var:3, quality:2.5792458057403564e+00,
                      le:-1.4025793075561523e+00 }
            -
               depth: 1
               sample_count: 41
               value: 2.1647888912660321e-01
               Tn: 0
               complexity: 0
               alpha: 0.
               node_risk: 1.0216147621458149e-01
               tree_risk: 0.
               tree_error: 0.
               splits:
                  - { var:0, quality:2.0223739147186279e+00,
                      le:-8.2366353273391724e-01 }
            -
               depth: 2
               sample_count: 1
               value: -8.3093774318695068e-01
               Tn: 0
               complexity: 0
               alpha: 0.
               node_risk: 0.
               tree_risk: 0.
               tree_error: 0.
            -
               depth: 2
               sample_count: 40
               value: 2.2432599365711212e-01
               Tn: 0
               complexity: 0
               alpha: 0.
               node_risk: 1.1751150136984911e-03
               tree_risk: 0.
               tree_error: 0.
               splits:
                  - { var:0, quality:2.0140295028686523e+00,
                      le:-6.2084633111953735e-01 }
            -
               depth: 3
               sample_count: 2
               value: 9.9685275554656982e-01
               Tn: 0
               complexity: 0
               alpha: 0.
               node_risk: 4.3707365904310791e-07
               tree_risk: 0.
               tree_error: 0.
            -
               depth: 3
               sample_count: 38
               value: 9.6537905931472778e-01
               Tn: 0
               complexity: 0
               alpha: 0.
               node_risk: 3.1235713375821206e-05
               tree_risk: 0.
               tree_error: 0.
            -
               depth: 1
               sample_count: 111
               value: -7.6984752405871146e-02
               Tn: 0
               complexity: 0
               alpha: 0.
               node_risk: 2.0326160465685694e-02
               tree_risk: 0.
               tree_error: 0.
               splits:
                  - { var:0, quality:6.6195601224899292e-01,
                      le:-7.4474617838859558e-02 }
            -
               depth: 2
               sample_count: 40
               value: -8.5079503804445261e-02
               Tn: 0
               complexity: 0
               alpha: 0.
               node_risk: 1.6055221695429223e-02
               tree_risk: 0.
               tree_error: 0.
               splits:
                  - { var:3, quality:3.0233636498451233e-01,
                      le:7.6475036144256592e-01 }
            -
               depth: 3
               sample_count: 10
               value: -8.5069465637207031e-01
               Tn: 0
               complexity: 0
               alpha: 0.
               node_risk: 2.6805527222058256e-03
               tree_risk: 0.
               tree_error: 0.
            -
               depth: 3
               sample_count: 30
               value: -8.1082099676132202e-01
               Tn: 0
               complexity: 0
               alpha: 0.
               node_risk: 5.7917104796217922e-04
               tree_risk: 0.
               tree_error: 0.
            -
               depth: 2
               sample_count: 71
               value: -7.2424329082730790e-02
               Tn: 0
               complexity: 0
               alpha: 0.
               node_risk: 1.7331903914519220e-04
               tree_risk: 0.
               tree_error: 0.
               splits:
                  - { var:1, quality:3.7251666188240051e-01,
                      le:7.1977233886718750e-01 }
            -
               depth: 3
               sample_count: 37
               value: -8.0956029891967773e-01
               Tn: 0
               complexity: 0
               alpha: 0.
               node_risk: 1.1864946419248845e-06
               tree_risk: 0.
               tree_error: 0.
            -
               depth: 3
               sample_count: 34
               value: -8.0749869346618652e-01
               Tn: 0
               complexity: 0
               alpha: 0.
               node_risk: 7.0590536303816176e-05
               tree_risk: 0.
               tree_error: 0.
      -
         best_tree_idx: -1
         nodes:
            -
               depth: 0
               sample_count: 152
               value: 5.7330834924390443e-03
               Tn: 0
               complexity: 0
               alpha: 0.
               node_risk: 2.7031768710819777e+00
               tree_risk: 0.
               tree_error: 0.
               splits:
                  - { var:3, quality:2.5896439552307129e+00,
                      le:-1.4463677406311035e+00 }
            -
               depth: 1
               sample_count: 43
               value: 2.1334770408480666e-01
               Tn: 0
               complexity: 0
               alpha: 0.
               node_risk: 9.8660119075883568e-02
               tree_risk: 0.
               tree_error: 0.
               splits:
                  - { var:0, quality:2.0553116798400879e+00,
                      le:-8.2366353273391724e-01 }
            -
               depth: 2
               sample_count: 1
               value: -8.2978469133377075e-01
               Tn: 0
               complexity: 0
               alpha: 0.
               node_risk: 0.
               tree_risk: 0.
               tree_error: 0.
            -
               depth: 2
               sample_count: 42
               value: 2.2071672195479983e-01
               Tn: 0
               complexity: 0
               alpha: 0.
               node_risk: 5.8994066677220403e-04
               tree_risk: 0.
               tree_error: 0.
               splits:
                  - { var:0, quality:2.0466172695159912e+00,
                      le:-6.3944327831268311e-01 }
            -
               depth: 3
               sample_count: 1
               value: 9.9193406105041504e-01
               Tn: 0
               complexity: 0
               alpha: 0.
               node_risk: 0.
               tree_risk: 0.
               tree_error: 0.
            -
               depth: 3
               sample_count: 41
               value: 9.6173030138015747e-01
               Tn: 0
               complexity: 0
               alpha: 0.
               node_risk: 3.9302232181404051e-05
               tree_risk: 0.
               tree_error: 0.
            -
               depth: 1
               sample_count: 109
               value: -7.6169931970605065e-02
               Tn: 0
               complexity: 0
               alpha: 0.
               node_risk: 1.9868702935027072e-02
               tree_risk: 0.
               tree_error: 0.
               splits:
                  - { var:0, quality:6.3590651750564575e-01,
                      le:-7.5619511306285858e-02 }
            -
               depth: 2
               sample_count: 43
               value: -8.3194217189799913e-02
               Tn: 0
               complexity: 0
               alpha: 0.
               node_risk: 1.6225829859422114e-02
               tree_risk: 0.
               tree_error: 0.
               splits:
                  - { var:3, quality:3.1068772077560425e-01,
                      le:7.6475036144256592e-01 }
            -
               depth: 3
               sample_count: 10
               value: -8.4949111938476562e-01
               Tn: 0
               complexity: 0
               alpha: 0.
               node_risk: 2.5845747983158918e-03
               tree_risk: 0.
               tree_error: 0.
            -
               depth: 3
               sample_count: 33
               value: -8.0978655815124512e-01
               Tn: 0
               complexity: 0
               alpha: 0.
               node_risk: 5.6849281832738185e-04
               tree_risk: 0.
               tree_error: 0.
            -
               depth: 2
               sample_count: 66
               value: -7.1593503721735688e-02
               Tn: 0
               complexity: 0
               alpha: 0.
               node_risk: 1.3894410933446011e-04
               tree_risk: 0.
               tree_error: 0.
               splits:
                  - { var:1, quality:3.3838617801666260e-01,
                      le:7.5940895080566406e-01 }
            -
               depth: 3
               sample_count: 40
               value: -8.0867695808410645e-01
               Tn: 0
               complexity: 0
               alpha: 0.
               node_risk: 1.1660383978928657e-06
               tree_risk: 0.
               tree_error: 0.
            -
               depth: 3
               sample_count: 26
               value: -8.0656617879867554e-01
               Tn: 0
               complexity: 0
               alpha: 0.
               node_risk: 4.3164748031010447e-05
               tree_risk: 0.
               tree_error: 0.
      -
         best_tree_idx: -1
         nodes:
            -
               depth: 0
               sample_count: 152
               value: 1.8342461829122744e-03
               Tn: 0
               complexity: 0
               alpha: 0.
               node_risk: 2.5658259455871666e+00
               tree_risk: 0.
               tree_error: 0.
               splits:
                  - { var:3, quality:2.3740036487579346e+00,
                      le:-1.4463677406311035e+00 }
            -
               depth: 1
               sample_count: 42
               value: 2.0406342120397658e-01
               Tn: 0
               complexity: 0
               alpha: 0.
               node_risk: 1.7137431985496354e-01
               tree_risk: 0.
               tree_error: 0.
               splits:
                  - { var:0, quality:1.9187780618667603e+00,
                      le:-8.2366353273391724e-01 }
            -
               depth: 2
               sample_count: 2
               value: -8.1785690784454346e-01
               Tn: 0
               complexity: 0
               alpha: 0.
               node_risk: 4.2765779226805467e-04
               tree_risk: 0.
               tree_error: 0.
            -
               depth: 2
               sample_count: 40
               value: 2.1828191876411437e-01
               Tn: 0
               complexity: 0
               alpha: 0.
               node_risk: 1.1274968538743657e-03
               tree_risk: 0.
               tree_error: 0.
               splits:
                  - { var:0, quality:1.9069782495498657e+00,
                      le:-6.2084633111953735e-01 }
            -
               depth: 3
               sample_count: 2
               value: 9.8830407857894897e-01
               Tn: 0
               complexity: 0
               alpha: 0.
               node_risk: 4.7393121604955013e-07
               tree_risk: 0.
               tree_error: 0.
            -
               depth: 3
               sample_count: 38
               value: 9.5795619487762451e-01
               Tn: 0
               complexity: 0
               alpha: 0.
               node_risk: 2.8650655591544449e-05
               tree_risk: 0.
               tree_error: 0.
            -
               depth: 1
               sample_count: 110
               value: -7.5380529734221366e-02
               Tn: 0
               complexity: 0
               alpha: 0.
               node_risk: 2.0959399892148567e-02
               tree_risk: 0.
               tree_error: 0.
               splits:
                  - { var:0, quality:6.2944442033767700e-01,
                      le:-7.5619511306285858e-02 }
            -
               depth: 2
               sample_count: 40
               value: -8.3746876567602158e-02
               Tn: 0
               complexity: 0
               alpha: 0.
               node_risk: 1.6407307301710805e-02
               tree_risk: 0.
               tree_error: 0.
               splits:
                  - { var:3, quality:2.9378110170364380e-01,
                      le:7.6475036144256592e-01 }
            -
               depth: 3
               sample_count: 11
               value: -8.4785360097885132e-01
               Tn: 0
               complexity: 0
               alpha: 0.
               node_risk: 2.6499782196089672e-03
               tree_risk: 0.
               tree_error: 0.
            -
               depth: 3
               sample_count: 29
               value: -8.0887669324874878e-01
               Tn: 0
               complexity: 0
               alpha: 0.
               node_risk: 5.1778739991562017e-04
               tree_risk: 0.
               tree_error: 0.
            -
               depth: 2
               sample_count: 70
               value: -7.0599760115146640e-02
               Tn: 0
               complexity: 0
               alpha: 0.
               node_risk: 1.5235914643513260e-04
               tree_risk: 0.
               tree_error: 0.
               splits:
                  - { var:0, quality:3.4898403286933899e-01,
                      le:4.8536908626556396e-01 }
            -
               depth: 3
               sample_count: 39
               value: -8.0780702829360962e-01
               Tn: 0
               complexity: 0
               alpha: 0.
               node_risk: 1.1341829090627531e-06
               tree_risk: 0.
               tree_error: 0.
            -
               depth: 3
               sample_count: 31
               value: -8.0595266819000244e-01
               Tn: 0
               complexity: 0
               alpha: 0.
               node_risk: 7.0021587600888058e-05
               tree_risk: 0.
               tree_error: 0.
      -
         best_tree_idx: -1
         nodes:
            -
               depth: 0
               sample_count: 152
               value: 4.2748108114066879e-03
               Tn: 0
               complexity: 0
               alpha: 0.
               node_risk: 2.5034104352837119e+00
               tree_risk: 0.
               tree_error: 0.
               splits:
                  - { var:3, quality:2.3254003524780273e+00,
                      le:-1.4463677406311035e+00 }
            -
               depth: 1
               sample_count: 43
               value: 2.0108454241309054e-01
               Tn: 0
               complexity: 0
               alpha: 0.
               node_risk: 1.6577523670860295e-01
               tree_risk: 0.
               tree_error: 0.
               splits:
                  - { var:0, quality:1.9034938812255859e+00,
                      le:-8.2366353273391724e-01 }
            -
               depth: 2
               sample_count: 2
               value: -8.1689184904098511e-01
               Tn: 0
               complexity: 0
               alpha: 0.
               node_risk: 4.2464566291411376e-04
               tree_risk: 0.
               tree_error: 0.
            -
               depth: 2
               sample_count: 41
               value: 2.1475720841710161e-01
               Tn: 0
               complexity: 0
               alpha: 0.
               node_risk: 5.6139817383193957e-04
               tree_risk: 0.
               tree_error: 0.
               splits:
                  - { var:0, quality:1.8914707899093628e+00,
                      le:-6.3944327831268311e-01 }
            -
               depth: 3
               sample_count: 1
               value: 9.8343020677566528e-01
               Tn: 0
               complexity: 0
               alpha: 0.
               node_risk: 0.
               tree_risk: 0.
               tree_error: 0.
            -
               depth: 3
               sample_count: 40
               value: 9.5443701744079590e-01
               Tn: 0
               complexity: 0
               alpha: 0.
               node_risk: 3.7587892171675463e-05
               tree_risk: 0.
               tree_error: 0.
            -
               depth: 1
               sample_count: 109
               value: -7.3365725508523646e-02
               Tn: 0
               complexity: 0
               alpha: 0.
               node_risk: 1.5012405165601761e-02
               tree_risk: 0.
               tree_error: 0.
               splits:
                  - { var:0, quality:5.8929437398910522e-01,
                      le:-6.3053756952285767e-02 }
            -
               depth: 2
               sample_count: 42
               value: -7.9532678638185778e-02
               Tn: 0
               complexity: 0
               alpha: 0.
               node_risk: 1.2261448310743162e-02
               tree_risk: 0.
               tree_error: 0.
               splits:
                  - { var:3, quality:2.7533614635467529e-01,
                      le:7.6475036144256592e-01 }
            -
               depth: 3
               sample_count: 9
               value: -8.4334319829940796e-01
               Tn: 0
               complexity: 0
               alpha: 0.
               node_risk: 2.0506634323017303e-03
               tree_risk: 0.
               tree_error: 0.
            -
               depth: 3
               sample_count: 33
               value: -8.0804997682571411e-01
               Tn: 0
               complexity: 0
               alpha: 0.
               node_risk: 5.4340852099812875e-04
               tree_risk: 0.
               tree_error: 0.
            -
               depth: 2
               sample_count: 67
               value: -6.9499874292914543e-02
               Tn: 0
               complexity: 0
               alpha: 0.
               node_risk: 1.5233982029239090e-04
               tree_risk: 0.
               tree_error: 0.
               splits:
                  - { var:1, quality:3.2371082901954651e-01,
                      le:7.8514218330383301e-01 }
            -
               depth: 3
               sample_count: 35
               value: -8.0695390701293945e-01
               Tn: 0
               complexity: 0
               alpha: 0.
               node_risk: 1.1004896625643745e-06
               tree_risk: 0.
               tree_error: 0.
            -
               depth: 3
               sample_count: 32
               value: -8.0502367019653320e-01
               Tn: 0
               complexity: 0
               alpha: 0.
               node_risk: 6.5989654549819532e-05
               tree_risk: 0.
               tree_error: 0.
      -
         best_tree_idx: -1
         nodes:
            -
               depth: 0
               sample_count: 152
               value: -3.9118822467954532e-03
               Tn: 0
               complexity: 0
               alpha: 0.
               node_risk: 2.2996342743467126e+00
               tree_risk: 0.
               tree_error: 0.
               splits:
                  - { var:3, quality:2.1205067634582520e+00,
                      le:-1.4463677406311035e+00 }
            -
               depth: 1
               sample_count: 39
               value: 1.9702822963396707e-01
               Tn: 0
               complexity: 0
               alpha: 0.
               node_risk: 1.6051727967224205e-01
               tree_risk: 0.
               tree_error: 0.
               splits:
                  - { var:0, quality:1.6734501123428345e+00,
                      le:-8.0506658554077148e-01 }
            -
               depth: 2
               sample_count: 2
               value: -8.1580305099487305e-01
               Tn: 0
               complexity: 0
               alpha: 0.
               node_risk: 4.1413257556088823e-04
               tree_risk: 0.
               tree_error: 0.
            -
               depth: 2
               sample_count: 37
               value: 2.1189494229651787e-01
               Tn: 0
               complexity: 0
               alpha: 0.
               node_risk: 6.3783369718439786e-04
               tree_risk: 0.
               tree_error: 0.
               splits:
                  - { var:0, quality:1.6618851423263550e+00,
                      le:-6.2084633111953735e-01 }
            -
               depth: 3
               sample_count: 1
               value: 9.8187470436096191e-01
               Tn: 0
               complexity: 0
               alpha: 0.
               node_risk: 0.
               tree_risk: 0.
               tree_error: 0.
            -
               depth: 3
               sample_count: 36
               value: 9.5084196329116821e-01
               Tn: 0
               complexity: 0
               alpha: 0.
               node_risk: 3.2930051620638778e-05
               tree_risk: 0.
               tree_error: 0.
            -
               depth: 1
               sample_count: 113
               value: -7.3262894311837384e-02
               Tn: 0
               complexity: 0
               alpha: 0.
               node_risk: 2.0936175918643052e-02
               tree_risk: 0.
               tree_error: 0.
               splits:
                  - { var:0, quality:6.1096805334091187e-01,
                      le:-7.5619511306285858e-02 }
            -
               depth: 2
               sample_count: 41
               value: -8.1575177428199031e-02
               Tn: 0
               complexity: 0
               alpha: 0.
               node_risk: 1.6327089426840968e-02
               tree_risk: 0.
               tree_error: 0.
               splits:
                  - { var:3, quality:2.8595721721649170e-01,
                      le:7.6475036144256592e-01 }
            -
               depth: 3
               sample_count: 11
               value: -8.4584385156631470e-01
               Tn: 0
               complexity: 0
               alpha: 0.
               node_risk: 2.6790496774903028e-03
               tree_risk: 0.
               tree_error: 0.
            -
               depth: 3
               sample_count: 30
               value: -8.0731087923049927e-01
               Tn: 0
               complexity: 0
               alpha: 0.
               node_risk: 5.2570103291676995e-04
               tree_risk: 0.
               tree_error: 0.
            -
               depth: 2
               sample_count: 72
               value: -6.8529510870575905e-02
               Tn: 0
               complexity: 0
               alpha: 0.
               node_risk: 1.6307626318923241e-04
               tree_risk: 0.
               tree_error: 0.
               splits:
                  - { var:1, quality:3.3823633193969727e-01,
                      le:7.1977233886718750e-01 }
            -
               depth: 3
               sample_count: 40
               value: -8.0610543489456177e-01
               Tn: 0
               complexity: 0
               alpha: 0.
               node_risk: 1.0932101050797893e-06
               tree_risk: 0.
               tree_error: 0.
            -
               depth: 3
               sample_count: 32
               value: -8.0404680967330933e-01
               Tn: 0
               complexity: 0
               alpha: 0.
               node_risk: 5.8802875964270029e-05
               tree_risk: 0.
               tree_error: 0.
      -
         best_tree_idx: -1
         nodes:
            -
               depth: 0
               sample_count: 152
               value: 2.0302303723598782e-03
               Tn: 0
               complexity: 0
               alpha: 0.
               node_risk: 2.3551909716117123e+00
               tree_risk: 0.
               tree_error: 0.
               splits:
                  - { var:3, quality:2.1803724765777588e+00,
                      le:-1.4463677406311035e+00 }
            -
               depth: 1
               sample_count: 42
               value: 1.9582981456603324e-01
               Tn: 0
               complexity: 0
               alpha: 0.
               node_risk: 1.5789245741416247e-01
               tree_risk: 0.
               tree_error: 0.
               splits:
                  - { var:0, quality:1.7670133113861084e+00,
                      le:-8.2366353273391724e-01 }
            -
               depth: 2
               sample_count: 2
               value: -8.1491374969482422e-01
               Tn: 0
               complexity: 0
               alpha: 0.
               node_risk: 4.0581923308538603e-04
               tree_risk: 0.
               tree_error: 0.
            -
               depth: 2
               sample_count: 40
               value: 2.0947244614362717e-01
               Tn: 0
               complexity: 0
               alpha: 0.
               node_risk: 1.1446652370279420e-03
               tree_risk: 0.
               tree_error: 0.
               splits:
                  - { var:0, quality:1.7562589645385742e+00,
                      le:-6.2084633111953735e-01 }
            -
               depth: 3
               sample_count: 2
               value: 9.7712564468383789e-01
               Tn: 0
               complexity: 0
               alpha: 0.
               node_risk: 5.0100090476234982e-07
               tree_risk: 0.
               tree_error: 0.
            -
               depth: 3
               sample_count: 38
               value: 9.4729000329971313e-01
               Tn: 0
               complexity: 0
               alpha: 0.
               node_risk: 3.3470592311957148e-05
               tree_risk: 0.
               tree_error: 0.
            -
               depth: 1
               sample_count: 110
               value: -7.1965974501588134e-02
               Tn: 0
               complexity: 0
               alpha: 0.
               node_risk: 1.7552586252444158e-02
               tree_risk: 0.
               tree_error: 0.
               splits:
                  - { var:0, quality:5.7299667596817017e-01,
                      le:-7.5619511306285858e-02 }
            -
               depth: 2
               sample_count: 40
               value: -7.9206729866564268e-02
               Tn: 0
               complexity: 0
               alpha: 0.
               node_risk: 1.4131970166496644e-02
               tree_risk: 0.
               tree_error: 0.
               splits:
                  - { var:3, quality:2.6218691468238831e-01,
                      le:7.6475036144256592e-01 }
            -
               depth: 3
               sample_count: 10
               value: -8.4313547611236572e-01
               Tn: 0
               complexity: 0
               alpha: 0.
               node_risk: 2.4069849760827433e-03
               tree_risk: 0.
               tree_error: 0.
            -
               depth: 3
               sample_count: 30
               value: -8.0624556541442871e-01
               Tn: 0
               complexity: 0
               alpha: 0.
               node_risk: 4.8632570018880550e-04
               tree_risk: 0.
               tree_error: 0.
            -
               depth: 2
               sample_count: 70
               value: -6.7828400007316048e-02
               Tn: 0
               complexity: 0
               alpha: 0.
               node_risk: 1.2510796703507632e-04
               tree_risk: 0.
               tree_error: 0.
               splits:
                  - { var:1, quality:3.2211333513259888e-01,
                      le:7.1977233886718750e-01 }
            -
               depth: 3
               sample_count: 41
               value: -8.0527287721633911e-01
               Tn: 0
               complexity: 0
               alpha: 0.
               node_risk: 1.0743620951492172e-06
               tree_risk: 0.
               tree_error: 0.
            -
               depth: 3
               sample_count: 29
               value: -8.0361211299896240e-01
               Tn: 0
               complexity: 0
               alpha: 0.
               node_risk: 5.9113405598443247e-05
               tree_risk: 0.
               tree_error: 0.
      -
         best_tree_idx: -1
         nodes:
            -
               depth: 0
               sample_count: 152
               value: 2.7754814609100946e-03
               Tn: 0
               complexity: 0
               alpha: 0.
               node_risk: 2.2550632629141321e+00
               tree_risk: 0.
               tree_error: 0.
               splits:
                  - { var:3, quality:2.0930824279785156e+00,
                      le:-1.4463677406311035e+00 }
            -
               depth: 1
               sample_count: 42
               value: 1.9263027572915667e-01
               Tn: 0
               complexity: 0
               alpha: 0.
               node_risk: 1.5251223883453258e-01
               tree_risk: 0.
               tree_error: 0.
               splits:
                  - { var:0, quality:1.7099679708480835e+00,
                      le:-8.0506658554077148e-01 }
            -
               depth: 2
               sample_count: 2
               value: -8.1398880481719971e-01
               Tn: 0
               complexity: 0
               alpha: 0.
               node_risk: 4.0245150195616919e-04
               tree_risk: 0.
               tree_error: 0.
            -
               depth: 2
               sample_count: 40
               value: 2.0605990737676622e-01
               Tn: 0
               complexity: 0
               alpha: 0.
               node_risk: 6.1158213257694882e-04
               tree_risk: 0.
               tree_error: 0.
               splits:
                  - { var:0, quality:1.6990038156509399e+00,
                      le:-6.2084633111953735e-01 }
            -
               depth: 3
               sample_count: 1
               value: 9.7373014688491821e-01
               Tn: 0
               complexity: 0
               alpha: 0.
               node_risk: 0.
               tree_risk: 0.
               tree_error: 0.
            -
               depth: 3
               sample_count: 39
               value: 9.4393819570541382e-01
               Tn: 0
               complexity: 0
               alpha: 0.
               node_risk: 3.5190146653318877e-05
               tree_risk: 0.
               tree_error: 0.
            -
               depth: 1
               sample_count: 110
               value: -6.9714530896056781e-02
               Tn: 0
               complexity: 0
               alpha: 0.
               node_risk: 1.0639413934345088e-02
               tree_risk: 0.
               tree_error: 0.
               splits:
                  - { var:0, quality:5.3639954328536987e-01,
                      le:-7.5619511306285858e-02 }
            -
               depth: 2
               sample_count: 38
               value: -7.5262296160584996e-02
               Tn: 0
               complexity: 0
               alpha: 0.
               node_risk: 8.7168674565333004e-03
               tree_risk: 0.
               tree_error: 0.
               splits:
                  - { var:3, quality:2.2229899466037750e-01,
                      le:7.6475036144256592e-01 }
            -
               depth: 3
               sample_count: 7
               value: -8.3848243951797485e-01
               Tn: 0
               complexity: 0
               alpha: 0.
               node_risk: 1.1626345188345544e-03
               tree_risk: 0.
               tree_error: 0.
            -
               depth: 3
               sample_count: 31
               value: -8.0560708045959473e-01
               Tn: 0
               complexity: 0
               alpha: 0.
               node_risk: 5.0293364896841775e-04
               tree_risk: 0.
               tree_error: 0.
            -
               depth: 2
               sample_count: 72
               value: -6.6786543673111334e-02
               Tn: 0
               complexity: 0
               alpha: 0.
               node_risk: 1.3573003866379496e-04
               tree_risk: 0.
               tree_error: 0.
               splits:
                  - { var:1, quality:3.2123363018035889e-01,
                      le:7.5940895080566406e-01 }
            -
               depth: 3
               sample_count: 42
               value: -8.0445134639739990e-01
               Tn: 0
               complexity: 0
               alpha: 0.
               node_risk: 1.0511028850634929e-06
               tree_risk: 0.
               tree_error: 0.
            -
               depth: 3
               sample_count: 30
               value: -8.0261337757110596e-01
               Tn: 0
               complexity: 0
               alpha: 0.
               node_risk: 5.2917262903101614e-05
               tree_risk: 0.
               tree_error: 0.
      -
         best_tree_idx: -1
         nodes:
            -
               depth: 0
               sample_count: 152
               value: -3.0070177622531589e-03
               Tn: 0
               complexity: 0
               alpha: 0.
               node_risk: 2.1098894408217421e+00
               tree_risk: 0.
               tree_error: 0.
               splits:
                  - { var:3, quality:1.9456167221069336e+00,
                      le:-1.4463677406311035e+00 }
            -
               depth: 1
               sample_count: 39
               value: 1.8950609557139567e-01
               Tn: 0
               complexity: 0
               alpha: 0.
               node_risk: 1.4886678281389720e-01
               tree_risk: 0.
               tree_error: 0.
               splits:
                  - { var:0, quality:1.5479773283004761e+00,
                      le:-8.2366353273391724e-01 }
            -
               depth: 2
               sample_count: 2
               value: -8.1306713819503784e-01
               Tn: 0
               complexity: 0
               alpha: 0.
               node_risk: 3.9842470872031299e-04
               tree_risk: 0.
               tree_error: 0.
            -
               depth: 2
               sample_count: 37
               value: 2.0379872418738701e-01
               Tn: 0
               complexity: 0
               alpha: 0.
               node_risk: 1.0808916726938733e-03
               tree_risk: 0.
               tree_error: 0.
               splits:
                  - { var:0, quality:1.5378098487854004e+00,
                      le:-6.2084633111953735e-01 }
            -
               depth: 3
               sample_count: 2
               value: 9.6916258335113525e-01
               Tn: 0
               complexity: 0
               alpha: 0.
               node_risk: 4.8197318847087445e-07
               tree_risk: 0.
               tree_error: 0.
            -
               depth: 3
               sample_count: 35
               value: 9.4046950340270996e-01
               Tn: 0
               complexity: 0
               alpha: 0.
               node_risk: 2.5577235770235518e-05
               tree_risk: 0.
               tree_error: 0.
            -
               depth: 1
               sample_count: 113
               value: -6.9449596700415145e-02
               Tn: 0
               complexity: 0
               alpha: 0.
               node_risk: 1.6780363153900968e-02
               tree_risk: 0.
               tree_error: 0.
               splits:
                  - { var:0, quality:5.4824185371398926e-01,
                      le:-9.2776104807853699e-02 }
            -
               depth: 2
               sample_count: 38
               value: -7.6943222041192805e-02
               Tn: 0
               complexity: 0
               alpha: 0.
               node_risk: 1.3411871185710939e-02
               tree_risk: 0.
               tree_error: 0.
               splits:
                  - { var:3, quality:2.3610432446002960e-01,
                      le:7.6475036144256592e-01 }
            -
               depth: 3
               sample_count: 9
               value: -8.4241515398025513e-01
               Tn: 0
               complexity: 0
               alpha: 0.
               node_risk: 1.9694308822301582e-03
               tree_risk: 0.
               tree_error: 0.
            -
               depth: 3
               sample_count: 29
               value: -8.0434542894363403e-01
               Tn: 0
               complexity: 0
               alpha: 0.
               node_risk: 3.0796914054481705e-04
               tree_risk: 0.
               tree_error: 0.
            -
               depth: 2
               sample_count: 75
               value: -6.5652826527754463e-02
               Tn: 0
               complexity: 0
               alpha: 0.
               node_risk: 1.5346419896805630e-04
               tree_risk: 0.
               tree_error: 0.
               splits:
                  - { var:1, quality:3.2337093353271484e-01,
                      le:7.5940895080566406e-01 }
            -
               depth: 3
               sample_count: 39
               value: -8.0364882946014404e-01
               Tn: 0
               complexity: 0
               alpha: 0.
               node_risk: 1.0234415684928777e-06
               tree_risk: 0.
               tree_error: 0.
            -
               depth: 3
               sample_count: 36
               value: -8.0169373750686646e-01
               Tn: 0
               complexity: 0
               alpha: 0.
               node_risk: 5.3534335268168309e-05
               tree_risk: 0.
               tree_error: 0.
      -
         best_tree_idx: -1
         nodes:
            -
               depth: 0
               sample_count: 152
               value: -3.2362153655604311e-03
               Tn: 0
               complexity: 0
               alpha: 0.
               node_risk: 2.0605408464272945e+00
               tree_risk: 0.
               tree_error: 0.
               splits:
                  - { var:3, quality:1.8982341289520264e+00,
                      le:-1.4463677406311035e+00 }
            -
               depth: 1
               sample_count: 39
               value: 1.8690568285110670e-01
               Tn: 0
               complexity: 0
               alpha: 0.
               node_risk: 1.4488151635187529e-01
               tree_risk: 0.
               tree_error: 0.
               splits:
                  - { var:0, quality:1.5058555603027344e+00,
                      le:-8.2366353273391724e-01 }
            -
               depth: 2
               sample_count: 2
               value: -8.1219810247421265e-01
               Tn: 0
               complexity: 0
               alpha: 0.
               node_risk: 3.8997479238567223e-04
               tree_risk: 0.
               tree_error: 0.
            -
               depth: 2
               sample_count: 37
               value: 2.0100560864886721e-01
               Tn: 0
               complexity: 0
               alpha: 0.
               node_risk: 1.0516362965420356e-03
               tree_risk: 0.
               tree_error: 0.
               splits:
                  - { var:0, quality:1.4959462881088257e+00,
                      le:-6.1514461040496826e-01 }
            -
               depth: 3
               sample_count: 2
               value: 9.6529376506805420e-01
               Tn: 0
               complexity: 0
               alpha: 0.
               node_risk: 4.7265541525121080e-07
               tree_risk: 0.
               tree_error: 0.
            -
               depth: 3
               sample_count: 35
               value: 9.3720769882202148e-01
               Tn: 0
               complexity: 0
               alpha: 0.
               node_risk: 2.5265258680517988e-05
               tree_risk: 0.
               tree_error: 0.
            -
               depth: 1
               sample_count: 113
               value: -6.8860410325295107e-02
               Tn: 0
               complexity: 0
               alpha: 0.
               node_risk: 1.9017162290564382e-02
               tree_risk: 0.
               tree_error: 0.
               splits:
                  - { var:0, quality:5.3912657499313354e-01,
                      le:-7.5619511306285858e-02 }
            -
               depth: 2
               sample_count: 40
               value: -7.6169842295348650e-02
               Tn: 0
               complexity: 0
               alpha: 0.
               node_risk: 1.5568192911438600e-02
               tree_risk: 0.
               tree_error: 0.
               splits:
                  - { var:3, quality:2.4539640545845032e-01,
                      le:7.0244765281677246e-01 }
            -
               depth: 3
               sample_count: 9
               value: -8.4466409683227539e-01
               Tn: 0
               complexity: 0
               alpha: 0.
               node_risk: 2.0129414643828142e-03
               tree_risk: 0.
               tree_error: 0.
            -
               depth: 3
               sample_count: 31
               value: -8.0338454246520996e-01
               Tn: 0
               complexity: 0
               alpha: 0.
               node_risk: 2.3264657075663941e-04
               tree_risk: 0.
               tree_error: 0.
            -
               depth: 2
               sample_count: 73
               value: -6.4855242122526038e-02
               Tn: 0
               complexity: 0
               alpha: 0.
               node_risk: 1.4083736986203466e-04
               tree_risk: 0.
               tree_error: 0.
               splits:
                  - { var:1, quality:3.0712831020355225e-01,
                      le:8.0004334449768066e-01 }
            -
               depth: 3
               sample_count: 38
               value: -8.0285340547561646e-01
               Tn: 0
               complexity: 0
               alpha: 0.
               node_risk: 1.0010054897480192e-06
               tree_risk: 0.
               tree_error: 0.
            -
               depth: 3
               sample_count: 35
               value: -8.0113142728805542e-01
               Tn: 0
               complexity: 0
               alpha: 0.
               node_risk: 6.4289111656623543e-05
               tree_risk: 0.
               tree_error: 0.
      -
         best_tree_idx: -1
         nodes:
            -
               depth: 0
               sample_count: 152
               value: -6.6650343666735451e-03
               Tn: 0
               complexity: 0
               alpha: 0.
               node_risk: 1.9139692811830462e+00
               tree_risk: 0.
               tree_error: 0.
               splits:
                  - { var:3, quality:1.8252491950988770e+00,
                      le:-1.4495961666107178e+00 }
            -
               depth: 1
               sample_count: 36
               value: 1.8967652610606617e-01
               Tn: 0
               complexity: 0
               alpha: 0.
               node_risk: 7.9171607017077150e-02
               tree_risk: 0.
               tree_error: 0.
               splits:
                  - { var:0, quality:1.3737927675247192e+00,
                      le:-8.0506658554077148e-01 }
            -
               depth: 2
               sample_count: 1
               value: -8.2127338647842407e-01
               Tn: 0
               complexity: 0
               alpha: 0.
               node_risk: 0.
               tree_risk: 0.
               tree_error: 0.
            -
               depth: 2
               sample_count: 35
               value: 1.9757539885384695e-01
               Tn: 0
               complexity: 0
               alpha: 0.
               node_risk: 5.5744675317837000e-04
               tree_risk: 0.
               tree_error: 0.
               splits:
                  - { var:0, quality:1.3668048381805420e+00,
                      le:-6.0366225242614746e-01 }
            -
               depth: 3
               sample_count: 1
               value: 9.6222043037414551e-01
               Tn: 0
               complexity: 0
               alpha: 0.
               node_risk: 0.
               tree_risk: 0.
               tree_error: 0.
            -
               depth: 3
               sample_count: 34
               value: 9.3388319015502930e-01
               Tn: 0
               complexity: 0
               alpha: 0.
               node_risk: 1.3957427441368964e-05
               tree_risk: 0.
               tree_error: 0.
            -
               depth: 1
               sample_count: 116
               value: -6.7598622099592762e-02
               Tn: 0
               complexity: 0
               alpha: 0.
               node_risk: 1.6300727662011627e-02
               tree_risk: 0.
               tree_error: 0.
               splits:
                  - { var:0, quality:5.3314924240112305e-01,
                      le:-7.5619511306285858e-02 }
            -
               depth: 2
               sample_count: 39
               value: -7.4837414309000358e-02
               Tn: 0
               complexity: 0
               alpha: 0.
               node_risk: 1.3079085311842431e-02
               tree_risk: 0.
               tree_error: 0.
               splits:
                  - { var:3, quality:2.2919782996177673e-01,
                      le:7.6475036144256592e-01 }
            -
               depth: 3
               sample_count: 9
               value: -8.4001207351684570e-01
               Tn: 0
               complexity: 0
               alpha: 0.
               node_risk: 1.8688356592937577e-03
               tree_risk: 0.
               tree_error: 0.
            -
               depth: 3
               sample_count: 30
               value: -8.0295997858047485e-01
               Tn: 0
               complexity: 0
               alpha: 0.
               node_risk: 4.3732957190650845e-04
               tree_risk: 0.
               tree_error: 0.
            -
               depth: 2
               sample_count: 77
               value: -6.3932220850672045e-02
               Tn: 0
               complexity: 0
               alpha: 0.
               node_risk: 1.4296560168841621e-04
               tree_risk: 0.
               tree_error: 0.
               splits:
                  - { var:1, quality:3.1481319665908813e-01,
                      le:7.5940895080566406e-01 }
            -
               depth: 3
               sample_count: 42
               value: -8.0206465721130371e-01
               Tn: 0
               complexity: 0
               alpha: 0.
               node_risk: 9.8238786927495880e-07
               tree_risk: 0.
               tree_error: 0.
            -
               depth: 3
               sample_count: 35
               value: -8.0023866891860962e-01
               Tn: 0
               complexity: 0
               alpha: 0.
               node_risk: 5.3118126205231597e-05
               tree_risk: 0.
               tree_error: 0.
      -
         best_tree_idx: -1
         nodes:
            -
               depth: 0
               sample_count: 152
               value: 2.1847536003119066e-04
               Tn: 0
               complexity: 0
               alpha: 0.
               node_risk: 2.0184055844201825e+00
               tree_risk: 0.
               tree_error: 0.
               splits:
                  - { var:3, quality:1.9237140417098999e+00,
                      le:-1.4463677406311035e+00 }
            -
               depth: 1
               sample_count: 40
               value: 1.8846486918628216e-01
               Tn: 0
               complexity: 0
               alpha: 0.
               node_risk: 7.8092295122588418e-02
               tree_risk: 0.
               tree_error: 0.
               splits:
                  - { var:0, quality:1.4978417158126831e+00,
                      le:-8.2366353273391724e-01 }
            -
               depth: 2
               sample_count: 1
               value: -8.2028007507324219e-01
               Tn: 0
               complexity: 0
               alpha: 0.
               node_risk: 0.
               tree_risk: 0.
               tree_error: 0.
            -
               depth: 2
               sample_count: 39
               value: 1.9549417801392385e-01
               Tn: 0
               complexity: 0
               alpha: 0.
               node_risk: 1.0108502753847226e-03
               tree_risk: 0.
               tree_error: 0.
               splits:
                  - { var:0, quality:1.4914808273315430e+00,
                      le:-6.2084633111953735e-01 }
            -
               depth: 3
               sample_count: 2
               value: 9.5792174339294434e-01
               Tn: 0
               complexity: 0
               alpha: 0.
               node_risk: 4.5452000563273032e-07
               tree_risk: 0.
               tree_error: 0.
            -
               depth: 3
               sample_count: 37
               value: 9.3090569972991943e-01
               Tn: 0
               complexity: 0
               alpha: 0.
               node_risk: 3.0491598102866391e-05
               tree_risk: 0.
               tree_error: 0.
            -
               depth: 1
               sample_count: 112
               value: -6.7012379577915587e-02
               Tn: 0
               complexity: 0
               alpha: 0.
               node_risk: 1.6606457917105466e-02
               tree_risk: 0.
               tree_error: 0.
               splits:
                  - { var:0, quality:5.0593352317810059e-01,
                      le:-7.5619511306285858e-02 }
            -
               depth: 2
               sample_count: 41
               value: -7.3799963222771159e-02
               Tn: 0
               complexity: 0
               alpha: 0.
               node_risk: 1.3498962618500782e-02
               tree_risk: 0.
               tree_error: 0.
               splits:
                  - { var:3, quality:2.3433341085910797e-01,
                      le:7.9172849655151367e-01 }
            -
               depth: 3
               sample_count: 10
               value: -8.3786499500274658e-01
               Tn: 0
               complexity: 0
               alpha: 0.
               node_risk: 2.2483234290139320e-03
               tree_risk: 0.
               tree_error: 0.
            -
               depth: 3
               sample_count: 31
               value: -8.0179172754287720e-01
               Tn: 0
               complexity: 0
               alpha: 0.
               node_risk: 2.2104489453497744e-04
               tree_risk: 0.
               tree_error: 0.
            -
               depth: 2
               sample_count: 71
               value: -6.3092789022435605e-02
               Tn: 0
               complexity: 0
               alpha: 0.
               node_risk: 1.2778583872719018e-04
               tree_risk: 0.
               tree_error: 0.
               splits:
                  - { var:1, quality:2.8270801901817322e-01,
                      le:7.1977233886718750e-01 }
            -
               depth: 3
               sample_count: 40
               value: -8.0129730701446533e-01
               Tn: 0
               complexity: 0
               alpha: 0.
               node_risk: 9.6075731775835393e-07
               tree_risk: 0.
               tree_error: 0.
            -
               depth: 3
               sample_count: 31
               value: -7.9950958490371704e-01
               Tn: 0
               complexity: 0
               alpha: 0.
               node_risk: 4.8495881347559999e-05
               tree_risk: 0.
               tree_error: 0.
      -
         best_tree_idx: -1
         nodes:
            -
               depth: 0
               sample_count: 152
               value: 1.5733950575323480e-03
               Tn: 0
               complexity: 0
               alpha: 0.
               node_risk: 1.9898178129214161e+00
               tree_risk: 0.
               tree_error: 0.
               splits:
                  - { var:3, quality:1.9104396104812622e+00,
                      le:-1.4463677406311035e+00 }
            -
               depth: 1
               sample_count: 41
               value: 1.8602041527628899e-01
               Tn: 0
               complexity: 0
               alpha: 0.
               node_risk: 6.1254046391366890e-02
               tree_risk: 0.
               tree_error: 0.
               splits:
                  - { var:0, quality:1.4794617891311646e+00,
                      le:-8.6547303199768066e-01 }
            -
               depth: 2
               sample_count: 1
               value: -7.9563701152801514e-01
               Tn: 0
               complexity: 0
               alpha: 0.
               node_risk: 0.
               tree_risk: 0.
               tree_error: 0.
            -
               depth: 2
               sample_count: 40
               value: 1.9210490286350251e-01
               Tn: 0
               complexity: 0
               alpha: 0.
               node_risk: 5.3962410507990555e-04
               tree_risk: 0.
               tree_error: 0.
               splits:
                  - { var:0, quality:1.4766881465911865e+00,
                      le:-6.2084633111953735e-01 }
            -
               depth: 3
               sample_count: 1
               value: 9.5485806465148926e-01
               Tn: 0
               complexity: 0
               alpha: 0.
               node_risk: 0.
               tree_risk: 0.
               tree_error: 0.
            -
               depth: 3
               sample_count: 39
               value: 9.2768126726150513e-01
               Tn: 0
               complexity: 0
               alpha: 0.
               node_risk: 2.3249896407895321e-05
               tree_risk: 0.
               tree_error: 0.
            -
               depth: 1
               sample_count: 111
               value: -6.6555684482729111e-02
               Tn: 0
               complexity: 0
               alpha: 0.
               node_risk: 1.8500498389974640e-02
               tree_risk: 0.
               tree_error: 0.
               splits:
                  - { var:0, quality:4.9539306759834290e-01,
                      le:-7.5619511306285858e-02 }
            -
               depth: 2
               sample_count: 39
               value: -7.4401284830692485e-02
               Tn: 0
               complexity: 0
               alpha: 0.
               node_risk: 1.4680019296298780e-02
               tree_risk: 0.
               tree_error: 0.
               splits:
                  - { var:3, quality:2.2767353057861328e-01,
                      le:7.6475036144256592e-01 }
            -
               depth: 3
               sample_count: 10
               value: -8.3925271034240723e-01
               Tn: 0
               complexity: 0
               alpha: 0.
               node_risk: 2.4350897215178469e-03
               tree_risk: 0.
               tree_error: 0.
            -
               depth: 3
               sample_count: 29
               value: -8.0165767669677734e-01
               Tn: 0
               complexity: 0
               alpha: 0.
               node_risk: 4.5789506125609725e-04
               tree_risk: 0.
               tree_error: 0.
            -
               depth: 2
               sample_count: 72
               value: -6.2305984294248953e-02
               Tn: 0
               complexity: 0
               alpha: 0.
               node_risk: 1.1957822387553829e-04
               tree_risk: 0.
               tree_error: 0.
               splits:
                  - { var:1, quality:2.7957436442375183e-01,
                      le:7.1977233886718750e-01 }
            -
               depth: 3
               sample_count: 42
               value: -8.0053490400314331e-01
               Tn: 0
               complexity: 0
               alpha: 0.
               node_risk: 9.4351071322495983e-07
               tree_risk: 0.
               tree_error: 0.
            -
               depth: 3
               sample_count: 30
               value: -7.9887992143630981e-01
               Tn: 0
               complexity: 0
               alpha: 0.
               node_risk: 5.0842979245541153e-05
               tree_risk: 0.
               tree_error: 0.
      -
         best_tree_idx: -1
         nodes:
            -
               depth: 0
               sample_count: 152
               value: 3.2869007095302407e-03
               Tn: 0
               complexity: 0
               alpha: 0.
               node_risk: 1.9664952611835638e+00
               tree_risk: 0.
               tree_error: 0.
               splits:
                  - { var:3, quality:1.8200215101242065e+00,
                      le:-1.3993511199951172e+00 }
            -
               depth: 1
               sample_count: 43
               value: 1.7742727393674296e-01
               Tn: 0
               complexity: 0
               alpha: 0.
               node_risk: 1.2968667053833638e-01
               tree_risk: 0.
               tree_error: 0.
               splits:
                  - { var:0, quality:1.4824678897857666e+00,
                      le:-8.2366353273391724e-01 }
            -
               depth: 2
               sample_count: 2
               value: -8.0917870998382568e-01
               Tn: 0
               complexity: 0
               alpha: 0.
               node_risk: 3.8755581456707128e-04
               tree_risk: 0.
               tree_error: 0.
            -
               depth: 2
               sample_count: 41
               value: 1.8951548454238148e-01
               Tn: 0
               complexity: 0
               alpha: 0.
               node_risk: 4.9007210158080738e-04
               tree_risk: 0.
               tree_error: 0.
               splits:
                  - { var:0, quality:1.4730213880538940e+00,
                      le:-6.3944327831268311e-01 }
            -
               depth: 3
               sample_count: 1
               value: 9.5022195577621460e-01
               Tn: 0
               complexity: 0
               alpha: 0.
               node_risk: 0.
               tree_risk: 0.
               tree_error: 0.
            -
               depth: 3
               sample_count: 40
               value: 9.2477226257324219e-01
               Tn: 0
               complexity: 0
               alpha: 0.
               node_risk: 2.9603826335877770e-05
               tree_risk: 0.
               tree_error: 0.
            -
               depth: 1
               sample_count: 109
               value: -6.5410677719553681e-02
               Tn: 0
               complexity: 0
               alpha: 0.
               node_risk: 1.8429254633374081e-02
               tree_risk: 0.
               tree_error: 0.
               splits:
                  - { var:0, quality:4.6928769350051880e-01,
                      le:-7.5619511306285858e-02 }
            -
               depth: 2
               sample_count: 42
               value: -7.1953454454030313e-02
               Tn: 0
               complexity: 0
               alpha: 0.
               node_risk: 1.5385601011646349e-02
               tree_risk: 0.
               tree_error: 0.
               splits:
                  - { var:3, quality:2.3069968819618225e-01,
                      le:7.9172849655151367e-01 }
            -
               depth: 3
               sample_count: 9
               value: -8.4079122543334961e-01
               Tn: 0
               complexity: 0
               alpha: 0.
               node_risk: 1.9214383312654709e-03
               tree_risk: 0.
               tree_error: 0.
            -
               depth: 3
               sample_count: 33
               value: -8.0023789405822754e-01
               Tn: 0
               complexity: 0
               alpha: 0.
               node_risk: 2.1106112287097578e-04
               tree_risk: 0.
               tree_error: 0.
            -
               depth: 2
               sample_count: 67
               value: -6.1309235587493696e-02
               Tn: 0
               complexity: 0
               alpha: 0.
               node_risk: 1.1865822434842244e-04
               tree_risk: 0.
               tree_error: 0.
               splits:
                  - { var:1, quality:2.5191479921340942e-01,
                      le:7.5940895080566406e-01 }
            -
               depth: 3
               sample_count: 37
               value: -7.9979020357131958e-01
               Tn: 0
               complexity: 0
               alpha: 0.
               node_risk: 9.1066531049399657e-07
               tree_risk: 0.
               tree_error: 0.
            -
               depth: 3
               sample_count: 30
               value: -7.9801565408706665e-01
               Tn: 0
               complexity: 0
               alpha: 0.
               node_risk: 4.4040768511360850e-05
               tree_risk: 0.
               tree_error: 0.
      -
         best_tree_idx: -1
         nodes:
            -
               depth: 0
               sample_count: 152
               value: -6.1166177895900448e-03
               Tn: 0
               complexity: 0
               alpha: 0.
               node_risk: 1.7236001590749372e+00
               tree_risk: 0.
               tree_error: 0.
               splits:
                  - { var:3, quality:1.6550784111022949e+00,
                      le:-1.4463677406311035e+00 }
            -
               depth: 1
               sample_count: 36
               value: 1.8087314917809433e-01
               Tn: 0
               complexity: 0
               alpha: 0.
               node_risk: 5.8442144118036499e-02
               tree_risk: 0.
               tree_error: 0.
               splits:
                  - { var:0, quality:1.2352570295333862e+00,
                      le:-8.8406997919082642e-01 }
            -
               depth: 2
               sample_count: 1
               value: -7.9414862394332886e-01
               Tn: 0
               complexity: 0
               alpha: 0.
               node_risk: 0.
               tree_risk: 0.
               tree_error: 0.
            -
               depth: 2
               sample_count: 35
               value: 1.8762930801936559e-01
               Tn: 0
               complexity: 0
               alpha: 0.
               node_risk: 9.2858443454191253e-04
               tree_risk: 0.
               tree_error: 0.
               splits:
                  - { var:0, quality:1.2330722808837891e+00,
                      le:-6.1514461040496826e-01 }
            -
               depth: 3
               sample_count: 2
               value: 9.4732201099395752e-01
               Tn: 0
               complexity: 0
               alpha: 0.
               node_risk: 4.6768469275093594e-07
               tree_risk: 0.
               tree_error: 0.
            -
               depth: 3
               sample_count: 33
               value: 9.2180687189102173e-01
               Tn: 0
               complexity: 0
               alpha: 0.
               node_risk: 2.2345882340957246e-05
               tree_risk: 0.
               tree_error: 0.
            -
               depth: 1
               sample_count: 116
               value: -6.4147924779561064e-02
               Tn: 0
               complexity: 0
               alpha: 0.
               node_risk: 1.5766408182403879e-02
               tree_risk: 0.
               tree_error: 0.
               splits:
                  - { var:0, quality:4.7998982667922974e-01,
                      le:-7.4474617838859558e-02 }
            -
               depth: 2
               sample_count: 43
               value: -7.0381276569394177e-02
               Tn: 0
               complexity: 0
               alpha: 0.
               node_risk: 1.2986747194756620e-02
               tree_risk: 0.
               tree_error: 0.
               splits:
                  - { var:3, quality:2.2375617921352386e-01,
                      le:6.7546951770782471e-01 }
            -
               depth: 3
               sample_count: 9
               value: -8.3620613813400269e-01
               Tn: 0
               complexity: 0
               alpha: 0.
               node_risk: 1.7948971271097985e-03
               tree_risk: 0.
               tree_error: 0.
            -
               depth: 3
               sample_count: 34
               value: -7.9995834827423096e-01
               Tn: 0
               complexity: 0
               alpha: 0.
               node_risk: 4.3720507024458399e-04
               tree_risk: 0.
               tree_error: 0.
            -
               depth: 2
               sample_count: 73
               value: -6.0476224410207308e-02
               Tn: 0
               complexity: 0
               alpha: 0.
               node_risk: 1.2476897963870082e-04
               tree_risk: 0.
               tree_error: 0.
               splits:
                  - { var:1, quality:2.6706460118293762e-01,
                      le:8.2477879524230957e-01 }
            -
               depth: 3
               sample_count: 41
               value: -7.9904526472091675e-01
               Tn: 0
               complexity: 0
               alpha: 0.
               node_risk: 8.9211794032650893e-07
               tree_risk: 0.
               tree_error: 0.
            -
               depth: 3
               sample_count: 32
               value: -7.9731589555740356e-01
               Tn: 0
               complexity: 0
               alpha: 0.
               node_risk: 4.7569574772088341e-05
               tree_risk: 0.
               tree_error: 0.
      -
         best_tree_idx: -1
         nodes:
            -
               depth: 0
               sample_count: 152
               value: -1.6664244038494009e-03
               Tn: 0
               complexity: 0
               alpha: 0.
               node_risk: 1.7684776953840040e+00
               tree_risk: 0.
               tree_error: 0.
               splits:
                  - { var:3, quality:1.6823958158493042e+00,
                      le:-1.3993511199951172e+00 }
            -
               depth: 1
               sample_count: 39
               value: 1.7739198528803313e-01
               Tn: 0
               complexity: 0
               alpha: 0.
               node_risk: 7.0103658052366180e-02
               tree_risk: 0.
               tree_error: 0.
               splits:
                  - { var:0, quality:1.2968549728393555e+00,
                      le:-8.0506658554077148e-01 }
            -
               depth: 2
               sample_count: 1
               value: -8.1791442632675171e-01
               Tn: 0
               complexity: 0
               alpha: 0.
               node_risk: 0.
               tree_risk: 0.
               tree_error: 0.
            -
               depth: 2
               sample_count: 38
               value: 1.8424529150912636e-01
               Tn: 0
               complexity: 0
               alpha: 0.
               node_risk: 4.9736932313448889e-04
               tree_risk: 0.
               tree_error: 0.
               splits:
                  - { var:0, quality:1.2904421091079712e+00,
                      le:-6.1514461040496826e-01 }
            -
               depth: 3
               sample_count: 1
               value: 9.4446611404418945e-01
               Tn: 0
               complexity: 0
               alpha: 0.
               node_risk: 0.
               tree_risk: 0.
               tree_error: 0.
            -
               depth: 3
               sample_count: 37
               value: 9.1873747110366821e-01
               Tn: 0
               complexity: 0
               alpha: 0.
               node_risk: 1.5744777504211882e-05
               tree_risk: 0.
               tree_error: 0.
            -
               depth: 1
               sample_count: 113
               value: -6.3465344562994699e-02
               Tn: 0
               complexity: 0
               alpha: 0.
               node_risk: 1.6400349947067017e-02
               tree_risk: 0.
               tree_error: 0.
               splits:
                  - { var:0, quality:4.5816317200660706e-01,
                      le:-9.1631218791007996e-02 }
            -
               depth: 2
               sample_count: 41
               value: -7.0311721232606150e-02
               Tn: 0
               complexity: 0
               alpha: 0.
               node_risk: 1.3258538858878871e-02
               tree_risk: 0.
               tree_error: 0.
               splits:
                  - { var:3, quality:2.1354566514492035e-01,
                      le:7.6475036144256592e-01 }
            -
               depth: 3
               sample_count: 10
               value: -8.3436614274978638e-01
               Tn: 0
               complexity: 0
               alpha: 0.
               node_risk: 2.1346162479751601e-03
               tree_risk: 0.
               tree_error: 0.
            -
               depth: 3
               sample_count: 31
               value: -7.9890477657318115e-01
               Tn: 0
               complexity: 0
               alpha: 0.
               node_risk: 2.7152570962919731e-04
               tree_risk: 0.
               tree_error: 0.
            -
               depth: 2
               sample_count: 72
               value: -5.9566713403910398e-02
               Tn: 0
               complexity: 0
               alpha: 0.
               node_risk: 1.2567188074824598e-04
               tree_risk: 0.
               tree_error: 0.
               splits:
                  - { var:1, quality:2.5554040074348450e-01,
                      le:7.5940895080566406e-01 }
            -
               depth: 3
               sample_count: 38
               value: -7.9829925298690796e-01
               Tn: 0
               complexity: 0
               alpha: 0.
               node_risk: 4.1015997209736810e-08
               tree_risk: 0.
               tree_error: 0.
            -
               depth: 3
               sample_count: 34
               value: -7.9664206504821777e-01
               Tn: 0
               complexity: 0
               alpha: 0.
               node_risk: 5.5137498729762591e-05
               tree_risk: 0.
               tree_error: 0.
      -
         best_tree_idx: -1
         nodes:
            -
               depth: 0
               sample_count: 152
               value: 6.0729411136555044e-03
               Tn: 0
               complexity: 0
               alpha: 0.
               node_risk: 1.8658753854824868e+00
               tree_risk: 0.
               tree_error: 0.
               splits:
                  - { var:3, quality:1.7350109815597534e+00,
                      le:-1.4463677406311035e+00 }
            -
               depth: 1
               sample_count: 45
               value: 1.7055260721180174e-01
               Tn: 0
               complexity: 0
               alpha: 0.
               node_risk: 1.1986830817153704e-01
               tree_risk: 0.
               tree_error: 0.
               splits:
                  - { var:0, quality:1.4279482364654541e+00,
                      le:-8.0506658554077148e-01 }
            -
               depth: 2
               sample_count: 2
               value: -8.0714112520217896e-01
               Tn: 0
               complexity: 0
               alpha: 0.
               node_risk: 3.9683187649711127e-04
               tree_risk: 0.
               tree_error: 0.
            -
               depth: 2
               sample_count: 43
               value: 1.8164207907610161e-01
               Tn: 0
               complexity: 0
               alpha: 0.
               node_risk: 4.9182261838720542e-04
               tree_risk: 0.
               tree_error: 0.
               splits:
                  - { var:0, quality:1.4192048311233521e+00,
                      le:-6.2084633111953735e-01 }
            -
               depth: 3
               sample_count: 1
               value: 9.4109678268432617e-01
               Tn: 0
               complexity: 0
               alpha: 0.
               node_risk: 0.
               tree_risk: 0.
               tree_error: 0.
            -
               depth: 3
               sample_count: 42
               value: 9.1590201854705811e-01
               Tn: 0
               complexity: 0
               alpha: 0.
               node_risk: 2.2281627457987341e-05
               tree_risk: 0.
               tree_error: 0.
            -
               depth: 1
               sample_count: 107
               value: -6.3100750236032163e-02
               Tn: 0
               complexity: 0
               alpha: 0.
               node_risk: 1.6601897603074844e-02
               tree_risk: 0.
               tree_error: 0.
               splits:
                  - { var:0, quality:4.2907664179801941e-01,
                      le:-7.5619511306285858e-02 }
            -
               depth: 2
               sample_count: 41
               value: -6.9857131417204690e-02
               Tn: 0
               complexity: 0
               alpha: 0.
               node_risk: 1.3466143948710180e-02
               tree_risk: 0.
               tree_error: 0.
               splits:
                  - { var:3, quality:2.1086147427558899e-01,
                      le:7.6475036144256592e-01 }
            -
               depth: 3
               sample_count: 10
               value: -8.3399885892868042e-01
               Tn: 0
               complexity: 0
               alpha: 0.
               node_risk: 2.2738321187974198e-03
               tree_risk: 0.
               tree_error: 0.
            -
               depth: 3
               sample_count: 31
               value: -7.9860830307006836e-01
               Tn: 0
               complexity: 0
               alpha: 0.
               node_risk: 4.1160319407247681e-04
               tree_risk: 0.
               tree_error: 0.
            -
               depth: 2
               sample_count: 66
               value: -5.8903604350758323e-02
               Tn: 0
               complexity: 0
               alpha: 0.
               node_risk: 1.0149928465744140e-04
               tree_risk: 0.
               tree_error: 0.
               splits:
                  - { var:1, quality:2.2905042767524719e-01,
                      le:6.3981342315673828e-01 }
            -
               depth: 3
               sample_count: 38
               value: -7.9760450124740601e-01
               Tn: 0
               complexity: 0
               alpha: 0.
               node_risk: 8.5295948168417901e-07
               tree_risk: 0.
               tree_error: 0.
            -
               depth: 3
               sample_count: 28
               value: -7.9607099294662476e-01
               Tn: 0
               complexity: 0
               alpha: 0.
               node_risk: 4.6099534512636375e-05
               tree_risk: 0.
               tree_error: 0.
      -
         best_tree_idx: -1
         nodes:
            -
               depth: 0
               sample_count: 152
               value: 2.4884814200432678e-03
               Tn: 0
               complexity: 0
               alpha: 0.
               node_risk: 1.7726958848384182e+00
               tree_risk: 0.
               tree_error: 0.
               splits:
                  - { var:3, quality:1.6384485960006714e+00,
                      le:-1.4463677406311035e+00 }
            -
               depth: 1
               sample_count: 43
               value: 1.6774128957889800e-01
               Tn: 0
               complexity: 0
               alpha: 0.
               node_risk: 1.1638633499055584e-01
               tree_risk: 0.
               tree_error: 0.
               splits:
                  - { var:0, quality:1.3254131078720093e+00,
                      le:-8.0506658554077148e-01 }
            -
               depth: 2
               sample_count: 2
               value: -8.0633026361465454e-01
               Tn: 0
               complexity: 0
               alpha: 0.
               node_risk: 3.9193598162263338e-04
               tree_risk: 0.
               tree_error: 0.
            -
               depth: 2
               sample_count: 41
               value: 1.7918877485321788e-01
               Tn: 0
               complexity: 0
               alpha: 0.
               node_risk: 4.7830281719662970e-04
               tree_risk: 0.
               tree_error: 0.
               splits:
                  - { var:0, quality:1.3169099092483521e+00,
                      le:-6.1514461040496826e-01 }
            -
               depth: 3
               sample_count: 1
               value: 9.3784689903259277e-01
               Tn: 0
               complexity: 0
               alpha: 0.
               node_risk: 0.
               tree_risk: 0.
               tree_error: 0.
            -
               depth: 3
               sample_count: 40
               value: 9.1314655542373657e-01
               Tn: 0
               complexity: 0
               alpha: 0.
               node_risk: 2.1653229120621731e-05
               tree_risk: 0.
               tree_error: 0.
            -
               depth: 1
               sample_count: 109
               value: -6.2702993358220535e-02
               Tn: 0
               complexity: 0
               alpha: 0.
               node_risk: 1.8802260028821904e-02
               tree_risk: 0.
               tree_error: 0.
               splits:
                  - { var:0, quality:4.3216592073440552e-01,
                      le:-7.5619511306285858e-02 }
            -
               depth: 2
               sample_count: 42
               value: -6.9976041359560828e-02
               Tn: 0
               complexity: 0
               alpha: 0.
               node_risk: 1.5094901660644117e-02
               tree_risk: 0.
               tree_error: 0.
               splits:
                  - { var:3, quality:2.1793755888938904e-01,
                      le:7.6475036144256592e-01 }
            -
               depth: 3
               sample_count: 11
               value: -8.3416914939880371e-01
               Tn: 0
               complexity: 0
               alpha: 0.
               node_risk: 2.4124369094271070e-03
               tree_risk: 0.
               tree_error: 0.
            -
               depth: 3
               sample_count: 31
               value: -7.9787999391555786e-01
               Tn: 0
               complexity: 0
               alpha: 0.
               node_risk: 4.0404874096706955e-04
               tree_risk: 0.
               tree_error: 0.
            -
               depth: 2
               sample_count: 67
               value: -5.8143769237977358e-02
               Tn: 0
               complexity: 0
               alpha: 0.
               node_risk: 9.2977677759703559e-05
               tree_risk: 0.
               tree_error: 0.
               splits:
                  - { var:1, quality:2.2656536102294922e-01,
                      le:8.3967995643615723e-01 }
            -
               depth: 3
               sample_count: 43
               value: -7.9689133167266846e-01
               Tn: 0
               complexity: 0
               alpha: 0.
               node_risk: 8.3386808058527606e-07
               tree_risk: 0.
               tree_error: 0.
            -
               depth: 3
               sample_count: 24
               value: -7.9526358842849731e-01
               Tn: 0
               complexity: 0
               alpha: 0.
               node_risk: 3.3536647293441746e-05
               tree_risk: 0.
               tree_error: 0.
      -
         best_tree_idx: -1
         nodes:
            -
               depth: 0
               sample_count: 152
               value: -1.4925352052638406e-03
               Tn: 0
               complexity: 0
               alpha: 0.
               node_risk: 1.6275269387255684e+00
               tree_risk: 0.
               tree_error: 0.
               splits:
                  - { var:3, quality:1.4996948242187500e+00,
                      le:-1.4463677406311035e+00 }
            -
               depth: 1
               sample_count: 40
               value: 1.6469928324222566e-01
               Tn: 0
               complexity: 0
               alpha: 0.
               node_risk: 1.1286701516993380e-01
               tree_risk: 0.
               tree_error: 0.
               splits:
                  - { var:0, quality:1.1970851421356201e+00,
                      le:-8.2366353273391724e-01 }
            -
               depth: 2
               sample_count: 2
               value: -8.0552953481674194e-01
               Tn: 0
               complexity: 0
               alpha: 0.
               node_risk: 3.8691999047923975e-04
               tree_risk: 0.
               tree_error: 0.
            -
               depth: 2
               sample_count: 38
               value: 1.7684158369114525e-01
               Tn: 0
               complexity: 0
               alpha: 0.
               node_risk: 4.2914543366157076e-04
               tree_risk: 0.
               tree_error: 0.
               splits:
                  - { var:0, quality:1.1887745857238770e+00,
                      le:-6.3944327831268311e-01 }
            -
               depth: 3
               sample_count: 1
               value: 9.3358159065246582e-01
               Tn: 0
               complexity: 0
               alpha: 0.
               node_risk: 0.
               tree_risk: 0.
               tree_error: 0.
            -
               depth: 3
               sample_count: 37
               value: 9.1053724288940430e-01
               Tn: 0
               complexity: 0
               alpha: 0.
               node_risk: 2.6481453673010691e-05
               tree_risk: 0.
               tree_error: 0.
            -
               depth: 1
               sample_count: 112
               value: -6.0846756079367230e-02
               Tn: 0
               complexity: 0
               alpha: 0.
               node_risk: 1.5303666816251782e-02
               tree_risk: 0.
               tree_error: 0.
               splits:
                  - { var:0, quality:4.1729113459587097e-01,
                      le:-7.4474617838859558e-02 }
            -
               depth: 2
               sample_count: 41
               value: -6.7224111407995224e-02
               Tn: 0
               complexity: 0
               alpha: 0.
               node_risk: 1.2564630025006296e-02
               tree_risk: 0.
               tree_error: 0.
               splits:
                  - { var:3, quality:1.9536657631397247e-01,
                      le:7.6475036144256592e-01 }
            -
               depth: 3
               sample_count: 9
               value: -8.3258068561553955e-01
               Tn: 0
               complexity: 0
               alpha: 0.
               node_risk: 2.0821516513208072e-03
               tree_risk: 0.
               tree_error: 0.
            -
               depth: 3
               sample_count: 32
               value: -7.9712456464767456e-01
               Tn: 0
               complexity: 0
               alpha: 0.
               node_risk: 3.9822259458699438e-04
               tree_risk: 0.
               tree_error: 0.
            -
               depth: 2
               sample_count: 71
               value: -5.7164057931849657e-02
               Tn: 0
               complexity: 0
               alpha: 0.
               node_risk: 1.0861882990825800e-04
               tree_risk: 0.
               tree_error: 0.
               splits:
                  - { var:1, quality:2.3206953704357147e-01,
                      le:7.5940895080566406e-01 }
            -
               depth: 3
               sample_count: 38
               value: -7.9620057344436646e-01
               Tn: 0
               complexity: 0
               alpha: 0.
               node_risk: 8.0925680834287306e-07
               tree_risk: 0.
               tree_error: 0.
            -
               depth: 3
               sample_count: 33
               value: -7.9465728998184204e-01
               Tn: 0
               complexity: 0
               alpha: 0.
               node_risk: 4.7072825231350701e-05
               tree_risk: 0.
               tree_error: 0.
      -
         best_tree_idx: -1
         nodes:
            -
               depth: 0
               sample_count: 152
               value: -1.0191203389120730e-03
               Tn: 0
               complexity: 0
               alpha: 0.
               node_risk: 1.5809760855474650e+00
               tree_risk: 0.
               tree_error: 0.
               splits:
                  - { var:3, quality:1.5175126791000366e+00,
                      le:-1.4463677406311035e+00 }
            -
               depth: 1
               sample_count: 39
               value: 1.6905126443658119e-01
               Tn: 0
               complexity: 0
               alpha: 0.
               node_risk: 5.0700578824854237e-02
               tree_risk: 0.
               tree_error: 0.
               splits:
                  - { var:0, quality:1.1644290685653687e+00,
                      le:-8.8406997919082642e-01 }
            -
               depth: 2
               sample_count: 1
               value: -7.9063242673873901e-01
               Tn: 0
               complexity: 0
               alpha: 0.
               node_risk: 0.
               tree_risk: 0.
               tree_error: 0.
            -
               depth: 2
               sample_count: 38
               value: 1.7485241042940239e-01
               Tn: 0
               complexity: 0
               alpha: 0.
               node_risk: 8.2639588675648135e-04
               tree_risk: 0.
               tree_error: 0.
               splits:
                  - { var:0, quality:1.1625937223434448e+00,
                      le:-6.2084633111953735e-01 }
            -
               depth: 3
               sample_count: 2
               value: 9.3097198009490967e-01
               Tn: 0
               complexity: 0
               alpha: 0.
               node_risk: 4.5560040184966510e-07
               tree_risk: 0.
               tree_error: 0.
            -
               depth: 3
               sample_count: 36
               value: 9.0773785114288330e-01
               Tn: 0
               complexity: 0
               alpha: 0.
               node_risk: 2.0158895345456784e-05
               tree_risk: 0.
               tree_error: 0.
            -
               depth: 1
               sample_count: 113
               value: -5.9715978801250458e-02
               Tn: 0
               complexity: 0
               alpha: 0.
               node_risk: 1.2920716544619515e-02
               tree_risk: 0.
               tree_error: 0.
               splits:
                  - { var:0, quality:4.0534049272537231e-01,
                      le:-7.5619511306285858e-02 }
            -
               depth: 2
               sample_count: 40
               value: -6.5919361636042589e-02
               Tn: 0
               complexity: 0
               alpha: 0.
               node_risk: 1.0428398478141199e-02
               tree_risk: 0.
               tree_error: 0.
               splits:
                  - { var:3, quality:1.8218609690666199e-01,
                      le:7.6475036144256592e-01 }
            -
               depth: 3
               sample_count: 9
               value: -8.2851606607437134e-01
               Tn: 0
               complexity: 0
               alpha: 0.
               node_risk: 1.6684646983084750e-03
               tree_risk: 0.
               tree_error: 0.
            -
               depth: 3
               sample_count: 31
               value: -7.9646575450897217e-01
               Tn: 0
               complexity: 0
               alpha: 0.
               node_risk: 3.8832884952563762e-04
               tree_risk: 0.
               tree_error: 0.
            -
               depth: 2
               sample_count: 73
               value: -5.6316864919172573e-02
               Tn: 0
               complexity: 0
               alpha: 0.
               node_risk: 1.0959953429548475e-04
               tree_risk: 0.
               tree_error: 0.
               splits:
                  - { var:1, quality:2.3158958554267883e-01,
                      le:7.5940895080566406e-01 }
            -
               depth: 3
               sample_count: 39
               value: -7.9549276828765869e-01
               Tn: 0
               complexity: 0
               alpha: 0.
               node_risk: 3.2472982386400062e-08
               tree_risk: 0.
               tree_error: 0.
            -
               depth: 3
               sample_count: 34
               value: -7.9393810033798218e-01
               Tn: 0
               complexity: 0
               alpha: 0.
               node_risk: 4.6004315238046267e-05
               tree_risk: 0.
               tree_error: 0.
      -
         best_tree_idx: -1
         nodes:
            -
               depth: 0
               sample_count: 152
               value: -3.5391808977644694e-03
               Tn: 0
               complexity: 0
               alpha: 0.
               node_risk: 1.5251103218037194e+00
               tree_risk: 0.
               tree_error: 0.
               splits:
                  - { var:3, quality:1.4015065431594849e+00,
                      le:-1.4463677406311035e+00 }
            -
               depth: 1
               sample_count: 39
               value: 1.5979891919936889e-01
               Tn: 0
               complexity: 0
               alpha: 0.
               node_risk: 1.0704266092157111e-01
               tree_risk: 0.
               tree_error: 0.
               splits:
                  - { var:0, quality:1.1020940542221069e+00,
                      le:-8.0506658554077148e-01 }
            -
               depth: 2
               sample_count: 2
               value: -8.0447065830230713e-01
               Tn: 0
               complexity: 0
               alpha: 0.
               node_risk: 3.9550475311125877e-04
               tree_risk: 0.
               tree_error: 0.
            -
               depth: 2
               sample_count: 37
               value: 1.7193135538616697e-01
               Tn: 0
               complexity: 0
               alpha: 0.
               node_risk: 4.4523652147621107e-04
               tree_risk: 0.
               tree_error: 0.
               splits:
                  - { var:0, quality:1.0941553115844727e+00,
                      le:-6.2084633111953735e-01 }
            -
               depth: 3
               sample_count: 1
               value: 9.2840862274169922e-01
               Tn: 0
               complexity: 0
               alpha: 0.
               node_risk: 0.
               tree_risk: 0.
               tree_error: 0.
            -
               depth: 3
               sample_count: 36
               value: 9.0511196851730347e-01
               Tn: 0
               complexity: 0
               alpha: 0.
               node_risk: 2.4421057357226772e-05
               tree_risk: 0.
               tree_error: 0.
            -
               depth: 1
               sample_count: 113
               value: -5.9912507479960943e-02
               Tn: 0
               complexity: 0
               alpha: 0.
               node_risk: 1.8465027748288121e-02
               tree_risk: 0.
               tree_error: 0.
               splits:
                  - { var:0, quality:4.0907040238380432e-01,
                      le:-7.5619511306285858e-02 }
            -
               depth: 2
               sample_count: 43
               value: -6.6968517161385951e-02
               Tn: 0
               complexity: 0
               alpha: 0.
               node_risk: 1.4905942340603273e-02
               tree_risk: 0.
               tree_error: 0.
               splits:
                  - { var:3, quality:2.0503312349319458e-01,
                      le:7.6475036144256592e-01 }
            -
               depth: 3
               sample_count: 11
               value: -8.3141404390335083e-01
               Tn: 0
               complexity: 0
               alpha: 0.
               node_risk: 2.3569865851965494e-03
               tree_risk: 0.
               tree_error: 0.
            -
               depth: 3
               sample_count: 32
               value: -7.9558354616165161e-01
               Tn: 0
               complexity: 0
               alpha: 0.
               node_risk: 3.6147601146797881e-04
               tree_risk: 0.
               tree_error: 0.
            -
               depth: 2
               sample_count: 70
               value: -5.5578101532799858e-02
               Tn: 0
               complexity: 0
               alpha: 0.
               node_risk: 1.0313744080250875e-04
               tree_risk: 0.
               tree_error: 0.
               splits:
                  - { var:1, quality:2.1628597378730774e-01,
                      le:7.5940895080566406e-01 }
            -
               depth: 3
               sample_count: 39
               value: -7.9483848810195923e-01
               Tn: 0
               complexity: 0
               alpha: 0.
               node_risk: 7.7320965925775642e-07
               tree_risk: 0.
               tree_error: 0.
            -
               depth: 3
               sample_count: 31
               value: -7.9327613115310669e-01
               Tn: 0
               complexity: 0
               alpha: 0.
               node_risk: 4.1166087997993039e-05
               tree_risk: 0.
               tree_error: 0.
      -
         best_tree_idx: -1
         nodes:
            -
               depth: 0
               sample_count: 152
               value: 2.6801537820383124e-03
               Tn: 0
               complexity: 0
               alpha: 0.
               node_risk: 1.5872361358384586e+00
               tree_risk: 0.
               tree_error: 0.
               splits:
                  - { var:3, quality:1.4655025005340576e+00,
                      le:-1.4013431072235107e+00 }
            -
               depth: 1
               sample_count: 43
               value: 1.5895485254221184e-01
               Tn: 0
               complexity: 0
               alpha: 0.
               node_risk: 1.0521843185591950e-01
               tree_risk: 0.
               tree_error: 0.
               splits:
                  - { var:0, quality:1.1905038356781006e+00,
                      le:-8.2366353273391724e-01 }
            -
               depth: 2
               sample_count: 2
               value: -8.0369836091995239e-01
               Tn: 0
               complexity: 0
               alpha: 0.
               node_risk: 3.9009964837788402e-04
               tree_risk: 0.
               tree_error: 0.
            -
               depth: 2
               sample_count: 41
               value: 1.6981873134287392e-01
               Tn: 0
               complexity: 0
               alpha: 0.
               node_risk: 7.9029732963031840e-04
               tree_risk: 0.
               tree_error: 0.
               splits:
                  - { var:0, quality:1.1831506490707397e+00,
                      le:-6.2084633111953735e-01 }
            -
               depth: 3
               sample_count: 2
               value: 9.2482221126556396e-01
               Tn: 0
               complexity: 0
               alpha: 0.
               node_risk: 4.3657225212712092e-07
               tree_risk: 0.
               tree_error: 0.
            -
               depth: 3
               sample_count: 39
               value: 9.0234845876693726e-01
               Tn: 0
               complexity: 0
               alpha: 0.
               node_risk: 1.3686356916453590e-05
               tree_risk: 0.
               tree_error: 0.
            -
               depth: 1
               sample_count: 109
               value: -5.8969498022433814e-02
               Tn: 0
               complexity: 0
               alpha: 0.
               node_risk: 1.7607027791688656e-02
               tree_risk: 0.
               tree_error: 0.
               splits:
                  - { var:0, quality:3.8278281688690186e-01,
                      le:-7.5619511306285858e-02 }
            -
               depth: 2
               sample_count: 37
               value: -6.7147313440973688e-02
               Tn: 0
               complexity: 0
               alpha: 0.
               node_risk: 1.3757963986070293e-02
               tree_risk: 0.
               tree_error: 0.
               splits:
                  - { var:3, quality:1.7815960943698883e-01,
                      le:7.6475036144256592e-01 }
            -
               depth: 3
               sample_count: 10
               value: -8.3155184984207153e-01
               Tn: 0
               complexity: 0
               alpha: 0.
               node_risk: 2.0752747895997903e-03
               tree_risk: 0.
               tree_error: 0.
            -
               depth: 3
               sample_count: 27
               value: -7.9510033130645752e-01
               Tn: 0
               complexity: 0
               alpha: 0.
               node_risk: 3.4725571379527753e-04
               tree_risk: 0.
               tree_error: 0.
            -
               depth: 2
               sample_count: 72
               value: -5.4767009543461934e-02
               Tn: 0
               complexity: 0
               alpha: 0.
               node_risk: 1.0304172194508521e-04
               tree_risk: 0.
               tree_error: 0.
               splits:
                  - { var:1, quality:2.1602398157119751e-01,
                      le:7.1977233886718750e-01 }
            -
               depth: 3
               sample_count: 40
               value: -7.9417145252227783e-01
               Tn: 0
               complexity: 0
               alpha: 0.
               node_risk: 7.5875927180169001e-07
               tree_risk: 0.
               tree_error: 0.
            -
               depth: 3
               sample_count: 32
               value: -7.9257994890213013e-01
               Tn: 0
               complexity: 0
               alpha: 0.
               node_risk: 3.6922242051692922e-05
               tree_risk: 0.
               tree_error: 0.
      -
         best_tree_idx: -1
         nodes:
            -
               depth: 0
               sample_count: 152
               value: -9.3676640014899403e-04
               Tn: 0
               complexity: 0
               alpha: 0.
               node_risk: 1.4543098802608871e+00
               tree_risk: 0.
               tree_error: 0.
               splits:
                  - { var:3, quality:1.3390010595321655e+00,
                      le:-1.4463677406311035e+00 }
            -
               depth: 1
               sample_count: 40
               value: 1.5610893350094557e-01
               Tn: 0
               complexity: 0
               alpha: 0.
               node_risk: 1.0211345959966700e-01
               tree_risk: 0.
               tree_error: 0.
               splits:
                  - { var:0, quality:1.0757617950439453e+00,
                      le:-8.2366353273391724e-01 }
            -
               depth: 2
               sample_count: 2
               value: -8.0294185876846313e-01
               Tn: 0
               complexity: 0
               alpha: 0.
               node_risk: 3.8398930732322367e-04
               tree_risk: 0.
               tree_error: 0.
            -
               depth: 2
               sample_count: 38
               value: 1.6763475223591454e-01
               Tn: 0
               complexity: 0
               alpha: 0.
               node_risk: 7.6765218370900001e-04
               tree_risk: 0.
               tree_error: 0.
               splits:
                  - { var:0, quality:1.0685974359512329e+00,
                      le:-6.2084633111953735e-01 }
            -
               depth: 3
               sample_count: 2
               value: 9.2183715105056763e-01
               Tn: 0
               complexity: 0
               alpha: 0.
               node_risk: 4.2732057892180819e-07
               tree_risk: 0.
               tree_error: 0.
            -
               depth: 3
               sample_count: 36
               value: 8.9992344379425049e-01
               Tn: 0
               complexity: 0
               alpha: 0.
               node_risk: 2.3343551414534147e-05
               tree_risk: 0.
               tree_error: 0.
            -
               depth: 1
               sample_count: 112
               value: -5.7024516364825625e-02
               Tn: 0
               complexity: 0
               alpha: 0.
               node_risk: 1.3328748401024770e-02
               tree_risk: 0.
               tree_error: 0.
               splits:
                  - { var:0, quality:3.6637574434280396e-01,
                      le:-7.5619511306285858e-02 }
            -
               depth: 2
               sample_count: 37
               value: -6.3298095118355102e-02
               Tn: 0
               complexity: 0
               alpha: 0.
               node_risk: 1.1044034710871953e-02
               tree_risk: 0.
               tree_error: 0.
               splits:
                  - { var:3, quality:1.5772560238838196e-01,
                      le:7.6475036144256592e-01 }
            -
               depth: 3
               sample_count: 7
               value: -8.3170795440673828e-01
               Tn: 0
               complexity: 0
               alpha: 0.
               node_risk: 1.2195686388715710e-03
               tree_risk: 0.
               tree_error: 0.
            -
               depth: 3
               sample_count: 30
               value: -7.9430061578750610e-01
               Tn: 0
               complexity: 0
               alpha: 0.
               node_risk: 3.4486758583776589e-04
               tree_risk: 0.
               tree_error: 0.
            -
               depth: 2
               sample_count: 75
               value: -5.3929550846417748e-02
               Tn: 0
               complexity: 0
               alpha: 0.
               node_risk: 1.1006457920367807e-04
               tree_risk: 0.
               tree_error: 0.
               splits:
                  - { var:1, quality:2.1819739043712616e-01,
                      le:8.2477879524230957e-01 }
            -
               depth: 3
               sample_count: 39
               value: -7.9351848363876343e-01
               Tn: 0
               complexity: 0
               alpha: 0.
               node_risk: 7.3720797354182022e-07
               tree_risk: 0.
               tree_error: 0.
            -
               depth: 3
               sample_count: 36
               value: -7.9194355010986328e-01
               Tn: 0
               complexity: 0
               alpha: 0.
               node_risk: 4.1664293793888807e-05
               tree_risk: 0.
               tree_error: 0.
      -
         best_tree_idx: -1
         nodes:
            -
               depth: 0
               sample_count: 152
               value: -1.1674474042497184e-03
               Tn: 0
               complexity: 0
               alpha: 0.
               node_risk: 1.4187438313653635e+00
               tree_risk: 0.
               tree_error: 0.
               splits:
                  - { var:3, quality:1.3599725961685181e+00,
                      le:-1.4463677406311035e+00 }
            -
               depth: 1
               sample_count: 39
               value: 1.5982930553265107e-01
               Tn: 0
               complexity: 0
               alpha: 0.
               node_risk: 4.5230393981048445e-02
               tree_risk: 0.
               tree_error: 0.
               splits:
                  - { var:0, quality:1.0407549142837524e+00,
                      le:-8.8406997919082642e-01 }
            -
               depth: 2
               sample_count: 1
               value: -7.8811436891555786e-01
               Tn: 0
               complexity: 0
               alpha: 0.
               node_risk: 0.
               tree_risk: 0.
               tree_error: 0.
            -
               depth: 2
               sample_count: 38
               value: 1.6530800963702955e-01
               Tn: 0
               complexity: 0
               alpha: 0.
               node_risk: 7.4638756198797118e-04
               tree_risk: 0.
               tree_error: 0.
               splits:
                  - { var:0, quality:1.0391384363174438e+00,
                      le:-6.2084633111953735e-01 }
            -
               depth: 3
               sample_count: 2
               value: 9.1890138387680054e-01
               Tn: 0
               complexity: 0
               alpha: 0.
               node_risk: 4.1811347983866654e-07
               tree_risk: 0.
               tree_error: 0.
            -
               depth: 3
               sample_count: 36
               value: 8.9743435382843018e-01
               Tn: 0
               complexity: 0
               alpha: 0.
               node_risk: 2.3533294654987102e-05
               tree_risk: 0.
               tree_error: 0.
            -
               depth: 1
               sample_count: 113
               value: -5.6732698417870348e-02
               Tn: 0
               complexity: 0
               alpha: 0.
               node_risk: 1.3748039008166624e-02
               tree_risk: 0.
               tree_error: 0.
               splits:
                  - { var:0, quality:3.6608061194419861e-01,
                      le:-7.5619511306285858e-02 }
            -
               depth: 2
               sample_count: 41
               value: -6.2813012065683918e-02
               Tn: 0
               complexity: 0
               alpha: 0.
               node_risk: 1.1270751335799245e-02
               tree_risk: 0.
               tree_error: 0.
               splits:
                  - { var:3, quality:1.7089229822158813e-01,
                      le:7.6475036144256592e-01 }
            -
               depth: 3
               sample_count: 9
               value: -8.2702463865280151e-01
               Tn: 0
               complexity: 0
               alpha: 0.
               node_risk: 1.7898661448320224e-03
               tree_risk: 0.
               tree_error: 0.
            -
               depth: 3
               sample_count: 32
               value: -7.9373562335968018e-01
               Tn: 0
               complexity: 0
               alpha: 0.
               node_risk: 3.5303741090857155e-04
               tree_risk: 0.
               tree_error: 0.
            -
               depth: 2
               sample_count: 72
               value: -5.3270297590643167e-02
               Tn: 0
               complexity: 0
               alpha: 0.
               node_risk: 9.8357092916778743e-05
               tree_risk: 0.
               tree_error: 0.
               splits:
                  - { var:1, quality:2.0437049865722656e-01,
                      le:8.2477879524230957e-01 }
            -
               depth: 3
               sample_count: 39
               value: -7.9287028312683105e-01
               Tn: 0
               complexity: 0
               alpha: 0.
               node_risk: 7.1962993816732101e-07
               tree_risk: 0.
               tree_error: 0.
            -
               depth: 3
               sample_count: 33
               value: -7.9143226146697998e-01
               Tn: 0
               complexity: 0
               alpha: 0.
               node_risk: 4.3303243712822237e-05
               tree_risk: 0.
               tree_error: 0.
      -
         best_tree_idx: -1
         nodes:
            -
               depth: 0
               sample_count: 152
               value: -1.4002956449985504e-03
               Tn: 0
               complexity: 0
               alpha: 0.
               node_risk: 1.3740745465461228e+00
               tree_risk: 0.
               tree_error: 0.
               splits:
                  - { var:3, quality:1.2644108533859253e+00,
                      le:-1.3993511199951172e+00 }
            -
               depth: 1
               sample_count: 40
               value: 1.5119815701618791e-01
               Tn: 0
               complexity: 0
               alpha: 0.
               node_risk: 9.6124690921892353e-02
               tree_risk: 0.
               tree_error: 0.
               splits:
                  - { var:0, quality:1.0097656250000000e+00,
                      le:-8.0506658554077148e-01 }
            -
               depth: 2
               sample_count: 2
               value: -8.0194604396820068e-01
               Tn: 0
               complexity: 0
               alpha: 0.
               node_risk: 3.9147490442820870e-04
               tree_risk: 0.
               tree_error: 0.
            -
               depth: 2
               sample_count: 38
               value: 1.6239791794827110e-01
               Tn: 0
               complexity: 0
               alpha: 0.
               node_risk: 4.0288586624326328e-04
               tree_risk: 0.
               tree_error: 0.
               splits:
                  - { var:0, quality:1.0025597810745239e+00,
                      le:-6.2084633111953735e-01 }
            -
               depth: 3
               sample_count: 1
               value: 9.1653358936309814e-01
               Tn: 0
               complexity: 0
               alpha: 0.
               node_risk: 0.
               tree_risk: 0.
               tree_error: 0.
            -
               depth: 3
               sample_count: 37
               value: 8.9485955238342285e-01
               Tn: 0
               complexity: 0
               alpha: 0.
               node_risk: 2.0270004458144975e-05
               tree_risk: 0.
               tree_error: 0.
            -
               depth: 1
               sample_count: 112
               value: -5.5899743023993712e-02
               Tn: 0
               complexity: 0
               alpha: 0.
               node_risk: 1.3837091803717838e-02
               tree_risk: 0.
               tree_error: 0.
               splits:
                  - { var:0, quality:3.5204440355300903e-01,
                      le:-9.2776104807853699e-02 }
            -
               depth: 2
               sample_count: 43
               value: -6.1344174191702246e-02
               Tn: 0
               complexity: 0
               alpha: 0.
               node_risk: 1.1682710343728503e-02
               tree_risk: 0.
               tree_error: 0.
               splits:
                  - { var:3, quality:1.7135860025882721e-01,
                      le:7.6475036144256592e-01 }
            -
               depth: 3
               sample_count: 9
               value: -8.2659077644348145e-01
               Tn: 0
               complexity: 0
               alpha: 0.
               node_risk: 1.9150080295219502e-03
               tree_risk: 0.
               tree_error: 0.
            -
               depth: 3
               sample_count: 34
               value: -7.9264497756958008e-01
               Tn: 0
               complexity: 0
               alpha: 0.
               node_risk: 2.2273888407967068e-04
               tree_risk: 0.
               tree_error: 0.
            -
               depth: 2
               sample_count: 69
               value: -5.2506836644117386e-02
               Tn: 0
               complexity: 0
               alpha: 0.
               node_risk: 8.5467592693455607e-05
               tree_risk: 0.
               tree_error: 0.
               splits:
                  - { var:1, quality:1.9028267264366150e-01,
                      le:7.5940895080566406e-01 }
            -
               depth: 3
               sample_count: 38
               value: -7.9221737384796143e-01
               Tn: 0
               complexity: 0
               alpha: 0.
               node_risk: 3.4905486570591115e-08
               tree_risk: 0.
               tree_error: 0.
            -
               depth: 3
               sample_count: 31
               value: -7.9077857732772827e-01
               Tn: 0
               complexity: 0
               alpha: 0.
               node_risk: 3.3538467074906153e-05
               tree_risk: 0.
               tree_error: 0.
      -
         best_tree_idx: -1
         nodes:
            -
               depth: 0
               sample_count: 152
               value: -4.7030300147047170e-03
               Tn: 0
               complexity: 0
               alpha: 0.
               node_risk: 1.3087993937186790e+00
               tree_risk: 0.
               tree_error: 0.
               splits:
                  - { var:3, quality:1.2009533643722534e+00,
                      le:-1.3993511199951172e+00 }
            -
               depth: 1
               sample_count: 38
               value: 1.4903919192913331e-01
               Tn: 0
               complexity: 0
               alpha: 0.
               node_risk: 9.4044471212208824e-02
               tree_risk: 0.
               tree_error: 0.
               splits:
                  - { var:0, quality:9.3703770637512207e-01,
                      le:-8.2366353273391724e-01 }
            -
               depth: 2
               sample_count: 2
               value: -8.0123478174209595e-01
               Tn: 0
               complexity: 0
               alpha: 0.
               node_risk: 3.8261841229964705e-04
               tree_risk: 0.
               tree_error: 0.
            -
               depth: 2
               sample_count: 36
               value: 1.6069682273599836e-01
               Tn: 0
               complexity: 0
               alpha: 0.
               node_risk: 7.0600927595754204e-04
               tree_risk: 0.
               tree_error: 0.
               splits:
                  - { var:0, quality:9.3033307790756226e-01,
                      le:-6.2084633111953735e-01 }
            -
               depth: 3
               sample_count: 2
               value: 9.1321426630020142e-01
               Tn: 0
               complexity: 0
               alpha: 0.
               node_risk: 4.0021337355256037e-07
               tree_risk: 0.
               tree_error: 0.
            -
               depth: 3
               sample_count: 34
               value: 8.9247423410415649e-01
               Tn: 0
               complexity: 0
               alpha: 0.
               node_risk: 1.7423229012103469e-05
               tree_risk: 0.
               tree_error: 0.
            -
               depth: 1
               sample_count: 114
               value: -5.5950437329317391e-02
               Tn: 0
               complexity: 0
               alpha: 0.
               node_risk: 1.7163601556232921e-02
               tree_risk: 0.
               tree_error: 0.
               splits:
                  - { var:0, quality:3.5995241999626160e-01,
                      le:-7.5619511306285858e-02 }
            -
               depth: 2
               sample_count: 45
               value: -6.2387796160247588e-02
               Tn: 0
               complexity: 0
               alpha: 0.
               node_risk: 1.3989575828542267e-02
               tree_risk: 0.
               tree_error: 0.
               splits:
                  - { var:3, quality:1.8662677705287933e-01,
                      le:7.6475036144256592e-01 }
            -
               depth: 3
               sample_count: 11
               value: -8.2658129930496216e-01
               Tn: 0
               complexity: 0
               alpha: 0.
               node_risk: 2.1737936179607453e-03
               tree_risk: 0.
               tree_error: 0.
            -
               depth: 3
               sample_count: 34
               value: -7.9238617420196533e-01
               Tn: 0
               complexity: 0
               alpha: 0.
               node_risk: 3.3966909170429771e-04
               tree_risk: 0.
               tree_error: 0.
            -
               depth: 2
               sample_count: 69
               value: -5.1752159830884659e-02
               Tn: 0
               complexity: 0
               alpha: 0.
               node_risk: 9.3082392558396787e-05
               tree_risk: 0.
               tree_error: 0.
               splits:
                  - { var:1, quality:1.8484830856323242e-01,
                      le:7.8514218330383301e-01 }
            -
               depth: 3
               sample_count: 35
               value: -7.9160875082015991e-01
               Tn: 0
               complexity: 0
               alpha: 0.
               node_risk: 6.7902654901641490e-07
               tree_risk: 0.
               tree_error: 0.
            -
               depth: 3
               sample_count: 34
               value: -7.9025983810424805e-01
               Tn: 0
               complexity: 0
               alpha: 0.
               node_risk: 4.5831888473360505e-05
               tree_risk: 0.
               tree_error: 0.
      -
         best_tree_idx: -1
         nodes:
            -
               depth: 0
               sample_count: 152
               value: 4.7188374017806426e-03
               Tn: 0
               complexity: 0
               alpha: 0.
               node_risk: 1.3794454070191369e+00
               tree_risk: 0.
               tree_error: 0.
               splits:
                  - { var:3, quality:1.2814062833786011e+00,
                      le:-1.4463677406311035e+00 }
            -
               depth: 1
               sample_count: 44
               value: 1.4837783812121910e-01
               Tn: 0
               complexity: 0
               alpha: 0.
               node_risk: 9.2056744223894538e-02
               tree_risk: 0.
               tree_error: 0.
               splits:
                  - { var:0, quality:1.0596880912780762e+00,
                      le:-8.2366353273391724e-01 }
            -
               depth: 2
               sample_count: 2
               value: -8.0053234100341797e-01
               Tn: 0
               complexity: 0
               alpha: 0.
               node_risk: 3.7392060470431421e-04
               tree_risk: 0.
               tree_error: 0.
            -
               depth: 2
               sample_count: 42
               value: 1.5830096318608239e-01
               Tn: 0
               complexity: 0
               alpha: 0.
               node_risk: 6.9801180629402992e-04
               tree_risk: 0.
               tree_error: 0.
               splits:
                  - { var:0, quality:1.0531613826751709e+00,
                      le:-6.2084633111953735e-01 }
            -
               depth: 3
               sample_count: 2
               value: 9.1045147180557251e-01
               Tn: 0
               complexity: 0
               alpha: 0.
               node_risk: 3.9151564834583041e-07
               tree_risk: 0.
               tree_error: 0.
            -
               depth: 3
               sample_count: 40
               value: 8.9011049270629883e-01
               Tn: 0
               complexity: 0
               alpha: 0.
               node_risk: 2.2443357149626308e-05
               tree_risk: 0.
               tree_error: 0.
            -
               depth: 1
               sample_count: 108
               value: -5.3808903632064663e-02
               Tn: 0
               complexity: 0
               alpha: 0.
               node_risk: 9.3670705194196513e-03
               tree_risk: 0.
               tree_error: 0.
               splits:
                  - { var:0, quality:3.1412303447723389e-01,
                      le:-7.5619511306285858e-02 }
            -
               depth: 2
               sample_count: 38
               value: -5.8730387373974451e-02
               Tn: 0
               complexity: 0
               alpha: 0.
               node_risk: 7.8668302998610440e-03
               tree_risk: 0.
               tree_error: 0.
               splits:
                  - { var:3, quality:1.3728038966655731e-01,
                      le:7.6475036144256592e-01 }
            -
               depth: 3
               sample_count: 7
               value: -8.2223308086395264e-01
               Tn: 0
               complexity: 0
               alpha: 0.
               node_risk: 1.3309720863413019e-03
               tree_risk: 0.
               tree_error: 0.
            -
               depth: 3
               sample_count: 31
               value: -7.9185503721237183e-01
               Tn: 0
               complexity: 0
               alpha: 0.
               node_risk: 3.2728596101490315e-04
               tree_risk: 0.
               tree_error: 0.
            -
               depth: 2
               sample_count: 70
               value: -5.1137241029313635e-02
               Tn: 0
               complexity: 0
               alpha: 0.
               node_risk: 8.0197460721576075e-05
               tree_risk: 0.
               tree_error: 0.
               splits:
                  - { var:1, quality:1.8309432268142700e-01,
                      le:7.8514218330383301e-01 }
            -
               depth: 3
               sample_count: 40
               value: -7.9098665714263916e-01
               Tn: 0
               complexity: 0
               alpha: 0.
               node_risk: 6.6897533995691205e-07
               tree_risk: 0.
               tree_error: 0.
            -
               depth: 3
               sample_count: 30
               value: -7.8968590497970581e-01
               Tn: 0
               complexity: 0
               alpha: 0.
               node_risk: 3.6422075939721021e-05
               tree_risk: 0.
               tree_error: 0.
      -
         best_tree_idx: -1
         nodes:
            -
               depth: 0
               sample_count: 152
               value: -2.8613807731553129e-03
               Tn: 0
               complexity: 0
               alpha: 0.
               node_risk: 1.2513176744783612e+00
               tree_risk: 0.
               tree_error: 0.
               splits:
                  - { var:3, quality:1.1863768100738525e+00,
                      le:-1.4483599662780762e+00 }
            -
               depth: 1
               sample_count: 38
               value: 1.5007902701434336e-01
               Tn: 0
               complexity: 0
               alpha: 0.
               node_risk: 5.1656994309827509e-02
               tree_risk: 0.
               tree_error: 0.
               splits:
                  - { var:0, quality:9.0688914060592651e-01,
                      le:-8.2366353273391724e-01 }
            -
               depth: 2
               sample_count: 1
               value: -8.0883044004440308e-01
               Tn: 0
               complexity: 0
               alpha: 0.
               node_risk: 0.
               tree_risk: 0.
               tree_error: 0.
            -
               depth: 2
               sample_count: 37
               value: 1.5610103349427920e-01
               Tn: 0
               complexity: 0
               alpha: 0.
               node_risk: 6.6902007541635999e-04
               tree_risk: 0.
               tree_error: 0.
               splits:
                  - { var:0, quality:9.0225684642791748e-01,
                      le:-6.1514461040496826e-01 }
            -
               depth: 3
               sample_count: 2
               value: 9.0771025419235229e-01
               Tn: 0
               complexity: 0
               alpha: 0.
               node_risk: 3.8280916214716854e-07
               tree_risk: 0.
               tree_error: 0.
            -
               depth: 3
               sample_count: 35
               value: 8.8767355680465698e-01
               Tn: 0
               complexity: 0
               alpha: 0.
               node_risk: 1.0512825620367927e-05
               tree_risk: 0.
               tree_error: 0.
            -
               depth: 1
               sample_count: 114
               value: -5.3841516702321540e-02
               Tn: 0
               complexity: 0
               alpha: 0.
               node_risk: 1.4528417902075541e-02
               tree_risk: 0.
               tree_error: 0.
               splits:
                  - { var:0, quality:3.3300206065177917e-01,
                      le:-1.0562058538198471e-01 }
            -
               depth: 2
               sample_count: 41
               value: -6.0123151577100520e-02
               Tn: 0
               complexity: 0
               alpha: 0.
               node_risk: 1.1912730872480876e-02
               tree_risk: 0.
               tree_error: 0.
               splits:
                  - { var:3, quality:1.5790727734565735e-01,
                      le:7.6475036144256592e-01 }
            -
               depth: 3
               sample_count: 10
               value: -8.2374846935272217e-01
               Tn: 0
               complexity: 0
               alpha: 0.
               node_risk: 2.0249769953668839e-03
               tree_risk: 0.
               tree_error: 0.
            -
               depth: 3
               sample_count: 31
               value: -7.9072570800781250e-01
               Tn: 0
               complexity: 0
               alpha: 0.
               node_risk: 1.8700628466147839e-04
               tree_risk: 0.
               tree_error: 0.
            -
               depth: 2
               sample_count: 73
               value: -5.0313475197308687e-02
               Tn: 0
               complexity: 0
               alpha: 0.
               node_risk: 8.9234014033545694e-05
               tree_risk: 0.
               tree_error: 0.
               splits:
                  - { var:1, quality:1.8484790623188019e-01,
                      le:7.5940895080566406e-01 }
            -
               depth: 3
               sample_count: 40
               value: -7.9037481546401978e-01
               Tn: 0
               complexity: 0
               alpha: 0.
               node_risk: 6.5442314849117889e-07
               tree_risk: 0.
               tree_error: 0.
            -
               depth: 3
               sample_count: 33
               value: -7.8897804021835327e-01
               Tn: 0
               complexity: 0
               alpha: 0.
               node_risk: 3.6209670187109522e-05
               tree_risk: 0.
               tree_error: 0.
      -
         best_tree_idx: -1
         nodes:
            -
               depth: 0
               sample_count: 152
               value: 5.8888084696311696e-03
               Tn: 0
               complexity: 0
               alpha: 0.
               node_risk: 1.3243555447781707e+00
               tree_risk: 0.
               tree_error: 0.
               splits:
                  - { var:3, quality:1.2319334745407104e+00,
                      le:-1.4463677406311035e+00 }
            -
               depth: 1
               sample_count: 45
               value: 1.4441323868102499e-01
               Tn: 0
               complexity: 0
               alpha: 0.
               node_risk: 8.7075434417656639e-02
               tree_risk: 0.
               tree_error: 0.
               splits:
                  - { var:0, quality:1.0245380401611328e+00,
                      le:-8.2366353273391724e-01 }
            -
               depth: 2
               sample_count: 2
               value: -7.9909783601760864e-01
               Tn: 0
               complexity: 0
               alpha: 0.
               node_risk: 3.6020833421141624e-04
               tree_risk: 0.
               tree_error: 0.
            -
               depth: 2
               sample_count: 43
               value: 1.5384433158608371e-01
               Tn: 0
               complexity: 0
               alpha: 0.
               node_risk: 6.6044188457126118e-04
               tree_risk: 0.
               tree_error: 0.
               splits:
                  - { var:0, quality:1.0183674097061157e+00,
                      le:-6.2084633111953735e-01 }
            -
               depth: 3
               sample_count: 2
               value: 9.0504699945449829e-01
               Tn: 0
               complexity: 0
               alpha: 0.
               node_risk: 3.7435528277285357e-07
               tree_risk: 0.
               tree_error: 0.
            -
               depth: 3
               sample_count: 41
               value: 8.8547337055206299e-01
               Tn: 0
               complexity: 0
               alpha: 0.
               node_risk: 2.0012535920876928e-05
               tree_risk: 0.
               tree_error: 0.
            -
               depth: 1
               sample_count: 107
               value: -5.2369129469740060e-02
               Tn: 0
               complexity: 0
               alpha: 0.
               node_risk: 1.0617666292504546e-02
               tree_risk: 0.
               tree_error: 0.
               splits:
                  - { var:0, quality:2.9503086209297180e-01,
                      le:-8.5240757465362549e-01 }
            -
               depth: 2
               sample_count: 3
               value: -8.1122869253158569e-01
               Tn: 0
               complexity: 0
               alpha: 0.
               node_risk: 1.0750563765637988e-04
               tree_risk: 0.
               tree_error: 0.
            -
               depth: 2
               sample_count: 104
               value: -5.1716354281569905e-02
               Tn: 0
               complexity: 0
               alpha: 0.
               node_risk: 8.9295564260743476e-03
               tree_risk: 0.
               tree_error: 0.
               splits:
                  - { var:0, quality:2.7912014722824097e-01,
                      le:-7.5619511306285858e-02 }
            -
               depth: 3
               sample_count: 35
               value: -7.9788297414779663e-01
               Tn: 0
               complexity: 0
               alpha: 0.
               node_risk: 7.8819916716840188e-03
               tree_risk: 0.
               tree_error: 0.
            -
               depth: 3
               sample_count: 69
               value: -7.8911888599395752e-01
               Tn: 0
               complexity: 0
               alpha: 0.
               node_risk: 8.3866580827984816e-05
               tree_risk: 0.
               tree_error: 0.
      -
         best_tree_idx: -1
         nodes:
            -
               depth: 0
               sample_count: 152
               value: 1.2306209751649906e-03
               Tn: 0
               complexity: 0
               alpha: 0.
               node_risk: 1.2400917364285817e+00
               tree_risk: 0.
               tree_error: 0.
               splits:
                  - { var:3, quality:1.1427454948425293e+00,
                      le:-1.4463677406311035e+00 }
            -
               depth: 1
               sample_count: 42
               value: 1.4153812932116644e-01
               Tn: 0
               complexity: 0
               alpha: 0.
               node_risk: 8.3899963797169796e-02
               tree_risk: 0.
               tree_error: 0.
               splits:
                  - { var:0, quality:9.2456775903701782e-01,
                      le:-8.0506658554077148e-01 }
            -
               depth: 2
               sample_count: 2
               value: -7.9832577705383301e-01
               Tn: 0
               complexity: 0
               alpha: 0.
               node_risk: 3.5072356212850764e-04
               tree_risk: 0.
               tree_error: 0.
            -
               depth: 2
               sample_count: 40
               value: 1.5148919820785522e-01
               Tn: 0
               complexity: 0
               alpha: 0.
               node_risk: 3.6927176543599671e-04
               tree_risk: 0.
               tree_error: 0.
               splits:
                  - { var:0, quality:9.1831237077713013e-01,
                      le:-6.1514461040496826e-01 }
            -
               depth: 3
               sample_count: 1
               value: 9.0366744995117188e-01
               Tn: 0
               complexity: 0
               alpha: 0.
               node_risk: 0.
               tree_risk: 0.
               tree_error: 0.
            -
               depth: 3
               sample_count: 39
               value: 8.8340890407562256e-01
               Tn: 0
               complexity: 0
               alpha: 0.
               node_risk: 1.5986224667585702e-05
               tree_risk: 0.
               tree_error: 0.
            -
               depth: 1
               sample_count: 110
               value: -5.2341336756944655e-02
               Tn: 0
               complexity: 0
               alpha: 0.
               node_risk: 1.3676490826753207e-02
               tree_risk: 0.
               tree_error: 0.
               splits:
                  - { var:0, quality:3.0361557006835938e-01,
                      le:-7.5619511306285858e-02 }
            -
               depth: 2
               sample_count: 39
               value: -5.8454249054193497e-02
               Tn: 0
               complexity: 0
               alpha: 0.
               node_risk: 1.1336258269656396e-02
               tree_risk: 0.
               tree_error: 0.
               splits:
                  - { var:3, quality:1.4274014532566071e-01,
                      le:6.7546951770782471e-01 }
            -
               depth: 3
               sample_count: 8
               value: -8.2532608509063721e-01
               Tn: 0
               complexity: 0
               alpha: 0.
               node_risk: 1.5129918956345578e-03
               tree_risk: 0.
               tree_error: 0.
            -
               depth: 3
               sample_count: 31
               value: -7.9009914398193359e-01
               Tn: 0
               complexity: 0
               alpha: 0.
               node_risk: 3.4218949421015166e-04
               tree_risk: 0.
               tree_error: 0.
            -
               depth: 2
               sample_count: 71
               value: -4.8983539861272761e-02
               Tn: 0
               complexity: 0
               alpha: 0.
               node_risk: 8.2381584223051307e-05
               tree_risk: 0.
               tree_error: 0.
               splits:
                  - { var:1, quality:1.7040494084358215e-01,
                      le:8.3967995643615723e-01 }
            -
               depth: 3
               sample_count: 42
               value: -7.8920036554336548e-01
               Tn: 0
               complexity: 0
               alpha: 0.
               node_risk: 2.1335314204923295e-06
               tree_risk: 0.
               tree_error: 0.
            -
               depth: 3
               sample_count: 29
               value: -7.8782522678375244e-01
               Tn: 0
               complexity: 0
               alpha: 0.
               node_risk: 3.1793955794778839e-05
               tree_risk: 0.
               tree_error: 0.
      -
         best_tree_idx: -1
         nodes:
            -
               depth: 0
               sample_count: 152
               value: 2.1162527172189009e-03
               Tn: 0
               complexity: 0
               alpha: 0.
               node_risk: 1.2431694531479296e+00
               tree_risk: 0.
               tree_error: 0.
               splits:
                  - { var:3, quality:1.1449525356292725e+00,
                      le:-1.4463677406311035e+00 }
            -
               depth: 1
               sample_count: 43
               value: 1.4025700577469760e-01
               Tn: 0
               complexity: 0
               alpha: 0.
               node_risk: 8.2395308109965759e-02
               tree_risk: 0.
               tree_error: 0.
               splits:
                  - { var:0, quality:9.2729127407073975e-01,
                      le:-8.2366353273391724e-01 }
            -
               depth: 2
               sample_count: 2
               value: -7.9766017198562622e-01
               Tn: 0
               complexity: 0
               alpha: 0.
               node_risk: 3.4256355140316330e-04
               tree_risk: 0.
               tree_error: 0.
            -
               depth: 2
               sample_count: 41
               value: 1.4986616373062134e-01
               Tn: 0
               complexity: 0
               alpha: 0.
               node_risk: 6.5863405636434891e-04
               tree_risk: 0.
               tree_error: 0.
               splits:
                  - { var:0, quality:9.2149329185485840e-01,
                      le:-6.2084633111953735e-01 }
            -
               depth: 3
               sample_count: 2
               value: 9.0068084001541138e-01
               Tn: 0
               complexity: 0
               alpha: 0.
               node_risk: 3.6055959817815619e-07
               tree_risk: 0.
               tree_error: 0.
            -
               depth: 3
               sample_count: 39
               value: 8.8129097223281860e-01
               Tn: 0
               complexity: 0
               alpha: 0.
               node_risk: 1.9549544247987605e-05
               tree_risk: 0.
               tree_error: 0.
            -
               depth: 1
               sample_count: 109
               value: -5.2379640690777281e-02
               Tn: 0
               complexity: 0
               alpha: 0.
               node_risk: 1.6502374442020962e-02
               tree_risk: 0.
               tree_error: 0.
               splits:
                  - { var:0, quality:3.0212780833244324e-01,
                      le:-7.5619511306285858e-02 }
            -
               depth: 2
               sample_count: 41
               value: -5.9217108913311146e-02
               Tn: 0
               complexity: 0
               alpha: 0.
               node_risk: 1.3353643487609562e-02
               tree_risk: 0.
               tree_error: 0.
               splits:
                  - { var:3, quality:1.5502999722957611e-01,
                      le:7.6475036144256592e-01 }
            -
               depth: 3
               sample_count: 10
               value: -8.2452440261840820e-01
               Tn: 0
               complexity: 0
               alpha: 0.
               node_risk: 1.7622703792047334e-03
               tree_risk: 0.
               tree_error: 0.
            -
               depth: 3
               sample_count: 31
               value: -7.8949272632598877e-01
               Tn: 0
               complexity: 0
               alpha: 0.
               node_risk: 3.3467979244275470e-04
               tree_risk: 0.
               tree_error: 0.
            -
               depth: 2
               sample_count: 68
               value: -4.8257049556602448e-02
               Tn: 0
               complexity: 0
               alpha: 0.
               node_risk: 7.6229594099780362e-05
               tree_risk: 0.
               tree_error: 0.
               splits:
                  - { var:1, quality:1.5839326381683350e-01,
                      le:6.3981342315673828e-01 }
            -
               depth: 3
               sample_count: 36
               value: -7.8861868381500244e-01
               Tn: 0
               complexity: 0
               alpha: 0.
               node_risk: 2.0759676538917304e-06
               tree_risk: 0.
               tree_error: 0.
            -
               depth: 3
               sample_count: 32
               value: -7.8738468885421753e-01
               Tn: 0
               complexity: 0
               alpha: 0.
               node_risk: 3.5395756292536107e-05
               tree_risk: 0.
               tree_error: 0.
      -
         best_tree_idx: -1
         nodes:
            -
               depth: 0
               sample_count: 152
               value: 4.0354137308895588e-03
               Tn: 0
               complexity: 0
               alpha: 0.
               node_risk: 1.2022529585847548e+00
               tree_risk: 0.
               tree_error: 0.
               splits:
                  - { var:3, quality:1.1574368476867676e+00,
                      le:-1.4463677406311035e+00 }
            -
               depth: 1
               sample_count: 43
               value: 1.4281992241740227e-01
               Tn: 0
               complexity: 0
               alpha: 0.
               node_risk: 3.5695914271228535e-02
               tree_risk: 0.
               tree_error: 0.
               splits:
                  - { var:0, quality:9.1246485710144043e-01,
                      le:-8.8406997919082642e-01 }
            -
               depth: 2
               sample_count: 1
               value: -7.8374195098876953e-01
               Tn: 0
               complexity: 0
               alpha: 0.
               node_risk: 0.
               tree_risk: 0.
               tree_error: 0.
            -
               depth: 2
               sample_count: 42
               value: 1.4724545251755489e-01
               Tn: 0
               complexity: 0
               alpha: 0.
               node_risk: 3.2483236998215315e-04
               tree_risk: 0.
               tree_error: 0.
               splits:
                  - { var:0, quality:9.1091752052307129e-01,
                      le:-6.3944327831268311e-01 }
            -
               depth: 3
               sample_count: 1
               value: 8.9770185947418213e-01
               Tn: 0
               complexity: 0
               alpha: 0.
               node_risk: 0.
               tree_risk: 0.
               tree_error: 0.
            -
               depth: 3
               sample_count: 41
               value: 8.7907129526138306e-01
               Tn: 0
               complexity: 0
               alpha: 0.
               node_risk: 1.8672589967017039e-05
               tree_risk: 0.
               tree_error: 0.
            -
               depth: 1
               sample_count: 109
               value: -5.0714438319753072e-02
               Tn: 0
               complexity: 0
               alpha: 0.
               node_risk: 1.1595484052357996e-02
               tree_risk: 0.
               tree_error: 0.
               splits:
                  - { var:0, quality:2.8248369693756104e-01,
                      le:-7.5619511306285858e-02 }
            -
               depth: 2
               sample_count: 38
               value: -5.6772035301515929e-02
               Tn: 0
               complexity: 0
               alpha: 0.
               node_risk: 9.3786693273646277e-03
               tree_risk: 0.
               tree_error: 0.
               splits:
                  - { var:3, quality:1.2996463477611542e-01,
                      le:7.6475036144256592e-01 }
            -
               depth: 3
               sample_count: 9
               value: -8.1887888908386230e-01
               Tn: 0
               complexity: 0
               alpha: 0.
               node_risk: 1.5810139917175892e-03
               tree_risk: 0.
               tree_error: 0.
            -
               depth: 3
               sample_count: 29
               value: -7.8878438472747803e-01
               Tn: 0
               complexity: 0
               alpha: 0.
               node_risk: 3.0944663087208168e-04
               tree_risk: 0.
               tree_error: 0.
            -
               depth: 2
               sample_count: 71
               value: -4.7472344160499710e-02
               Tn: 0
               complexity: 0
               alpha: 0.
               node_risk: 7.6131047482025371e-05
               tree_risk: 0.
               tree_error: 0.
               splits:
                  - { var:1, quality:1.6005003452301025e-01,
                      le:7.5940895080566406e-01 }
            -
               depth: 3
               sample_count: 36
               value: -7.8801184892654419e-01
               Tn: 0
               complexity: 0
               alpha: 0.
               node_risk: 2.1307512476642643e-08
               tree_risk: 0.
               tree_error: 0.
            -
               depth: 3
               sample_count: 35
               value: -7.8674542903900146e-01
               Tn: 0
               complexity: 0
               alpha: 0.
               node_risk: 3.3341147017973416e-05
               tree_risk: 0.
               tree_error: 0.
      -
         best_tree_idx: -1
         nodes:
            -
               depth: 0
               sample_count: 152
               value: 2.6355837471783161e-03
               Tn: 0
               complexity: 0
               alpha: 0.
               node_risk: 1.1647934033778486e+00
               tree_risk: 0.
               tree_error: 0.
               splits:
                  - { var:3, quality:1.1169787645339966e+00,
                      le:-1.4463677406311035e+00 }
            -
               depth: 1
               sample_count: 42
               value: 1.4130062822784697e-01
               Tn: 0
               complexity: 0
               alpha: 0.
               node_risk: 3.5242247111296865e-02
               tree_risk: 0.
               tree_error: 0.
               splits:
                  - { var:0, quality:8.7312990427017212e-01,
                      le:-8.8406997919082642e-01 }
            -
               depth: 2
               sample_count: 1
               value: -7.8319603204727173e-01
               Tn: 0
               complexity: 0
               alpha: 0.
               node_risk: 0.
               tree_risk: 0.
               tree_error: 0.
            -
               depth: 2
               sample_count: 41
               value: 1.4578077415140664e-01
               Tn: 0
               complexity: 0
               alpha: 0.
               node_risk: 6.7876680251610644e-04
               tree_risk: 0.
               tree_error: 0.
               splits:
                  - { var:0, quality:8.7199312448501587e-01,
                      le:-6.2084633111953735e-01 }
            -
               depth: 3
               sample_count: 2
               value: 8.9658778905868530e-01
               Tn: 0
               complexity: 0
               alpha: 0.
               node_risk: 3.6906192946162264e-07
               tree_risk: 0.
               tree_error: 0.
            -
               depth: 3
               sample_count: 39
               value: 8.7706547975540161e-01
               Tn: 0
               complexity: 0
               alpha: 0.
               node_risk: 1.8696893248182356e-05
               tree_risk: 0.
               tree_error: 0.
            -
               depth: 1
               sample_count: 110
               value: -5.0309251418167895e-02
               Tn: 0
               complexity: 0
               alpha: 0.
               node_risk: 1.3628271936443559e-02
               tree_risk: 0.
               tree_error: 0.
               splits:
                  - { var:0, quality:2.8093922138214111e-01,
                      le:-9.2776104807853699e-02 }
            -
               depth: 2
               sample_count: 37
               value: -5.7041532183821138e-02
               Tn: 0
               complexity: 0
               alpha: 0.
               node_risk: 1.1026484760594049e-02
               tree_risk: 0.
               tree_error: 0.
               splits:
                  - { var:3, quality:1.2942022085189819e-01,
                      le:7.6475036144256592e-01 }
            -
               depth: 3
               sample_count: 9
               value: -8.2140505313873291e-01
               Tn: 0
               complexity: 0
               alpha: 0.
               node_risk: 1.7746700918236380e-03
               tree_risk: 0.
               tree_error: 0.
            -
               depth: 3
               sample_count: 28
               value: -7.8810203075408936e-01
               Tn: 0
               complexity: 0
               alpha: 0.
               node_risk: 2.1984532343728713e-04
               tree_risk: 0.
               tree_error: 0.
            -
               depth: 2
               sample_count: 73
               value: -4.6896999523247759e-02
               Tn: 0
               complexity: 0
               alpha: 0.
               node_risk: 7.4841017878884974e-05
               tree_risk: 0.
               tree_error: 0.
               splits:
                  - { var:1, quality:1.6059283912181854e-01,
                      le:7.5940895080566406e-01 }
            -
               depth: 3
               sample_count: 40
               value: -7.8747254610061646e-01
               Tn: 0
               complexity: 0
               alpha: 0.
               node_risk: 1.9884472595849134e-06
               tree_risk: 0.
               tree_error: 0.
            -
               depth: 3
               sample_count: 33
               value: -7.8623253107070923e-01
               Tn: 0
               complexity: 0
               alpha: 0.
               node_risk: 3.0995417106591261e-05
               tree_risk: 0.
               tree_error: 0.
      -
         best_tree_idx: -1
         nodes:
            -
               depth: 0
               sample_count: 152
               value: -5.0801293630349008e-03
               Tn: 0
               complexity: 0
               alpha: 0.
               node_risk: 1.0247309845072097e+00
               tree_risk: 0.
               tree_error: 0.
               splits:
                  - { var:3, quality:9.3781495094299316e-01,
                      le:-1.4463677406311035e+00 }
            -
               depth: 1
               sample_count: 37
               value: 1.3310923850214160e-01
               Tn: 0
               complexity: 0
               alpha: 0.
               node_risk: 7.6079673822682992e-02
               tree_risk: 0.
               tree_error: 0.
               splits:
                  - { var:0, quality:7.3063123226165771e-01,
                      le:-8.2366353273391724e-01 }
            -
               depth: 2
               sample_count: 2
               value: -7.9668670892715454e-01
               Tn: 0
               complexity: 0
               alpha: 0.
               node_risk: 3.6383712761278719e-04
               tree_risk: 0.
               tree_error: 0.
            -
               depth: 2
               sample_count: 35
               value: 1.4387617281505038e-01
               Tn: 0
               complexity: 0
               alpha: 0.
               node_risk: 6.5318545729620148e-04
               tree_risk: 0.
               tree_error: 0.
               splits:
                  - { var:0, quality:7.2514897584915161e-01,
                      le:-6.2084633111953735e-01 }
            -
               depth: 3
               sample_count: 2
               value: 8.9413589239120483e-01
               Tn: 0
               complexity: 0
               alpha: 0.
               node_risk: 3.6071146070071336e-07
               tree_risk: 0.
               tree_error: 0.
            -
               depth: 3
               sample_count: 33
               value: 8.7497192621231079e-01
               Tn: 0
               complexity: 0
               alpha: 0.
               node_risk: 1.6200632374285817e-05
               tree_risk: 0.
               tree_error: 0.
            -
               depth: 1
               sample_count: 115
               value: -4.9541056415309079e-02
               Tn: 0
               complexity: 0
               alpha: 0.
               node_risk: 1.4759145268395835e-02
               tree_risk: 0.
               tree_error: 0.
               splits:
                  - { var:0, quality:2.8456625342369080e-01,
                      le:-7.5619511306285858e-02 }
            -
               depth: 2
               sample_count: 41
               value: -5.5575109291367414e-02
               Tn: 0
               complexity: 0
               alpha: 0.
               node_risk: 1.2360358821190742e-02
               tree_risk: 0.
               tree_error: 0.
               splits:
                  - { var:3, quality:1.3707587122917175e-01,
                      le:6.7546951770782471e-01 }
            -
               depth: 3
               sample_count: 8
               value: -8.2439941167831421e-01
               Tn: 0
               complexity: 0
               alpha: 0.
               node_risk: 1.5886256090545323e-03
               tree_risk: 0.
               tree_error: 0.
            -
               depth: 3
               sample_count: 33
               value: -7.8775334358215332e-01
               Tn: 0
               complexity: 0
               alpha: 0.
               node_risk: 3.2817058498155194e-04
               tree_risk: 0.
               tree_error: 0.
            -
               depth: 2
               sample_count: 74
               value: -4.6197864956952432e-02
               Tn: 0
               complexity: 0
               alpha: 0.
               node_risk: 7.8892133236446726e-05
               tree_risk: 0.
               tree_error: 0.
               splits:
                  - { var:1, quality:1.5798568725585938e-01,
                      le:7.5940895080566406e-01 }
            -
               depth: 3
               sample_count: 43
               value: -7.8691309690475464e-01
               Tn: 0
               complexity: 0
               alpha: 0.
               node_risk: 1.9447607100403497e-06
               tree_risk: 0.
               tree_error: 0.
            -
               depth: 3
               sample_count: 31
               value: -7.8553044795989990e-01
               Tn: 0
               complexity: 0
               alpha: 0.
               node_risk: 2.5219693915418118e-05
               tree_risk: 0.
               tree_error: 0.
      -
         best_tree_idx: -1
         nodes:
            -
               depth: 0
               sample_count: 152
               value: -6.3941466475003648e-03
               Tn: 0
               complexity: 0
               alpha: 0.
               node_risk: 9.7003788051471584e-01
               tree_risk: 0.
               tree_error: 0.
               splits:
                  - { var:3, quality:8.8942849636077881e-01,
                      le:-1.4463677406311035e+00 }
            -
               depth: 1
               sample_count: 36
               value: 1.3043824541899893e-01
               Tn: 0
               complexity: 0
               alpha: 0.
               node_risk: 7.3170211573653221e-02
               tree_risk: 0.
               tree_error: 0.
               splits:
                  - { var:0, quality:6.8500328063964844e-01,
                      le:-8.2366353273391724e-01 }
            -
               depth: 2
               sample_count: 2
               value: -7.9604327678680420e-01
               Tn: 0
               complexity: 0
               alpha: 0.
               node_risk: 3.5540508696929596e-04
               tree_risk: 0.
               tree_error: 0.
            -
               depth: 2
               sample_count: 34
               value: 1.4132194308673635e-01
               Tn: 0
               complexity: 0
               alpha: 0.
               node_risk: 3.2042303398371885e-04
               tree_risk: 0.
               tree_error: 0.
               splits:
                  - { var:0, quality:6.7934894561767578e-01,
                      le:-6.3944327831268311e-01 }
            -
               depth: 3
               sample_count: 1
               value: 8.9128279685974121e-01
               Tn: 0
               complexity: 0
               alpha: 0.
               node_risk: 0.
               tree_risk: 0.
               tree_error: 0.
            -
               depth: 3
               sample_count: 33
               value: 8.7290942668914795e-01
               Tn: 0
               complexity: 0
               alpha: 0.
               node_risk: 1.5820701324775754e-05
               tree_risk: 0.
               tree_error: 0.
            -
               depth: 1
               sample_count: 116
               value: -4.8859371771586349e-02
               Tn: 0
               complexity: 0
               alpha: 0.
               node_risk: 1.3653682268658041e-02
               tree_risk: 0.
               tree_error: 0.
               splits:
                  - { var:0, quality:2.7927139401435852e-01,
                      le:-7.5619511306285858e-02 }
            -
               depth: 2
               sample_count: 42
               value: -5.4836030428608261e-02
               Tn: 0
               complexity: 0
               alpha: 0.
               node_risk: 1.1228014748125320e-02
               tree_risk: 0.
               tree_error: 0.
               splits:
                  - { var:3, quality:1.3566842675209045e-01,
                      le:7.6475036144256592e-01 }
            -
               depth: 3
               sample_count: 9
               value: -8.2010710239410400e-01
               Tn: 0
               complexity: 0
               alpha: 0.
               node_risk: 1.5327357870207475e-03
               tree_risk: 0.
               tree_error: 0.
            -
               depth: 3
               sample_count: 33
               value: -7.8718686103820801e-01
               Tn: 0
               complexity: 0
               alpha: 0.
               node_risk: 3.2044040590649414e-04
               tree_risk: 0.
               tree_error: 0.
            -
               depth: 2
               sample_count: 74
               value: -4.5467214155438786e-02
               Tn: 0
               complexity: 0
               alpha: 0.
               node_risk: 7.3910411359373596e-05
               tree_risk: 0.
               tree_error: 0.
               splits:
                  - { var:1, quality:1.5302121639251709e-01,
                      le:7.1977233886718750e-01 }
            -
               depth: 3
               sample_count: 38
               value: -7.8633892536163330e-01
               Tn: 0
               complexity: 0
               alpha: 0.
               node_risk: 2.2183720360668957e-08
               tree_risk: 0.
               tree_error: 0.
            -
               depth: 3
               sample_count: 36
               value: -7.8509300947189331e-01
               Tn: 0
               complexity: 0
               alpha: 0.
               node_risk: 3.0465901504087012e-05
               tree_risk: 0.
               tree_error: 0.
      -
         best_tree_idx: -1
         nodes:
            -
               depth: 0
               sample_count: 152
               value: 2.6336515469378547e-03
               Tn: 0
               complexity: 0
               alpha: 0.
               node_risk: 1.0687882200273098e+00
               tree_risk: 0.
               tree_error: 0.
               splits:
                  - { var:3, quality:1.0259366035461426e+00,
                      le:-1.4463677406311035e+00 }
            -
               depth: 1
               sample_count: 42
               value: 1.3552200040292173e-01
               Tn: 0
               complexity: 0
               alpha: 0.
               node_risk: 3.2419775367910852e-02
               tree_risk: 0.
               tree_error: 0.
               splits:
                  - { var:0, quality:8.0318820476531982e-01,
                      le:-8.8406997919082642e-01 }
            -
               depth: 2
               sample_count: 1
               value: -7.8181022405624390e-01
               Tn: 0
               complexity: 0
               alpha: 0.
               node_risk: 0.
               tree_risk: 0.
               tree_error: 0.
            -
               depth: 2
               sample_count: 41
               value: 1.3981980376127290e-01
               Tn: 0
               complexity: 0
               alpha: 0.
               node_risk: 6.1251756436286886e-04
               tree_risk: 0.
               tree_error: 0.
               splits:
                  - { var:0, quality:8.0213075876235962e-01,
                      le:-6.2084633111953735e-01 }
            -
               depth: 3
               sample_count: 2
               value: 8.8934957981109619e-01
               Tn: 0
               complexity: 0
               alpha: 0.
               node_risk: 3.6492567012658128e-07
               tree_risk: 0.
               tree_error: 0.
            -
               depth: 3
               sample_count: 39
               value: 8.7103712558746338e-01
               Tn: 0
               complexity: 0
               alpha: 0.
               node_risk: 1.4044998806306275e-05
               tree_risk: 0.
               tree_error: 0.
            -
               depth: 1
               sample_count: 110
               value: -4.8105536198074166e-02
               Tn: 0
               complexity: 0
               alpha: 0.
               node_risk: 1.1486118636678588e-02
               tree_risk: 0.
               tree_error: 0.
               splits:
                  - { var:0, quality:2.5669923424720764e-01,
                      le:-7.5619511306285858e-02 }
            -
               depth: 2
               sample_count: 38
               value: -5.4181891738584169e-02
               Tn: 0
               complexity: 0
               alpha: 0.
               node_risk: 9.2738033829642269e-03
               tree_risk: 0.
               tree_error: 0.
               splits:
                  - { var:3, quality:1.1881405115127563e-01,
                      le:7.6475036144256592e-01 }
            -
               depth: 3
               sample_count: 9
               value: -8.1645262241363525e-01
               Tn: 0
               complexity: 0
               alpha: 0.
               node_risk: 1.7071184948918294e-03
               tree_risk: 0.
               tree_error: 0.
            -
               depth: 3
               sample_count: 29
               value: -7.8675019741058350e-01
               Tn: 0
               complexity: 0
               alpha: 0.
               node_risk: 3.0837549712069146e-04
               tree_risk: 0.
               tree_error: 0.
            -
               depth: 2
               sample_count: 72
               value: -4.4898570773916111e-02
               Tn: 0
               complexity: 0
               alpha: 0.
               node_risk: 6.8782420151042301e-05
               tree_risk: 0.
               tree_error: 0.
               splits:
                  - { var:1, quality:1.4518237113952637e-01,
                      le:7.1977233886718750e-01 }
            -
               depth: 3
               sample_count: 38
               value: -7.8582972288131714e-01
               Tn: 0
               complexity: 0
               alpha: 0.
               node_risk: 1.8476465913769280e-06
               tree_risk: 0.
               tree_error: 0.
            -
               depth: 3
               sample_count: 34
               value: -7.8463399410247803e-01
               Tn: 0
               complexity: 0
               alpha: 0.
               node_risk: 2.8049506100802368e-05
               tree_risk: 0.
               tree_error: 0.
      -
         best_tree_idx: -1
         nodes:
            -
               depth: 0
               sample_count: 152
               value: 3.3917918948358611e-03
               Tn: 0
               complexity: 0
               alpha: 0.
               node_risk: 1.0644293740195117e+00
               tree_risk: 0.
               tree_error: 0.
               splits:
                  - { var:3, quality:9.8191142082214355e-01,
                      le:-1.4463677406311035e+00 }
            -
               depth: 1
               sample_count: 44
               value: 1.2920112222094426e-01
               Tn: 0
               complexity: 0
               alpha: 0.
               node_risk: 7.0961133684312117e-02
               tree_risk: 0.
               tree_error: 0.
               splits:
                  - { var:0, quality:8.0449819564819336e-01,
                      le:-8.2366353273391724e-01 }
            -
               depth: 2
               sample_count: 2
               value: -7.9530709981918335e-01
               Tn: 0
               complexity: 0
               alpha: 0.
               node_risk: 3.6180873120018192e-04
               tree_risk: 0.
               tree_error: 0.
            -
               depth: 2
               sample_count: 42
               value: 1.3790558065686906e-01
               Tn: 0
               complexity: 0
               alpha: 0.
               node_risk: 5.9006563673802415e-04
               tree_risk: 0.
               tree_error: 0.
               splits:
                  - { var:0, quality:7.9932957887649536e-01,
                      le:-6.2084633111953735e-01 }
            -
               depth: 3
               sample_count: 2
               value: 8.8701128959655762e-01
               Tn: 0
               complexity: 0
               alpha: 0.
               node_risk: 3.5652172591937870e-07
               tree_risk: 0.
               tree_error: 0.
            -
               depth: 3
               sample_count: 40
               value: 8.6914223432540894e-01
               Tn: 0
               complexity: 0
               alpha: 0.
               node_risk: 1.4008869967940818e-05
               tree_risk: 0.
               tree_error: 0.
            -
               depth: 1
               sample_count: 108
               value: -4.7863861200986083e-02
               Tn: 0
               complexity: 0
               alpha: 0.
               node_risk: 1.3305452840472742e-02
               tree_risk: 0.
               tree_error: 0.
               splits:
                  - { var:0, quality:2.4959316849708557e-01,
                      le:-7.5619511306285858e-02 }
            -
               depth: 2
               sample_count: 41
               value: -5.3594834284811488e-02
               Tn: 0
               complexity: 0
               alpha: 0.
               node_risk: 1.1075291328008746e-02
               tree_risk: 0.
               tree_error: 0.
               splits:
                  - { var:3, quality:1.2675085663795471e-01,
                      le:6.1975955963134766e-01 }
            -
               depth: 3
               sample_count: 9
               value: -8.1872832775115967e-01
               Tn: 0
               complexity: 0
               alpha: 0.
               node_risk: 1.7904254503035913e-03
               tree_risk: 0.
               tree_error: 0.
            -
               depth: 3
               sample_count: 32
               value: -7.8612399101257324e-01
               Tn: 0
               complexity: 0
               alpha: 0.
               node_risk: 3.0266312152177344e-04
               tree_risk: 0.
               tree_error: 0.
            -
               depth: 2
               sample_count: 67
               value: -4.4356847821331737e-02
               Tn: 0
               complexity: 0
               alpha: 0.
               node_risk: 5.9512789855525883e-05
               tree_risk: 0.
               tree_error: 0.
               splits:
                  - { var:1, quality:1.3185851275920868e-01,
                      le:7.5940895080566406e-01 }
            -
               depth: 3
               sample_count: 40
               value: -7.8529357910156250e-01
               Tn: 0
               complexity: 0
               alpha: 0.
               node_risk: 1.8041052332329333e-06
               tree_risk: 0.
               tree_error: 0.
            -
               depth: 3
               sample_count: 27
               value: -7.8411686420440674e-01
               Tn: 0
               complexity: 0
               alpha: 0.
               node_risk: 2.3706715989793570e-05
               tree_risk: 0.
               tree_error: 0.
      -
         best_tree_idx: -1
         nodes:
            -
               depth: 0
               sample_count: 152
               value: 2.1637459530642160e-03
               Tn: 0
               complexity: 0
               alpha: 0.
               node_risk: 1.0120215644360362e+00
               tree_risk: 0.
               tree_error: 0.
               splits:
                  - { var:3, quality:9.3146318197250366e-01,
                      le:-1.4463677406311035e+00 }
            -
               depth: 1
               sample_count: 43
               value: 1.2675114166597987e-01
               Tn: 0
               complexity: 0
               alpha: 0.
               node_risk: 6.8355008808967610e-02
               tree_risk: 0.
               tree_error: 0.
               splits:
                  - { var:0, quality:7.5851762294769287e-01,
                      le:-8.0506658554077148e-01 }
            -
               depth: 2
               sample_count: 2
               value: -7.9468142986297607e-01
               Tn: 0
               complexity: 0
               alpha: 0.
               node_risk: 3.5339630513678277e-04
               tree_risk: 0.
               tree_error: 0.
            -
               depth: 2
               sample_count: 41
               value: 1.3551384792095278e-01
               Tn: 0
               complexity: 0
               alpha: 0.
               node_risk: 3.1561657083611916e-04
               tree_risk: 0.
               tree_error: 0.
               splits:
                  - { var:0, quality:7.5322711467742920e-01,
                      le:-6.2084633111953735e-01 }
            -
               depth: 3
               sample_count: 1
               value: 8.8517147302627563e-01
               Tn: 0
               complexity: 0
               alpha: 0.
               node_risk: 0.
               tree_risk: 0.
               tree_error: 0.
            -
               depth: 3
               sample_count: 40
               value: 8.6713862419128418e-01
               Tn: 0
               complexity: 0
               alpha: 0.
               node_risk: 1.2637366090029190e-05
               tree_risk: 0.
               tree_error: 0.
            -
               depth: 1
               sample_count: 109
               value: -4.6985410153865814e-02
               Tn: 0
               complexity: 0
               alpha: 0.
               node_risk: 1.2915020777875985e-02
               tree_risk: 0.
               tree_error: 0.
               splits:
                  - { var:0, quality:2.4281328916549683e-01,
                      le:-9.2776104807853699e-02 }
            -
               depth: 2
               sample_count: 39
               value: -5.2979264790431045e-02
               Tn: 0
               complexity: 0
               alpha: 0.
               node_risk: 1.0671571747846498e-02
               tree_risk: 0.
               tree_error: 0.
               splits:
                  - { var:3, quality:1.1813443899154663e-01,
                      le:7.6475036144256592e-01 }
            -
               depth: 3
               sample_count: 9
               value: -8.1761991977691650e-01
               Tn: 0
               complexity: 0
               alpha: 0.
               node_risk: 1.8071466780748141e-03
               tree_risk: 0.
               tree_error: 0.
            -
               depth: 3
               sample_count: 30
               value: -7.8530609607696533e-01
               Tn: 0
               complexity: 0
               alpha: 0.
               node_risk: 1.9528119588326648e-04
               tree_risk: 0.
               tree_error: 0.
            -
               depth: 2
               sample_count: 70
               value: -4.3645976856350896e-02
               Tn: 0
               complexity: 0
               alpha: 0.
               node_risk: 6.1696554864515418e-05
               tree_risk: 0.
               tree_error: 0.
               splits:
                  - { var:1, quality:1.3338403403759003e-01,
                      le:7.5940895080566406e-01 }
            -
               depth: 3
               sample_count: 38
               value: -7.8476959466934204e-01
               Tn: 0
               complexity: 0
               alpha: 0.
               node_risk: 1.7589324566580355e-06
               tree_risk: 0.
               tree_error: 0.
            -
               depth: 3
               sample_count: 32
               value: -7.8360199928283691e-01
               Tn: 0
               complexity: 0
               alpha: 0.
               node_risk: 2.3896067792350539e-05
               tree_risk: 0.
               tree_error: 0.
      -
         best_tree_idx: -1
         nodes:
            -
               depth: 0
               sample_count: 152
               value: 2.1714834545395875e-03
               Tn: 0
               complexity: 0
               alpha: 0.
               node_risk: 9.9053963701924064e-01
               tree_risk: 0.
               tree_error: 0.
               splits:
                  - { var:3, quality:9.3782132863998413e-01,
                      le:-1.4483599662780762e+00 }
            -
               depth: 1
               sample_count: 42
               value: 1.2924174893470036e-01
               Tn: 0
               complexity: 0
               alpha: 0.
               node_risk: 3.9336414830515753e-02
               tree_risk: 0.
               tree_error: 0.
               splits:
                  - { var:0, quality:7.4032193422317505e-01,
                      le:-8.2366353273391724e-01 }
            -
               depth: 2
               sample_count: 1
               value: -8.0241441726684570e-01
               Tn: 0
               complexity: 0
               alpha: 0.
               node_risk: 0.
               tree_risk: 0.
               tree_error: 0.
            -
               depth: 2
               sample_count: 41
               value: 1.3398717816283062e-01
               Tn: 0
               complexity: 0
               alpha: 0.
               node_risk: 5.5852711158554946e-04
               tree_risk: 0.
               tree_error: 0.
               splits:
                  - { var:0, quality:7.3660397529602051e-01,
                      le:-6.2084633111953735e-01 }
            -
               depth: 3
               sample_count: 2
               value: 8.8250315189361572e-01
               Tn: 0
               complexity: 0
               alpha: 0.
               node_risk: 3.4030250795069605e-07
               tree_risk: 0.
               tree_error: 0.
            -
               depth: 3
               sample_count: 39
               value: 8.6521202325820923e-01
               Tn: 0
               complexity: 0
               alpha: 0.
               node_risk: 9.3590594021364382e-06
               tree_risk: 0.
               tree_error: 0.
            -
               depth: 1
               sample_count: 110
               value: -4.6346254274249078e-02
               Tn: 0
               complexity: 0
               alpha: 0.
               node_risk: 1.4098626507240558e-02
               tree_risk: 0.
               tree_error: 0.
               splits:
                  - { var:0, quality:2.3866008222103119e-01,
                      le:-9.2776104807853699e-02 }
            -
               depth: 2
               sample_count: 37
               value: -5.2883709604675706e-02
               Tn: 0
               complexity: 0
               alpha: 0.
               node_risk: 1.1653187047273861e-02
               tree_risk: 0.
               tree_error: 0.
               splits:
                  - { var:3, quality:1.1374252289533615e-01,
                      le:6.2503910064697266e-01 }
            -
               depth: 3
               sample_count: 7
               value: -8.2302260398864746e-01
               Tn: 0
               complexity: 0
               alpha: 0.
               node_risk: 8.3120328301176938e-04
               tree_risk: 0.
               tree_error: 0.
            -
               depth: 3
               sample_count: 30
               value: -7.8554749488830566e-01
               Tn: 0
               complexity: 0
               alpha: 0.
               node_risk: 5.5686737423920468e-04
               tree_risk: 0.
               tree_error: 0.
            -
               depth: 2
               sample_count: 73
               value: -4.3032749517731471e-02
               Tn: 0
               complexity: 0
               alpha: 0.
               node_risk: 6.2631633349047311e-05
               tree_risk: 0.
               tree_error: 0.
               splits:
                  - { var:1, quality:1.3522054255008698e-01,
                      le:7.1977233886718750e-01 }
            -
               depth: 3
               sample_count: 41
               value: -7.8424811363220215e-01
               Tn: 0
               complexity: 0
               alpha: 0.
               node_risk: 1.7228254733103743e-06
               tree_risk: 0.
               tree_error: 0.
            -
               depth: 3
               sample_count: 32
               value: -7.8307271003723145e-01
               Tn: 0
               complexity: 0
               alpha: 0.
               node_risk: 2.3039075204185633e-05
               tree_risk: 0.
               tree_error: 0.
      -
         best_tree_idx: -1
         nodes:
            -
               depth: 0
               sample_count: 152
               value: -2.7698427928905737e-03
               Tn: 0
               complexity: 0
               alpha: 0.
               node_risk: 9.0072490417269702e-01
               tree_risk: 0.
               tree_error: 0.
               splits:
                  - { var:3, quality:8.2291859388351440e-01,
                      le:-1.3993511199951172e+00 }
            -
               depth: 1
               sample_count: 39
               value: 1.2238729487244900e-01
               Tn: 0
               complexity: 0
               alpha: 0.
               node_risk: 6.4322250512314993e-02
               tree_risk: 0.
               tree_error: 0.
               splits:
                  - { var:0, quality:6.4785265922546387e-01,
                      le:-8.0506658554077148e-01 }
            -
               depth: 2
               sample_count: 2
               value: -7.9341709613800049e-01
               Tn: 0
               complexity: 0
               alpha: 0.
               node_risk: 3.3934466599550711e-04
               tree_risk: 0.
               tree_error: 0.
            -
               depth: 2
               sample_count: 37
               value: 1.3178239480869189e-01
               Tn: 0
               complexity: 0
               alpha: 0.
               node_risk: 2.9761396746774693e-04
               tree_risk: 0.
               tree_error: 0.
               splits:
                  - { var:0, quality:6.4284914731979370e-01,
                      le:-6.2084633111953735e-01 }
            -
               depth: 3
               sample_count: 1
               value: 8.8072925806045532e-01
               Tn: 0
               complexity: 0
               alpha: 0.
               node_risk: 0.
               tree_risk: 0.
               tree_error: 0.
            -
               depth: 3
               sample_count: 36
               value: 8.6338144540786743e-01
               Tn: 0
               complexity: 0
               alpha: 0.
               node_risk: 1.2671154596688439e-05
               tree_risk: 0.
               tree_error: 0.
            -
               depth: 1
               sample_count: 113
               value: -4.5965669066768834e-02
               Tn: 0
               complexity: 0
               alpha: 0.
               node_risk: 1.4650225380146514e-02
               tree_risk: 0.
               tree_error: 0.
               splits:
                  - { var:0, quality:2.4144111573696136e-01,
                      le:-7.4474617838859558e-02 }
            -
               depth: 2
               sample_count: 39
               value: -5.2686312259771884e-02
               Tn: 0
               complexity: 0
               alpha: 0.
               node_risk: 1.1896904296211791e-02
               tree_risk: 0.
               tree_error: 0.
               splits:
                  - { var:3, quality:1.1824461072683334e-01,
                      le:6.7546951770782471e-01 }
            -
               depth: 3
               sample_count: 9
               value: -8.1886196136474609e-01
               Tn: 0
               complexity: 0
               alpha: 0.
               node_risk: 1.6163535526270215e-03
               tree_risk: 0.
               tree_error: 0.
            -
               depth: 3
               sample_count: 30
               value: -7.8463762998580933e-01
               Tn: 0
               complexity: 0
               alpha: 0.
               node_risk: 2.9399067770495557e-04
               tree_risk: 0.
               tree_error: 0.
            -
               depth: 2
               sample_count: 74
               value: -4.2423708465051009e-02
               Tn: 0
               complexity: 0
               alpha: 0.
               node_risk: 6.3440448851453946e-05
               tree_risk: 0.
               tree_error: 0.
               splits:
                  - { var:1, quality:1.3321712613105774e-01,
                      le:7.8514218330383301e-01 }
            -
               depth: 3
               sample_count: 40
               value: -7.8374022245407104e-01
               Tn: 0
               complexity: 0
               alpha: 0.
               node_risk: 1.6793662595548930e-06
               tree_risk: 0.
               tree_error: 0.
            -
               depth: 3
               sample_count: 34
               value: -7.8264182806015015e-01
               Tn: 0
               complexity: 0
               alpha: 0.
               node_risk: 2.7688657119641358e-05
               tree_risk: 0.
               tree_error: 0.
      -
         best_tree_idx: -1
         nodes:
            -
               depth: 0
               sample_count: 152
               value: 2.2935541836838973e-03
               Tn: 0
               complexity: 0
               alpha: 0.
               node_risk: 9.3129351863049004e-01
               tree_risk: 0.
               tree_error: 0.
               splits:
                  - { var:3, quality:8.8315123319625854e-01,
                      le:-1.4463677406311035e+00 }
            -
               depth: 1
               sample_count: 42
               value: 1.2559573405555316e-01
               Tn: 0
               complexity: 0
               alpha: 0.
               node_risk: 3.7202498694516750e-02
               tree_risk: 0.
               tree_error: 0.
               splits:
                  - { var:0, quality:6.9919198751449585e-01,
                      le:-8.2366353273391724e-01 }
            -
               depth: 2
               sample_count: 1
               value: -8.0094820261001587e-01
               Tn: 0
               complexity: 0
               alpha: 0.
               node_risk: 0.
               tree_risk: 0.
               tree_error: 0.
            -
               depth: 2
               sample_count: 41
               value: 1.3021050429925685e-01
               Tn: 0
               complexity: 0
               alpha: 0.
               node_risk: 5.3060691397488480e-04
               tree_risk: 0.
               tree_error: 0.
               splits:
                  - { var:0, quality:6.9566559791564941e-01,
                      le:-6.1514461040496826e-01 }
            -
               depth: 3
               sample_count: 2
               value: 8.7815326452255249e-01
               Tn: 0
               complexity: 0
               alpha: 0.
               node_risk: 3.2470097721670754e-07
               tree_risk: 0.
               tree_error: 0.
            -
               depth: 3
               sample_count: 39
               value: 8.6148101091384888e-01
               Tn: 0
               complexity: 0
               alpha: 0.
               node_risk: 1.0477655262852714e-05
               tree_risk: 0.
               tree_error: 0.
            -
               depth: 1
               sample_count: 110
               value: -4.4785459949211640e-02
               Tn: 0
               complexity: 0
               alpha: 0.
               node_risk: 1.1739369477680617e-02
               tree_risk: 0.
               tree_error: 0.
               splits:
                  - { var:0, quality:2.2250281274318695e-01,
                      le:-7.5619511306285858e-02 }
            -
               depth: 2
               sample_count: 38
               value: -5.0463458229052391e-02
               Tn: 0
               complexity: 0
               alpha: 0.
               node_risk: 9.8124146048594596e-03
               tree_risk: 0.
               tree_error: 0.
               splits:
                  - { var:3, quality:1.0495764017105103e-01,
                      le:7.9172849655151367e-01 }
            -
               depth: 3
               sample_count: 8
               value: -8.1633400917053223e-01
               Tn: 0
               complexity: 0
               alpha: 0.
               node_risk: 1.4948700269388215e-03
               tree_risk: 0.
               tree_error: 0.
            -
               depth: 3
               sample_count: 30
               value: -7.8368556499481201e-01
               Tn: 0
               complexity: 0
               alpha: 0.
               node_risk: 1.2920977558799479e-04
               tree_risk: 0.
               tree_error: 0.
            -
               depth: 2
               sample_count: 72
               value: -4.1788738634851247e-02
               Tn: 0
               complexity: 0
               alpha: 0.
               node_risk: 5.5263241330344437e-05
               tree_risk: 0.
               tree_error: 0.
               splits:
                  - { var:1, quality:1.2576422095298767e-01,
                      le:7.5940895080566406e-01 }
            -
               depth: 3
               sample_count: 38
               value: -7.8321331739425659e-01
               Tn: 0
               complexity: 0
               alpha: 0.
               node_risk: 1.8874847199090716e-08
               tree_risk: 0.
               tree_error: 0.
            -
               depth: 3
               sample_count: 34
               value: -7.8215914964675903e-01
               Tn: 0
               complexity: 0
               alpha: 0.
               node_risk: 2.4535240046114071e-05
               tree_risk: 0.
               tree_error: 0.
      -
         best_tree_idx: -1
         nodes:
            -
               depth: 0
               sample_count: 152
               value: 2.0703609150491261e-03
               Tn: 0
               complexity: 0
               alpha: 0.
               node_risk: 9.0223827645561494e-01
               tree_risk: 0.
               tree_error: 0.
               splits:
                  - { var:3, quality:8.3019495010375977e-01,
                      le:-1.4463677406311035e+00 }
            -
               depth: 1
               sample_count: 43
               value: 1.1968917287019797e-01
               Tn: 0
               complexity: 0
               alpha: 0.
               node_risk: 6.0981330652745580e-02
               tree_risk: 0.
               tree_error: 0.
               splits:
                  - { var:0, quality:6.7639356851577759e-01,
                      le:-8.2366353273391724e-01 }
            -
               depth: 2
               sample_count: 2
               value: -7.9218757152557373e-01
               Tn: 0
               complexity: 0
               alpha: 0.
               node_risk: 3.2556981101484334e-04
               tree_risk: 0.
               tree_error: 0.
            -
               depth: 2
               sample_count: 41
               value: 1.2796663220335797e-01
               Tn: 0
               complexity: 0
               alpha: 0.
               node_risk: 2.5861329154897028e-04
               tree_risk: 0.
               tree_error: 0.
               splits:
                  - { var:0, quality:6.7164021730422974e-01,
                      le:-6.3944327831268311e-01 }
            -
               depth: 3
               sample_count: 1
               value: 8.7562751770019531e-01
               Tn: 0
               complexity: 0
               alpha: 0.
               node_risk: 0.
               tree_risk: 0.
               tree_error: 0.
            -
               depth: 3
               sample_count: 40
               value: 8.5967904329299927e-01
               Tn: 0
               complexity: 0
               alpha: 0.
               node_risk: 1.2204891813971663e-05
               tree_risk: 0.
               tree_error: 0.
            -
               depth: 1
               sample_count: 109
               value: -4.4329720865422431e-02
               Tn: 0
               complexity: 0
               alpha: 0.
               node_risk: 1.1713526769466687e-02
               tree_risk: 0.
               tree_error: 0.
               splits:
                  - { var:0, quality:2.1598169207572937e-01,
                      le:-7.5619511306285858e-02 }
            -
               depth: 2
               sample_count: 41
               value: -4.9538609276457528e-02
               Tn: 0
               complexity: 0
               alpha: 0.
               node_risk: 9.8769374721433545e-03
               tree_risk: 0.
               tree_error: 0.
               splits:
                  - { var:3, quality:1.0869220644235611e-01,
                      le:7.6475036144256592e-01 }
            -
               depth: 3
               sample_count: 8
               value: -8.1564414501190186e-01
               Tn: 0
               complexity: 0
               alpha: 0.
               node_risk: 1.5229910687485360e-03
               tree_risk: 0.
               tree_error: 0.
            -
               depth: 3
               sample_count: 33
               value: -7.8355729579925537e-01
               Tn: 0
               complexity: 0
               alpha: 0.
               node_risk: 2.7876835613735440e-04
               tree_risk: 0.
               tree_error: 0.
            -
               depth: 2
               sample_count: 68
               value: -4.1189067558768916e-02
               Tn: 0
               complexity: 0
               alpha: 0.
               node_risk: 5.3424222604070426e-05
               tree_risk: 0.
               tree_error: 0.
               splits:
                  - { var:1, quality:1.1539498716592789e-01,
                      le:7.1977233886718750e-01 }
            -
               depth: 3
               sample_count: 37
               value: -7.8271782398223877e-01
               Tn: 0
               complexity: 0
               alpha: 0.
               node_risk: 1.3893062505987430e-08
               tree_risk: 0.
               tree_error: 0.
            -
               depth: 3
               sample_count: 31
               value: -7.8163915872573853e-01
               Tn: 0
               complexity: 0
               alpha: 0.
               node_risk: 2.3090973477260524e-05
               tree_risk: 0.
               tree_error: 0.
      -
         best_tree_idx: -1
         nodes:
            -
               depth: 0
               sample_count: 152
               value: 7.5369891955664287e-04
               Tn: 0
               complexity: 0
               alpha: 0.
               node_risk: 8.7328748954749691e-01
               tree_risk: 0.
               tree_error: 0.
               splits:
                  - { var:3, quality:8.0012619495391846e-01,
                      le:-1.4463677406311035e+00 }
            -
               depth: 1
               sample_count: 42
               value: 1.1816386701095671e-01
               Tn: 0
               complexity: 0
               alpha: 0.
               node_risk: 5.9735407660738926e-02
               tree_risk: 0.
               tree_error: 0.
               splits:
                  - { var:0, quality:6.4534896612167358e-01,
                      le:-8.2366353273391724e-01 }
            -
               depth: 2
               sample_count: 2
               value: -7.9160118103027344e-01
               Tn: 0
               complexity: 0
               alpha: 0.
               node_risk: 3.1777150099820961e-04
               tree_risk: 0.
               tree_error: 0.
            -
               depth: 2
               sample_count: 40
               value: 1.2653868496418000e-01
               Tn: 0
               complexity: 0
               alpha: 0.
               node_risk: 5.0207253005074559e-04
               tree_risk: 0.
               tree_error: 0.
               splits:
                  - { var:0, quality:6.4097487926483154e-01,
                      le:-6.2084633111953735e-01 }
            -
               depth: 3
               sample_count: 2
               value: 8.7397098541259766e-01
               Tn: 0
               complexity: 0
               alpha: 0.
               node_risk: 3.2513341530204798e-07
               tree_risk: 0.
               tree_error: 0.
            -
               depth: 3
               sample_count: 38
               value: 8.5786324739456177e-01
               Tn: 0
               complexity: 0
               alpha: 0.
               node_risk: 8.4030516699362678e-06
               tree_risk: 0.
               tree_error: 0.
            -
               depth: 1
               sample_count: 110
               value: -4.4075637988068843e-02
               Tn: 0
               complexity: 0
               alpha: 0.
               node_risk: 1.3512244660713268e-02
               tree_risk: 0.
               tree_error: 0.
               splits:
                  - { var:0, quality:2.1592341363430023e-01,
                      le:-7.5619511306285858e-02 }
            -
               depth: 2
               sample_count: 40
               value: -5.0032724160701036e-02
               Tn: 0
               complexity: 0
               alpha: 0.
               node_risk: 1.1228763328616415e-02
               tree_risk: 0.
               tree_error: 0.
               splits:
                  - { var:3, quality:1.0986706614494324e-01,
                      le:6.2503910064697266e-01 }
            -
               depth: 3
               sample_count: 8
               value: -8.1771272420883179e-01
               Tn: 0
               complexity: 0
               alpha: 0.
               node_risk: 1.0216232651179824e-03
               tree_risk: 0.
               tree_error: 0.
            -
               depth: 3
               sample_count: 32
               value: -7.8335571289062500e-01
               Tn: 0
               complexity: 0
               alpha: 0.
               node_risk: 4.7101247949101616e-04
               tree_risk: 0.
               tree_error: 0.
            -
               depth: 2
               sample_count: 70
               value: -4.0671588746564728e-02
               Tn: 0
               complexity: 0
               alpha: 0.
               node_risk: 5.2877718669658291e-05
               tree_risk: 0.
               tree_error: 0.
               splits:
                  - { var:1, quality:1.1582223325967789e-01,
                      le:8.2477879524230957e-01 }
            -
               depth: 3
               sample_count: 40
               value: -7.8225815296173096e-01
               Tn: 0
               complexity: 0
               alpha: 0.
               node_risk: 1.5625597002272285e-06
               tree_risk: 0.
               tree_error: 0.
            -
               depth: 3
               sample_count: 30
               value: -7.8119844198226929e-01
               Tn: 0
               complexity: 0
               alpha: 0.
               node_risk: 2.1553153632669630e-05
               tree_risk: 0.
               tree_error: 0.
      -
         best_tree_idx: -1
         nodes:
            -
               depth: 0
               sample_count: 152
               value: -1.3735699222276086e-03
               Tn: 0
               complexity: 0
               alpha: 0.
               node_risk: 8.1853725166230495e-01
               tree_risk: 0.
               tree_error: 0.
               splits:
                  - { var:3, quality:7.7306473255157471e-01,
                      le:-1.3993511199951172e+00 }
            -
               depth: 1
               sample_count: 39
               value: 1.1999674561696175e-01
               Tn: 0
               complexity: 0
               alpha: 0.
               node_risk: 3.4158425732763398e-02
               tree_risk: 0.
               tree_error: 0.
               splits:
                  - { var:0, quality:5.9523844718933105e-01,
                      le:-8.2366353273391724e-01 }
            -
               depth: 2
               sample_count: 1
               value: -7.9882967472076416e-01
               Tn: 0
               complexity: 0
               alpha: 0.
               node_risk: 0.
               tree_risk: 0.
               tree_error: 0.
            -
               depth: 2
               sample_count: 38
               value: 1.2476314682709544e-01
               Tn: 0
               complexity: 0
               alpha: 0.
               node_risk: 4.8948943774496101e-04
               tree_risk: 0.
               tree_error: 0.
               splits:
                  - { var:0, quality:5.9198194742202759e-01,
                      le:-6.1514461040496826e-01 }
            -
               depth: 3
               sample_count: 2
               value: 8.7193250656127930e-01
               Tn: 0
               complexity: 0
               alpha: 0.
               node_risk: 3.1753604190498663e-07
               tree_risk: 0.
               tree_error: 0.
            -
               depth: 3
               sample_count: 36
               value: 8.5609364509582520e-01
               Tn: 0
               complexity: 0
               alpha: 0.
               node_risk: 9.2574809811285519e-06
               tree_risk: 0.
               tree_error: 0.
            -
               depth: 1
               sample_count: 113
               value: -4.3262439887080575e-02
               Tn: 0
               complexity: 0
               alpha: 0.
               node_risk: 1.1600890416972237e-02
               tree_risk: 0.
               tree_error: 0.
               splits:
                  - { var:0, quality:2.1344029903411865e-01,
                      le:-7.5619511306285858e-02 }
            -
               depth: 2
               sample_count: 42
               value: -4.8656798012199853e-02
               Tn: 0
               complexity: 0
               alpha: 0.
               node_risk: 9.6027030367469846e-03
               tree_risk: 0.
               tree_error: 0.
               splits:
                  - { var:3, quality:1.0725720971822739e-01,
                      le:7.9172849655151367e-01 }
            -
               depth: 3
               sample_count: 10
               value: -8.1111210584640503e-01
               Tn: 0
               complexity: 0
               alpha: 0.
               node_risk: 1.6609489063132490e-03
               tree_risk: 0.
               tree_error: 0.
            -
               depth: 3
               sample_count: 32
               value: -7.8216093778610229e-01
               Tn: 0
               complexity: 0
               alpha: 0.
               node_risk: 1.1887288748514691e-04
               tree_risk: 0.
               tree_error: 0.
            -
               depth: 2
               sample_count: 71
               value: -4.0071411137010009e-02
               Tn: 0
               complexity: 0
               alpha: 0.
               node_risk: 5.3056019431674262e-05
               tree_risk: 0.
               tree_error: 0.
               splits:
                  - { var:1, quality:1.1403500288724899e-01,
                      le:8.2477879524230957e-01 }
            -
               depth: 3
               sample_count: 39
               value: -7.8178054094314575e-01
               Tn: 0
               complexity: 0
               alpha: 0.
               node_risk: 1.5214052720147198e-06
               tree_risk: 0.
               tree_error: 0.
            -
               depth: 3
               sample_count: 32
               value: -7.8074860572814941e-01
               Tn: 0
               complexity: 0
               alpha: 0.
               node_risk: 2.2512479391841034e-05
               tree_risk: 0.
               tree_error: 0.
      -
         best_tree_idx: -1
         nodes:
            -
               depth: 0
               sample_count: 152
               value: -4.4919222005103762e-04
               Tn: 0
               complexity: 0
               alpha: 0.
               node_risk: 8.0667958670194673e-01
               tree_risk: 0.
               tree_error: 0.
               splits:
                  - { var:3, quality:7.3898094892501831e-01,
                      le:-1.4463677406311035e+00 }
            -
               depth: 1
               sample_count: 41
               value: 1.1427509721095969e-01
               Tn: 0
               complexity: 0
               alpha: 0.
               node_risk: 5.5884700174156365e-02
               tree_risk: 0.
               tree_error: 0.
               splits:
                  - { var:0, quality:5.9075272083282471e-01,
                      le:-8.2366353273391724e-01 }
            -
               depth: 2
               sample_count: 2
               value: -7.9042065143585205e-01
               Tn: 0
               complexity: 0
               alpha: 0.
               node_risk: 3.0457969714548644e-04
               tree_risk: 0.
               tree_error: 0.
            -
               depth: 2
               sample_count: 39
               value: 1.2259500148968819e-01
               Tn: 0
               complexity: 0
               alpha: 0.
               node_risk: 2.3808511485068351e-04
               tree_risk: 0.
               tree_error: 0.
               splits:
                  - { var:0, quality:5.8637869358062744e-01,
                      le:-6.3944327831268311e-01 }
            -
               depth: 3
               sample_count: 1
               value: 8.6952805519104004e-01
               Tn: 0
               complexity: 0
               alpha: 0.
               node_risk: 0.
               tree_risk: 0.
               tree_error: 0.
            -
               depth: 3
               sample_count: 38
               value: 8.5441476106643677e-01
               Tn: 0
               complexity: 0
               alpha: 0.
               node_risk: 1.1205784372858574e-05
               tree_risk: 0.
               tree_error: 0.
            -
               depth: 1
               sample_count: 111
               value: -4.2824830658532480e-02
               Tn: 0
               complexity: 0
               alpha: 0.
               node_risk: 1.1844605153679522e-02
               tree_risk: 0.
               tree_error: 0.
               splits:
                  - { var:0, quality:2.0569649338722229e-01,
                      le:-7.5619511306285858e-02 }
            -
               depth: 2
               sample_count: 42
               value: -4.8434611498599962e-02
               Tn: 0
               complexity: 0
               alpha: 0.
               node_risk: 9.6680565912545952e-03
               tree_risk: 0.
               tree_error: 0.
               splits:
                  - { var:3, quality:1.0620763152837753e-01,
                      le:7.6475036144256592e-01 }
            -
               depth: 3
               sample_count: 10
               value: -8.1080967187881470e-01
               Tn: 0
               complexity: 0
               alpha: 0.
               node_risk: 1.7250932627170742e-03
               tree_risk: 0.
               tree_error: 0.
            -
               depth: 3
               sample_count: 32
               value: -7.8212761878967285e-01
               Tn: 0
               complexity: 0
               alpha: 0.
               node_risk: 2.6361719718163285e-04
               tree_risk: 0.
               tree_error: 0.
            -
               depth: 2
               sample_count: 69
               value: -3.9410181451534881e-02
               Tn: 0
               complexity: 0
               alpha: 0.
               node_risk: 5.0295422061974460e-05
               tree_risk: 0.
               tree_error: 0.
               splits:
                  - { var:1, quality:1.0719801485538483e-01,
                      le:7.5940895080566406e-01 }
            -
               depth: 3
               sample_count: 36
               value: -7.8128218650817871e-01
               Tn: 0
               complexity: 0
               alpha: 0.
               node_risk: 1.6386586018657390e-08
               tree_risk: 0.
               tree_error: 0.
            -
               depth: 3
               sample_count: 33
               value: -7.8022569417953491e-01
               Tn: 0
               complexity: 0
               alpha: 0.
               node_risk: 2.0467424238390652e-05
               tree_risk: 0.
               tree_error: 0.
      -
         best_tree_idx: -1
         nodes:
            -
               depth: 0
               sample_count: 152
               value: 5.3256766037329244e-03
               Tn: 0
               complexity: 0
               alpha: 0.
               node_risk: 8.4271648958308909e-01
               tree_risk: 0.
               tree_error: 0.
               splits:
                  - { var:3, quality:7.8233587741851807e-01,
                      le:-1.4483599662780762e+00 }
            -
               depth: 1
               sample_count: 46
               value: 1.1393045212911523e-01
               Tn: 0
               complexity: 0
               alpha: 0.
               node_risk: 5.5118584382454316e-02
               tree_risk: 0.
               tree_error: 0.
               splits:
                  - { var:0, quality:6.5145295858383179e-01,
                      le:-8.2366353273391724e-01 }
            -
               depth: 2
               sample_count: 2
               value: -7.8985470533370972e-01
               Tn: 0
               complexity: 0
               alpha: 0.
               node_risk: 2.9714693418173010e-04
               tree_risk: 0.
               tree_error: 0.
            -
               depth: 2
               sample_count: 44
               value: 1.2125994536009702e-01
               Tn: 0
               complexity: 0
               alpha: 0.
               node_risk: 4.5530877298871619e-04
               tree_risk: 0.
               tree_error: 0.
               splits:
                  - { var:0, quality:6.4742332696914673e-01,
                      le:-6.2084633111953735e-01 }
            -
               depth: 3
               sample_count: 2
               value: 8.6794573068618774e-01
               Tn: 0
               complexity: 0
               alpha: 0.
               node_risk: 3.1653932985875599e-07
               tree_risk: 0.
               tree_error: 0.
            -
               depth: 3
               sample_count: 42
               value: 8.5281985998153687e-01
               Tn: 0
               complexity: 0
               alpha: 0.
               node_risk: 6.5612468506115462e-06
               tree_risk: 0.
               tree_error: 0.
            -
               depth: 1
               sample_count: 106
               value: -4.1804697680866941e-02
               Tn: 0
               complexity: 0
               alpha: 0.
               node_risk: 9.5731798204902741e-03
               tree_risk: 0.
               tree_error: 0.
               splits:
                  - { var:0, quality:1.8671412765979767e-01,
                      le:-7.5619511306285858e-02 }
            -
               depth: 2
               sample_count: 41
               value: -4.6485697259990182e-02
               Tn: 0
               complexity: 0
               alpha: 0.
               node_risk: 8.0589973827484146e-03
               tree_risk: 0.
               tree_error: 0.
               splits:
                  - { var:3, quality:9.5155403017997742e-02,
                      le:7.6475036144256592e-01 }
            -
               depth: 3
               sample_count: 8
               value: -8.1021988391876221e-01
               Tn: 0
               complexity: 0
               alpha: 0.
               node_risk: 1.2434901123170236e-03
               tree_risk: 0.
               tree_error: 0.
            -
               depth: 3
               sample_count: 33
               value: -7.8161871433258057e-01
               Tn: 0
               complexity: 0
               alpha: 0.
               node_risk: 2.5782585784772660e-04
               tree_risk: 0.
               tree_error: 0.
            -
               depth: 2
               sample_count: 65
               value: -3.8852067177112287e-02
               Tn: 0
               complexity: 0
               alpha: 0.
               node_risk: 4.9128650331645152e-05
               tree_risk: 0.
               tree_error: 0.
               splits:
                  - { var:1, quality:9.8144695162773132e-02,
                      le:7.0518326759338379e-01 }
            -
               depth: 3
               sample_count: 33
               value: -7.8084564208984375e-01
               Tn: 0
               complexity: 0
               alpha: 0.
               node_risk: 1.4414537251178361e-06
               tree_risk: 0.
               tree_error: 0.
            -
               depth: 3
               sample_count: 32
               value: -7.7978622913360596e-01
               Tn: 0
               complexity: 0
               alpha: 0.
               node_risk: 1.9394961917287845e-05
               tree_risk: 0.
               tree_error: 0.
      -
         best_tree_idx: -1
         nodes:
            -
               depth: 0
               sample_count: 152
               value: -2.6829450048114125e-03
               Tn: 0
               complexity: 0
               alpha: 0.
               node_risk: 7.4114985913052878e-01
               tree_risk: 0.
               tree_error: 0.
               splits:
                  - { var:3, quality:7.0514315366744995e-01,
                      le:-1.4463677406311035e+00 }
            -
               depth: 1
               sample_count: 38
               value: 1.1519709817673031e-01
               Tn: 0
               complexity: 0
               alpha: 0.
               node_risk: 2.3256982855499819e-02
               tree_risk: 0.
               tree_error: 0.
               splits:
                  - { var:0, quality:5.2731406688690186e-01,
                      le:-8.8406997919082642e-01 }
            -
               depth: 2
               sample_count: 1
               value: -7.7686524391174316e-01
               Tn: 0
               complexity: 0
               alpha: 0.
               node_risk: 0.
               tree_risk: 0.
               tree_error: 0.
            -
               depth: 2
               sample_count: 37
               value: 1.1924517154693604e-01
               Tn: 0
               complexity: 0
               alpha: 0.
               node_risk: 2.1700425264015166e-04
               tree_risk: 0.
               tree_error: 0.
               splits:
                  - { var:0, quality:5.2632898092269897e-01,
                      le:-6.3944327831268311e-01 }
            -
               depth: 3
               sample_count: 1
               value: 8.6561697721481323e-01
               Tn: 0
               complexity: 0
               alpha: 0.
               node_risk: 0.
               tree_risk: 0.
               tree_error: 0.
            -
               depth: 3
               sample_count: 36
               value: 8.5115927457809448e-01
               Tn: 0
               complexity: 0
               alpha: 0.
               node_risk: 6.2223975340058857e-06
               tree_risk: 0.
               tree_error: 0.
            -
               depth: 1
               sample_count: 114
               value: -4.1976292731991986e-02
               Tn: 0
               complexity: 0
               alpha: 0.
               node_risk: 1.3843844197268862e-02
               tree_risk: 0.
               tree_error: 0.
               splits:
                  - { var:0, quality:2.0359927415847778e-01,
                      le:-7.5619511306285858e-02 }
            -
               depth: 2
               sample_count: 41
               value: -4.8506342964928326e-02
               Tn: 0
               complexity: 0
               alpha: 0.
               node_risk: 1.1060408155103757e-02
               tree_risk: 0.
               tree_error: 0.
               splits:
                  - { var:3, quality:1.0529391467571259e-01,
                      le:7.6475036144256592e-01 }
            -
               depth: 3
               sample_count: 11
               value: -8.1101614236831665e-01
               Tn: 0
               complexity: 0
               alpha: 0.
               node_risk: 1.9980027322073282e-03
               tree_risk: 0.
               tree_error: 0.
            -
               depth: 3
               sample_count: 30
               value: -7.8110378980636597e-01
               Tn: 0
               complexity: 0
               alpha: 0.
               node_risk: 2.3596581065756655e-04
               tree_risk: 0.
               tree_error: 0.
            -
               depth: 2
               sample_count: 73
               value: -3.8308730272397604e-02
               Tn: 0
               complexity: 0
               alpha: 0.
               node_risk: 5.3208193496995237e-05
               tree_risk: 0.
               tree_error: 0.
               splits:
                  - { var:1, quality:1.0716433078050613e-01,
                      le:7.5940895080566406e-01 }
            -
               depth: 3
               sample_count: 39
               value: -7.8038269281387329e-01
               Tn: 0
               complexity: 0
               alpha: 0.
               node_risk: 1.4126848753223675e-06
               tree_risk: 0.
               tree_error: 0.
            -
               depth: 3
               sample_count: 34
               value: -7.7930879592895508e-01
               Tn: 0
               complexity: 0
               alpha: 0.
               node_risk: 1.9254718325298348e-05
               tree_risk: 0.
               tree_error: 0.
      -
         best_tree_idx: -1
         nodes:
            -
               depth: 0
               sample_count: 152
               value: 8.0193410088357170e-04
               Tn: 0
               complexity: 0
               alpha: 0.
               node_risk: 7.5691604240462240e-01
               tree_risk: 0.
               tree_error: 0.
               splits:
                  - { var:3, quality:6.9365018606185913e-01,
                      le:-1.3993511199951172e+00 }
            -
               depth: 1
               sample_count: 42
               value: 1.1011939815112523e-01
               Tn: 0
               complexity: 0
               alpha: 0.
               node_risk: 5.2192679632875438e-02
               tree_risk: 0.
               tree_error: 0.
               splits:
                  - { var:0, quality:5.6076413393020630e-01,
                      le:-8.2366353273391724e-01 }
            -
               depth: 2
               sample_count: 2
               value: -7.8921067714691162e-01
               Tn: 0
               complexity: 0
               alpha: 0.
               node_risk: 3.0289219367876652e-04
               tree_risk: 0.
               tree_error: 0.
            -
               depth: 2
               sample_count: 40
               value: 1.1794641762971877e-01
               Tn: 0
               complexity: 0
               alpha: 0.
               node_risk: 4.2951094783905130e-04
               tree_risk: 0.
               tree_error: 0.
               splits:
                  - { var:0, quality:5.5687409639358521e-01,
                      le:-6.2084633111953735e-01 }
            -
               depth: 3
               sample_count: 2
               value: 8.6412322521209717e-01
               Tn: 0
               complexity: 0
               alpha: 0.
               node_risk: 3.1464516503376672e-07
               tree_risk: 0.
               tree_error: 0.
            -
               depth: 3
               sample_count: 38
               value: 8.4957468509674072e-01
               Tn: 0
               complexity: 0
               alpha: 0.
               node_risk: 9.4228586571265538e-06
               tree_risk: 0.
               tree_error: 0.
            -
               depth: 1
               sample_count: 110
               value: -4.0937461263754152e-02
               Tn: 0
               complexity: 0
               alpha: 0.
               node_risk: 1.1170945229352691e-02
               tree_risk: 0.
               tree_error: 0.
               splits:
                  - { var:0, quality:1.8616299331188202e-01,
                      le:-9.2776104807853699e-02 }
            -
               depth: 2
               sample_count: 41
               value: -4.6209443542288571e-02
               Tn: 0
               complexity: 0
               alpha: 0.
               node_risk: 9.3063897350298130e-03
               tree_risk: 0.
               tree_error: 0.
               splits:
                  - { var:3, quality:9.5156393945217133e-02,
                      le:7.9629755020141602e-01 }
            -
               depth: 3
               sample_count: 10
               value: -8.0869877338409424e-01
               Tn: 0
               complexity: 0
               alpha: 0.
               node_risk: 1.6774373461052525e-03
               tree_risk: 0.
               tree_error: 0.
            -
               depth: 3
               sample_count: 31
               value: -7.8002262115478516e-01
               Tn: 0
               complexity: 0
               alpha: 0.
               node_risk: 2.0375005601896978e-05
               tree_risk: 0.
               tree_error: 0.
            -
               depth: 2
               sample_count: 69
               value: -3.7804834112740944e-02
               Tn: 0
               complexity: 0
               alpha: 0.
               node_risk: 4.7888463529280334e-05
               tree_risk: 0.
               tree_error: 0.
               splits:
                  - { var:1, quality:9.8647795617580414e-02,
                      le:7.5940895080566406e-01 }
            -
               depth: 3
               sample_count: 41
               value: -7.7992892265319824e-01
               Tn: 0
               complexity: 0
               alpha: 0.
               node_risk: 1.3798080018764813e-06
               tree_risk: 0.
               tree_error: 0.
            -
               depth: 3
               sample_count: 28
               value: -7.7880507707595825e-01
               Tn: 0
               complexity: 0
               alpha: 0.
               node_risk: 1.3890352897102942e-05
               tree_risk: 0.
               tree_error: 0.
      -
         best_tree_idx: -1
         nodes:
            -
               depth: 0
               sample_count: 152
               value: -2.4663489802103293e-03
               Tn: 0
               complexity: 0
               alpha: 0.
               node_risk: 7.0227404177865116e-01
               tree_risk: 0.
               tree_error: 0.
               splits:
                  - { var:3, quality:6.4004415273666382e-01,
                      le:-1.4483599662780762e+00 }
            -
               depth: 1
               sample_count: 39
               value: 1.0791004067048049e-01
               Tn: 0
               complexity: 0
               alpha: 0.
               node_risk: 5.0517152526111664e-02
               tree_risk: 0.
               tree_error: 0.
               splits:
                  - { var:0, quality:5.0394451618194580e-01,
                      le:-8.2366353273391724e-01 }
            -
               depth: 2
               sample_count: 2
               value: -7.8866279125213623e-01
               Tn: 0
               complexity: 0
               alpha: 0.
               node_risk: 2.9548533900591867e-04
               tree_risk: 0.
               tree_error: 0.
            -
               depth: 2
               sample_count: 37
               value: 1.1621854111954973e-01
               Tn: 0
               complexity: 0
               alpha: 0.
               node_risk: 4.1567102476519624e-04
               tree_risk: 0.
               tree_error: 0.
               splits:
                  - { var:0, quality:5.0016260147094727e-01,
                      le:-6.2084633111953735e-01 }
            -
               depth: 3
               sample_count: 2
               value: 8.6226075887680054e-01
               Tn: 0
               complexity: 0
               alpha: 0.
               node_risk: 3.0712534915267042e-07
               tree_risk: 0.
               tree_error: 0.
            -
               depth: 3
               sample_count: 35
               value: 8.4786063432693481e-01
               Tn: 0
               complexity: 0
               alpha: 0.
               node_risk: 2.5153494856433589e-06
               tree_risk: 0.
               tree_error: 0.
            -
               depth: 1
               sample_count: 113
               value: -4.0560855142838130e-02
               Tn: 0
               complexity: 0
               alpha: 0.
               node_risk: 1.2637312777499549e-02
               tree_risk: 0.
               tree_error: 0.
               splits:
                  - { var:0, quality:1.8830893933773041e-01,
                      le:-7.4474617838859558e-02 }
            -
               depth: 2
               sample_count: 38
               value: -4.7039737532797610e-02
               Tn: 0
               complexity: 0
               alpha: 0.
               node_risk: 1.0185887891623321e-02
               tree_risk: 0.
               tree_error: 0.
               splits:
                  - { var:3, quality:9.2316232621669769e-02,
                      le:7.9172849655151367e-01 }
            -
               depth: 3
               sample_count: 10
               value: -8.1015545129776001e-01
               Tn: 0
               complexity: 0
               alpha: 0.
               node_risk: 1.8512339501505284e-03
               tree_risk: 0.
               tree_error: 0.
            -
               depth: 3
               sample_count: 28
               value: -7.7990084886550903e-01
               Tn: 0
               complexity: 0
               alpha: 0.
               node_risk: 1.0242233754921559e-04
               tree_risk: 0.
               tree_error: 0.
            -
               depth: 2
               sample_count: 75
               value: -3.7278221398591993e-02
               Tn: 0
               complexity: 0
               alpha: 0.
               node_risk: 4.8163716590415850e-05
               tree_risk: 0.
               tree_error: 0.
               splits:
                  - { var:1, quality:1.0425083339214325e-01,
                      le:7.5940895080566406e-01 }
            -
               depth: 3
               sample_count: 40
               value: -7.7948701381683350e-01
               Tn: 0
               complexity: 0
               alpha: 0.
               node_risk: 1.3416758997686351e-06
               tree_risk: 0.
               tree_error: 0.
            -
               depth: 3
               sample_count: 35
               value: -7.7854645252227783e-01
               Tn: 0
               complexity: 0
               alpha: 0.
               node_risk: 2.0926602114307302e-05
               tree_risk: 0.
               tree_error: 0.
      -
         best_tree_idx: -1
         nodes:
            -
               depth: 0
               sample_count: 152
               value: 1.8621193686206091e-03
               Tn: 0
               complexity: 0
               alpha: 0.
               node_risk: 7.2346819140515795e-01
               tree_risk: 0.
               tree_error: 0.
               splits:
                  - { var:3, quality:6.9167590141296387e-01,
                      le:-1.4463677406311035e+00 }
            -
               depth: 1
               sample_count: 42
               value: 1.1098999148678212e-01
               Tn: 0
               complexity: 0
               alpha: 0.
               node_risk: 2.1698972464016308e-02
               tree_risk: 0.
               tree_error: 0.
               splits:
                  - { var:0, quality:5.3867942094802856e-01,
                      le:-8.8406997919082642e-01 }
            -
               depth: 2
               sample_count: 1
               value: -7.7573579549789429e-01
               Tn: 0
               complexity: 0
               alpha: 0.
               node_risk: 0.
               tree_risk: 0.
               tree_error: 0.
            -
               depth: 2
               sample_count: 41
               value: 1.1450623448302107e-01
               Tn: 0
               complexity: 0
               alpha: 0.
               node_risk: 4.0822506360815858e-04
               tree_risk: 0.
               tree_error: 0.
               splits:
                  - { var:0, quality:5.3798127174377441e-01,
                      le:-6.2084633111953735e-01 }
            -
               depth: 3
               sample_count: 2
               value: 8.6043041944503784e-01
               Tn: 0
               complexity: 0
               alpha: 0.
               node_risk: 2.9974263071608220e-07
               tree_risk: 0.
               tree_error: 0.
            -
               depth: 3
               sample_count: 39
               value: 8.4630811214447021e-01
               Tn: 0
               complexity: 0
               alpha: 0.
               node_risk: 5.4294684317390818e-06
               tree_risk: 0.
               tree_error: 0.
            -
               depth: 1
               sample_count: 110
               value: -3.9804886349222877e-02
               Tn: 0
               complexity: 0
               alpha: 0.
               node_risk: 1.0620404869566641e-02
               tree_risk: 0.
               tree_error: 0.
               splits:
                  - { var:0, quality:1.7624872922897339e-01,
                      le:-7.4474617838859558e-02 }
            -
               depth: 2
               sample_count: 38
               value: -4.5617566394962762e-02
               Tn: 0
               complexity: 0
               alpha: 0.
               node_risk: 8.6130726459875823e-03
               tree_risk: 0.
               tree_error: 0.
               splits:
                  - { var:3, quality:8.5896678268909454e-02,
                      le:7.6475036144256592e-01 }
            -
               depth: 3
               sample_count: 9
               value: -8.0833011865615845e-01
               Tn: 0
               complexity: 0
               alpha: 0.
               node_risk: 1.5646873714589837e-03
               tree_risk: 0.
               tree_error: 0.
            -
               depth: 3
               sample_count: 29
               value: -7.7991819381713867e-01
               Tn: 0
               complexity: 0
               alpha: 0.
               node_risk: 2.2827767899830792e-04
               tree_risk: 0.
               tree_error: 0.
            -
               depth: 2
               sample_count: 72
               value: -3.6737082991749048e-02
               Tn: 0
               complexity: 0
               alpha: 0.
               node_risk: 4.5794693952619370e-05
               tree_risk: 0.
               tree_error: 0.
               splits:
                  - { var:1, quality:9.7197897732257843e-02,
                      le:8.2477879524230957e-01 }
            -
               depth: 3
               sample_count: 39
               value: -7.7904921770095825e-01
               Tn: 0
               complexity: 0
               alpha: 0.
               node_risk: 1.3067045496195639e-06
               tree_risk: 0.
               tree_error: 0.
            -
               depth: 3
               sample_count: 33
               value: -7.7809125185012817e-01
               Tn: 0
               complexity: 0
               alpha: 0.
               node_risk: 1.8745136403056084e-05
               tree_risk: 0.
               tree_error: 0.
      -
         best_tree_idx: -1
         nodes:
            -
               depth: 0
               sample_count: 152
               value: -1.0793303188524749e-03
               Tn: 0
               complexity: 0
               alpha: 0.
               node_risk: 6.6955746910761393e-01
               tree_risk: 0.
               tree_error: 0.
               splits:
                  - { var:3, quality:6.5887171030044556e-01,
                      le:-1.4483599662780762e+00 }
            -
               depth: 1
               sample_count: 38
               value: 1.1294063455180119e-01
               Tn: 0
               complexity: 0
               alpha: 0.
               node_risk: 3.9502203000996161e-04
               tree_risk: 0.
               tree_error: 0.
               splits:
                  - { var:0, quality:4.8510140180587769e-01,
                      le:-6.2084633111953735e-01 }
            -
               depth: 2
               sample_count: 2
               value: 8.5863232612609863e-01
               Tn: 0
               complexity: 0
               alpha: 0.
               node_risk: 2.9244972843400774e-07
               tree_risk: 0.
               tree_error: 0.
            -
               depth: 2
               sample_count: 36
               value: 1.1218640704949696e-01
               Tn: 0
               complexity: 0
               alpha: 0.
               node_risk: 5.6299386228531034e-06
               tree_risk: 0.
               tree_error: 0.
               splits:
                  - { var:2, quality:4.5309168100357056e-01,
                      le:-7.6615101099014282e-01 }
            -
               depth: 3
               sample_count: 35
               value: 8.4472429752349854e-01
               Tn: 0
               complexity: 0
               alpha: 0.
               node_risk: 2.3969395737122312e-06
               tree_risk: 0.
               tree_error: 0.
            -
               depth: 3
               sample_count: 1
               value: 8.4646224975585938e-01
               Tn: 0
               complexity: 0
               alpha: 0.
               node_risk: 0.
               tree_risk: 0.
               tree_error: 0.
            -
               depth: 1
               sample_count: 114
               value: -3.9085985275737027e-02
               Tn: 0
               complexity: 0
               alpha: 0.
               node_risk: 1.0467792696281647e-02
               tree_risk: 0.
               tree_error: 0.
               splits:
                  - { var:0, quality:1.7598660290241241e-01,
                      le:-7.5619511306285858e-02 }
            -
               depth: 2
               sample_count: 40
               value: -4.4531306531280276e-02
               Tn: 0
               complexity: 0
               alpha: 0.
               node_risk: 8.5928759873235283e-03
               tree_risk: 0.
               tree_error: 0.
               splits:
                  - { var:3, quality:8.6141556501388550e-02,
                      le:7.6475036144256592e-01 }
            -
               depth: 3
               sample_count: 9
               value: -8.0754899978637695e-01
               Tn: 0
               complexity: 0
               alpha: 0.
               node_risk: 1.5463361342545334e-03
               tree_risk: 0.
               tree_error: 0.
            -
               depth: 3
               sample_count: 31
               value: -7.7937501668930054e-01
               Tn: 0
               complexity: 0
               alpha: 0.
               node_risk: 2.2647210696001563e-04
               tree_risk: 0.
               tree_error: 0.
            -
               depth: 2
               sample_count: 74
               value: -3.6142568380848783e-02
               Tn: 0
               complexity: 0
               alpha: 0.
               node_risk: 4.7741742649071162e-05
               tree_risk: 0.
               tree_error: 0.
               splits:
                  - { var:1, quality:9.6692606806755066e-02,
                      le:7.1977233886718750e-01 }
            -
               depth: 3
               sample_count: 37
               value: -7.7861654758453369e-01
               Tn: 0
               complexity: 0
               alpha: 0.
               node_risk: 1.2736943777943988e-06
               tree_risk: 0.
               tree_error: 0.
            -
               depth: 3
               sample_count: 37
               value: -7.7764320373535156e-01
               Tn: 0
               complexity: 0
               alpha: 0.
               node_risk: 1.8972326377493520e-05
               tree_risk: 0.
               tree_error: 0.
      -
         best_tree_idx: -1
         nodes:
            -
               depth: 0
               sample_count: 152
               value: -6.3010116450880707e-04
               Tn: 0
               complexity: 0
               alpha: 0.
               node_risk: 6.7064161928497301e-01
               tree_risk: 0.
               tree_error: 0.
               splits:
                  - { var:3, quality:6.1092460155487061e-01,
                      le:-1.4463677406311035e+00 }
            -
               depth: 1
               sample_count: 41
               value: 1.0367850032521457e-01
               Tn: 0
               complexity: 0
               alpha: 0.
               node_risk: 4.7592668862516618e-02
               tree_risk: 0.
               tree_error: 0.
               splits:
                  - { var:0, quality:4.8761749267578125e-01,
                      le:-8.2366353273391724e-01 }
            -
               depth: 2
               sample_count: 2
               value: -7.8868246078491211e-01
               Tn: 0
               complexity: 0
               alpha: 0.
               node_risk: 3.0826626552782344e-04
               tree_risk: 0.
               tree_error: 0.
            -
               depth: 2
               sample_count: 39
               value: 1.1133751043906578e-01
               Tn: 0
               complexity: 0
               alpha: 0.
               node_risk: 3.8538407569066457e-04
               tree_risk: 0.
               tree_error: 0.
               splits:
                  - { var:0, quality:4.8382258415222168e-01,
                      le:-6.2084633111953735e-01 }
            -
               depth: 3
               sample_count: 2
               value: 8.5685980319976807e-01
               Tn: 0
               complexity: 0
               alpha: 0.
               node_risk: 2.8533668938734991e-07
               tree_risk: 0.
               tree_error: 0.
            -
               depth: 3
               sample_count: 37
               value: 8.4328091144561768e-01
               Tn: 0
               complexity: 0
               alpha: 0.
               node_risk: 8.1316398492514708e-06
               tree_risk: 0.
               tree_error: 0.
            -
               depth: 1
               sample_count: 111
               value: -3.9158503516568792e-02
               Tn: 0
               complexity: 0
               alpha: 0.
               node_risk: 1.2184697841993081e-02
               tree_risk: 0.
               tree_error: 0.
               splits:
                  - { var:0, quality:1.7240017652511597e-01,
                      le:-7.5619511306285858e-02 }
            -
               depth: 2
               sample_count: 42
               value: -4.4857040402435121e-02
               Tn: 0
               complexity: 0
               alpha: 0.
               node_risk: 9.9516594400523573e-03
               tree_risk: 0.
               tree_error: 0.
               splits:
                  - { var:3, quality:9.2592999339103699e-02,
                      le:7.9172849655151367e-01 }
            -
               depth: 3
               sample_count: 11
               value: -8.0689615011215210e-01
               Tn: 0
               complexity: 0
               alpha: 0.
               node_risk: 1.7744584878980341e-03
               tree_risk: 0.
               tree_error: 0.
            -
               depth: 3
               sample_count: 31
               value: -7.7855503559112549e-01
               Tn: 0
               complexity: 0
               alpha: 0.
               node_risk: 9.4673872557009264e-05
               tree_risk: 0.
               tree_error: 0.
            -
               depth: 2
               sample_count: 69
               value: -3.5689828890389290e-02
               Tn: 0
               complexity: 0
               alpha: 0.
               node_risk: 3.8971298379805730e-05
               tree_risk: 0.
               tree_error: 0.
               splits:
                  - { var:1, quality:8.7911367416381836e-02,
                      le:7.1977233886718750e-01 }
            -
               depth: 3
               sample_count: 38
               value: -7.7816641330718994e-01
               Tn: 0
               complexity: 0
               alpha: 0.
               node_risk: 1.3098546872147843e-08
               tree_risk: 0.
               tree_error: 0.
            -
               depth: 3
               sample_count: 31
               value: -7.7727091312408447e-01
               Tn: 0
               complexity: 0
               alpha: 0.
               node_risk: 1.7302590933847284e-05
               tree_risk: 0.
               tree_error: 0.
      -
         best_tree_idx: -1
         nodes:
            -
               depth: 0
               sample_count: 152
               value: 4.8181296963440746e-04
               Tn: 0
               complexity: 0
               alpha: 0.
               node_risk: 6.5476533805212611e-01
               tree_risk: 0.
               tree_error: 0.
               splits:
                  - { var:3, quality:5.9865373373031616e-01,
                      le:-1.4463677406311035e+00 }
            -
               depth: 1
               sample_count: 42
               value: 1.0204234346747398e-01
               Tn: 0
               complexity: 0
               alpha: 0.
               node_risk: 4.5929841484174394e-02
               tree_risk: 0.
               tree_error: 0.
               splits:
                  - { var:0, quality:4.8275199532508850e-01,
                      le:-8.0506658554077148e-01 }
            -
               depth: 2
               sample_count: 2
               value: -7.8812879323959351e-01
               Tn: 0
               complexity: 0
               alpha: 0.
               node_risk: 3.0193095227806777e-04
               tree_risk: 0.
               tree_error: 0.
            -
               depth: 2
               sample_count: 40
               value: 1.0939576178789139e-01
               Tn: 0
               complexity: 0
               alpha: 0.
               node_risk: 2.0679129605405411e-04
               tree_risk: 0.
               tree_error: 0.
               splits:
                  - { var:0, quality:4.7889578342437744e-01,
                      le:-6.2084633111953735e-01 }
            -
               depth: 3
               sample_count: 1
               value: 8.5548686981201172e-01
               Tn: 0
               complexity: 0
               alpha: 0.
               node_risk: 0.
               tree_risk: 0.
               tree_error: 0.
            -
               depth: 3
               sample_count: 39
               value: 8.4178960323333740e-01
               Tn: 0
               complexity: 0
               alpha: 0.
               node_risk: 8.3290362959953512e-06
               tree_risk: 0.
               tree_error: 0.
            -
               depth: 1
               sample_count: 110
               value: -3.8295844129540700e-02
               Tn: 0
               complexity: 0
               alpha: 0.
               node_risk: 1.0217023746710685e-02
               tree_risk: 0.
               tree_error: 0.
               splits:
                  - { var:0, quality:1.6326202452182770e-01,
                      le:-7.5619511306285858e-02 }
            -
               depth: 2
               sample_count: 40
               value: -4.3850127980113028e-02
               Tn: 0
               complexity: 0
               alpha: 0.
               node_risk: 8.2355050220985770e-03
               tree_risk: 0.
               tree_error: 0.
               splits:
                  - { var:3, quality:8.3406716585159302e-02,
                      le:7.6475036144256592e-01 }
            -
               depth: 3
               sample_count: 10
               value: -8.0492579936981201e-01
               Tn: 0
               complexity: 0
               alpha: 0.
               node_risk: 1.5285248928068665e-03
               tree_risk: 0.
               tree_error: 0.
            -
               depth: 3
               sample_count: 30
               value: -7.7856492996215820e-01
               Tn: 0
               complexity: 0
               alpha: 0.
               node_risk: 2.1361561274538254e-04
               tree_risk: 0.
               tree_error: 0.
            -
               depth: 2
               sample_count: 70
               value: -3.5121967643499376e-02
               Tn: 0
               complexity: 0
               alpha: 0.
               node_risk: 4.2371524497916702e-05
               tree_risk: 0.
               tree_error: 0.
               splits:
                  - { var:1, quality:8.6372576653957367e-02,
                      le:7.5940895080566406e-01 }
            -
               depth: 3
               sample_count: 35
               value: -7.7777206897735596e-01
               Tn: 0
               complexity: 0
               alpha: 0.
               node_risk: 1.2123795069263199e-06
               tree_risk: 0.
               tree_error: 0.
            -
               depth: 3
               sample_count: 35
               value: -7.7684146165847778e-01
               Tn: 0
               complexity: 0
               alpha: 0.
               node_risk: 1.7265899593166267e-05
               tree_risk: 0.
               tree_error: 0.
      -
         best_tree_idx: -1
         nodes:
            -
               depth: 0
               sample_count: 152
               value: -3.2278402512402912e-03
               Tn: 0
               complexity: 0
               alpha: 0.
               node_risk: 5.9854978362239586e-01
               tree_risk: 0.
               tree_error: 0.
               splits:
                  - { var:3, quality:5.6856817007064819e-01,
                      le:-1.4463677406311035e+00 }
            -
               depth: 1
               sample_count: 37
               value: 1.0444640720615515e-01
               Tn: 0
               complexity: 0
               alpha: 0.
               node_risk: 1.9592779880963751e-02
               tree_risk: 0.
               tree_error: 0.
               splits:
                  - { var:0, quality:4.2283529043197632e-01,
                      le:-8.8406997919082642e-01 }
            -
               depth: 2
               sample_count: 1
               value: -7.7498042583465576e-01
               Tn: 0
               complexity: 0
               alpha: 0.
               node_risk: 0.
               tree_risk: 0.
               tree_error: 0.
            -
               depth: 2
               sample_count: 36
               value: 1.0824307468202379e-01
               Tn: 0
               complexity: 0
               alpha: 0.
               node_risk: 3.9242089643526379e-04
               tree_risk: 0.
               tree_error: 0.
               splits:
                  - { var:0, quality:4.2218157649040222e-01,
                      le:-6.1514461040496826e-01 }
            -
               depth: 3
               sample_count: 2
               value: 8.5395461320877075e-01
               Tn: 0
               complexity: 0
               alpha: 0.
               node_risk: 2.7374972688676280e-07
               tree_risk: 0.
               tree_error: 0.
            -
               depth: 3
               sample_count: 34
               value: 8.4029042720794678e-01
               Tn: 0
               complexity: 0
               alpha: 0.
               node_risk: 6.8357144304975748e-06
               tree_risk: 0.
               tree_error: 0.
            -
               depth: 1
               sample_count: 115
               value: -3.7870858998402306e-02
               Tn: 0
               complexity: 0
               alpha: 0.
               node_risk: 1.1972535806959950e-02
               tree_risk: 0.
               tree_error: 0.
               splits:
                  - { var:0, quality:1.6726852953433990e-01,
                      le:-9.2776104807853699e-02 }
            -
               depth: 2
               sample_count: 39
               value: -4.4161524910193220e-02
               Tn: 0
               complexity: 0
               alpha: 0.
               node_risk: 9.5968395939608347e-03
               tree_risk: 0.
               tree_error: 0.
               splits:
                  - { var:3, quality:8.3881683647632599e-02,
                      le:7.9629755020141602e-01 }
            -
               depth: 3
               sample_count: 11
               value: -8.0571508407592773e-01
               Tn: 0
               complexity: 0
               alpha: 0.
               node_risk: 1.7572576921673147e-03
               tree_risk: 0.
               tree_error: 0.
            -
               depth: 3
               sample_count: 28
               value: -7.7744561433792114e-01
               Tn: 0
               complexity: 0
               alpha: 0.
               node_risk: 1.7271819654621212e-05
               tree_risk: 0.
               tree_error: 0.
            -
               depth: 2
               sample_count: 76
               value: -3.4642754122614861e-02
               Tn: 0
               complexity: 0
               alpha: 0.
               node_risk: 4.0399343292099599e-05
               tree_risk: 0.
               tree_error: 0.
               splits:
                  - { var:1, quality:9.1232128441333771e-02,
                      le:6.2349808216094971e-01 }
            -
               depth: 3
               sample_count: 40
               value: -7.7733451128005981e-01
               Tn: 0
               complexity: 0
               alpha: 0.
               node_risk: 1.2228499483846189e-08
               tree_risk: 0.
               tree_error: 0.
            -
               depth: 3
               sample_count: 36
               value: -7.7645969390869141e-01
               Tn: 0
               complexity: 0
               alpha: 0.
               node_risk: 1.7410368371467699e-05
               tree_risk: 0.
               tree_error: 0.
      -
         best_tree_idx: -1
         nodes:
            -
               depth: 0
               sample_count: 152
               value: 6.6574903107003162e-04
               Tn: 0
               complexity: 0
               alpha: 0.
               node_risk: 6.1346730965696950e-01
               tree_risk: 0.
               tree_error: 0.
               splits:
                  - { var:3, quality:5.6187093257904053e-01,
                      le:-1.4463677406311035e+00 }
            -
               depth: 1
               sample_count: 42
               value: 9.9053752120761646e-02
               Tn: 0
               complexity: 0
               alpha: 0.
               node_risk: 4.3571136238856167e-02
               tree_risk: 0.
               tree_error: 0.
               splits:
                  - { var:0, quality:4.5514637231826782e-01,
                      le:-8.0506658554077148e-01 }
            -
               depth: 2
               sample_count: 2
               value: -7.8747385740280151e-01
               Tn: 0
               complexity: 0
               alpha: 0.
               node_risk: 3.0462530330766652e-04
               tree_risk: 0.
               tree_error: 0.
            -
               depth: 2
               sample_count: 40
               value: 1.0621326416730881e-01
               Tn: 0
               complexity: 0
               alpha: 0.
               node_risk: 2.0927623003919038e-04
               tree_risk: 0.
               tree_error: 0.
               splits:
                  - { var:0, quality:4.5145562291145325e-01,
                      le:-6.1514461040496826e-01 }
            -
               depth: 3
               sample_count: 1
               value: 8.5262346267700195e-01
               Tn: 0
               complexity: 0
               alpha: 0.
               node_risk: 0.
               tree_risk: 0.
               tree_error: 0.
            -
               depth: 3
               sample_count: 39
               value: 8.3878678083419800e-01
               Tn: 0
               complexity: 0
               alpha: 0.
               node_risk: 3.9569822771201579e-06
               tree_risk: 0.
               tree_error: 0.
            -
               depth: 1
               sample_count: 110
               value: -3.6900579421357674e-02
               Tn: 0
               complexity: 0
               alpha: 0.
               node_risk: 8.0926153615490104e-03
               tree_risk: 0.
               tree_error: 0.
               splits:
                  - { var:0, quality:1.5107184648513794e-01,
                      le:-7.5619511306285858e-02 }
            -
               depth: 2
               sample_count: 42
               value: -4.1258064763886590e-02
               Tn: 0
               complexity: 0
               alpha: 0.
               node_risk: 6.7648818192407034e-03
               tree_risk: 0.
               tree_error: 0.
               splits:
                  - { var:3, quality:7.6808027923107147e-02,
                      le:7.6475036144256592e-01 }
            -
               depth: 3
               sample_count: 9
               value: -8.0214381217956543e-01
               Tn: 0
               complexity: 0
               alpha: 0.
               node_risk: 1.2477961073415755e-03
               tree_risk: 0.
               tree_error: 0.
            -
               depth: 3
               sample_count: 33
               value: -7.7765101194381714e-01
               Tn: 0
               complexity: 0
               alpha: 0.
               node_risk: 2.0262721019718988e-04
               tree_risk: 0.
               tree_error: 0.
            -
               depth: 2
               sample_count: 68
               value: -3.4209191415678054e-02
               Tn: 0
               complexity: 0
               alpha: 0.
               node_risk: 3.7688325869644768e-05
               tree_risk: 0.
               tree_error: 0.
               splits:
                  - { var:1, quality:7.9596973955631256e-02,
                      le:7.5940895080566406e-01 }
            -
               depth: 3
               sample_count: 36
               value: -7.7696502208709717e-01
               Tn: 0
               complexity: 0
               alpha: 0.
               node_risk: 2.5309115500651846e-06
               tree_risk: 0.
               tree_error: 0.
            -
               depth: 3
               sample_count: 32
               value: -7.7613103389739990e-01
               Tn: 0
               complexity: 0
               alpha: 0.
               node_risk: 1.6461741181465761e-05
               tree_risk: 0.
               tree_error: 0.
      -
         best_tree_idx: -1
         nodes:
            -
               depth: 0
               sample_count: 152
               value: -3.3688729530886598e-03
               Tn: 0
               complexity: 0
               alpha: 0.
               node_risk: 5.6807990939309161e-01
               tree_risk: 0.
               tree_error: 0.
               splits:
                  - { var:3, quality:5.1578086614608765e-01,
                      le:-1.4463677406311035e+00 }
            -
               depth: 1
               sample_count: 38
               value: 9.7357677785973804e-02
               Tn: 0
               complexity: 0
               alpha: 0.
               node_risk: 4.2575919192042178e-02
               tree_risk: 0.
               tree_error: 0.
               splits:
                  - { var:0, quality:4.0209248661994934e-01,
                      le:-8.2366353273391724e-01 }
            -
               depth: 2
               sample_count: 2
               value: -7.8694701194763184e-01
               Tn: 0
               complexity: 0
               alpha: 0.
               node_risk: 2.9710098323409984e-04
               tree_risk: 0.
               tree_error: 0.
            -
               depth: 2
               sample_count: 36
               value: 1.0518520739343432e-01
               Tn: 0
               complexity: 0
               alpha: 0.
               node_risk: 3.6998789592918024e-04
               tree_risk: 0.
               tree_error: 0.
               splits:
                  - { var:0, quality:3.9866366982460022e-01,
                      le:-6.2084633111953735e-01 }
            -
               depth: 3
               sample_count: 2
               value: 8.5059642791748047e-01
               Tn: 0
               complexity: 0
               alpha: 0.
               node_risk: 2.6042042122753628e-07
               tree_risk: 0.
               tree_error: 0.
            -
               depth: 3
               sample_count: 34
               value: 8.3744418621063232e-01
               Tn: 0
               complexity: 0
               alpha: 0.
               node_risk: 7.4563487101331205e-06
               tree_risk: 0.
               tree_error: 0.
            -
               depth: 1
               sample_count: 114
               value: -3.6944389866109477e-02
               Tn: 0
               complexity: 0
               alpha: 0.
               node_risk: 1.1448196995744259e-02
               tree_risk: 0.
               tree_error: 0.
               splits:
                  - { var:0, quality:1.5766589343547821e-01,
                      le:-7.5619511306285858e-02 }
            -
               depth: 2
               sample_count: 41
               value: -4.2628502791247719e-02
               Tn: 0
               complexity: 0
               alpha: 0.
               node_risk: 9.3421839386338412e-03
               tree_risk: 0.
               tree_error: 0.
               splits:
                  - { var:3, quality:8.2084529101848602e-02,
                      le:6.2503910064697266e-01 }
            -
               depth: 3
               sample_count: 9
               value: -8.0681139230728149e-01
               Tn: 0
               complexity: 0
               alpha: 0.
               node_risk: 1.3196507812318209e-03
               tree_risk: 0.
               tree_error: 0.
            -
               depth: 3
               sample_count: 32
               value: -7.7785366773605347e-01
               Tn: 0
               complexity: 0
               alpha: 0.
               node_risk: 4.4276288219538551e-04
               tree_risk: 0.
               tree_error: 0.
            -
               depth: 2
               sample_count: 73
               value: -3.3751942880757869e-02
               Tn: 0
               complexity: 0
               alpha: 0.
               node_risk: 3.7342931473421936e-05
               tree_risk: 0.
               tree_error: 0.
               splits:
                  - { var:1, quality:8.3180010318756104e-02,
                      le:8.3967995643615723e-01 }
            -
               depth: 3
               sample_count: 41
               value: -7.7656060457229614e-01
               Tn: 0
               complexity: 0
               alpha: 0.
               node_risk: 2.4730334524034059e-06
               tree_risk: 0.
               tree_error: 0.
            -
               depth: 3
               sample_count: 32
               value: -7.7574825286865234e-01
               Tn: 0
               complexity: 0
               alpha: 0.
               node_risk: 1.5998467489182489e-05
               tree_risk: 0.
               tree_error: 0.
      -
         best_tree_idx: -1
         nodes:
            -
               depth: 0
               sample_count: 152
               value: -1.7215809172117396e-03
               Tn: 0
               complexity: 0
               alpha: 0.
               node_risk: 5.4572196042964527e-01
               tree_risk: 0.
               tree_error: 0.
               splits:
                  - { var:3, quality:4.9892589449882507e-01,
                      le:-1.4463677406311035e+00 }
            -
               depth: 1
               sample_count: 39
               value: 9.5756503490683362e-02
               Tn: 0
               complexity: 0
               alpha: 0.
               node_risk: 4.1027500941731410e-02
               tree_risk: 0.
               tree_error: 0.
               splits:
                  - { var:0, quality:3.9816099405288696e-01,
                      le:-8.2366353273391724e-01 }
            -
               depth: 2
               sample_count: 2
               value: -7.8642874956130981e-01
               Tn: 0
               complexity: 0
               alpha: 0.
               node_risk: 2.8976504651560993e-04
               tree_risk: 0.
               tree_error: 0.
            -
               depth: 2
               sample_count: 37
               value: 1.0325406370936213e-01
               Tn: 0
               complexity: 0
               alpha: 0.
               node_risk: 1.7976113381229508e-04
               tree_risk: 0.
               tree_error: 0.
               splits:
                  - { var:0, quality:3.9464458823204041e-01,
                      le:-6.3944327831268311e-01 }
            -
               depth: 3
               sample_count: 1
               value: 8.4862542152404785e-01
               Tn: 0
               complexity: 0
               alpha: 0.
               node_risk: 0.
               tree_risk: 0.
               tree_error: 0.
            -
               depth: 3
               sample_count: 36
               value: 8.3602333068847656e-01
               Tn: 0
               complexity: 0
               alpha: 0.
               node_risk: 7.0330086252567980e-06
               tree_risk: 0.
               tree_error: 0.
            -
               depth: 1
               sample_count: 113
               value: -3.5364459606662263e-02
               Tn: 0
               complexity: 0
               alpha: 0.
               node_risk: 6.2190674584601813e-03
               tree_risk: 0.
               tree_error: 0.
               splits:
                  - { var:0, quality:1.4237019419670105e-01,
                      le:-7.5619511306285858e-02 }
            -
               depth: 2
               sample_count: 39
               value: -3.9557996182105482e-02
               Tn: 0
               complexity: 0
               alpha: 0.
               node_risk: 5.1300983291978561e-03
               tree_risk: 0.
               tree_error: 0.
               splits:
                  - { var:3, quality:6.4982056617736816e-02,
                      le:7.6475036144256592e-01 }
            -
               depth: 3
               sample_count: 8
               value: -7.9910832643508911e-01
               Tn: 0
               complexity: 0
               alpha: 0.
               node_risk: 9.8632426974119836e-04
               tree_risk: 0.
               tree_error: 0.
            -
               depth: 3
               sample_count: 31
               value: -7.7689737081527710e-01
               Tn: 0
               complexity: 0
               alpha: 0.
               node_risk: 1.9028676709567649e-04
               tree_risk: 0.
               tree_error: 0.
            -
               depth: 2
               sample_count: 74
               value: -3.3154352492577324e-02
               Tn: 0
               complexity: 0
               alpha: 0.
               node_risk: 4.1666482164831598e-05
               tree_risk: 0.
               tree_error: 0.
               splits:
                  - { var:1, quality:8.1365808844566345e-02,
                      le:7.5940895080566406e-01 }
            -
               depth: 3
               sample_count: 38
               value: -7.7616667747497559e-01
               Tn: 0
               complexity: 0
               alpha: 0.
               node_risk: 2.4082082002441219e-06
               tree_risk: 0.
               tree_error: 0.
            -
               depth: 3
               sample_count: 36
               value: -7.7525776624679565e-01
               Tn: 0
               complexity: 0
               alpha: 0.
               node_risk: 1.5068876607834958e-05
               tree_risk: 0.
               tree_error: 0.
      -
         best_tree_idx: -1
         nodes:
            -
               depth: 0
               sample_count: 152
               value: 4.1316851336312922e-03
               Tn: 0
               complexity: 0
               alpha: 0.
               node_risk: 5.9951194259083385e-01
               tree_risk: 0.
               tree_error: 0.
               splits:
                  - { var:3, quality:5.6905210018157959e-01,
                      le:-1.4463677406311035e+00 }
            -
               depth: 1
               sample_count: 45
               value: 9.8265888541936880e-02
               Tn: 0
               complexity: 0
               alpha: 0.
               node_risk: 2.3964889264379452e-02
               tree_risk: 0.
               tree_error: 0.
               splits:
                  - { var:0, quality:4.5831826329231262e-01,
                      le:-8.2366353273391724e-01 }
            -
               depth: 2
               sample_count: 1
               value: -7.9302185773849487e-01
               Tn: 0
               complexity: 0
               alpha: 0.
               node_risk: 0.
               tree_risk: 0.
               tree_error: 0.
            -
               depth: 2
               sample_count: 44
               value: 1.0173217139460823e-01
               Tn: 0
               complexity: 0
               alpha: 0.
               node_risk: 1.7495797122690782e-04
               tree_risk: 0.
               tree_error: 0.
               splits:
                  - { var:0, quality:4.5554295182228088e-01,
                      le:-6.3944327831268311e-01 }
            -
               depth: 3
               sample_count: 1
               value: 8.4701633453369141e-01
               Tn: 0
               complexity: 0
               alpha: 0.
               node_risk: 0.
               tree_risk: 0.
               tree_error: 0.
            -
               depth: 3
               sample_count: 43
               value: 8.3466506004333496e-01
               Tn: 0
               complexity: 0
               alpha: 0.
               node_risk: 7.1312243785648377e-06
               tree_risk: 0.
               tree_error: 0.
            -
               depth: 1
               sample_count: 107
               value: -3.5457465832478531e-02
               Tn: 0
               complexity: 0
               alpha: 0.
               node_risk: 9.0896884759584795e-03
               tree_risk: 0.
               tree_error: 0.
               splits:
                  - { var:0, quality:1.3600282371044159e-01,
                      le:-7.5619511306285858e-02 }
            -
               depth: 2
               sample_count: 37
               value: -4.0571253142646840e-02
               Tn: 0
               complexity: 0
               alpha: 0.
               node_risk: 7.5750108411578448e-03
               tree_risk: 0.
               tree_error: 0.
               splits:
                  - { var:3, quality:6.7016012966632843e-02,
                      le:6.2503910064697266e-01 }
            -
               depth: 3
               sample_count: 7
               value: -8.0594402551651001e-01
               Tn: 0
               complexity: 0
               alpha: 0.
               node_risk: 1.0502695922072272e-03
               tree_risk: 0.
               tree_error: 0.
            -
               depth: 3
               sample_count: 30
               value: -7.7701020240783691e-01
               Tn: 0
               complexity: 0
               alpha: 0.
               node_risk: 4.1170951972711867e-04
               tree_risk: 0.
               tree_error: 0.
            -
               depth: 2
               sample_count: 70
               value: -3.2754463968532425e-02
               Tn: 0
               complexity: 0
               alpha: 0.
               node_risk: 3.5661935261416255e-05
               tree_risk: 0.
               tree_error: 0.
               splits:
                  - { var:1, quality:7.5120083987712860e-02,
                      le:7.5940895080566406e-01 }
            -
               depth: 3
               sample_count: 40
               value: -7.7577263116836548e-01
               Tn: 0
               complexity: 0
               alpha: 0.
               node_risk: 2.3545801303356817e-06
               tree_risk: 0.
               tree_error: 0.
            -
               depth: 3
               sample_count: 30
               value: -7.7491116523742676e-01
               Tn: 0
               complexity: 0
               alpha: 0.
               node_risk: 1.3067569566729137e-05
               tree_risk: 0.
               tree_error: 0.
      -
         best_tree_idx: -1
         nodes:
            -
               depth: 0
               sample_count: 152
               value: -3.0209396867767759e-03
               Tn: 0
               complexity: 0
               alpha: 0.
               node_risk: 5.1740059347530709e-01
               tree_risk: 0.
               tree_error: 0.
               splits:
                  - { var:3, quality:4.7024685144424438e-01,
                      le:-1.4463677406311035e+00 }
            -
               depth: 1
               sample_count: 38
               value: 9.3175784929802538e-02
               Tn: 0
               complexity: 0
               alpha: 0.
               node_risk: 3.9064379850452358e-02
               tree_risk: 0.
               tree_error: 0.
               splits:
                  - { var:0, quality:3.6835473775863647e-01,
                      le:-8.2366353273391724e-01 }
            -
               depth: 2
               sample_count: 2
               value: -7.8540205955505371e-01
               Tn: 0
               complexity: 0
               alpha: 0.
               node_risk: 2.7542952974368706e-04
               tree_risk: 0.
               tree_error: 0.
            -
               depth: 2
               sample_count: 36
               value: 1.0067326161596510e-01
               Tn: 0
               complexity: 0
               alpha: 0.
               node_risk: 3.3983516557573035e-04
               tree_risk: 0.
               tree_error: 0.
               splits:
                  - { var:0, quality:3.6519938707351685e-01,
                      le:-6.2084633111953735e-01 }
            -
               depth: 3
               sample_count: 2
               value: 8.4579777717590332e-01
               Tn: 0
               complexity: 0
               alpha: 0.
               node_risk: 2.5930319935696389e-07
               tree_risk: 0.
               tree_error: 0.
            -
               depth: 3
               sample_count: 34
               value: 8.3327215909957886e-01
               Tn: 0
               complexity: 0
               alpha: 0.
               node_risk: 3.9758642675913336e-06
               tree_risk: 0.
               tree_error: 0.
            -
               depth: 1
               sample_count: 114
               value: -3.5086514558969883e-02
               Tn: 0
               complexity: 0
               alpha: 0.
               node_risk: 9.4765157256503363e-03
               tree_risk: 0.
               tree_error: 0.
               splits:
                  - { var:0, quality:1.4178143441677094e-01,
                      le:-7.5619511306285858e-02 }
            -
               depth: 2
               sample_count: 44
               value: -3.9569643410769378e-02
               Tn: 0
               complexity: 0
               alpha: 0.
               node_risk: 8.0011111624699593e-03
               tree_risk: 0.
               tree_error: 0.
               splits:
                  - { var:3, quality:7.5257763266563416e-02,
                      le:7.9172849655151367e-01 }
            -
               depth: 3
               sample_count: 10
               value: -8.0151343345642090e-01
               Tn: 0
               complexity: 0
               alpha: 0.
               node_risk: 1.5584844252188590e-03
               tree_risk: 0.
               tree_error: 0.
            -
               depth: 3
               sample_count: 34
               value: -7.7568823099136353e-01
               Tn: 0
               complexity: 0
               alpha: 0.
               node_risk: 7.8154861751812688e-05
               tree_risk: 0.
               tree_error: 0.
            -
               depth: 2
               sample_count: 70
               value: -3.2268547852124484e-02
               Tn: 0
               complexity: 0
               alpha: 0.
               node_risk: 3.5207468637291073e-05
               tree_risk: 0.
               tree_error: 0.
               splits:
                  - { var:1, quality:7.2908185422420502e-02,
                      le:8.2477879524230957e-01 }
            -
               depth: 3
               sample_count: 39
               value: -7.7539205551147461e-01
               Tn: 0
               complexity: 0
               alpha: 0.
               node_risk: 2.2876791131234975e-06
               tree_risk: 0.
               tree_error: 0.
            -
               depth: 3
               sample_count: 31
               value: -7.7453851699829102e-01
               Tn: 0
               complexity: 0
               alpha: 0.
               node_risk: 1.2876905963160601e-05
               tree_risk: 0.
               tree_error: 0.
      -
         best_tree_idx: -1
         nodes:
            -
               depth: 0
               sample_count: 152
               value: -1.9466676381661703e-03
               Tn: 0
               complexity: 0
               alpha: 0.
               node_risk: 5.1002449197483191e-01
               tree_risk: 0.
               tree_error: 0.
               splits:
                  - { var:3, quality:4.7902011871337891e-01,
                      le:-1.4538946151733398e+00 }
            -
               depth: 1
               sample_count: 38
               value: 9.5228307831444245e-02
               Tn: 0
               complexity: 0
               alpha: 0.
               node_risk: 2.2834407179579630e-02
               tree_risk: 0.
               tree_error: 0.
               splits:
                  - { var:0, quality:3.6710453033447266e-01,
                      le:-8.2366353273391724e-01 }
            -
               depth: 2
               sample_count: 1
               value: -7.9180622100830078e-01
               Tn: 0
               complexity: 0
               alpha: 0.
               node_risk: 0.
               tree_risk: 0.
               tree_error: 0.
            -
               depth: 2
               sample_count: 37
               value: 9.9229032928879191e-02
               Tn: 0
               complexity: 0
               alpha: 0.
               node_risk: 3.3025054440388724e-04
               tree_risk: 0.
               tree_error: 0.
               splits:
                  - { var:0, quality:3.6464264988899231e-01,
                      le:-6.2084633111953735e-01 }
            -
               depth: 3
               sample_count: 2
               value: 8.4425598382949829e-01
               Tn: 0
               complexity: 0
               alpha: 0.
               node_risk: 2.5290458438576024e-07
               tree_risk: 0.
               tree_error: 0.
            -
               depth: 3
               sample_count: 35
               value: 8.3196604251861572e-01
               Tn: 0
               complexity: 0
               alpha: 0.
               node_risk: 4.1870889542772183e-06
               tree_risk: 0.
               tree_error: 0.
            -
               depth: 1
               sample_count: 114
               value: -3.4338326128036306e-02
               Tn: 0
               complexity: 0
               alpha: 0.
               node_risk: 8.7459746809374350e-03
               tree_risk: 0.
               tree_error: 0.
               splits:
                  - { var:0, quality:1.3583460450172424e-01,
                      le:-7.5619511306285858e-02 }
            -
               depth: 2
               sample_count: 39
               value: -3.9223731614840336e-02
               Tn: 0
               complexity: 0
               alpha: 0.
               node_risk: 7.2959186367271556e-03
               tree_risk: 0.
               tree_error: 0.
               splits:
                  - { var:3, quality:6.5939828753471375e-02,
                      le:6.2503910064697266e-01 }
            -
               depth: 3
               sample_count: 7
               value: -8.0445665121078491e-01
               Tn: 0
               complexity: 0
               alpha: 0.
               node_risk: 9.5842522553573825e-04
               tree_risk: 0.
               tree_error: 0.
            -
               depth: 3
               sample_count: 32
               value: -7.7625721693038940e-01
               Tn: 0
               complexity: 0
               alpha: 0.
               node_risk: 3.9921085332422779e-04
               tree_risk: 0.
               tree_error: 0.
            -
               depth: 2
               sample_count: 75
               value: -3.1797915274898211e-02
               Tn: 0
               complexity: 0
               alpha: 0.
               node_risk: 3.5209212455353245e-05
               tree_risk: 0.
               tree_error: 0.
               splits:
                  - { var:1, quality:7.5854308903217316e-02,
                      le:7.5940895080566406e-01 }
            -
               depth: 3
               sample_count: 42
               value: -7.7501070499420166e-01
               Tn: 0
               complexity: 0
               alpha: 0.
               node_risk: 2.2368776917275346e-06
               tree_risk: 0.
               tree_error: 0.
            -
               depth: 3
               sample_count: 33
               value: -7.7416062355041504e-01
               Tn: 0
               complexity: 0
               alpha: 0.
               node_risk: 1.1721050927948617e-05
               tree_risk: 0.
               tree_error: 0.
      -
         best_tree_idx: -1
         nodes:
            -
               depth: 0
               sample_count: 152
               value: -2.6387309557513188e-05
               Tn: 0
               complexity: 0
               alpha: 0.
               node_risk: 5.0632597226318443e-01
               tree_risk: 0.
               tree_error: 0.
               splits:
                  - { var:3, quality:4.6250697970390320e-01,
                      le:-1.4463677406311035e+00 }
            -
               depth: 1
               sample_count: 41
               value: 9.0736199261211764e-02
               Tn: 0
               complexity: 0
               alpha: 0.
               node_risk: 3.6712999551899717e-02
               tree_risk: 0.
               tree_error: 0.
               splits:
                  - { var:0, quality:3.7382751703262329e-01,
                      le:-8.0506658554077148e-01 }
            -
               depth: 2
               sample_count: 2
               value: -7.8439313173294067e-01
               Tn: 0
               complexity: 0
               alpha: 0.
               node_risk: 2.6301982747789499e-04
               tree_risk: 0.
               tree_error: 0.
            -
               depth: 2
               sample_count: 39
               value: 9.7471814889174238e-02
               Tn: 0
               complexity: 0
               alpha: 0.
               node_risk: 1.7784967324385725e-04
               tree_risk: 0.
               tree_error: 0.
               splits:
                  - { var:0, quality:3.7070077657699585e-01,
                      le:-6.2084633111953735e-01 }
            -
               depth: 3
               sample_count: 1
               value: 8.4306907653808594e-01
               Tn: 0
               complexity: 0
               alpha: 0.
               node_risk: 0.
               tree_risk: 0.
               tree_error: 0.
            -
               depth: 3
               sample_count: 38
               value: 8.3068764209747314e-01
               Tn: 0
               complexity: 0
               alpha: 0.
               node_risk: 6.4946255344255910e-06
               tree_risk: 0.
               tree_error: 0.
            -
               depth: 1
               sample_count: 111
               value: -3.3551306673535355e-02
               Tn: 0
               complexity: 0
               alpha: 0.
               node_risk: 7.1060965115182506e-03
               tree_risk: 0.
               tree_error: 0.
               splits:
                  - { var:0, quality:1.2613143026828766e-01,
                      le:-7.5619511306285858e-02 }
            -
               depth: 2
               sample_count: 35
               value: -3.8355495354958941e-02
               Tn: 0
               complexity: 0
               alpha: 0.
               node_risk: 5.8899898492794089e-03
               tree_risk: 0.
               tree_error: 0.
               splits:
                  - { var:3, quality:5.6192148476839066e-02,
                      le:4.8995923995971680e-01 }
            -
               depth: 3
               sample_count: 6
               value: -8.0294555425643921e-01
               Tn: 0
               complexity: 0
               alpha: 0.
               node_risk: 8.0495577640739280e-04
               tree_risk: 0.
               tree_error: 0.
            -
               depth: 3
               sample_count: 29
               value: -7.7598178386688232e-01
               Tn: 0
               complexity: 0
               alpha: 0.
               node_risk: 3.8292614285027199e-04
               tree_risk: 0.
               tree_error: 0.
            -
               depth: 2
               sample_count: 76
               value: -3.1338851359721864e-02
               Tn: 0
               complexity: 0
               alpha: 0.
               node_risk: 3.6281804016435881e-05
               tree_risk: 0.
               tree_error: 0.
               splits:
                  - { var:1, quality:7.4661076068878174e-02,
                      le:7.5940895080566406e-01 }
            -
               depth: 3
               sample_count: 41
               value: -7.7464187145233154e-01
               Tn: 0
               complexity: 0
               alpha: 0.
               node_risk: 2.1719529753605471e-06
               tree_risk: 0.
               tree_error: 0.
            -
               depth: 3
               sample_count: 35
               value: -7.7383524179458618e-01
               Tn: 0
               complexity: 0
               alpha: 0.
               node_risk: 1.4429258180528870e-05
               tree_risk: 0.
               tree_error: 0.
      -
         best_tree_idx: -1
         nodes:
            -
               depth: 0
               sample_count: 152
               value: -2.6956101340290745e-04
               Tn: 0
               complexity: 0
               alpha: 0.
               node_risk: 4.9894244256308040e-01
               tree_risk: 0.
               tree_error: 0.
               splits:
                  - { var:3, quality:4.7438979148864746e-01,
                      le:-1.4483599662780762e+00 }
            -
               depth: 1
               sample_count: 40
               value: 9.3210682878270751e-02
               Tn: 0
               complexity: 0
               alpha: 0.
               node_risk: 1.5554766170247258e-02
               tree_risk: 0.
               tree_error: 0.
               splits:
                  - { var:0, quality:3.6276978254318237e-01,
                      le:-8.8406997919082642e-01 }
            -
               depth: 2
               sample_count: 1
               value: -7.7215224504470825e-01
               Tn: 0
               complexity: 0
               alpha: 0.
               node_risk: 0.
               tree_risk: 0.
               tree_error: 0.
            -
               depth: 2
               sample_count: 39
               value: 9.6336314311394319e-02
               Tn: 0
               complexity: 0
               alpha: 0.
               node_risk: 3.1423407530822844e-04
               tree_risk: 0.
               tree_error: 0.
               splits:
                  - { var:0, quality:3.6225673556327820e-01,
                      le:-6.2084633111953735e-01 }
            -
               depth: 3
               sample_count: 2
               value: 8.4124469757080078e-01
               Tn: 0
               complexity: 0
               alpha: 0.
               node_risk: 2.4038848955854064e-07
               tree_risk: 0.
               tree_error: 0.
            -
               depth: 3
               sample_count: 37
               value: 8.2935422658920288e-01
               Tn: 0
               complexity: 0
               alpha: 0.
               node_risk: 3.9908388614340318e-06
               tree_risk: 0.
               tree_error: 0.
            -
               depth: 1
               sample_count: 112
               value: -3.3655362403286357e-02
               Tn: 0
               complexity: 0
               alpha: 0.
               node_risk: 9.0089222131507218e-03
               tree_risk: 0.
               tree_error: 0.
               splits:
                  - { var:0, quality:1.2835466861724854e-01,
                      le:-7.5619511306285858e-02 }
            -
               depth: 2
               sample_count: 41
               value: -3.8461775859681573e-02
               Tn: 0
               complexity: 0
               alpha: 0.
               node_risk: 7.4821730889241128e-03
               tree_risk: 0.
               tree_error: 0.
               splits:
                  - { var:3, quality:6.6745854914188385e-02,
                      le:6.2503910064697266e-01 }
            -
               depth: 3
               sample_count: 8
               value: -8.0232757329940796e-01
               Tn: 0
               complexity: 0
               alpha: 0.
               node_risk: 1.0097013179626232e-03
               tree_risk: 0.
               tree_error: 0.
            -
               depth: 3
               sample_count: 33
               value: -7.7544391155242920e-01
               Tn: 0
               complexity: 0
               alpha: 0.
               node_risk: 3.7825035863620765e-04
               tree_risk: 0.
               tree_error: 0.
            -
               depth: 2
               sample_count: 71
               value: -3.0879827872128555e-02
               Tn: 0
               complexity: 0
               alpha: 0.
               node_risk: 3.2628074070978341e-05
               tree_risk: 0.
               tree_error: 0.
               splits:
                  - { var:1, quality:6.7724443972110748e-02,
                      le:7.8514218330383301e-01 }
            -
               depth: 3
               sample_count: 41
               value: -7.7427446842193604e-01
               Tn: 0
               complexity: 0
               alpha: 0.
               node_risk: 2.1182048241807916e-06
               tree_risk: 0.
               tree_error: 0.
            -
               depth: 3
               sample_count: 30
               value: -7.7339345216751099e-01
               Tn: 0
               complexity: 0
               alpha: 0.
               node_risk: 9.0954968987103091e-06
               tree_risk: 0.
               tree_error: 0.
      -
         best_tree_idx: -1
         nodes:
            -
               depth: 0
               sample_count: 152
               value: 7.6542893963816921e-04
               Tn: 0
               complexity: 0
               alpha: 0.
               node_risk: 4.9065305411819610e-01
               tree_risk: 0.
               tree_error: 0.
               splits:
                  - { var:3, quality:4.4859999418258667e-01,
                      le:-1.4463677406311035e+00 }
            -
               depth: 1
               sample_count: 42
               value: 8.8675051971915220e-02
               Tn: 0
               complexity: 0
               alpha: 0.
               node_risk: 3.5246680571965616e-02
               tree_risk: 0.
               tree_error: 0.
               splits:
                  - { var:0, quality:3.6493840813636780e-01,
                      le:-8.2366353273391724e-01 }
            -
               depth: 2
               sample_count: 2
               value: -7.8384602069854736e-01
               Tn: 0
               complexity: 0
               alpha: 0.
               node_risk: 2.6643298546354284e-04
               tree_risk: 0.
               tree_error: 0.
            -
               depth: 2
               sample_count: 40
               value: 9.5100568234920496e-02
               Tn: 0
               complexity: 0
               alpha: 0.
               node_risk: 2.9894981974004642e-04
               tree_risk: 0.
               tree_error: 0.
               splits:
                  - { var:0, quality:3.6205771565437317e-01,
                      le:-6.2084633111953735e-01 }
            -
               depth: 3
               sample_count: 2
               value: 8.3977019786834717e-01
               Tn: 0
               complexity: 0
               alpha: 0.
               node_risk: 2.3431074858137890e-07
               tree_risk: 0.
               tree_error: 0.
            -
               depth: 3
               sample_count: 38
               value: 8.2825452089309692e-01
               Tn: 0
               complexity: 0
               alpha: 0.
               node_risk: 5.7338946817253600e-06
               tree_risk: 0.
               tree_error: 0.
            -
               depth: 1
               sample_count: 110
               value: -3.2800063490867615e-02
               Tn: 0
               complexity: 0
               alpha: 0.
               node_risk: 6.8954460045361488e-03
               tree_risk: 0.
               tree_error: 0.
               splits:
                  - { var:0, quality:1.1936596035957336e-01,
                      le:-7.5619511306285858e-02 }
            -
               depth: 2
               sample_count: 40
               value: -3.6834490671753886e-02
               Tn: 0
               complexity: 0
               alpha: 0.
               node_risk: 5.8440256160402632e-03
               tree_risk: 0.
               tree_error: 0.
               splits:
                  - { var:3, quality:5.8772232383489609e-02,
                      le:7.6475036144256592e-01 }
            -
               depth: 3
               sample_count: 8
               value: -7.9837453365325928e-01
               Tn: 0
               complexity: 0
               alpha: 0.
               node_risk: 1.1800888319790648e-03
               tree_risk: 0.
               tree_error: 0.
            -
               depth: 3
               sample_count: 32
               value: -7.7454698085784912e-01
               Tn: 0
               complexity: 0
               alpha: 0.
               node_risk: 1.6289179100290735e-04
               tree_risk: 0.
               tree_error: 0.
            -
               depth: 2
               sample_count: 70
               value: -3.0494676530361177e-02
               Tn: 0
               complexity: 0
               alpha: 0.
               node_risk: 2.8319648743835302e-05
               tree_risk: 0.
               tree_error: 0.
               splits:
                  - { var:1, quality:6.5109997987747192e-02,
                      le:7.8514218330383301e-01 }
            -
               depth: 3
               sample_count: 40
               value: -7.7391409873962402e-01
               Tn: 0
               complexity: 0
               alpha: 0.
               node_risk: 2.0611121954727807e-06
               tree_risk: 0.
               tree_error: 0.
            -
               depth: 3
               sample_count: 30
               value: -7.7317070960998535e-01
               Tn: 0
               complexity: 0
               alpha: 0.
               node_risk: 1.1034421322653892e-05
               tree_risk: 0.
               tree_error: 0.
      -
         best_tree_idx: -1
         nodes:
            -
               depth: 0
               sample_count: 152
               value: 5.4331109123794655e-04
               Tn: 0
               complexity: 0
               alpha: 0.
               node_risk: 4.8025179903922183e-01
               tree_risk: 0.
               tree_error: 0.
               splits:
                  - { var:3, quality:4.5124644041061401e-01,
                      le:-1.4463677406311035e+00 }
            -
               depth: 1
               sample_count: 41
               value: 9.0189756053250011e-02
               Tn: 0
               complexity: 0
               alpha: 0.
               node_risk: 2.0633579912624878e-02
               tree_risk: 0.
               tree_error: 0.
               splits:
                  - { var:0, quality:3.5384425520896912e-01,
                      le:-8.2366353273391724e-01 }
            -
               depth: 2
               sample_count: 1
               value: -7.9004490375518799e-01
               Tn: 0
               complexity: 0
               alpha: 0.
               node_risk: 0.
               tree_risk: 0.
               tree_error: 0.
            -
               depth: 2
               sample_count: 40
               value: 9.3711671233177182e-02
               Tn: 0
               complexity: 0
               alpha: 0.
               node_risk: 2.9120599587850737e-04
               tree_risk: 0.
               tree_error: 0.
               splits:
                  - { var:0, quality:3.5156100988388062e-01,
                      le:-6.1514461040496826e-01 }
            -
               depth: 3
               sample_count: 2
               value: 8.3833235502243042e-01
               Tn: 0
               complexity: 0
               alpha: 0.
               node_risk: 2.2843167357677885e-07
               tree_risk: 0.
               tree_error: 0.
            -
               depth: 3
               sample_count: 38
               value: 8.2699280977249146e-01
               Tn: 0
               complexity: 0
               alpha: 0.
               node_risk: 5.0486450298703467e-06
               tree_risk: 0.
               tree_error: 0.
            -
               depth: 1
               sample_count: 111
               value: -3.2569339750586332e-02
               Tn: 0
               complexity: 0
               alpha: 0.
               node_risk: 8.4166415784329290e-03
               tree_risk: 0.
               tree_error: 0.
               splits:
                  - { var:0, quality:1.1920644342899323e-01,
                      le:-9.2776104807853699e-02 }
            -
               depth: 2
               sample_count: 37
               value: -3.7701600256401138e-02
               Tn: 0
               complexity: 0
               alpha: 0.
               node_risk: 6.9219604091167383e-03
               tree_risk: 0.
               tree_error: 0.
               splits:
                  - { var:3, quality:5.7909287512302399e-02,
                      le:7.6475036144256592e-01 }
            -
               depth: 3
               sample_count: 9
               value: -7.9929417371749878e-01
               Tn: 0
               complexity: 0
               alpha: 0.
               node_risk: 1.4967765568776603e-03
               tree_risk: 0.
               tree_error: 0.
            -
               depth: 3
               sample_count: 28
               value: -7.7401787042617798e-01
               Tn: 0
               complexity: 0
               alpha: 0.
               node_risk: 1.0809163059243010e-04
               tree_risk: 0.
               tree_error: 0.
            -
               depth: 2
               sample_count: 74
               value: -3.0003209497678925e-02
               Tn: 0
               complexity: 0
               alpha: 0.
               node_risk: 3.2805735891358601e-05
               tree_risk: 0.
               tree_error: 0.
               splits:
                  - { var:1, quality:6.6633597016334534e-02,
                      le:7.5940895080566406e-01 }
            -
               depth: 3
               sample_count: 41
               value: -7.7356570959091187e-01
               Tn: 0
               complexity: 0
               alpha: 0.
               node_risk: 2.2169400496069303e-06
               tree_risk: 0.
               tree_error: 0.
            -
               depth: 3
               sample_count: 33
               value: -7.7275359630584717e-01
               Tn: 0
               complexity: 0
               alpha: 0.
               node_risk: 1.1241478479542821e-05
               tree_risk: 0.
               tree_error: 0.
      -
         best_tree_idx: -1
         nodes:
            -
               depth: 0
               sample_count: 152
               value: 3.1585533073858211e-04
               Tn: 0
               complexity: 0
               alpha: 0.
               node_risk: 4.6895431145874955e-01
               tree_risk: 0.
               tree_error: 0.
               splits:
                  - { var:3, quality:4.4025582075119019e-01,
                      le:-1.4483599662780762e+00 }
            -
               depth: 1
               sample_count: 41
               value: 8.8866726745192595e-02
               Tn: 0
               complexity: 0
               alpha: 0.
               node_risk: 2.0045922311577480e-02
               tree_risk: 0.
               tree_error: 0.
               splits:
                  - { var:0, quality:3.4355252981185913e-01,
                      le:-8.2366353273391724e-01 }
            -
               depth: 2
               sample_count: 1
               value: -7.8946596384048462e-01
               Tn: 0
               complexity: 0
               alpha: 0.
               node_risk: 0.
               tree_risk: 0.
               tree_error: 0.
            -
               depth: 2
               sample_count: 40
               value: 9.2338162660598758e-02
               Tn: 0
               complexity: 0
               alpha: 0.
               node_risk: 2.8249991535173047e-04
               tree_risk: 0.
               tree_error: 0.
               splits:
                  - { var:0, quality:3.4133252501487732e-01,
                      le:-6.2084633111953735e-01 }
            -
               depth: 3
               sample_count: 2
               value: 8.3691585063934326e-01
               Tn: 0
               complexity: 0
               alpha: 0.
               node_risk: 2.2266706878326659e-07
               tree_risk: 0.
               tree_error: 0.
            -
               depth: 3
               sample_count: 38
               value: 8.2574850320816040e-01
               Tn: 0
               complexity: 0
               alpha: 0.
               node_risk: 3.2101501744041805e-06
               tree_risk: 0.
               tree_error: 0.
            -
               depth: 1
               sample_count: 111
               value: -3.2392124200726416e-02
               Tn: 0
               complexity: 0
               alpha: 0.
               node_risk: 8.6677355101351800e-03
               tree_risk: 0.
               tree_error: 0.
               splits:
                  - { var:0, quality:1.1798915266990662e-01,
                      le:-7.5619511306285858e-02 }
            -
               depth: 2
               sample_count: 41
               value: -3.7231233107244098e-02
               Tn: 0
               complexity: 0
               alpha: 0.
               node_risk: 7.1151482284183484e-03
               tree_risk: 0.
               tree_error: 0.
               splits:
                  - { var:3, quality:6.2312383204698563e-02,
                      le:7.6475036144256592e-01 }
            -
               depth: 3
               sample_count: 10
               value: -7.9800885915756226e-01
               Tn: 0
               complexity: 0
               alpha: 0.
               node_risk: 1.4827641083709348e-03
               tree_risk: 0.
               tree_error: 0.
            -
               depth: 3
               sample_count: 31
               value: -7.7385479211807251e-01
               Tn: 0
               complexity: 0
               alpha: 0.
               node_risk: 1.5275406892205703e-04
               tree_risk: 0.
               tree_error: 0.
            -
               depth: 2
               sample_count: 70
               value: -2.9557788984051772e-02
               Tn: 0
               complexity: 0
               alpha: 0.
               node_risk: 3.0149377908406105e-05
               tree_risk: 0.
               tree_error: 0.
               splits:
                  - { var:1, quality:6.1173737049102783e-02,
                      le:7.1977233886718750e-01 }
            -
               depth: 3
               sample_count: 38
               value: -7.7320879697799683e-01
               Tn: 0
               complexity: 0
               alpha: 0.
               node_risk: 1.9534273496546462e-06
               tree_risk: 0.
               tree_error: 0.
            -
               depth: 3
               sample_count: 32
               value: -7.7242118120193481e-01
               Tn: 0
               complexity: 0
               alpha: 0.
               node_risk: 1.0859647058540645e-05
               tree_risk: 0.
               tree_error: 0.
      -
         best_tree_idx: -1
         nodes:
            -
               depth: 0
               sample_count: 152
               value: 1.5126018123211044e-03
               Tn: 0
               complexity: 0
               alpha: 0.
               node_risk: 4.5736925911830223e-01
               tree_risk: 0.
               tree_error: 0.
               splits:
                  - { var:3, quality:4.5019677281379700e-01,
                      le:-1.3993511199951172e+00 }
            -
               depth: 1
               sample_count: 41
               value: 9.1024579071417089e-02
               Tn: 0
               complexity: 0
               alpha: 0.
               node_risk: 2.7555968106074413e-04
               tree_risk: 0.
               tree_error: 0.
               splits:
                  - { var:0, quality:3.3997449278831482e-01,
                      le:-6.2084633111953735e-01 }
            -
               depth: 2
               sample_count: 2
               value: 8.3552312850952148e-01
               Tn: 0
               complexity: 0
               alpha: 0.
               node_risk: 2.1701539942853287e-07
               tree_risk: 0.
               tree_error: 0.
            -
               depth: 2
               sample_count: 39
               value: 9.0443392594655350e-02
               Tn: 0
               complexity: 0
               alpha: 0.
               node_risk: 5.2893779051710332e-06
               tree_risk: 0.
               tree_error: 0.
               splits:
                  - { var:2, quality:3.1902471184730530e-01,
                      le:-7.7695995569229126e-01 }
            -
               depth: 3
               sample_count: 37
               value: 8.2450670003890991e-01
               Tn: 0
               complexity: 0
               alpha: 0.
               node_risk: 8.4770947583745482e-07
               tree_risk: 0.
               tree_error: 0.
            -
               depth: 3
               sample_count: 2
               value: 8.2589560747146606e-01
               Tn: 0
               complexity: 0
               alpha: 0.
               node_risk: 0.
               tree_risk: 0.
               tree_error: 0.
            -
               depth: 1
               sample_count: 111
               value: -3.1550380778876508e-02
               Tn: 0
               complexity: 0
               alpha: 0.
               node_risk: 7.2446916724242250e-03
               tree_risk: 0.
               tree_error: 0.
               splits:
                  - { var:0, quality:1.1183466762304306e-01,
                      le:-7.5619511306285858e-02 }
            -
               depth: 2
               sample_count: 37
               value: -3.6468302126269080e-02
               Tn: 0
               complexity: 0
               alpha: 0.
               node_risk: 5.8701887442357339e-03
               tree_risk: 0.
               tree_error: 0.
               splits:
                  - { var:3, quality:5.3602371364831924e-02,
                      le:7.6475036144256592e-01 }
            -
               depth: 3
               sample_count: 9
               value: -7.9646706581115723e-01
               Tn: 0
               complexity: 0
               alpha: 0.
               node_risk: 1.3283081999193036e-03
               tree_risk: 0.
               tree_error: 0.
            -
               depth: 3
               sample_count: 28
               value: -7.7356511354446411e-01
               Tn: 0
               complexity: 0
               alpha: 0.
               node_risk: 1.4718208549123826e-04
               tree_risk: 0.
               tree_error: 0.
            -
               depth: 2
               sample_count: 74
               value: -2.9091420105180225e-02
               Tn: 0
               complexity: 0
               alpha: 0.
               node_risk: 3.2182682146247865e-05
               tree_risk: 0.
               tree_error: 0.
               splits:
                  - { var:1, quality:6.2645852565765381e-02,
                      le:7.1977233886718750e-01 }
            -
               depth: 3
               sample_count: 37
               value: -7.7287572622299194e-01
               Tn: 0
               complexity: 0
               alpha: 0.
               node_risk: 2.0853596495173932e-06
               tree_risk: 0.
               tree_error: 0.
            -
               depth: 3
               sample_count: 37
               value: -7.7207928895950317e-01
               Tn: 0
               complexity: 0
               alpha: 0.
               node_risk: 1.1236220517053808e-05
               tree_risk: 0.
               tree_error: 0.
      -
         best_tree_idx: -1
         nodes:
            -
               depth: 0
               sample_count: 152
               value: -7.6207625312044430e-03
               Tn: 0
               complexity: 0
               alpha: 0.
               node_risk: 3.6321097716995976e-01
               tree_risk: 0.
               tree_error: 0.
               splits:
                  - { var:3, quality:3.3086970448493958e-01,
                      le:-1.4495961666107178e+00 }
            -
               depth: 1
               sample_count: 32
               value: 8.1514635181520134e-02
               Tn: 0
               complexity: 0
               alpha: 0.
               node_risk: 3.1241280442898589e-02
               tree_risk: 0.
               tree_error: 0.
               splits:
                  - { var:0, quality:2.4348501861095428e-01,
                      le:-8.2366353273391724e-01 }
            -
               depth: 2
               sample_count: 2
               value: -7.8292977809906006e-01
               Tn: 0
               complexity: 0
               alpha: 0.
               node_risk: 2.5635681302799314e-04
               tree_risk: 0.
               tree_error: 0.
            -
               depth: 2
               sample_count: 30
               value: 8.9532411098480230e-02
               Tn: 0
               complexity: 0
               alpha: 0.
               node_risk: 1.2825291566967434e-04
               tree_risk: 0.
               tree_error: 0.
               splits:
                  - { var:0, quality:2.4060741066932678e-01,
                      le:-6.3374161720275879e-01 }
            -
               depth: 3
               sample_count: 1
               value: 8.3385366201400757e-01
               Tn: 0
               complexity: 0
               alpha: 0.
               node_risk: 0.
               tree_risk: 0.
               tree_error: 0.
            -
               depth: 3
               sample_count: 29
               value: 8.2340943813323975e-01
               Tn: 0
               complexity: 0
               alpha: 0.
               node_risk: 2.4148922572186926e-06
               tree_risk: 0.
               tree_error: 0.
            -
               depth: 1
               sample_count: 120
               value: -3.1390201921264328e-02
               Tn: 0
               complexity: 0
               alpha: 0.
               node_risk: 9.9275348439540473e-03
               tree_risk: 0.
               tree_error: 0.
               splits:
                  - { var:0, quality:1.1996497958898544e-01,
                      le:-7.5619511306285858e-02 }
            -
               depth: 2
               sample_count: 40
               value: -3.6749933799728754e-02
               Tn: 0
               complexity: 0
               alpha: 0.
               node_risk: 8.1713844412101347e-03
               tree_risk: 0.
               tree_error: 0.
               splits:
                  - { var:3, quality:6.0893356800079346e-02,
                      le:6.2503910064697266e-01 }
            -
               depth: 3
               sample_count: 8
               value: -8.0204522609710693e-01
               Tn: 0
               complexity: 0
               alpha: 0.
               node_risk: 9.7115288125637633e-04
               tree_risk: 0.
               tree_error: 0.
            -
               depth: 3
               sample_count: 32
               value: -7.7362447977066040e-01
               Tn: 0
               complexity: 0
               alpha: 0.
               node_risk: 3.2917966822700734e-04
               tree_risk: 0.
               tree_error: 0.
            -
               depth: 2
               sample_count: 80
               value: -2.8710335982032119e-02
               Tn: 0
               complexity: 0
               alpha: 0.
               node_risk: 3.2546854202272768e-05
               tree_risk: 0.
               tree_error: 0.
               splits:
                  - { var:1, quality:6.5962262451648712e-02,
                      le:8.2477879524230957e-01 }
            -
               depth: 3
               sample_count: 44
               value: -7.7252650260925293e-01
               Tn: 0
               complexity: 0
               alpha: 0.
               node_risk: 2.0482425100304402e-06
               tree_risk: 0.
               tree_error: 0.
            -
               depth: 3
               sample_count: 36
               value: -7.7174311876296997e-01
               Tn: 0
               complexity: 0
               alpha: 0.
               node_risk: 1.0909630294500539e-05
               tree_risk: 0.
               tree_error: 0.
      -
         best_tree_idx: -1
         nodes:
            -
               depth: 0
               sample_count: 152
               value: 1.1622654764275801e-03
               Tn: 0
               complexity: 0
               alpha: 0.
               node_risk: 4.3651363605142129e-01
               tree_risk: 0.
               tree_error: 0.
               splits:
                  - { var:3, quality:3.9755007624626160e-01,
                      le:-1.3993511199951172e+00 }
            -
               depth: 1
               sample_count: 43
               value: 8.2565369041160089e-02
               Tn: 0
               complexity: 0
               alpha: 0.
               node_risk: 3.1110639586612199e-02
               tree_risk: 0.
               tree_error: 0.
               splits:
                  - { var:0, quality:3.2373479008674622e-01,
                      le:-8.2366353273391724e-01 }
            -
               depth: 2
               sample_count: 2
               value: -7.8246366977691650e-01
               Tn: 0
               complexity: 0
               alpha: 0.
               node_risk: 2.4981458589207889e-04
               tree_risk: 0.
               tree_error: 0.
            -
               depth: 2
               sample_count: 41
               value: 8.8457388121907302e-02
               Tn: 0
               complexity: 0
               alpha: 0.
               node_risk: 2.5876898130577919e-04
               tree_risk: 0.
               tree_error: 0.
               splits:
                  - { var:0, quality:3.2106679677963257e-01,
                      le:-6.2084633111953735e-01 }
            -
               depth: 3
               sample_count: 2
               value: 8.3281821012496948e-01
               Tn: 0
               complexity: 0
               alpha: 0.
               node_risk: 2.1221229218326698e-07
               tree_risk: 0.
               tree_error: 0.
            -
               depth: 3
               sample_count: 39
               value: 8.2227420806884766e-01
               Tn: 0
               complexity: 0
               alpha: 0.
               node_risk: 4.8465626912852500e-06
               tree_risk: 0.
               tree_error: 0.
            -
               depth: 1
               sample_count: 109
               value: -3.0950885471127450e-02
               Tn: 0
               complexity: 0
               alpha: 0.
               node_risk: 8.0582533040051696e-03
               tree_risk: 0.
               tree_error: 0.
               splits:
                  - { var:0, quality:1.0569379478693008e-01,
                      le:-7.4474617838859558e-02 }
            -
               depth: 2
               sample_count: 40
               value: -3.5445403866469861e-02
               Tn: 0
               complexity: 0
               alpha: 0.
               node_risk: 6.7555040235858649e-03
               tree_risk: 0.
               tree_error: 0.
               splits:
                  - { var:3, quality:5.5397104471921921e-02,
                      le:6.2503910064697266e-01 }
            -
               depth: 3
               sample_count: 8
               value: -7.9863971471786499e-01
               Tn: 0
               complexity: 0
               alpha: 0.
               node_risk: 1.2934206493950759e-03
               tree_risk: 0.
               tree_error: 0.
            -
               depth: 3
               sample_count: 32
               value: -7.7328538894653320e-01
               Tn: 0
               complexity: 0
               alpha: 0.
               node_risk: 3.2004455529137388e-04
               tree_risk: 0.
               tree_error: 0.
            -
               depth: 2
               sample_count: 69
               value: -2.8345367560784023e-02
               Tn: 0
               complexity: 0
               alpha: 0.
               node_risk: 2.6299529079218398e-05
               tree_risk: 0.
               tree_error: 0.
               splits:
                  - { var:1, quality:5.5453572422266006e-02,
                      le:8.2477879524230957e-01 }
            -
               depth: 3
               sample_count: 40
               value: -7.7219444513320923e-01
               Tn: 0
               complexity: 0
               alpha: 0.
               node_risk: 1.9878119420294049e-06
               tree_risk: 0.
               tree_error: 0.
            -
               depth: 3
               sample_count: 29
               value: -7.7145606279373169e-01
               Tn: 0
               complexity: 0
               alpha: 0.
               node_risk: 9.4687697448324337e-06
               tree_risk: 0.
               tree_error: 0.
      -
         best_tree_idx: -1
         nodes:
            -
               depth: 0
               sample_count: 152
               value: 2.6413079375695240e-03
               Tn: 0
               complexity: 0
               alpha: 0.
               node_risk: 4.3679589374601979e-01
               tree_risk: 0.
               tree_error: 0.
               splits:
                  - { var:3, quality:4.2935720086097717e-01,
                      le:-1.4463677406311035e+00 }
            -
               depth: 1
               sample_count: 43
               value: 8.7155497351358108e-02
               Tn: 0
               complexity: 0
               alpha: 0.
               node_risk: 2.5217996544413257e-04
               tree_risk: 0.
               tree_error: 0.
               splits:
                  - { var:0, quality:3.2687863707542419e-01,
                      le:-6.2084633111953735e-01 }
            -
               depth: 2
               sample_count: 2
               value: 8.3149647712707520e-01
               Tn: 0
               complexity: 0
               alpha: 0.
               node_risk: 2.0681074630601870e-07
               tree_risk: 0.
               tree_error: 0.
            -
               depth: 2
               sample_count: 41
               value: 8.6625971445223174e-02
               Tn: 0
               complexity: 0
               alpha: 0.
               node_risk: 4.8025951340791018e-06
               tree_risk: 0.
               tree_error: 0.
               splits:
                  - { var:2, quality:3.0767059326171875e-01,
                      le:-7.7695995569229126e-01 }
            -
               depth: 3
               sample_count: 39
               value: 8.2106649875640869e-01
               Tn: 0
               complexity: 0
               alpha: 0.
               node_risk: 6.2973227554774525e-07
               tree_risk: 0.
               tree_error: 0.
            -
               depth: 3
               sample_count: 2
               value: 8.2239973545074463e-01
               Tn: 0
               complexity: 0
               alpha: 0.
               node_risk: 0.
               tree_risk: 0.
               tree_error: 0.
            -
               depth: 1
               sample_count: 109
               value: -3.0699152106402117e-02
               Tn: 0
               complexity: 0
               alpha: 0.
               node_risk: 8.2469365751173529e-03
               tree_risk: 0.
               tree_error: 0.
               splits:
                  - { var:0, quality:1.0407901555299759e-01,
                      le:-7.5619511306285858e-02 }
            -
               depth: 2
               sample_count: 42
               value: -3.5149496891314073e-02
               Tn: 0
               complexity: 0
               alpha: 0.
               node_risk: 6.8685299255916432e-03
               tree_risk: 0.
               tree_error: 0.
               splits:
                  - { var:3, quality:5.7141739875078201e-02,
                      le:6.2503910064697266e-01 }
            -
               depth: 3
               sample_count: 9
               value: -7.9712778329849243e-01
               Tn: 0
               complexity: 0
               alpha: 0.
               node_risk: 1.3037514342962887e-03
               tree_risk: 0.
               tree_error: 0.
            -
               depth: 3
               sample_count: 33
               value: -7.7290439605712891e-01
               Tn: 0
               complexity: 0
               alpha: 0.
               node_risk: 3.1349681581702149e-04
               tree_risk: 0.
               tree_error: 0.
            -
               depth: 2
               sample_count: 67
               value: -2.7909383733770741e-02
               Tn: 0
               complexity: 0
               alpha: 0.
               node_risk: 2.5124656546228474e-05
               tree_risk: 0.
               tree_error: 0.
               splits:
                  - { var:1, quality:5.2200835198163986e-02,
                      le:8.3967995643615723e-01 }
            -
               depth: 3
               sample_count: 35
               value: -7.7185940742492676e-01
               Tn: 0
               complexity: 0
               alpha: 0.
               node_risk: 1.7506302347897185e-06
               tree_risk: 0.
               tree_error: 0.
            -
               depth: 3
               sample_count: 32
               value: -7.7118790149688721e-01
               Tn: 0
               complexity: 0
               alpha: 0.
               node_risk: 1.1097129961733926e-05
               tree_risk: 0.
               tree_error: 0.
      -
         best_tree_idx: -1
         nodes:
            -
               depth: 0
               sample_count: 152
               value: -1.3022655376086110e-03
               Tn: 0
               complexity: 0
               alpha: 0.
               node_risk: 3.9265358860494137e-01
               tree_risk: 0.
               tree_error: 0.
               splits:
                  - { var:3, quality:3.5413908958435059e-01,
                      le:-1.4483599662780762e+00 }
            -
               depth: 1
               sample_count: 40
               value: 7.9437231179326773e-02
               Tn: 0
               complexity: 0
               alpha: 0.
               node_risk: 2.9510219162407147e-02
               tree_risk: 0.
               tree_error: 0.
               splits:
                  - { var:0, quality:2.8155195713043213e-01,
                      le:-8.2366353273391724e-01 }
            -
               depth: 2
               sample_count: 2
               value: -7.8246086835861206e-01
               Tn: 0
               complexity: 0
               alpha: 0.
               node_risk: 2.4999164742051799e-04
               tree_risk: 0.
               tree_error: 0.
            -
               depth: 2
               sample_count: 38
               value: 8.5629439667651533e-02
               Tn: 0
               complexity: 0
               alpha: 0.
               node_risk: 1.1920858319697247e-04
               tree_risk: 0.
               tree_error: 0.
               splits:
                  - { var:0, quality:2.7874776721000671e-01,
                      le:-6.3944327831268311e-01 }
            -
               depth: 3
               sample_count: 1
               value: 8.2990431785583496e-01
               Tn: 0
               complexity: 0
               alpha: 0.
               node_risk: 0.
               tree_risk: 0.
               tree_error: 0.
            -
               depth: 3
               sample_count: 37
               value: 8.1997895240783691e-01
               Tn: 0
               complexity: 0
               alpha: 0.
               node_risk: 2.6788241268005386e-06
               tree_risk: 0.
               tree_error: 0.
            -
               depth: 1
               sample_count: 112
               value: -3.0137800079371248e-02
               Tn: 0
               complexity: 0
               alpha: 0.
               node_risk: 9.2620543797445193e-03
               tree_risk: 0.
               tree_error: 0.
               splits:
                  - { var:0, quality:1.0336703807115555e-01,
                      le:-7.5619511306285858e-02 }
            -
               depth: 2
               sample_count: 37
               value: -3.5584033743755239e-02
               Tn: 0
               complexity: 0
               alpha: 0.
               node_risk: 7.5982290311484707e-03
               tree_risk: 0.
               tree_error: 0.
               splits:
                  - { var:3, quality:5.3266946226358414e-02,
                      le:6.2503910064697266e-01 }
            -
               depth: 3
               sample_count: 8
               value: -8.0009347200393677e-01
               Tn: 0
               complexity: 0
               alpha: 0.
               node_risk: 9.4740444850446859e-04
               tree_risk: 0.
               tree_error: 0.
            -
               depth: 3
               sample_count: 29
               value: -7.7235901355743408e-01
               Tn: 0
               complexity: 0
               alpha: 0.
               node_risk: 2.3414725640641745e-04
               tree_risk: 0.
               tree_error: 0.
            -
               depth: 2
               sample_count: 75
               value: -2.7450991471608479e-02
               Tn: 0
               complexity: 0
               alpha: 0.
               node_risk: 2.4930749788411311e-05
               tree_risk: 0.
               tree_error: 0.
               splits:
                  - { var:1, quality:5.6530389934778214e-02,
                      le:7.5940895080566406e-01 }
            -
               depth: 3
               sample_count: 38
               value: -7.7150291204452515e-01
               Tn: 0
               complexity: 0
               alpha: 0.
               node_risk: 6.4013252927541675e-09
               tree_risk: 0.
               tree_error: 0.
            -
               depth: 3
               sample_count: 37
               value: -7.7083605527877808e-01
               Tn: 0
               complexity: 0
               alpha: 0.
               node_risk: 1.1305485793984549e-05
               tree_risk: 0.
               tree_error: 0.
      -
         best_tree_idx: -1
         nodes:
            -
               depth: 0
               sample_count: 152
               value: 2.4019605725219377e-03
               Tn: 0
               complexity: 0
               alpha: 0.
               node_risk: 4.1223544639839133e-01
               tree_risk: 0.
               tree_error: 0.
               splits:
                  - { var:3, quality:3.7626436352729797e-01,
                      le:-1.3993511199951172e+00 }
            -
               depth: 1
               sample_count: 45
               value: 7.9032819345593447e-02
               Tn: 0
               complexity: 0
               alpha: 0.
               node_risk: 2.8885663335892209e-02
               tree_risk: 0.
               tree_error: 0.
               splits:
                  - { var:0, quality:3.0958849191665649e-01,
                      le:-8.0506658554077148e-01 }
            -
               depth: 2
               sample_count: 2
               value: -7.8199046850204468e-01
               Tn: 0
               complexity: 0
               alpha: 0.
               node_risk: 2.4345612849113914e-04
               tree_risk: 0.
               tree_error: 0.
            -
               depth: 2
               sample_count: 43
               value: 8.4461244039757313e-02
               Tn: 0
               complexity: 0
               alpha: 0.
               node_risk: 1.3211587364980737e-04
               tree_risk: 0.
               tree_error: 0.
               splits:
                  - { var:0, quality:3.0687671899795532e-01,
                      le:-6.2084633111953735e-01 }
            -
               depth: 3
               sample_count: 1
               value: 8.2930004596710205e-01
               Tn: 0
               complexity: 0
               alpha: 0.
               node_risk: 0.
               tree_risk: 0.
               tree_error: 0.
            -
               depth: 3
               sample_count: 42
               value: 8.1895321607589722e-01
               Tn: 0
               complexity: 0
               alpha: 0.
               node_risk: 4.5684857848948823e-06
               tree_risk: 0.
               tree_error: 0.
            -
               depth: 1
               sample_count: 107
               value: -2.9825970687181035e-02
               Tn: 0
               complexity: 0
               alpha: 0.
               node_risk: 7.9623676280944633e-03
               tree_risk: 0.
               tree_error: 0.
               splits:
                  - { var:0, quality:9.6626698970794678e-02,
                      le:-9.2776104807853699e-02 }
            -
               depth: 2
               sample_count: 38
               value: -3.4770580449778786e-02
               Tn: 0
               complexity: 0
               alpha: 0.
               node_risk: 6.4967446937394396e-03
               tree_risk: 0.
               tree_error: 0.
               splits:
                  - { var:3, quality:5.0956852734088898e-02,
                      le:6.2503910064697266e-01 }
            -
               depth: 3
               sample_count: 9
               value: -7.9605042934417725e-01
               Tn: 0
               complexity: 0
               alpha: 0.
               node_risk: 1.2245196758364496e-03
               tree_risk: 0.
               tree_error: 0.
            -
               depth: 3
               sample_count: 29
               value: -7.7214771509170532e-01
               Tn: 0
               complexity: 0
               alpha: 0.
               node_risk: 2.5711543173864704e-04
               tree_risk: 0.
               tree_error: 0.
            -
               depth: 2
               sample_count: 69
               value: -2.7102852267199669e-02
               Tn: 0
               complexity: 0
               alpha: 0.
               node_risk: 2.4893836471043262e-05
               tree_risk: 0.
               tree_error: 0.
               splits:
                  - { var:1, quality:5.0698447972536087e-02,
                      le:7.5940895080566406e-01 }
            -
               depth: 3
               sample_count: 37
               value: -7.7122080326080322e-01
               Tn: 0
               complexity: 0
               alpha: 0.
               node_risk: 1.8306336050412375e-06
               tree_risk: 0.
               tree_error: 0.
            -
               depth: 3
               sample_count: 32
               value: -7.7052575349807739e-01
               Tn: 0
               complexity: 0
               alpha: 0.
               node_risk: 9.5742480312709100e-06
               tree_risk: 0.
               tree_error: 0.
      -
         best_tree_idx: -1
         nodes:
            -
               depth: 0
               sample_count: 152
               value: -1.7667308106626334e-04
               Tn: 0
               complexity: 0
               alpha: 0.
               node_risk: 3.7217117045747622e-01
               tree_risk: 0.
               tree_error: 0.
               splits:
                  - { var:3, quality:3.5319590568542480e-01,
                      le:-1.4463677406311035e+00 }
            -
               depth: 1
               sample_count: 40
               value: 8.0484052794054156e-02
               Tn: 0
               complexity: 0
               alpha: 0.
               node_risk: 1.1794277571075595e-02
               tree_risk: 0.
               tree_error: 0.
               splits:
                  - { var:0, quality:2.7078810334205627e-01,
                      le:-8.8406997919082642e-01 }
            -
               depth: 2
               sample_count: 1
               value: -7.7020573616027832e-01
               Tn: 0
               complexity: 0
               alpha: 0.
               node_risk: 0.
               tree_risk: 0.
               tree_error: 0.
            -
               depth: 2
               sample_count: 39
               value: 8.3220417682941139e-02
               Tn: 0
               complexity: 0
               alpha: 0.
               node_risk: 1.1347679506729103e-04
               tree_risk: 0.
               tree_error: 0.
               splits:
                  - { var:0, quality:2.7021080255508423e-01,
                      le:-6.3944327831268311e-01 }
            -
               depth: 3
               sample_count: 1
               value: 8.2746440172195435e-01
               Tn: 0
               complexity: 0
               alpha: 0.
               node_risk: 0.
               tree_risk: 0.
               tree_error: 0.
            -
               depth: 3
               sample_count: 38
               value: 8.1783771514892578e-01
               Tn: 0
               complexity: 0
               alpha: 0.
               node_risk: 2.5518592675077834e-06
               tree_risk: 0.
               tree_error: 0.
            -
               depth: 1
               sample_count: 112
               value: -2.8984075179323554e-02
               Tn: 0
               complexity: 0
               alpha: 0.
               node_risk: 7.1857463854719528e-03
               tree_risk: 0.
               tree_error: 0.
               splits:
                  - { var:0, quality:9.5079265534877777e-02,
                      le:-7.5619511306285858e-02 }
            -
               depth: 2
               sample_count: 42
               value: -3.2823654601261729e-02
               Tn: 0
               complexity: 0
               alpha: 0.
               node_risk: 6.1696250820059140e-03
               tree_risk: 0.
               tree_error: 0.
               splits:
                  - { var:3, quality:5.0175145268440247e-02,
                      le:6.2503910064697266e-01 }
            -
               depth: 3
               sample_count: 7
               value: -7.9738581180572510e-01
               Tn: 0
               complexity: 0
               alpha: 0.
               node_risk: 9.5414443216492589e-04
               tree_risk: 0.
               tree_error: 0.
            -
               depth: 3
               sample_count: 35
               value: -7.7182567119598389e-01
               Tn: 0
               complexity: 0
               alpha: 0.
               node_risk: 2.9081204165402885e-04
               tree_risk: 0.
               tree_error: 0.
            -
               depth: 2
               sample_count: 70
               value: -2.6680327526160650e-02
               Tn: 0
               complexity: 0
               alpha: 0.
               node_risk: 2.5434030234736116e-05
               tree_risk: 0.
               tree_error: 0.
               splits:
                  - { var:1, quality:4.9842748790979385e-02,
                      le:7.8514218330383301e-01 }
            -
               depth: 3
               sample_count: 36
               value: -7.7090388536453247e-01
               Tn: 0
               complexity: 0
               alpha: 0.
               node_risk: 1.7863401067033657e-06
               tree_risk: 0.
               tree_error: 0.
            -
               depth: 3
               sample_count: 34
               value: -7.7020376920700073e-01
               Tn: 0
               complexity: 0
               alpha: 0.
               node_risk: 9.6913967004702561e-06
               tree_risk: 0.
               tree_error: 0.
      -
         best_tree_idx: -1
         nodes:
            -
               depth: 0
               sample_count: 152
               value: -2.1267852280288935e-03
               Tn: 0
               complexity: 0
               alpha: 0.
               node_risk: 3.5886263794605927e-01
               tree_risk: 0.
               tree_error: 0.
               splits:
                  - { var:3, quality:3.2311770319938660e-01,
                      le:-1.4463677406311035e+00 }
            -
               depth: 1
               sample_count: 39
               value: 7.6270849897693366e-02
               Tn: 0
               complexity: 0
               alpha: 0.
               node_risk: 2.7333090283980871e-02
               tree_risk: 0.
               tree_error: 0.
               splits:
                  - { var:0, quality:2.5374892354011536e-01,
                      le:-8.2366353273391724e-01 }
            -
               depth: 2
               sample_count: 2
               value: -7.8109246492385864e-01
               Tn: 0
               complexity: 0
               alpha: 0.
               node_risk: 2.3196162972778829e-04
               tree_risk: 0.
               tree_error: 0.
            -
               depth: 2
               sample_count: 37
               value: 8.2374194183865115e-02
               Tn: 0
               complexity: 0
               alpha: 0.
               node_risk: 2.2466817464711353e-04
               tree_risk: 0.
               tree_error: 0.
               splits:
                  - { var:0, quality:2.5128400325775146e-01,
                      le:-6.2084633111953735e-01 }
            -
               depth: 3
               sample_count: 2
               value: 8.2651996612548828e-01
               Tn: 0
               complexity: 0
               alpha: 0.
               node_risk: 1.9692663677517430e-07
               tree_risk: 0.
               tree_error: 0.
            -
               depth: 3
               sample_count: 35
               value: 8.1680881977081299e-01
               Tn: 0
               complexity: 0
               alpha: 0.
               node_risk: 4.2560270143710000e-06
               tree_risk: 0.
               tree_error: 0.
            -
               depth: 1
               sample_count: 113
               value: -2.9184376112127725e-02
               Tn: 0
               complexity: 0
               alpha: 0.
               node_risk: 9.0993747601551128e-03
               tree_risk: 0.
               tree_error: 0.
               splits:
                  - { var:0, quality:9.7919620573520660e-02,
                      le:-9.2776104807853699e-02 }
            -
               depth: 2
               sample_count: 41
               value: -3.4285453943217671e-02
               Tn: 0
               complexity: 0
               alpha: 0.
               node_risk: 7.3996169751371840e-03
               tree_risk: 0.
               tree_error: 0.
               splits:
                  - { var:3, quality:5.4057966917753220e-02,
                      le:6.2503910064697266e-01 }
            -
               depth: 3
               sample_count: 10
               value: -7.9590177536010742e-01
               Tn: 0
               complexity: 0
               alpha: 0.
               node_risk: 1.2910421019839725e-03
               tree_risk: 0.
               tree_error: 0.
            -
               depth: 3
               sample_count: 31
               value: -7.7143204212188721e-01
               Tn: 0
               complexity: 0
               alpha: 0.
               node_risk: 2.4579533041139967e-04
               tree_risk: 0.
               tree_error: 0.
            -
               depth: 2
               sample_count: 72
               value: -2.6279595680534840e-02
               Tn: 0
               complexity: 0
               alpha: 0.
               node_risk: 2.5379034810542322e-05
               tree_risk: 0.
               tree_error: 0.
               splits:
                  - { var:1, quality:4.9738664180040359e-02,
                      le:7.1977233886718750e-01 }
            -
               depth: 3
               sample_count: 37
               value: -7.7058506011962891e-01
               Tn: 0
               complexity: 0
               alpha: 0.
               node_risk: 1.5771757909815998e-06
               tree_risk: 0.
               tree_error: 0.
            -
               depth: 3
               sample_count: 35
               value: -7.6988857984542847e-01
               Tn: 0
               complexity: 0
               alpha: 0.
               node_risk: 9.5717464164979393e-06
               tree_risk: 0.
               tree_error: 0.
      -
         best_tree_idx: -1
         nodes:
            -
               depth: 0
               sample_count: 152
               value: 5.5308490501422634e-04
               Tn: 0
               complexity: 0
               alpha: 0.
               node_risk: 3.7118568215578146e-01
               tree_risk: 0.
               tree_error: 0.
               splits:
                  - { var:3, quality:3.3599016070365906e-01,
                      le:-1.4463677406311035e+00 }
            -
               depth: 1
               sample_count: 43
               value: 7.5402852364404263e-02
               Tn: 0
               complexity: 0
               alpha: 0.
               node_risk: 2.6430319563465532e-02
               tree_risk: 0.
               tree_error: 0.
               splits:
                  - { var:0, quality:2.7057611942291260e-01,
                      le:-8.2366353273391724e-01 }
            -
               depth: 2
               sample_count: 2
               value: -7.8065067529678345e-01
               Tn: 0
               complexity: 0
               alpha: 0.
               node_risk: 2.2597080935088561e-04
               tree_risk: 0.
               tree_error: 0.
            -
               depth: 2
               sample_count: 41
               value: 8.0843790275294605e-02
               Tn: 0
               complexity: 0
               alpha: 0.
               node_risk: 1.0859433794524476e-04
               tree_risk: 0.
               tree_error: 0.
               splits:
                  - { var:0, quality:2.6806885004043579e-01,
                      le:-6.3944327831268311e-01 }
            -
               depth: 3
               sample_count: 1
               value: 8.2502418756484985e-01
               Tn: 0
               complexity: 0
               alpha: 0.
               node_risk: 0.
               tree_risk: 0.
               tree_error: 0.
            -
               depth: 3
               sample_count: 40
               value: 8.1574302911758423e-01
               Tn: 0
               complexity: 0
               alpha: 0.
               node_risk: 4.2001501480148917e-06
               tree_risk: 0.
               tree_error: 0.
            -
               depth: 1
               sample_count: 109
               value: -2.8974805010157988e-02
               Tn: 0
               complexity: 0
               alpha: 0.
               node_risk: 8.8116971473158195e-03
               tree_risk: 0.
               tree_error: 0.
               splits:
                  - { var:0, quality:9.3152642250061035e-02,
                      le:-7.5619511306285858e-02 }
            -
               depth: 2
               sample_count: 41
               value: -3.3974559614207686e-02
               Tn: 0
               complexity: 0
               alpha: 0.
               node_risk: 7.1473925313050510e-03
               tree_risk: 0.
               tree_error: 0.
               splits:
                  - { var:3, quality:5.2943482995033264e-02,
                      le:6.2503910064697266e-01 }
            -
               depth: 3
               sample_count: 10
               value: -7.9524177312850952e-01
               Tn: 0
               complexity: 0
               alpha: 0.
               node_risk: 1.2583284230603328e-03
               tree_risk: 0.
               tree_error: 0.
            -
               depth: 3
               sample_count: 31
               value: -7.7132362127304077e-01
               Tn: 0
               complexity: 0
               alpha: 0.
               node_risk: 2.7068067889475869e-04
               tree_risk: 0.
               tree_error: 0.
            -
               depth: 2
               sample_count: 68
               value: -2.5960247087128022e-02
               Tn: 0
               complexity: 0
               alpha: 0.
               node_risk: 2.1451181832859989e-05
               tree_risk: 0.
               tree_error: 0.
               splits:
                  - { var:1, quality:4.5837961137294769e-02,
                      le:7.1977233886718750e-01 }
            -
               depth: 3
               sample_count: 35
               value: -7.7029114961624146e-01
               Tn: 0
               complexity: 0
               alpha: 0.
               node_risk: 1.6784586288724757e-06
               tree_risk: 0.
               tree_error: 0.
            -
               depth: 3
               sample_count: 33
               value: -7.6967930793762207e-01
               Tn: 0
               complexity: 0
               alpha: 0.
               node_risk: 9.3531562186249806e-06
               tree_risk: 0.
               tree_error: 0.
      -
         best_tree_idx: -1
         nodes:
            -
               depth: 0
               sample_count: 152
               value: -3.5518939533319915e-03
               Tn: 0
               complexity: 0
               alpha: 0.
               node_risk: 3.2444995927397896e-01
               tree_risk: 0.
               tree_error: 0.
               splits:
                  - { var:3, quality:2.9222932457923889e-01,
                      le:-1.4463677406311035e+00 }
            -
               depth: 1
               sample_count: 37
               value: 7.3495602839299151e-02
               Tn: 0
               complexity: 0
               alpha: 0.
               node_risk: 2.5498719474011333e-02
               tree_risk: 0.
               tree_error: 0.
               splits:
                  - { var:0, quality:2.2503252327442169e-01,
                      le:-8.2366353273391724e-01 }
            -
               depth: 2
               sample_count: 2
               value: -7.8020882606506348e-01
               Tn: 0
               complexity: 0
               alpha: 0.
               node_risk: 2.2075956294236206e-04
               tree_risk: 0.
               tree_error: 0.
            -
               depth: 2
               sample_count: 35
               value: 7.9730786596025741e-02
               Tn: 0
               complexity: 0
               alpha: 0.
               node_risk: 1.0476799017372640e-04
               tree_risk: 0.
               tree_error: 0.
               splits:
                  - { var:0, quality:2.2259569168090820e-01,
                      le:-6.3944327831268311e-01 }
            -
               depth: 3
               sample_count: 1
               value: 8.2383519411087036e-01
               Tn: 0
               complexity: 0
               alpha: 0.
               node_risk: 0.
               tree_risk: 0.
               tree_error: 0.
            -
               depth: 3
               sample_count: 34
               value: 8.1472265720367432e-01
               Tn: 0
               complexity: 0
               alpha: 0.
               node_risk: 4.0187296796168059e-06
               tree_risk: 0.
               tree_error: 0.
            -
               depth: 1
               sample_count: 115
               value: -2.8341088573569838e-02
               Tn: 0
               complexity: 0
               alpha: 0.
               node_risk: 8.6395400647753945e-03
               tree_risk: 0.
               tree_error: 0.
               splits:
                  - { var:0, quality:9.3900442123413086e-02,
                      le:-9.1631218791007996e-02 }
            -
               depth: 2
               sample_count: 42
               value: -3.3150565810501575e-02
               Tn: 0
               complexity: 0
               alpha: 0.
               node_risk: 7.0863478939795568e-03
               tree_risk: 0.
               tree_error: 0.
               splits:
                  - { var:3, quality:5.1786515861749649e-02,
                      le:6.2503910064697266e-01 }
            -
               depth: 3
               sample_count: 10
               value: -7.9460036754608154e-01
               Tn: 0
               complexity: 0
               alpha: 0.
               node_risk: 1.2211607293243811e-03
               tree_risk: 0.
               tree_error: 0.
            -
               depth: 3
               sample_count: 32
               value: -7.7077507972717285e-01
               Tn: 0
               complexity: 0
               alpha: 0.
               node_risk: 2.3499077762484041e-04
               tree_risk: 0.
               tree_error: 0.
            -
               depth: 2
               sample_count: 73
               value: -2.5573992081088563e-02
               Tn: 0
               complexity: 0
               alpha: 0.
               node_risk: 2.2739097602933467e-05
               tree_risk: 0.
               tree_error: 0.
               splits:
                  - { var:1, quality:4.7757349908351898e-02,
                      le:7.5940895080566406e-01 }
            -
               depth: 3
               sample_count: 41
               value: -7.6998227834701538e-01
               Tn: 0
               complexity: 0
               alpha: 0.
               node_risk: 1.6510473742070708e-06
               tree_risk: 0.
               tree_error: 0.
            -
               depth: 3
               sample_count: 32
               value: -7.6931118965148926e-01
               Tn: 0
               complexity: 0
               alpha: 0.
               node_risk: 7.8585064591588094e-06
               tree_risk: 0.
               tree_error: 0.
      -
         best_tree_idx: -1
         nodes:
            -
               depth: 0
               sample_count: 152
               value: 6.6666532994100918e-04
               Tn: 0
               complexity: 0
               alpha: 0.
               node_risk: 3.3473412758176874e-01
               tree_risk: 0.
               tree_error: 0.
               splits:
                  - { var:3, quality:3.0466592311859131e-01,
                      le:-1.4463677406311035e+00 }
            -
               depth: 1
               sample_count: 42
               value: 7.3112546377593568e-02
               Tn: 0
               complexity: 0
               alpha: 0.
               node_risk: 2.4921450830463820e-02
               tree_risk: 0.
               tree_error: 0.
               splits:
                  - { var:0, quality:2.4911250174045563e-01,
                      le:-8.2366353273391724e-01 }
            -
               depth: 2
               sample_count: 2
               value: -7.7977895736694336e-01
               Tn: 0
               complexity: 0
               alpha: 0.
               node_risk: 2.1502274351874358e-04
               tree_risk: 0.
               tree_error: 0.
            -
               depth: 2
               sample_count: 40
               value: 7.8524595499038702e-02
               Tn: 0
               complexity: 0
               alpha: 0.
               node_risk: 1.0259650487964844e-04
               tree_risk: 0.
               tree_error: 0.
               splits:
                  - { var:0, quality:2.4674311280250549e-01,
                      le:-6.3944327831268311e-01 }
            -
               depth: 3
               sample_count: 1
               value: 8.2266664505004883e-01
               Tn: 0
               complexity: 0
               alpha: 0.
               node_risk: 0.
               tree_risk: 0.
               tree_error: 0.
            -
               depth: 3
               sample_count: 39
               value: 8.1369125843048096e-01
               Tn: 0
               complexity: 0
               alpha: 0.
               node_risk: 3.9726651348548359e-06
               tree_risk: 0.
               tree_error: 0.
            -
               depth: 1
               sample_count: 110
               value: -2.6994489251889967e-02
               Tn: 0
               complexity: 0
               alpha: 0.
               node_risk: 5.2142961509441810e-03
               tree_risk: 0.
               tree_error: 0.
               splits:
                  - { var:0, quality:8.0788269639015198e-02,
                      le:-9.2776104807853699e-02 }
            -
               depth: 2
               sample_count: 40
               value: -3.0162868276238441e-02
               Tn: 0
               complexity: 0
               alpha: 0.
               node_risk: 4.5632884078869451e-03
               tree_risk: 0.
               tree_error: 0.
               splits:
                  - { var:3, quality:3.9866015315055847e-02,
                      le:5.6932914257049561e-01 }
            -
               depth: 3
               sample_count: 6
               value: -7.9371821880340576e-01
               Tn: 0
               complexity: 0
               alpha: 0.
               node_risk: 8.5830620618741749e-04
               tree_risk: 0.
               tree_error: 0.
            -
               depth: 3
               sample_count: 34
               value: -7.7042132616043091e-01
               Tn: 0
               complexity: 0
               alpha: 0.
               node_risk: 2.3091122120182800e-04
               tree_risk: 0.
               tree_error: 0.
            -
               depth: 2
               sample_count: 70
               value: -2.5183986952262264e-02
               Tn: 0
               complexity: 0
               alpha: 0.
               node_risk: 2.0008416993025357e-05
               tree_risk: 0.
               tree_error: 0.
               splits:
                  - { var:1, quality:4.4409953057765961e-02,
                      le:8.3967995643615723e-01 }
            -
               depth: 3
               sample_count: 42
               value: -7.6966053247451782e-01
               Tn: 0
               complexity: 0
               alpha: 0.
               node_risk: 1.7586650537942949e-07
               tree_risk: 0.
               tree_error: 0.
            -
               depth: 3
               sample_count: 28
               value: -7.6895678043365479e-01
               Tn: 0
               complexity: 0
               alpha: 0.
               node_risk: 6.2042251349966882e-06
               tree_risk: 0.
               tree_error: 0.
      -
         best_tree_idx: -1
         nodes:
            -
               depth: 0
               sample_count: 152
               value: -1.6977823167843254e-03
               Tn: 0
               complexity: 0
               alpha: 0.
               node_risk: 3.1513581024490073e-01
               tree_risk: 0.
               tree_error: 0.
               splits:
                  - { var:3, quality:2.8456962108612061e-01,
                      le:-1.4483599662780762e+00 }
            -
               depth: 1
               sample_count: 39
               value: 7.1896624727508962e-02
               Tn: 0
               complexity: 0
               alpha: 0.
               node_risk: 2.4339514503625231e-02
               tree_risk: 0.
               tree_error: 0.
               splits:
                  - { var:0, quality:2.2552429139614105e-01,
                      le:-8.2366353273391724e-01 }
            -
               depth: 2
               sample_count: 2
               value: -7.7935475111007690e-01
               Tn: 0
               complexity: 0
               alpha: 0.
               node_risk: 2.0942312350747012e-04
               tree_risk: 0.
               tree_error: 0.
            -
               depth: 2
               sample_count: 37
               value: 7.7655516766213087e-02
               Tn: 0
               complexity: 0
               alpha: 0.
               node_risk: 2.0166111416378141e-04
               tree_risk: 0.
               tree_error: 0.
               splits:
                  - { var:0, quality:2.2332334518432617e-01,
                      le:-6.2084633111953735e-01 }
            -
               depth: 3
               sample_count: 2
               value: 8.2179713249206543e-01
               Tn: 0
               complexity: 0
               alpha: 0.
               node_risk: 1.9061886469273759e-07
               tree_risk: 0.
               tree_error: 0.
            -
               depth: 3
               sample_count: 35
               value: 8.1265705823898315e-01
               Tn: 0
               complexity: 0
               alpha: 0.
               node_risk: 2.1530223967280993e-06
               tree_risk: 0.
               tree_error: 0.
            -
               depth: 1
               sample_count: 113
               value: -2.7097621916142185e-02
               Tn: 0
               complexity: 0
               alpha: 0.
               node_risk: 6.6648033223701136e-03
               tree_risk: 0.
               tree_error: 0.
               splits:
                  - { var:0, quality:8.4104895591735840e-02,
                      le:-7.5619511306285858e-02 }
            -
               depth: 2
               sample_count: 39
               value: -3.1455756284487553e-02
               Tn: 0
               complexity: 0
               alpha: 0.
               node_risk: 5.5102073412519256e-03
               tree_risk: 0.
               tree_error: 0.
               splits:
                  - { var:3, quality:4.2820338159799576e-02,
                      le:5.6932914257049561e-01 }
            -
               depth: 3
               sample_count: 8
               value: -7.9317611455917358e-01
               Tn: 0
               complexity: 0
               alpha: 0.
               node_risk: 1.0287189446076747e-03
               tree_risk: 0.
               tree_error: 0.
            -
               depth: 3
               sample_count: 31
               value: -7.7039462327957153e-01
               Tn: 0
               complexity: 0
               alpha: 0.
               node_risk: 2.5026875841706667e-04
               tree_risk: 0.
               tree_error: 0.
            -
               depth: 2
               sample_count: 74
               value: -2.4800767316608817e-02
               Tn: 0
               complexity: 0
               alpha: 0.
               node_risk: 2.3465871585276465e-05
               tree_risk: 0.
               tree_error: 0.
               splits:
                  - { var:1, quality:4.5528605580329895e-02,
                      le:7.5940895080566406e-01 }
            -
               depth: 3
               sample_count: 38
               value: -7.6939463615417480e-01
               Tn: 0
               complexity: 0
               alpha: 0.
               node_risk: 1.5593673355594750e-06
               tree_risk: 0.
               tree_error: 0.
            -
               depth: 3
               sample_count: 36
               value: -7.6874452829360962e-01
               Tn: 0
               complexity: 0
               alpha: 0.
               node_risk: 9.0761892078648765e-06
               tree_risk: 0.
               tree_error: 0.
      -
         best_tree_idx: -1
         nodes:
            -
               depth: 0
               sample_count: 152
               value: -2.7104887106504882e-03
               Tn: 0
               complexity: 0
               alpha: 0.
               node_risk: 3.0525791680164821e-01
               tree_risk: 0.
               tree_error: 0.
               splits:
                  - { var:3, quality:2.7464666962623596e-01,
                      le:-1.4463677406311035e+00 }
            -
               depth: 1
               sample_count: 38
               value: 7.0764796514260139e-02
               Tn: 0
               complexity: 0
               alpha: 0.
               node_risk: 2.3643424017263853e-02
               tree_risk: 0.
               tree_error: 0.
               splits:
                  - { var:0, quality:2.1353414654731750e-01,
                      le:-8.2366353273391724e-01 }
            -
               depth: 2
               sample_count: 2
               value: -7.7893632650375366e-01
               Tn: 0
               complexity: 0
               alpha: 0.
               node_risk: 2.0395858402466605e-04
               tree_risk: 0.
               tree_error: 0.
            -
               depth: 2
               sample_count: 36
               value: 7.6594144105911255e-02
               Tn: 0
               complexity: 0
               alpha: 0.
               node_risk: 1.9626078574574990e-04
               tree_risk: 0.
               tree_error: 0.
               splits:
                  - { var:0, quality:2.1139250695705414e-01,
                      le:-6.1514461040496826e-01 }
            -
               depth: 3
               sample_count: 2
               value: 8.2068836688995361e-01
               Tn: 0
               complexity: 0
               alpha: 0.
               node_risk: 1.8579187788247964e-07
               tree_risk: 0.
               tree_error: 0.
            -
               depth: 3
               sample_count: 34
               value: 8.1171852350234985e-01
               Tn: 0
               complexity: 0
               alpha: 0.
               node_risk: 3.4327786602450505e-06
               tree_risk: 0.
               tree_error: 0.
            -
               depth: 1
               sample_count: 114
               value: -2.7202250452287365e-02
               Tn: 0
               complexity: 0
               alpha: 0.
               node_risk: 8.0845374810314674e-03
               tree_risk: 0.
               tree_error: 0.
               splits:
                  - { var:0, quality:8.5912533104419708e-02,
                      le:-7.4474617838859558e-02 }
            -
               depth: 2
               sample_count: 41
               value: -3.2133257334552162e-02
               Tn: 0
               complexity: 0
               alpha: 0.
               node_risk: 6.5051019498591628e-03
               tree_risk: 0.
               tree_error: 0.
               splits:
                  - { var:3, quality:4.7495741397142410e-02,
                      le:6.2503910064697266e-01 }
            -
               depth: 3
               sample_count: 10
               value: -7.9281675815582275e-01
               Tn: 0
               complexity: 0
               alpha: 0.
               node_risk: 1.0989533957167265e-03
               tree_risk: 0.
               tree_error: 0.
            -
               depth: 3
               sample_count: 31
               value: -7.7007377147674561e-01
               Tn: 0
               complexity: 0
               alpha: 0.
               node_risk: 2.4480193330517208e-04
               tree_risk: 0.
               tree_error: 0.
            -
               depth: 2
               sample_count: 73
               value: -2.4432780833481108e-02
               Tn: 0
               complexity: 0
               alpha: 0.
               node_risk: 2.2620323608862902e-05
               tree_risk: 0.
               tree_error: 0.
               splits:
                  - { var:1, quality:4.3592687696218491e-02,
                      le:7.1977233886718750e-01 }
            -
               depth: 3
               sample_count: 40
               value: -7.6910442113876343e-01
               Tn: 0
               complexity: 0
               alpha: 0.
               node_risk: 1.5195415882865437e-06
               tree_risk: 0.
               tree_error: 0.
            -
               depth: 3
               sample_count: 33
               value: -7.6840287446975708e-01
               Tn: 0
               complexity: 0
               alpha: 0.
               node_risk: 6.5495933780634896e-06
               tree_risk: 0.
               tree_error: 0.
      -
         best_tree_idx: -1
         nodes:
            -
               depth: 0
               sample_count: 152
               value: -4.9283644674639950e-04
               Tn: 0
               complexity: 0
               alpha: 0.
               node_risk: 3.0970239297176810e-01
               tree_risk: 0.
               tree_error: 0.
               splits:
                  - { var:3, quality:2.7995750308036804e-01,
                      le:-1.4463677406311035e+00 }
            -
               depth: 1
               sample_count: 41
               value: 7.0116997719174484e-02
               Tn: 0
               complexity: 0
               alpha: 0.
               node_risk: 2.3047640728199315e-02
               tree_risk: 0.
               tree_error: 0.
               splits:
                  - { var:0, quality:2.2422921657562256e-01,
                      le:-8.2366353273391724e-01 }
            -
               depth: 2
               sample_count: 2
               value: -7.7852356433868408e-01
               Tn: 0
               complexity: 0
               alpha: 0.
               node_risk: 1.9862679286582370e-04
               tree_risk: 0.
               tree_error: 0.
            -
               depth: 2
               sample_count: 39
               value: 7.5440443479097813e-02
               Tn: 0
               complexity: 0
               alpha: 0.
               node_risk: 1.9192366563638985e-04
               tree_risk: 0.
               tree_error: 0.
               splits:
                  - { var:0, quality:2.2214730083942413e-01,
                      le:-6.2084633111953735e-01 }
            -
               depth: 3
               sample_count: 2
               value: 8.1957232952117920e-01
               Tn: 0
               complexity: 0
               alpha: 0.
               node_risk: 1.8091921560881019e-07
               tree_risk: 0.
               tree_error: 0.
            -
               depth: 3
               sample_count: 37
               value: 8.1075042486190796e-01
               Tn: 0
               complexity: 0
               alpha: 0.
               node_risk: 3.6004992542415515e-06
               tree_risk: 0.
               tree_error: 0.
            -
               depth: 1
               sample_count: 111
               value: -2.6573946363888344e-02
               Tn: 0
               complexity: 0
               alpha: 0.
               node_risk: 6.7341596344615978e-03
               tree_risk: 0.
               tree_error: 0.
               splits:
                  - { var:0, quality:7.9482518136501312e-02,
                      le:-7.4474617838859558e-02 }
            -
               depth: 2
               sample_count: 43
               value: -3.0527506716722667e-02
               Tn: 0
               complexity: 0
               alpha: 0.
               node_risk: 5.6164288730722670e-03
               tree_risk: 0.
               tree_error: 0.
               splits:
                  - { var:3, quality:4.4468261301517487e-02,
                      le:6.2503910064697266e-01 }
            -
               depth: 3
               sample_count: 9
               value: -7.9143130779266357e-01
               Tn: 0
               complexity: 0
               alpha: 0.
               node_risk: 9.8069899507802205e-04
               tree_risk: 0.
               tree_error: 0.
            -
               depth: 3
               sample_count: 34
               value: -7.6970839500427246e-01
               Tn: 0
               complexity: 0
               alpha: 0.
               node_risk: 2.4039939850913766e-04
               tree_risk: 0.
               tree_error: 0.
            -
               depth: 2
               sample_count: 68
               value: -2.4073900846654877e-02
               Tn: 0
               complexity: 0
               alpha: 0.
               node_risk: 2.0597788458483202e-05
               tree_risk: 0.
               tree_error: 0.
               splits:
                  - { var:1, quality:3.9422355592250824e-02,
                      le:7.8514218330383301e-01 }
            -
               depth: 3
               sample_count: 36
               value: -7.6882404088973999e-01
               Tn: 0
               complexity: 0
               alpha: 0.
               node_risk: 1.4702419135932676e-06
               tree_risk: 0.
               tree_error: 0.
            -
               depth: 3
               sample_count: 32
               value: -7.6814562082290649e-01
               Tn: 0
               complexity: 0
               alpha: 0.
               node_risk: 6.3548022350631839e-06
               tree_risk: 0.
               tree_error: 0.
      -
         best_tree_idx: -1
         nodes:
            -
               depth: 0
               sample_count: 152
               value: -3.8843848007289986e-03
               Tn: 0
               complexity: 0
               alpha: 0.
               node_risk: 2.7739265169012134e-01
               tree_risk: 0.
               tree_error: 0.
               splits:
                  - { var:3, quality:2.4960014224052429e-01,
                      le:-1.4483599662780762e+00 }
            -
               depth: 1
               sample_count: 36
               value: 6.8521505169984370e-02
               Tn: 0
               complexity: 0
               alpha: 0.
               node_risk: 2.2294291662249416e-02
               tree_risk: 0.
               tree_error: 0.
               splits:
                  - { var:0, quality:1.9094841182231903e-01,
                      le:-8.2366353273391724e-01 }
            -
               depth: 2
               sample_count: 2
               value: -7.7811563014984131e-01
               Tn: 0
               complexity: 0
               alpha: 0.
               node_risk: 1.9341532824562920e-04
               tree_risk: 0.
               tree_error: 0.
            -
               depth: 2
               sample_count: 34
               value: 7.4506417793386126e-02
               Tn: 0
               complexity: 0
               alpha: 0.
               node_risk: 1.7953871883455430e-04
               tree_risk: 0.
               tree_error: 0.
               splits:
                  - { var:0, quality:1.8891866505146027e-01,
                      le:-6.1514461040496826e-01 }
            -
               depth: 3
               sample_count: 2
               value: 8.1846523284912109e-01
               Tn: 0
               complexity: 0
               alpha: 0.
               node_risk: 1.7618205738756387e-07
               tree_risk: 0.
               tree_error: 0.
            -
               depth: 3
               sample_count: 32
               value: 8.0987894535064697e-01
               Tn: 0
               complexity: 0
               alpha: 0.
               node_risk: 1.7124059001893954e-06
               tree_risk: 0.
               tree_error: 0.
            -
               depth: 1
               sample_count: 116
               value: -2.6355178239915907e-02
               Tn: 0
               complexity: 0
               alpha: 0.
               node_risk: 7.7916548363881483e-03
               tree_risk: 0.
               tree_error: 0.
               splits:
                  - { var:0, quality:8.2004487514495850e-02,
                      le:-7.4474617838859558e-02 }
            -
               depth: 2
               sample_count: 41
               value: -3.1106260764162716e-02
               Tn: 0
               complexity: 0
               alpha: 0.
               node_risk: 6.3397749486025015e-03
               tree_risk: 0.
               tree_error: 0.
               splits:
                  - { var:3, quality:4.4737707823514938e-02,
                      le:6.2503910064697266e-01 }
            -
               depth: 3
               sample_count: 10
               value: -7.9182678461074829e-01
               Tn: 0
               complexity: 0
               alpha: 0.
               node_risk: 1.0871870450122820e-03
               tree_risk: 0.
               tree_error: 0.
            -
               depth: 3
               sample_count: 31
               value: -7.6925873756408691e-01
               Tn: 0
               complexity: 0
               alpha: 0.
               node_risk: 1.8645783469048438e-04
               tree_risk: 0.
               tree_error: 0.
            -
               depth: 2
               sample_count: 75
               value: -2.3757919793327649e-02
               Tn: 0
               complexity: 0
               alpha: 0.
               node_risk: 2.0464338667341986e-05
               tree_risk: 0.
               tree_error: 0.
               splits:
                  - { var:1, quality:4.2343702167272568e-02,
                      le:7.5940895080566406e-01 }
            -
               depth: 3
               sample_count: 39
               value: -7.6854026317596436e-01
               Tn: 0
               complexity: 0
               alpha: 0.
               node_risk: 1.4389550263144146e-06
               tree_risk: 0.
               tree_error: 0.
            -
               depth: 3
               sample_count: 36
               value: -7.6794910430908203e-01
               Tn: 0
               complexity: 0
               alpha: 0.
               node_risk: 8.2284798617361654e-06
               tree_risk: 0.
               tree_error: 0.
      -
         best_tree_idx: -1
         nodes:
            -
               depth: 0
               sample_count: 152
               value: 7.6532586918849697e-04
               Tn: 0
               complexity: 0
               alpha: 0.
               node_risk: 3.0283848952216386e-01
               tree_risk: 0.
               tree_error: 0.
               splits:
                  - { var:3, quality:2.7462363243103027e-01,
                      le:-1.3993511199951172e+00 }
            -
               depth: 1
               sample_count: 43
               value: 6.8429029741606043e-02
               Tn: 0
               complexity: 0
               alpha: 0.
               node_risk: 2.1842693312338068e-02
               tree_risk: 0.
               tree_error: 0.
               splits:
                  - { var:0, quality:2.2282657027244568e-01,
                      le:-8.2366353273391724e-01 }
            -
               depth: 2
               sample_count: 2
               value: -7.7771401405334473e-01
               Tn: 0
               complexity: 0
               alpha: 0.
               node_risk: 1.8834073916085443e-04
               tree_risk: 0.
               tree_error: 0.
            -
               depth: 2
               sample_count: 41
               value: 7.3365114084104219e-02
               Tn: 0
               complexity: 0
               alpha: 0.
               node_risk: 1.7666798031792941e-04
               tree_risk: 0.
               tree_error: 0.
               splits:
                  - { var:0, quality:2.2085319459438324e-01,
                      le:-6.2084633111953735e-01 }
            -
               depth: 3
               sample_count: 2
               value: 8.1738620996475220e-01
               Tn: 0
               complexity: 0
               alpha: 0.
               node_risk: 1.7157756815322500e-07
               tree_risk: 0.
               tree_error: 0.
            -
               depth: 3
               sample_count: 39
               value: 8.0897504091262817e-01
               Tn: 0
               complexity: 0
               alpha: 0.
               node_risk: 3.3420637259862218e-06
               tree_risk: 0.
               tree_error: 0.
            -
               depth: 1
               sample_count: 109
               value: -2.5927694924517509e-02
               Tn: 0
               complexity: 0
               alpha: 0.
               node_risk: 6.4612007340937444e-03
               tree_risk: 0.
               tree_error: 0.
               splits:
                  - { var:0, quality:7.4331678450107574e-02,
                      le:-7.4474617838859558e-02 }
            -
               depth: 2
               sample_count: 42
               value: -2.9860686377755234e-02
               Tn: 0
               complexity: 0
               alpha: 0.
               node_risk: 5.3877384802424877e-03
               tree_risk: 0.
               tree_error: 0.
               splits:
                  - { var:3, quality:4.1635513305664062e-02,
                      le:6.2503910064697266e-01 }
            -
               depth: 3
               sample_count: 9
               value: -7.9044896364212036e-01
               Tn: 0
               complexity: 0
               alpha: 0.
               node_risk: 9.6770315406196489e-04
               tree_risk: 0.
               tree_error: 0.
            -
               depth: 3
               sample_count: 33
               value: -7.6917970180511475e-01
               Tn: 0
               complexity: 0
               alpha: 0.
               node_risk: 2.3426824424641057e-04
               tree_risk: 0.
               tree_error: 0.
            -
               depth: 2
               sample_count: 67
               value: -2.3462237595622219e-02
               Tn: 0
               complexity: 0
               alpha: 0.
               node_risk: 1.6530390138776163e-05
               tree_risk: 0.
               tree_error: 0.
               splits:
                  - { var:1, quality:3.6890372633934021e-02,
                      le:7.5940895080566406e-01 }
            -
               depth: 3
               sample_count: 38
               value: -7.6826459169387817e-01
               Tn: 0
               complexity: 0
               alpha: 0.
               node_risk: 1.4003483837961295e-06
               tree_risk: 0.
               tree_error: 0.
            -
               depth: 3
               sample_count: 29
               value: -7.6770794391632080e-01
               Tn: 0
               complexity: 0
               alpha: 0.
               node_risk: 6.6896833371514475e-06
               tree_risk: 0.
               tree_error: 0.
      -
         best_tree_idx: -1
         nodes:
            -
               depth: 0
               sample_count: 152
               value: -8.7640972464884579e-04
               Tn: 0
               complexity: 0
               alpha: 0.
               node_risk: 2.7776940603280925e-01
               tree_risk: 0.
               tree_error: 0.
               splits:
                  - { var:3, quality:2.5075694918632507e-01,
                      le:-1.4463677406311035e+00 }
            -
               depth: 1
               sample_count: 40
               value: 6.7072513373568649e-02
               Tn: 0
               complexity: 0
               alpha: 0.
               node_risk: 2.1140467877434205e-02
               tree_risk: 0.
               tree_error: 0.
               splits:
                  - { var:0, quality:2.0073461532592773e-01,
                      le:-8.2366353273391724e-01 }
            -
               depth: 2
               sample_count: 2
               value: -7.7731418609619141e-01
               Tn: 0
               complexity: 0
               alpha: 0.
               node_risk: 1.8390650998701026e-04
               tree_risk: 0.
               tree_error: 0.
            -
               depth: 2
               sample_count: 38
               value: 7.2302203429372686e-02
               Tn: 0
               complexity: 0
               alpha: 0.
               node_risk: 1.7082122681774670e-04
               tree_risk: 0.
               tree_error: 0.
               splits:
                  - { var:0, quality:1.9881796836853027e-01,
                      le:-6.2084633111953735e-01 }
            -
               depth: 3
               sample_count: 2
               value: 8.1632322072982788e-01
               Tn: 0
               complexity: 0
               alpha: 0.
               node_risk: 1.6706849947922819e-07
               tree_risk: 0.
               tree_error: 0.
            -
               depth: 3
               sample_count: 36
               value: 8.0802077054977417e-01
               Tn: 0
               complexity: 0
               alpha: 0.
               node_risk: 1.8117844113874071e-06
               tree_risk: 0.
               tree_error: 0.
            -
               depth: 1
               sample_count: 112
               value: -2.5143882259726524e-02
               Tn: 0
               complexity: 0
               alpha: 0.
               node_risk: 5.9887471441121137e-03
               tree_risk: 0.
               tree_error: 0.
               splits:
                  - { var:0, quality:7.1588680148124695e-02,
                      le:-7.4474617838859558e-02 }
            -
               depth: 2
               sample_count: 42
               value: -2.8552162815772351e-02
               Tn: 0
               complexity: 0
               alpha: 0.
               node_risk: 5.1906508423457121e-03
               tree_risk: 0.
               tree_error: 0.
               splits:
                  - { var:3, quality:3.8794644176959991e-02,
                      le:6.1975955963134766e-01 }
            -
               depth: 3
               sample_count: 7
               value: -7.9224598407745361e-01
               Tn: 0
               complexity: 0
               alpha: 0.
               node_risk: 5.3897067176004662e-04
               tree_risk: 0.
               tree_error: 0.
            -
               depth: 3
               sample_count: 35
               value: -7.6845067739486694e-01
               Tn: 0
               complexity: 0
               alpha: 0.
               node_risk: 9.6529605970039484e-05
               tree_risk: 0.
               tree_error: 0.
            -
               depth: 2
               sample_count: 70
               value: -2.3098913926099029e-02
               Tn: 0
               complexity: 0
               alpha: 0.
               node_risk: 1.7475811132497410e-05
               tree_risk: 0.
               tree_error: 0.
               splits:
                  - { var:1, quality:3.7358637899160385e-02,
                      le:7.5940895080566406e-01 }
            -
               depth: 3
               sample_count: 39
               value: -7.6799249649047852e-01
               Tn: 0
               complexity: 0
               alpha: 0.
               node_risk: 1.3627965281468035e-06
               tree_risk: 0.
               tree_error: 0.
            -
               depth: 3
               sample_count: 31
               value: -7.6741755008697510e-01
               Tn: 0
               complexity: 0
               alpha: 0.
               node_risk: 6.6638065189042472e-06
               tree_risk: 0.
               tree_error: 0.
      -
         best_tree_idx: -1
         nodes:
            -
               depth: 0
               sample_count: 152
               value: 2.3182411433050505e-03
               Tn: 0
               complexity: 0
               alpha: 0.
               node_risk: 2.9008630075825925e-01
               tree_risk: 0.
               tree_error: 0.
               splits:
                  - { var:3, quality:2.7354189753532410e-01,
                      le:-1.4463677406311035e+00 }
            -
               depth: 1
               sample_count: 44
               value: 6.8681273524734104e-02
               Tn: 0
               complexity: 0
               alpha: 0.
               node_risk: 1.2546240955436855e-02
               tree_risk: 0.
               tree_error: 0.
               splits:
                  - { var:0, quality:2.1993128955364227e-01,
                      le:-8.2366353273391724e-01 }
            -
               depth: 2
               sample_count: 1
               value: -7.8231281042098999e-01
               Tn: 0
               complexity: 0
               alpha: 0.
               node_risk: 0.
               tree_risk: 0.
               tree_error: 0.
            -
               depth: 2
               sample_count: 43
               value: 7.1239074995351398e-02
               Tn: 0
               complexity: 0
               alpha: 0.
               node_risk: 1.6811785246689803e-04
               tree_risk: 0.
               tree_error: 0.
               splits:
                  - { var:0, quality:2.1838997304439545e-01,
                      le:-6.2084633111953735e-01 }
            -
               depth: 3
               sample_count: 2
               value: 8.1530773639678955e-01
               Tn: 0
               complexity: 0
               alpha: 0.
               node_risk: 1.6278947789771792e-07
               tree_risk: 0.
               tree_error: 0.
            -
               depth: 3
               sample_count: 41
               value: 8.0715280771255493e-01
               Tn: 0
               complexity: 0
               alpha: 0.
               node_risk: 3.2286413131910052e-06
               tree_risk: 0.
               tree_error: 0.
            -
               depth: 1
               sample_count: 108
               value: -2.4718549826906785e-02
               Tn: 0
               complexity: 0
               alpha: 0.
               node_risk: 4.8150577366157937e-03
               tree_risk: 0.
               tree_error: 0.
               splits:
                  - { var:0, quality:6.6620096564292908e-02,
                      le:-7.4474617838859558e-02 }
            -
               depth: 2
               sample_count: 43
               value: -2.7691271372659261e-02
               Tn: 0
               complexity: 0
               alpha: 0.
               node_risk: 4.1676472107184254e-03
               tree_risk: 0.
               tree_error: 0.
               splits:
                  - { var:3, quality:3.6235764622688293e-02,
                      le:6.2503910064697266e-01 }
            -
               depth: 3
               sample_count: 7
               value: -7.8905391693115234e-01
               Tn: 0
               complexity: 0
               alpha: 0.
               node_risk: 6.8022130688367641e-04
               tree_risk: 0.
               tree_error: 0.
            -
               depth: 3
               sample_count: 36
               value: -7.6853024959564209e-01
               Tn: 0
               complexity: 0
               alpha: 0.
               node_risk: 2.2434260139776382e-04
               tree_risk: 0.
               tree_error: 0.
            -
               depth: 2
               sample_count: 65
               value: -2.2751980188947456e-02
               Tn: 0
               complexity: 0
               alpha: 0.
               node_risk: 1.6035621027116198e-05
               tree_risk: 0.
               tree_error: 0.
               splits:
                  - { var:1, quality:3.3656541258096695e-02,
                      le:7.1977233886718750e-01 }
            -
               depth: 3
               sample_count: 36
               value: -7.6772665977478027e-01
               Tn: 0
               complexity: 0
               alpha: 0.
               node_risk: 1.3217532360519646e-06
               tree_risk: 0.
               tree_error: 0.
            -
               depth: 3
               sample_count: 29
               value: -7.6714038848876953e-01
               Tn: 0
               complexity: 0
               alpha: 0.
               node_risk: 5.5920706230304373e-06
               tree_risk: 0.
               tree_error: 0.
      -
         best_tree_idx: -1
         nodes:
            -
               depth: 0
               sample_count: 152
               value: -9.7720282103278141e-04
               Tn: 0
               complexity: 0
               alpha: 0.
               node_risk: 2.6152669460038924e-01
               tree_risk: 0.
               tree_error: 0.
               splits:
                  - { var:3, quality:2.3616674542427063e-01,
                      le:-1.3878703117370605e+00 }
            -
               depth: 1
               sample_count: 40
               value: 6.4960391074419019e-02
               Tn: 0
               complexity: 0
               alpha: 0.
               node_risk: 1.9802770081034343e-02
               tree_risk: 0.
               tree_error: 0.
               splits:
                  - { var:0, quality:1.8833211064338684e-01,
                      le:-8.0506658554077148e-01 }
            -
               depth: 2
               sample_count: 2
               value: -7.7652823925018311e-01
               Tn: 0
               complexity: 0
               alpha: 0.
               node_risk: 1.7490749133486361e-04
               tree_risk: 0.
               tree_error: 0.
            -
               depth: 2
               sample_count: 38
               value: 7.0030687670958672e-02
               Tn: 0
               complexity: 0
               alpha: 0.
               node_risk: 8.9852831269499056e-05
               tree_risk: 0.
               tree_error: 0.
               splits:
                  - { var:0, quality:1.8645001947879791e-01,
                      le:-6.2084633111953735e-01 }
            -
               depth: 3
               sample_count: 1
               value: 8.1452703475952148e-01
               Tn: 0
               complexity: 0
               alpha: 0.
               node_risk: 0.
               tree_risk: 0.
               tree_error: 0.
            -
               depth: 3
               sample_count: 37
               value: 8.0626392364501953e-01
               Tn: 0
               complexity: 0
               alpha: 0.
               node_risk: 3.1226721572963356e-06
               tree_risk: 0.
               tree_error: 0.
            -
               depth: 1
               sample_count: 112
               value: -2.4526343497979854e-02
               Tn: 0
               complexity: 0
               alpha: 0.
               node_risk: 5.7023259887580974e-03
               tree_risk: 0.
               tree_error: 0.
               splits:
                  - { var:0, quality:6.8311639130115509e-02,
                      le:-7.5619511306285858e-02 }
            -
               depth: 2
               sample_count: 40
               value: -2.8411035984754564e-02
               Tn: 0
               complexity: 0
               alpha: 0.
               node_risk: 4.7450568942093430e-03
               tree_risk: 0.
               tree_error: 0.
               splits:
                  - { var:3, quality:3.5950161516666412e-02,
                      le:6.2503910064697266e-01 }
            -
               depth: 3
               sample_count: 8
               value: -7.8933358192443848e-01
               Tn: 0
               complexity: 0
               alpha: 0.
               node_risk: 8.6812886835341274e-04
               tree_risk: 0.
               tree_error: 0.
            -
               depth: 3
               sample_count: 32
               value: -7.6837164163589478e-01
               Tn: 0
               complexity: 0
               alpha: 0.
               node_risk: 2.1424433847050395e-04
               tree_risk: 0.
               tree_error: 0.
            -
               depth: 2
               sample_count: 72
               value: -2.2368181005327240e-02
               Tn: 0
               complexity: 0
               alpha: 0.
               node_risk: 1.8283761058786319e-05
               tree_risk: 0.
               tree_error: 0.
               splits:
                  - { var:1, quality:3.6035358905792236e-02,
                      le:8.2477879524230957e-01 }
            -
               depth: 3
               sample_count: 37
               value: -7.6746231317520142e-01
               Tn: 0
               complexity: 0
               alpha: 0.
               node_risk: 1.2863255836881304e-06
               tree_risk: 0.
               tree_error: 0.
            -
               depth: 3
               sample_count: 35
               value: -7.6684778928756714e-01
               Tn: 0
               complexity: 0
               alpha: 0.
               node_risk: 5.7961582230689479e-06
               tree_risk: 0.
               tree_error: 0.
      -
         best_tree_idx: -1
         nodes:
            -
               depth: 0
               sample_count: 152
               value: 6.7730990581606567e-04
               Tn: 0
               complexity: 0
               alpha: 0.
               node_risk: 2.6841624058168334e-01
               tree_risk: 0.
               tree_error: 0.
               splits:
                  - { var:3, quality:2.4323976039886475e-01,
                      le:-1.4463677406311035e+00 }
            -
               depth: 1
               sample_count: 43
               value: 6.4358657745774400e-02
               Tn: 0
               complexity: 0
               alpha: 0.
               node_risk: 1.9306915288932913e-02
               tree_risk: 0.
               tree_error: 0.
               splits:
                  - { var:0, quality:1.9715642929077148e-01,
                      le:-8.0506658554077148e-01 }
            -
               depth: 2
               sample_count: 2
               value: -7.7614808082580566e-01
               Tn: 0
               complexity: 0
               alpha: 0.
               node_risk: 1.7026437461498296e-04
               tree_risk: 0.
               tree_error: 0.
            -
               depth: 2
               sample_count: 41
               value: 6.9007268766077559e-02
               Tn: 0
               complexity: 0
               alpha: 0.
               node_risk: 8.7802249776974817e-05
               tree_risk: 0.
               tree_error: 0.
               splits:
                  - { var:0, quality:1.9532687962055206e-01,
                      le:-6.2084633111953735e-01 }
            -
               depth: 3
               sample_count: 1
               value: 8.1353735923767090e-01
               Tn: 0
               complexity: 0
               alpha: 0.
               node_risk: 0.
               tree_risk: 0.
               tree_error: 0.
            -
               depth: 3
               sample_count: 40
               value: 8.0539596080780029e-01
               Tn: 0
               complexity: 0
               alpha: 0.
               node_risk: 3.0559552182951588e-06
               tree_risk: 0.
               tree_error: 0.
            -
               depth: 1
               sample_count: 109
               value: -2.4444689700773004e-02
               Tn: 0
               complexity: 0
               alpha: 0.
               node_risk: 5.9393003946114770e-03
               tree_risk: 0.
               tree_error: 0.
               splits:
                  - { var:0, quality:6.6320039331912994e-02,
                      le:-7.5619511306285858e-02 }
            -
               depth: 2
               sample_count: 37
               value: -2.9049755099254684e-02
               Tn: 0
               complexity: 0
               alpha: 0.
               node_risk: 4.7349754743394278e-03
               tree_risk: 0.
               tree_error: 0.
               splits:
                  - { var:3, quality:3.4910056740045547e-02,
                      le:6.2503910064697266e-01 }
            -
               depth: 3
               sample_count: 9
               value: -7.8836417198181152e-01
               Tn: 0
               complexity: 0
               alpha: 0.
               node_risk: 8.4308736113206106e-04
               tree_risk: 0.
               tree_error: 0.
            -
               depth: 3
               sample_count: 28
               value: -7.6821041107177734e-01
               Tn: 0
               complexity: 0
               alpha: 0.
               node_risk: 2.0569912429307599e-04
               tree_risk: 0.
               tree_error: 0.
            -
               depth: 2
               sample_count: 72
               value: -2.2078197759886582e-02
               Tn: 0
               complexity: 0
               alpha: 0.
               node_risk: 1.6459253621099734e-05
               tree_risk: 0.
               tree_error: 0.
               splits:
                  - { var:1, quality:3.5105403512716293e-02,
                      le:8.2477879524230957e-01 }
            -
               depth: 3
               sample_count: 38
               value: -7.6719939708709717e-01
               Tn: 0
               complexity: 0
               alpha: 0.
               node_risk: 1.2573236633124651e-06
               tree_risk: 0.
               tree_error: 0.
            -
               depth: 3
               sample_count: 34
               value: -7.6664203405380249e-01
               Tn: 0
               complexity: 0
               alpha: 0.
               node_risk: 5.9684700207951469e-06
               tree_risk: 0.
               tree_error: 0.
      -
         best_tree_idx: -1
         nodes:
            -
               depth: 0
               sample_count: 152
               value: -1.9889270127015678e-03
               Tn: 0
               complexity: 0
               alpha: 0.
               node_risk: 2.3871470032837999e-01
               tree_risk: 0.
               tree_error: 0.
               splits:
                  - { var:3, quality:2.1515956521034241e-01,
                      le:-1.4463677406311035e+00 }
            -
               depth: 1
               sample_count: 38
               value: 6.3085667151761685e-02
               Tn: 0
               complexity: 0
               alpha: 0.
               node_risk: 1.8810707957035988e-02
               tree_risk: 0.
               tree_error: 0.
               splits:
                  - { var:0, quality:1.6972456872463226e-01,
                      le:-8.2366353273391724e-01 }
            -
               depth: 2
               sample_count: 2
               value: -7.7577316761016846e-01
               Tn: 0
               complexity: 0
               alpha: 0.
               node_risk: 1.6573692193135210e-04
               tree_risk: 0.
               tree_error: 0.
            -
               depth: 2
               sample_count: 36
               value: 6.8285211920738220e-02
               Tn: 0
               complexity: 0
               alpha: 0.
               node_risk: 1.5284922476421769e-04
               tree_risk: 0.
               tree_error: 0.
               splits:
                  - { var:0, quality:1.6801308095455170e-01,
                      le:-6.2084633111953735e-01 }
            -
               depth: 3
               sample_count: 2
               value: 8.1229978799819946e-01
               Tn: 0
               complexity: 0
               alpha: 0.
               node_risk: 1.5035084288683720e-07
               tree_risk: 0.
               tree_error: 0.
            -
               depth: 3
               sample_count: 34
               value: 8.0454128980636597e-01
               Tn: 0
               complexity: 0
               alpha: 0.
               node_risk: 2.9432406037088743e-06
               tree_risk: 0.
               tree_error: 0.
            -
               depth: 1
               sample_count: 114
               value: -2.3680458400855985e-02
               Tn: 0
               complexity: 0
               alpha: 0.
               node_risk: 5.3457168840847502e-03
               tree_risk: 0.
               tree_error: 0.
               splits:
                  - { var:0, quality:6.4692966639995575e-02,
                      le:-7.5619511306285858e-02 }
            -
               depth: 2
               sample_count: 41
               value: -2.7138981423000010e-02
               Tn: 0
               complexity: 0
               alpha: 0.
               node_risk: 4.5630846381639091e-03
               tree_risk: 0.
               tree_error: 0.
               splits:
                  - { var:3, quality:3.3858496695756912e-02,
                      le:6.7546951770782471e-01 }
            -
               depth: 3
               sample_count: 8
               value: -7.8826600313186646e-01
               Tn: 0
               complexity: 0
               alpha: 0.
               node_risk: 8.2044748126608447e-04
               tree_risk: 0.
               tree_error: 0.
            -
               depth: 3
               sample_count: 33
               value: -7.6733911037445068e-01
               Tn: 0
               complexity: 0
               alpha: 0.
               node_risk: 8.1636695446606067e-05
               tree_risk: 0.
               tree_error: 0.
            -
               depth: 2
               sample_count: 73
               value: -2.1738000265131258e-02
               Tn: 0
               complexity: 0
               alpha: 0.
               node_risk: 1.6776121178035952e-05
               tree_risk: 0.
               tree_error: 0.
               splits:
                  - { var:1, quality:3.4505289047956467e-02,
                      le:7.5940895080566406e-01 }
            -
               depth: 3
               sample_count: 39
               value: -7.6693528890609741e-01
               Tn: 0
               complexity: 0
               alpha: 0.
               node_risk: 1.1141831867157725e-06
               tree_risk: 0.
               tree_error: 0.
            -
               depth: 3
               sample_count: 34
               value: -7.6636433601379395e-01
               Tn: 0
               complexity: 0
               alpha: 0.
               node_risk: 5.8391393850821399e-06
               tree_risk: 0.
               tree_error: 0.
      -
         best_tree_idx: -1
         nodes:
            -
               depth: 0
               sample_count: 152
               value: -4.4354150610926906e-04
               Tn: 0
               complexity: 0
               alpha: 0.
               node_risk: 2.4714732357752622e-01
               tree_risk: 0.
               tree_error: 0.
               splits:
                  - { var:3, quality:2.2238457202911377e-01,
                      le:-1.4483599662780762e+00 }
            -
               depth: 1
               sample_count: 41
               value: 6.2488366781574926e-02
               Tn: 0
               complexity: 0
               alpha: 0.
               node_risk: 1.8327536831249408e-02
               tree_risk: 0.
               tree_error: 0.
               splits:
                  - { var:0, quality:1.7811329662799835e-01,
                      le:-8.2366353273391724e-01 }
            -
               depth: 2
               sample_count: 2
               value: -7.7540343999862671e-01
               Tn: 0
               complexity: 0
               alpha: 0.
               node_risk: 1.6132280044956100e-04
               tree_risk: 0.
               tree_error: 0.
            -
               depth: 2
               sample_count: 39
               value: 6.7235462176494107e-02
               Tn: 0
               complexity: 0
               alpha: 0.
               node_risk: 1.4954973737374422e-04
               tree_risk: 0.
               tree_error: 0.
               splits:
                  - { var:0, quality:1.7645148932933807e-01,
                      le:-6.2084633111953735e-01 }
            -
               depth: 3
               sample_count: 2
               value: 8.1134575605392456e-01
               Tn: 0
               complexity: 0
               alpha: 0.
               node_risk: 1.4645422652392881e-07
               tree_risk: 0.
               tree_error: 0.
            -
               depth: 3
               sample_count: 37
               value: 8.0367201566696167e-01
               Tn: 0
               complexity: 0
               alpha: 0.
               node_risk: 1.5940971198336040e-06
               tree_risk: 0.
               tree_error: 0.
            -
               depth: 1
               sample_count: 111
               value: -2.3688660783542169e-02
               Tn: 0
               complexity: 0
               alpha: 0.
               node_risk: 6.4651101417168219e-03
               tree_risk: 0.
               tree_error: 0.
               splits:
                  - { var:0, quality:6.3309602439403534e-02,
                      le:-7.5619511306285858e-02 }
            -
               depth: 2
               sample_count: 39
               value: -2.7810829428908151e-02
               Tn: 0
               complexity: 0
               alpha: 0.
               node_risk: 5.4301703504935246e-03
               tree_risk: 0.
               tree_error: 0.
               splits:
                  - { var:3, quality:3.4983593970537186e-02,
                      le:6.7546951770782471e-01 }
            -
               depth: 3
               sample_count: 8
               value: -7.9033070802688599e-01
               Tn: 0
               complexity: 0
               alpha: 0.
               node_risk: 5.3145515984400621e-04
               tree_risk: 0.
               tree_error: 0.
            -
               depth: 3
               sample_count: 31
               value: -7.6709020137786865e-01
               Tn: 0
               complexity: 0
               alpha: 0.
               node_risk: 7.9368055158898082e-05
               tree_risk: 0.
               tree_error: 0.
            -
               depth: 2
               sample_count: 72
               value: -2.1455819433968928e-02
               Tn: 0
               complexity: 0
               alpha: 0.
               node_risk: 1.3279296480490921e-05
               tree_risk: 0.
               tree_error: 0.
               splits:
                  - { var:1, quality:3.3153161406517029e-02,
                      le:7.5940895080566406e-01 }
            -
               depth: 3
               sample_count: 41
               value: -7.6666909456253052e-01
               Tn: 0
               complexity: 0
               alpha: 0.
               node_risk: 1.2860673576781112e-07
               tree_risk: 0.
               tree_error: 0.
            -
               depth: 3
               sample_count: 31
               value: -7.6615464687347412e-01
               Tn: 0
               complexity: 0
               alpha: 0.
               node_risk: 5.3454635496018310e-06
               tree_risk: 0.
               tree_error: 0.
      -
         best_tree_idx: -1
         nodes:
            -
               depth: 0
               sample_count: 152
               value: -9.1957575396487583e-04
               Tn: 0
               complexity: 0
               alpha: 0.
               node_risk: 2.3490546968454559e-01
               tree_risk: 0.
               tree_error: 0.
               splits:
                  - { var:3, quality:2.1165065467357635e-01,
                      le:-1.4463677406311035e+00 }
            -
               depth: 1
               sample_count: 40
               value: 6.1502055311575529e-02
               Tn: 0
               complexity: 0
               alpha: 0.
               node_risk: 1.7797939039998656e-02
               tree_risk: 0.
               tree_error: 0.
               splits:
                  - { var:0, quality:1.6879570484161377e-01,
                      le:-8.2366353273391724e-01 }
            -
               depth: 2
               sample_count: 2
               value: -7.7503871917724609e-01
               Tn: 0
               complexity: 0
               alpha: 0.
               node_risk: 1.5701915080283853e-04
               tree_risk: 0.
               tree_error: 0.
            -
               depth: 2
               sample_count: 38
               value: 6.6300025111750552e-02
               Tn: 0
               complexity: 0
               alpha: 0.
               node_risk: 1.4532909461825727e-04
               tree_risk: 0.
               tree_error: 0.
               splits:
                  - { var:0, quality:1.6717873513698578e-01,
                      le:-6.2084633111953735e-01 }
            -
               depth: 3
               sample_count: 2
               value: 8.1038463115692139e-01
               Tn: 0
               complexity: 0
               alpha: 0.
               node_risk: 1.4257693869978993e-07
               tree_risk: 0.
               tree_error: 0.
            -
               depth: 3
               sample_count: 36
               value: 8.0286461114883423e-01
               Tn: 0
               complexity: 0
               alpha: 0.
               node_risk: 2.8007044066691300e-06
               tree_risk: 0.
               tree_error: 0.
            -
               depth: 1
               sample_count: 112
               value: -2.3213015420229306e-02
               Tn: 0
               complexity: 0
               alpha: 0.
               node_risk: 5.5854150080719422e-03
               tree_risk: 0.
               tree_error: 0.
               splits:
                  - { var:0, quality:6.1195328831672668e-02,
                      le:-9.2776104807853699e-02 }
            -
               depth: 2
               sample_count: 42
               value: -2.6758617987590178e-02
               Tn: 0
               complexity: 0
               alpha: 0.
               node_risk: 4.7262529493621377e-03
               tree_risk: 0.
               tree_error: 0.
               splits:
                  - { var:3, quality:3.3928543329238892e-02,
                      le:6.7546951770782471e-01 }
            -
               depth: 3
               sample_count: 9
               value: -7.8707730770111084e-01
               Tn: 0
               complexity: 0
               alpha: 0.
               node_risk: 8.1287546535395439e-04
               tree_risk: 0.
               tree_error: 0.
            -
               depth: 3
               sample_count: 33
               value: -7.6674222946166992e-01
               Tn: 0
               complexity: 0
               alpha: 0.
               node_risk: 5.7828315792408935e-05
               tree_risk: 0.
               tree_error: 0.
            -
               depth: 2
               sample_count: 70
               value: -2.1085653879812784e-02
               Tn: 0
               complexity: 0
               alpha: 0.
               node_risk: 1.4370862296417958e-05
               tree_risk: 0.
               tree_error: 0.
               splits:
                  - { var:1, quality:3.1130973249673843e-02,
                      le:7.1977233886718750e-01 }
            -
               depth: 3
               sample_count: 36
               value: -7.6642227172851562e-01
               Tn: 0
               complexity: 0
               alpha: 0.
               node_risk: 1.2419262874693859e-07
               tree_risk: 0.
               tree_error: 0.
            -
               depth: 3
               sample_count: 34
               value: -7.6587831974029541e-01
               Tn: 0
               complexity: 0
               alpha: 0.
               node_risk: 5.6093141124098633e-06
               tree_risk: 0.
               tree_error: 0.
      -
         best_tree_idx: -1
         nodes:
            -
               depth: 0
               sample_count: 152
               value: -1.0137322946990792e-03
               Tn: 0
               complexity: 0
               alpha: 0.
               node_risk: 2.2969635580205550e-01
               tree_risk: 0.
               tree_error: 0.
               splits:
                  - { var:3, quality:2.0687495172023773e-01,
                      le:-1.4463677406311035e+00 }
            -
               depth: 1
               sample_count: 40
               value: 6.0695074638351797e-02
               Tn: 0
               complexity: 0
               alpha: 0.
               node_risk: 1.7320106765996157e-02
               tree_risk: 0.
               tree_error: 0.
               splits:
                  - { var:0, quality:1.6438508033752441e-01,
                      le:-8.2366353273391724e-01 }
            -
               depth: 2
               sample_count: 2
               value: -7.7467846870422363e-01
               Tn: 0
               complexity: 0
               alpha: 0.
               node_risk: 1.5281829356452066e-04
               tree_risk: 0.
               tree_error: 0.
            -
               depth: 2
               sample_count: 38
               value: 6.5428688337928365e-02
               Tn: 0
               complexity: 0
               alpha: 0.
               node_risk: 1.3789349324921929e-04
               tree_risk: 0.
               tree_error: 0.
               splits:
                  - { var:0, quality:1.6280964016914368e-01,
                      le:-6.2084633111953735e-01 }
            -
               depth: 3
               sample_count: 2
               value: 8.0943208932876587e-01
               Tn: 0
               complexity: 0
               alpha: 0.
               node_risk: 1.3878306681647246e-07
               tree_risk: 0.
               tree_error: 0.
            -
               depth: 3
               sample_count: 36
               value: 8.0212682485580444e-01
               Tn: 0
               complexity: 0
               alpha: 0.
               node_risk: 2.8196357493848190e-06
               tree_risk: 0.
               tree_error: 0.
            -
               depth: 1
               sample_count: 112
               value: -2.3052591913645819e-02
               Tn: 0
               complexity: 0
               alpha: 0.
               node_risk: 5.6575055820298481e-03
               tree_risk: 0.
               tree_error: 0.
               splits:
                  - { var:0, quality:6.0383193194866180e-02,
                      le:-7.4474617838859558e-02 }
            -
               depth: 2
               sample_count: 44
               value: -2.6505289937962185e-02
               Tn: 0
               complexity: 0
               alpha: 0.
               node_risk: 4.7795492721770007e-03
               tree_risk: 0.
               tree_error: 0.
               splits:
                  - { var:3, quality:3.4661445766687393e-02,
                      le:6.2503910064697266e-01 }
            -
               depth: 3
               sample_count: 9
               value: -7.8681182861328125e-01
               Tn: 0
               complexity: 0
               alpha: 0.
               node_risk: 8.3499625268779534e-04
               tree_risk: 0.
               tree_error: 0.
            -
               depth: 3
               sample_count: 35
               value: -7.6693260669708252e-01
               Tn: 0
               complexity: 0
               alpha: 0.
               node_risk: 1.9444509208755081e-04
               tree_risk: 0.
               tree_error: 0.
            -
               depth: 2
               sample_count: 68
               value: -2.0818493192029351e-02
               Tn: 0
               complexity: 0
               alpha: 0.
               node_risk: 1.4025466720586632e-05
               tree_risk: 0.
               tree_error: 0.
               splits:
                  - { var:1, quality:2.9479924589395523e-02,
                      le:7.5940895080566406e-01 }
            -
               depth: 3
               sample_count: 36
               value: -7.6620107889175415e-01
               Tn: 0
               complexity: 0
               alpha: 0.
               node_risk: 1.1201037315895779e-06
               tree_risk: 0.
               tree_error: 0.
            -
               depth: 3
               sample_count: 32
               value: -7.6566594839096069e-01
               Tn: 0
               complexity: 0
               alpha: 0.
               node_risk: 4.8383180632199235e-06
               tree_risk: 0.
               tree_error: 0.
      -
         best_tree_idx: -1
         nodes:
            -
               depth: 0
               sample_count: 152
               value: -1.3349088840186596e-04
               Tn: 0
               complexity: 0
               alpha: 0.
               node_risk: 2.2335846615217453e-01
               tree_risk: 0.
               tree_error: 0.
               splits:
                  - { var:3, quality:2.0876526832580566e-01,
                      le:-1.4463677406311035e+00 }
            -
               depth: 1
               sample_count: 40
               value: 6.1879621725529431e-02
               Tn: 0
               complexity: 0
               alpha: 0.
               node_risk: 1.0255041526096575e-02
               tree_risk: 0.
               tree_error: 0.
               splits:
                  - { var:0, quality:1.6328436136245728e-01,
                      le:-8.2366353273391724e-01 }
            -
               depth: 2
               sample_count: 1
               value: -7.7918624877929688e-01
               Tn: 0
               complexity: 0
               alpha: 0.
               node_risk: 0.
               tree_risk: 0.
               tree_error: 0.
            -
               depth: 2
               sample_count: 39
               value: 6.4426723199012950e-02
               Tn: 0
               complexity: 0
               alpha: 0.
               node_risk: 1.3418909679038804e-04
               tree_risk: 0.
               tree_error: 0.
               splits:
                  - { var:0, quality:1.6201391816139221e-01,
                      le:-6.1514461040496826e-01 }
            -
               depth: 3
               sample_count: 2
               value: 8.0850231647491455e-01
               Tn: 0
               complexity: 0
               alpha: 0.
               node_risk: 1.3507133189705200e-07
               tree_risk: 0.
               tree_error: 0.
            -
               depth: 3
               sample_count: 37
               value: 8.0128085613250732e-01
               Tn: 0
               complexity: 0
               alpha: 0.
               node_risk: 1.4447503563774777e-06
               tree_risk: 0.
               tree_error: 0.
            -
               depth: 1
               sample_count: 112
               value: -2.2281031107663045e-02
               Tn: 0
               complexity: 0
               alpha: 0.
               node_risk: 4.3408629538086371e-03
               tree_risk: 0.
               tree_error: 0.
               splits:
                  - { var:0, quality:5.6234184652566910e-02,
                      le:-7.5619511306285858e-02 }
            -
               depth: 2
               sample_count: 39
               value: -2.5532071550305072e-02
               Tn: 0
               complexity: 0
               alpha: 0.
               node_risk: 3.6947424656506300e-03
               tree_risk: 0.
               tree_error: 0.
               splits:
                  - { var:3, quality:2.8405725955963135e-02,
                      le:7.0244765281677246e-01 }
            -
               depth: 3
               sample_count: 8
               value: -7.8512191772460938e-01
               Tn: 0
               complexity: 0
               alpha: 0.
               node_risk: 6.8011842432362871e-04
               tree_risk: 0.
               tree_error: 0.
            -
               depth: 3
               sample_count: 31
               value: -7.6619708538055420e-01
               Tn: 0
               complexity: 0
               alpha: 0.
               node_risk: 3.2478643449613750e-05
               tree_risk: 0.
               tree_error: 0.
            -
               depth: 2
               sample_count: 73
               value: -2.0544173884881684e-02
               Tn: 0
               complexity: 0
               alpha: 0.
               node_risk: 1.3702063830105249e-05
               tree_risk: 0.
               tree_error: 0.
               splits:
                  - { var:1, quality:3.0817503109574318e-02,
                      le:7.5940895080566406e-01 }
            -
               depth: 3
               sample_count: 39
               value: -7.6595681905746460e-01
               Tn: 0
               complexity: 0
               alpha: 0.
               node_risk: 1.0952715446023442e-06
               tree_risk: 0.
               tree_error: 0.
            -
               depth: 3
               sample_count: 34
               value: -7.6548051834106445e-01
               Tn: 0
               complexity: 0
               alpha: 0.
               node_risk: 5.7085910130164064e-06
               tree_risk: 0.
               tree_error: 0.
      -
         best_tree_idx: -1
         nodes:
            -
               depth: 0
               sample_count: 152
               value: -4.4927529770096668e-03
               Tn: 0
               complexity: 0
               alpha: 0.
               node_risk: 1.9487962799754927e-01
               tree_risk: 0.
               tree_error: 0.
               splits:
                  - { var:3, quality:1.7529268562793732e-01,
                      le:-1.4483599662780762e+00 }
            -
               depth: 1
               sample_count: 34
               value: 5.8215879616053665e-02
               Tn: 0
               complexity: 0
               alpha: 0.
               node_risk: 1.6223456713178111e-02
               tree_risk: 0.
               tree_error: 0.
               splits:
                  - { var:0, quality:1.3118059933185577e-01,
                      le:-8.2366353273391724e-01 }
            -
               depth: 2
               sample_count: 2
               value: -7.7397000789642334e-01
               Tn: 0
               complexity: 0
               alpha: 0.
               node_risk: 1.4469890844072582e-04
               tree_risk: 0.
               tree_error: 0.
            -
               depth: 2
               sample_count: 32
               value: 6.3630929216742516e-02
               Tn: 0
               complexity: 0
               alpha: 0.
               node_risk: 1.2717517994864647e-04
               tree_risk: 0.
               tree_error: 0.
               splits:
                  - { var:0, quality:1.2969018518924713e-01,
                      le:-6.0366225242614746e-01 }
            -
               depth: 3
               sample_count: 2
               value: 8.0758321285247803e-01
               Tn: 0
               complexity: 0
               alpha: 0.
               node_risk: 1.3147102784216713e-07
               tree_risk: 0.
               tree_error: 0.
            -
               depth: 3
               sample_count: 30
               value: 8.0052965879440308e-01
               Tn: 0
               complexity: 0
               alpha: 0.
               node_risk: 1.5002910724037921e-06
               tree_risk: 0.
               tree_error: 0.
            -
               depth: 1
               sample_count: 118
               value: -2.2561342029248255e-02
               Tn: 0
               complexity: 0
               alpha: 0.
               node_risk: 6.4315814068863844e-03
               tree_risk: 0.
               tree_error: 0.
               splits:
                  - { var:0, quality:6.1194516718387604e-02,
                      le:-7.5619511306285858e-02 }
            -
               depth: 2
               sample_count: 42
               value: -2.6725650853699164e-02
               Tn: 0
               complexity: 0
               alpha: 0.
               node_risk: 5.2876936532547623e-03
               tree_risk: 0.
               tree_error: 0.
               splits:
                  - { var:3, quality:3.4215286374092102e-02,
                      le:6.2503910064697266e-01 }
            -
               depth: 3
               sample_count: 10
               value: -7.8673642873764038e-01
               Tn: 0
               complexity: 0
               alpha: 0.
               node_risk: 9.1339412809876563e-04
               tree_risk: 0.
               tree_error: 0.
            -
               depth: 3
               sample_count: 32
               value: -7.6636832952499390e-01
               Tn: 0
               complexity: 0
               alpha: 0.
               node_risk: 1.5795163870920177e-04
               tree_risk: 0.
               tree_error: 0.
            -
               depth: 2
               sample_count: 76
               value: -2.0260013468367487e-02
               Tn: 0
               complexity: 0
               alpha: 0.
               node_risk: 1.3041499215358382e-05
               tree_risk: 0.
               tree_error: 0.
               splits:
                  - { var:1, quality:3.1202463433146477e-02,
                      le:7.5940895080566406e-01 }
            -
               depth: 3
               sample_count: 43
               value: -7.6571625471115112e-01
               Tn: 0
               complexity: 0
               alpha: 0.
               node_risk: 1.0687227362596308e-06
               tree_risk: 0.
               tree_error: 0.
            -
               depth: 3
               sample_count: 33
               value: -7.6524692773818970e-01
               Tn: 0
               complexity: 0
               alpha: 0.
               node_risk: 5.0877885494019642e-06
               tree_risk: 0.
               tree_error: 0.
      -
         best_tree_idx: -1
         nodes:
            -
               depth: 0
               sample_count: 152
               value: -4.5673043074968616e-04
               Tn: 0
               complexity: 0
               alpha: 0.
               node_risk: 2.1443204818907052e-01
               tree_risk: 0.
               tree_error: 0.
               splits:
                  - { var:3, quality:1.9320222735404968e-01,
                      le:-1.3948662281036377e+00 }
            -
               depth: 1
               sample_count: 41
               value: 5.8200046601818829e-02
               Tn: 0
               complexity: 0
               alpha: 0.
               node_risk: 1.5897939152455909e-02
               tree_risk: 0.
               tree_error: 0.
               splits:
                  - { var:0, quality:1.5450944006443024e-01,
                      le:-8.2366353273391724e-01 }
            -
               depth: 2
               sample_count: 2
               value: -7.7362507581710815e-01
               Tn: 0
               complexity: 0
               alpha: 0.
               node_risk: 1.4081489728592911e-04
               tree_risk: 0.
               tree_error: 0.
            -
               depth: 2
               sample_count: 39
               value: 6.2621889970241443e-02
               Tn: 0
               complexity: 0
               alpha: 0.
               node_risk: 1.2474158466693752e-04
               tree_risk: 0.
               tree_error: 0.
               splits:
                  - { var:0, quality:1.5306173264980316e-01,
                      le:-6.2084633111953735e-01 }
            -
               depth: 3
               sample_count: 2
               value: 8.0668342113494873e-01
               Tn: 0
               complexity: 0
               alpha: 0.
               node_risk: 1.2794950698946650e-07
               tree_risk: 0.
               tree_error: 0.
            -
               depth: 3
               sample_count: 37
               value: 7.9975199699401855e-01
               Tn: 0
               complexity: 0
               alpha: 0.
               node_risk: 1.4209449009927599e-06
               tree_risk: 0.
               tree_error: 0.
            -
               depth: 1
               sample_count: 111
               value: -2.2122747172509227e-02
               Tn: 0
               complexity: 0
               alpha: 0.
               node_risk: 5.3635846294113956e-03
               tree_risk: 0.
               tree_error: 0.
               splits:
                  - { var:0, quality:5.5363904684782028e-02,
                      le:-7.5619511306285858e-02 }
            -
               depth: 2
               sample_count: 38
               value: -2.6362693721526546e-02
               Tn: 0
               complexity: 0
               alpha: 0.
               node_risk: 4.3126718921777038e-03
               tree_risk: 0.
               tree_error: 0.
               splits:
                  - { var:3, quality:2.9718507081270218e-02,
                      le:5.6932914257049561e-01 }
            -
               depth: 3
               sample_count: 9
               value: -7.8550964593887329e-01
               Tn: 0
               complexity: 0
               alpha: 0.
               node_risk: 8.1207635928667865e-04
               tree_risk: 0.
               tree_error: 0.
            -
               depth: 3
               sample_count: 29
               value: -7.6646113395690918e-01
               Tn: 0
               complexity: 0
               alpha: 0.
               node_risk: 1.9176970912037662e-04
               tree_risk: 0.
               tree_error: 0.
            -
               depth: 2
               sample_count: 73
               value: -1.9915651708637197e-02
               Tn: 0
               complexity: 0
               alpha: 0.
               node_risk: 1.2178422944843920e-05
               tree_risk: 0.
               tree_error: 0.
               splits:
                  - { var:1, quality:2.8960434719920158e-02,
                      le:7.5940895080566406e-01 }
            -
               depth: 3
               sample_count: 37
               value: -7.6546514034271240e-01
               Tn: 0
               complexity: 0
               alpha: 0.
               node_risk: 1.1040930470232468e-07
               tree_risk: 0.
               tree_error: 0.
            -
               depth: 3
               sample_count: 36
               value: -7.6501590013504028e-01
               Tn: 0
               complexity: 0
               alpha: 0.
               node_risk: 5.8554870819120530e-06
               tree_risk: 0.
               tree_error: 0.
      -
         best_tree_idx: -1
         nodes:
            -
               depth: 0
               sample_count: 152
               value: -2.0610483265236803e-03
               Tn: 0
               complexity: 0
               alpha: 0.
               node_risk: 1.9775500292551654e-01
               tree_risk: 0.
               tree_error: 0.
               splits:
                  - { var:3, quality:1.8380121886730194e-01,
                      le:-1.4463677406311035e+00 }
            -
               depth: 1
               sample_count: 37
               value: 5.9136818893052438e-02
               Tn: 0
               complexity: 0
               alpha: 0.
               node_risk: 9.4053642026966366e-03
               tree_risk: 0.
               tree_error: 0.
               splits:
                  - { var:0, quality:1.3867978751659393e-01,
                      le:-8.2366353273391724e-01 }
            -
               depth: 2
               sample_count: 1
               value: -7.7793526649475098e-01
               Tn: 0
               complexity: 0
               alpha: 0.
               node_risk: 0.
               tree_risk: 0.
               tree_error: 0.
            -
               depth: 2
               sample_count: 36
               value: 6.1776994003189936e-02
               Tn: 0
               complexity: 0
               alpha: 0.
               node_risk: 1.2062541926016745e-04
               tree_risk: 0.
               tree_error: 0.
               splits:
                  - { var:0, quality:1.3750840723514557e-01,
                      le:-6.0317897796630859e-01 }
            -
               depth: 3
               sample_count: 2
               value: 8.0579841136932373e-01
               Tn: 0
               complexity: 0
               alpha: 0.
               node_risk: 1.2453527808986564e-07
               tree_risk: 0.
               tree_error: 0.
            -
               depth: 3
               sample_count: 34
               value: 7.9901033639907837e-01
               Tn: 0
               complexity: 0
               alpha: 0.
               node_risk: 2.3894725211248691e-06
               tree_risk: 0.
               tree_error: 0.
            -
               depth: 1
               sample_count: 115
               value: -2.1750796910213387e-02
               Tn: 0
               complexity: 0
               alpha: 0.
               node_risk: 5.1941045722756693e-03
               tree_risk: 0.
               tree_error: 0.
               splits:
                  - { var:0, quality:5.5256739258766174e-02,
                      le:-7.5619511306285858e-02 }
            -
               depth: 2
               sample_count: 43
               value: -2.5269938979384510e-02
               Tn: 0
               complexity: 0
               alpha: 0.
               node_risk: 4.3306252829785619e-03
               tree_risk: 0.
               tree_error: 0.
               splits:
                  - { var:3, quality:3.0819011852145195e-02,
                      le:6.2503910064697266e-01 }
            -
               depth: 3
               sample_count: 9
               value: -7.8492271900177002e-01
               Tn: 0
               complexity: 0
               alpha: 0.
               node_risk: 7.7921973484243803e-04
               tree_risk: 0.
               tree_error: 0.
            -
               depth: 3
               sample_count: 34
               value: -7.6608204841613770e-01
               Tn: 0
               complexity: 0
               alpha: 0.
               node_risk: 1.9089657135785282e-04
               tree_risk: 0.
               tree_error: 0.
            -
               depth: 2
               sample_count: 72
               value: -1.9649087063347299e-02
               Tn: 0
               complexity: 0
               alpha: 0.
               node_risk: 1.2914502277933809e-05
               tree_risk: 0.
               tree_error: 0.
               splits:
                  - { var:1, quality:2.7805803343653679e-02,
                      le:7.5940895080566406e-01 }
            -
               depth: 3
               sample_count: 41
               value: -7.6525372266769409e-01
               Tn: 0
               complexity: 0
               alpha: 0.
               node_risk: 1.6007844134101334e-06
               tree_risk: 0.
               tree_error: 0.
            -
               depth: 3
               sample_count: 31
               value: -7.6474624872207642e-01
               Tn: 0
               complexity: 0
               alpha: 0.
               node_risk: 3.7476853970135754e-06
               tree_risk: 0.
               tree_error: 0.
      -
         best_tree_idx: -1
         nodes:
            -
               depth: 0
               sample_count: 152
               value: 1.6891675707148877e-04
               Tn: 0
               complexity: 0
               alpha: 0.
               node_risk: 2.0485981157697455e-01
               tree_risk: 0.
               tree_error: 0.
               splits:
                  - { var:3, quality:1.8496651947498322e-01,
                      le:-1.4463677406311035e+00 }
            -
               depth: 1
               sample_count: 42
               value: 5.6622482126667387e-02
               Tn: 0
               complexity: 0
               alpha: 0.
               node_risk: 1.5020708857820669e-02
               tree_risk: 0.
               tree_error: 0.
               splits:
                  - { var:0, quality:1.4942537248134613e-01,
                      le:-8.2366353273391724e-01 }
            -
               depth: 2
               sample_count: 2
               value: -7.7294594049453735e-01
               Tn: 0
               complexity: 0
               alpha: 0.
               node_risk: 1.3330287924206985e-04
               tree_risk: 0.
               tree_error: 0.
            -
               depth: 2
               sample_count: 40
               value: 6.0815580189228058e-02
               Tn: 0
               complexity: 0
               alpha: 0.
               node_risk: 1.1846603428855573e-04
               tree_risk: 0.
               tree_error: 0.
               splits:
                  - { var:0, quality:1.4805719256401062e-01,
                      le:-6.2084633111953735e-01 }
            -
               depth: 3
               sample_count: 2
               value: 8.0492216348648071e-01
               Tn: 0
               complexity: 0
               alpha: 0.
               node_risk: 1.2116722025723448e-07
               tree_risk: 0.
               tree_error: 0.
            -
               depth: 3
               sample_count: 38
               value: 7.9823440313339233e-01
               Tn: 0
               complexity: 0
               alpha: 0.
               node_risk: 2.5494167731343609e-06
               tree_risk: 0.
               tree_error: 0.
            -
               depth: 1
               sample_count: 110
               value: -2.1386080929501491e-02
               Tn: 0
               complexity: 0
               alpha: 0.
               node_risk: 4.8769191362077260e-03
               tree_risk: 0.
               tree_error: 0.
               splits:
                  - { var:0, quality:5.1055271178483963e-02,
                      le:-6.3053756952285767e-02 }
            -
               depth: 2
               sample_count: 41
               value: -2.4762583896517754e-02
               Tn: 0
               complexity: 0
               alpha: 0.
               node_risk: 4.1191854973646261e-03
               tree_risk: 0.
               tree_error: 0.
               splits:
                  - { var:3, quality:2.8395785018801689e-02,
                      le:6.2503910064697266e-01 }
            -
               depth: 3
               sample_count: 8
               value: -7.8521424531936646e-01
               Tn: 0
               complexity: 0
               alpha: 0.
               node_risk: 6.8131183352338268e-04
               tree_risk: 0.
               tree_error: 0.
            -
               depth: 3
               sample_count: 33
               value: -7.6581180095672607e-01
               Tn: 0
               complexity: 0
               alpha: 0.
               node_risk: 1.8269609567617834e-04
               tree_risk: 0.
               tree_error: 0.
            -
               depth: 2
               sample_count: 69
               value: -1.9379753079535305e-02
               Tn: 0
               complexity: 0
               alpha: 0.
               node_risk: 1.2552725639186635e-05
               tree_risk: 0.
               tree_error: 0.
               splits:
                  - { var:1, quality:2.5921227410435677e-02,
                      le:7.5940895080566406e-01 }
            -
               depth: 3
               sample_count: 39
               value: -7.6503473520278931e-01
               Tn: 0
               complexity: 0
               alpha: 0.
               node_risk: 1.6357513046433292e-06
               tree_risk: 0.
               tree_error: 0.
            -
               depth: 3
               sample_count: 30
               value: -7.6455384492874146e-01
               Tn: 0
               complexity: 0
               alpha: 0.
               node_risk: 4.3536941839970866e-06
               tree_risk: 0.
               tree_error: 0.
      -
         best_tree_idx: -1
         nodes:
            -
               depth: 0
               sample_count: 152
               value: -1.2128001912251900e-03
               Tn: 0
               complexity: 0
               alpha: 0.
               node_risk: 1.8769760515953554e-01
               tree_risk: 0.
               tree_error: 0.
               splits:
                  - { var:3, quality:1.7455808818340302e-01,
                      le:-1.4463677406311035e+00 }
            -
               depth: 1
               sample_count: 38
               value: 5.7445641312944259e-02
               Tn: 0
               complexity: 0
               alpha: 0.
               node_risk: 8.8739966884446297e-03
               tree_risk: 0.
               tree_error: 0.
               splits:
                  - { var:0, quality:1.3416002690792084e-01,
                      le:-8.2366353273391724e-01 }
            -
               depth: 2
               sample_count: 1
               value: -7.7712899446487427e-01
               Tn: 0
               complexity: 0
               alpha: 0.
               node_risk: 0.
               tree_risk: 0.
               tree_error: 0.
            -
               depth: 2
               sample_count: 37
               value: 5.9941720318149878e-02
               Tn: 0
               complexity: 0
               alpha: 0.
               node_risk: 1.1403966572370861e-04
               tree_risk: 0.
               tree_error: 0.
               splits:
                  - { var:0, quality:1.3305397331714630e-01,
                      le:-6.2084633111953735e-01 }
            -
               depth: 3
               sample_count: 2
               value: 8.0406606197357178e-01
               Tn: 0
               complexity: 0
               alpha: 0.
               node_risk: 1.1793216003752605e-07
               tree_risk: 0.
               tree_error: 0.
            -
               depth: 3
               sample_count: 35
               value: 7.9746961593627930e-01
               Tn: 0
               complexity: 0
               alpha: 0.
               node_risk: 1.3063918885281023e-06
               tree_risk: 0.
               tree_error: 0.
            -
               depth: 1
               sample_count: 114
               value: -2.0765614025948339e-02
               Tn: 0
               complexity: 0
               alpha: 0.
               node_risk: 4.4890953130556840e-03
               tree_risk: 0.
               tree_error: 0.
               splits:
                  - { var:0, quality:4.9849145114421844e-02,
                      le:-7.5619511306285858e-02 }
            -
               depth: 2
               sample_count: 37
               value: -2.4317590217735316e-02
               Tn: 0
               complexity: 0
               alpha: 0.
               node_risk: 3.7867068372965072e-03
               tree_risk: 0.
               tree_error: 0.
               splits:
                  - { var:3, quality:2.4847095832228661e-02,
                      le:6.2503910064697266e-01 }
            -
               depth: 3
               sample_count: 7
               value: -7.8544020652770996e-01
               Tn: 0
               complexity: 0
               alpha: 0.
               node_risk: 6.7936383918564859e-04
               tree_risk: 0.
               tree_error: 0.
            -
               depth: 3
               sample_count: 30
               value: -7.6548206806182861e-01
               Tn: 0
               complexity: 0
               alpha: 0.
               node_risk: 1.4001931761807931e-04
               tree_risk: 0.
               tree_error: 0.
            -
               depth: 2
               sample_count: 77
               value: -1.9058820271453301e-02
               Tn: 0
               complexity: 0
               alpha: 0.
               node_risk: 1.1264526809964120e-05
               tree_risk: 0.
               tree_error: 0.
               splits:
                  - { var:1, quality:2.7975495904684067e-02,
                      le:7.5940895080566406e-01 }
            -
               depth: 3
               sample_count: 41
               value: -7.6477783918380737e-01
               Tn: 0
               complexity: 0
               alpha: 0.
               node_risk: 2.5371675541757677e-09
               tree_risk: 0.
               tree_error: 0.
            -
               depth: 3
               sample_count: 36
               value: -7.6434332132339478e-01
               Tn: 0
               complexity: 0
               alpha: 0.
               node_risk: 5.1410181002610467e-06
               tree_risk: 0.
               tree_error: 0.
      -
         best_tree_idx: -1
         nodes:
            -
               depth: 0
               sample_count: 152
               value: -1.2731306671508048e-03
               Tn: 0
               complexity: 0
               alpha: 0.
               node_risk: 1.7967918497010296e-01
               tree_risk: 0.
               tree_error: 0.
               splits:
                  - { var:3, quality:1.6214863955974579e-01,
                      le:-1.4463677406311035e+00 }
            -
               depth: 1
               sample_count: 39
               value: 5.4280389482394241e-02
               Tn: 0
               complexity: 0
               alpha: 0.
               node_risk: 1.3871197626450463e-02
               tree_risk: 0.
               tree_error: 0.
               splits:
                  - { var:0, quality:1.2865136563777924e-01,
                      le:-8.0219560861587524e-01 }
            -
               depth: 2
               sample_count: 2
               value: -7.7228254079818726e-01
               Tn: 0
               complexity: 0
               alpha: 0.
               node_risk: 1.2655521279742593e-04
               tree_risk: 0.
               tree_error: 0.
            -
               depth: 2
               sample_count: 37
               value: 5.8644816682145405e-02
               Tn: 0
               complexity: 0
               alpha: 0.
               node_risk: 1.3482334921821604e-06
               tree_risk: 0.
               tree_error: 0.
               splits:
                  - { var:2, quality:1.2725205719470978e-01,
                      le:-7.7955317497253418e-01 }
            -
               depth: 3
               sample_count: 36
               value: 7.9669922590255737e-01
               Tn: 0
               complexity: 0
               alpha: 0.
               node_risk: 2.2433080015815676e-07
               tree_risk: 0.
               tree_error: 0.
            -
               depth: 3
               sample_count: 1
               value: 7.9760974645614624e-01
               Tn: 0
               complexity: 0
               alpha: 0.
               node_risk: 0.
               tree_risk: 0.
               tree_error: 0.
            -
               depth: 1
               sample_count: 113
               value: -2.0446469479825643e-02
               Tn: 0
               complexity: 0
               alpha: 0.
               node_risk: 3.9057248059268593e-03
               tree_risk: 0.
               tree_error: 0.
               splits:
                  - { var:0, quality:4.7907993197441101e-02,
                      le:-7.5619511306285858e-02 }
            -
               depth: 2
               sample_count: 36
               value: -2.4000793333268829e-02
               Tn: 0
               complexity: 0
               alpha: 0.
               node_risk: 3.2246867285512272e-03
               tree_risk: 0.
               tree_error: 0.
               splits:
                  - { var:3, quality:2.3197986185550690e-02,
                      le:6.2503910064697266e-01 }
            -
               depth: 3
               sample_count: 7
               value: -7.8361302614212036e-01
               Tn: 0
               complexity: 0
               alpha: 0.
               node_risk: 5.9063573560862864e-04
               tree_risk: 0.
               tree_error: 0.
            -
               depth: 3
               sample_count: 29
               value: -7.6549273729324341e-01
               Tn: 0
               complexity: 0
               alpha: 0.
               node_risk: 1.7343628504257018e-04
               tree_risk: 0.
               tree_error: 0.
            -
               depth: 2
               sample_count: 77
               value: -1.8784707678215846e-02
               Tn: 0
               complexity: 0
               alpha: 0.
               node_risk: 1.3610401422833179e-05
               tree_risk: 0.
               tree_error: 0.
               splits:
                  - { var:1, quality:2.7177523821592331e-02,
                      le:7.5940895080566406e-01 }
            -
               depth: 3
               sample_count: 39
               value: -7.6459014415740967e-01
               Tn: 0
               complexity: 0
               alpha: 0.
               node_risk: 1.5492969210415680e-06
               tree_risk: 0.
               tree_error: 0.
            -
               depth: 3
               sample_count: 38
               value: -7.6412779092788696e-01
               Tn: 0
               complexity: 0
               alpha: 0.
               node_risk: 5.1606951059508105e-06
               tree_risk: 0.
               tree_error: 0.
      -
         best_tree_idx: -1
         nodes:
            -
               depth: 0
               sample_count: 152
               value: 3.3402071628523499e-04
               Tn: 0
               complexity: 0
               alpha: 0.
               node_risk: 1.8582990632766383e-01
               tree_risk: 0.
               tree_error: 0.
               splits:
                  - { var:3, quality:1.6828502714633942e-01,
                      le:-1.4463677406311035e+00 }
            -
               depth: 1
               sample_count: 42
               value: 5.4179687363406025e-02
               Tn: 0
               complexity: 0
               alpha: 0.
               node_risk: 1.3762790667251862e-02
               tree_risk: 0.
               tree_error: 0.
               splits:
                  - { var:0, quality:1.3681147992610931e-01,
                      le:-8.2366353273391724e-01 }
            -
               depth: 2
               sample_count: 2
               value: -7.7194309234619141e-01
               Tn: 0
               complexity: 0
               alpha: 0.
               node_risk: 1.2296610689334526e-04
               tree_risk: 0.
               tree_error: 0.
            -
               depth: 2
               sample_count: 40
               value: 5.8192029595375061e-02
               Tn: 0
               complexity: 0
               alpha: 0.
               node_risk: 1.1675680374700903e-04
               tree_risk: 0.
               tree_error: 0.
               splits:
                  - { var:0, quality:1.3556785881519318e-01,
                      le:-6.1514461040496826e-01 }
            -
               depth: 3
               sample_count: 2
               value: 8.0265021324157715e-01
               Tn: 0
               complexity: 0
               alpha: 0.
               node_risk: 1.1263766630520422e-07
               tree_risk: 0.
               tree_error: 0.
            -
               depth: 3
               sample_count: 38
               value: 7.9601186513900757e-01
               Tn: 0
               complexity: 0
               alpha: 0.
               node_risk: 1.2803597464472460e-06
               tree_risk: 0.
               tree_error: 0.
            -
               depth: 1
               sample_count: 110
               value: -2.0225233821706337e-02
               Tn: 0
               complexity: 0
               alpha: 0.
               node_risk: 3.7990471727803593e-03
               tree_risk: 0.
               tree_error: 0.
               splits:
                  - { var:0, quality:4.5514710247516632e-02,
                      le:-7.5619511306285858e-02 }
            -
               depth: 2
               sample_count: 42
               value: -2.2986704661023049e-02
               Tn: 0
               complexity: 0
               alpha: 0.
               node_risk: 3.2718860275162479e-03
               tree_risk: 0.
               tree_error: 0.
               splits:
                  - { var:3, quality:2.4722969159483910e-02,
                      le:6.2503910064697266e-01 }
            -
               depth: 3
               sample_count: 7
               value: -7.8317540884017944e-01
               Tn: 0
               complexity: 0
               alpha: 0.
               node_risk: 5.6942470610186688e-04
               tree_risk: 0.
               tree_error: 0.
            -
               depth: 3
               sample_count: 35
               value: -7.6512408256530762e-01
               Tn: 0
               complexity: 0
               alpha: 0.
               node_risk: 1.7181375050713023e-04
               tree_risk: 0.
               tree_error: 0.
            -
               depth: 2
               sample_count: 68
               value: -1.8519619479775429e-02
               Tn: 0
               complexity: 0
               alpha: 0.
               node_risk: 9.0606757442920904e-06
               tree_risk: 0.
               tree_error: 0.
               splits:
                  - { var:1, quality:2.3326594382524490e-02,
                      le:7.5940895080566406e-01 }
            -
               depth: 3
               sample_count: 35
               value: -7.6433986425399780e-01
               Tn: 0
               complexity: 0
               alpha: 0.
               node_risk: 1.3467329786076565e-09
               tree_risk: 0.
               tree_error: 0.
            -
               depth: 3
               sample_count: 33
               value: -7.6395869255065918e-01
               Tn: 0
               complexity: 0
               alpha: 0.
               node_risk: 4.8538554722876021e-06
               tree_risk: 0.
               tree_error: 0.
      -
         best_tree_idx: -1
         nodes:
            -
               depth: 0
               sample_count: 152
               value: -1.1393932356057984e-03
               Tn: 0
               complexity: 0
               alpha: 0.
               node_risk: 1.7812964993021826e-01
               tree_risk: 0.
               tree_error: 0.
               splits:
                  - { var:3, quality:1.6697524487972260e-01,
                      le:-1.4483599662780762e+00 }
            -
               depth: 1
               sample_count: 39
               value: 5.5244413180611074e-02
               Tn: 0
               complexity: 0
               alpha: 0.
               node_risk: 5.5629126848970450e-03
               tree_risk: 0.
               tree_error: 0.
               splits:
                  - { var:0, quality:1.2452659010887146e-01,
                      le:-8.6547303199768066e-01 }
            -
               depth: 2
               sample_count: 1
               value: -7.6372057199478149e-01
               Tn: 0
               complexity: 0
               alpha: 0.
               node_risk: 0.
               tree_risk: 0.
               tree_error: 0.
            -
               depth: 2
               sample_count: 38
               value: 5.7170988697754707e-02
               Tn: 0
               complexity: 0
               alpha: 0.
               node_risk: 6.2183328029791207e-05
               tree_risk: 0.
               tree_error: 0.
               splits:
                  - { var:0, quality:1.2426474690437317e-01,
                      le:-6.2084633111953735e-01 }
            -
               depth: 3
               sample_count: 1
               value: 8.0202943086624146e-01
               Tn: 0
               complexity: 0
               alpha: 0.
               node_risk: 0.
               tree_risk: 0.
               tree_error: 0.
            -
               depth: 3
               sample_count: 37
               value: 7.9530322551727295e-01
               Tn: 0
               complexity: 0
               alpha: 0.
               node_risk: 1.2716527066913841e-06
               tree_risk: 0.
               tree_error: 0.
            -
               depth: 1
               sample_count: 113
               value: -2.0599291025273567e-02
               Tn: 0
               complexity: 0
               alpha: 0.
               node_risk: 5.7888245478185177e-03
               tree_risk: 0.
               tree_error: 0.
               splits:
                  - { var:0, quality:4.8891164362430573e-02,
                      le:-7.5619511306285858e-02 }
            -
               depth: 2
               sample_count: 45
               value: -2.4148121103644372e-02
               Tn: 0
               complexity: 0
               alpha: 0.
               node_risk: 4.8359263919695548e-03
               tree_risk: 0.
               tree_error: 0.
               splits:
                  - { var:3, quality:3.0044099316000938e-02,
                      le:6.2503910064697266e-01 }
            -
               depth: 3
               sample_count: 10
               value: -7.8406023979187012e-01
               Tn: 0
               complexity: 0
               alpha: 0.
               node_risk: 8.6572289358761642e-04
               tree_risk: 0.
               tree_error: 0.
            -
               depth: 3
               sample_count: 35
               value: -7.6490205526351929e-01
               Tn: 0
               complexity: 0
               alpha: 0.
               node_risk: 1.6703213625393794e-04
               tree_risk: 0.
               tree_error: 0.
            -
               depth: 2
               sample_count: 68
               value: -1.8250800532234067e-02
               Tn: 0
               complexity: 0
               alpha: 0.
               node_risk: 1.1111667696309113e-05
               tree_risk: 0.
               tree_error: 0.
               splits:
                  - { var:1, quality:2.2655820474028587e-02,
                      le:7.1977233886718750e-01 }
            -
               depth: 3
               sample_count: 36
               value: -7.6415443420410156e-01
               Tn: 0
               complexity: 0
               alpha: 0.
               node_risk: 1.3900552929286408e-06
               tree_risk: 0.
               tree_error: 0.
            -
               depth: 3
               sample_count: 32
               value: -7.6371175050735474e-01
               Tn: 0
               complexity: 0
               alpha: 0.
               node_risk: 4.1383689725893458e-06
               tree_risk: 0.
               tree_error: 0.
      -
         best_tree_idx: -1
         nodes:
            -
               depth: 0
               sample_count: 152
               value: 1.2591248378157616e-04
               Tn: 0
               complexity: 0
               alpha: 0.
               node_risk: 1.7019845074838752e-01
               tree_risk: 0.
               tree_error: 0.
               splits:
                  - { var:3, quality:1.6134114563465118e-01,
                      le:-1.4483599662780762e+00 }
            -
               depth: 1
               sample_count: 40
               value: 5.4642235487699510e-02
               Tn: 0
               complexity: 0
               alpha: 0.
               node_risk: 5.4788015476299329e-03
               tree_risk: 0.
               tree_error: 0.
               splits:
                  - { var:0, quality:1.2480023503303528e-01,
                      le:-8.8406997919082642e-01 }
            -
               depth: 2
               sample_count: 1
               value: -7.6352304220199585e-01
               Tn: 0
               complexity: 0
               alpha: 0.
               node_risk: 0.
               tree_risk: 0.
               tree_error: 0.
            -
               depth: 2
               sample_count: 39
               value: 5.6497456171573736e-02
               Tn: 0
               complexity: 0
               alpha: 0.
               node_risk: 1.0952524166532585e-04
               tree_risk: 0.
               tree_error: 0.
               splits:
                  - { var:0, quality:1.2459580600261688e-01,
                      le:-6.2084633111953735e-01 }
            -
               depth: 3
               sample_count: 2
               value: 8.0102336406707764e-01
               Tn: 0
               complexity: 0
               alpha: 0.
               node_risk: 1.0663737270988349e-07
               tree_risk: 0.
               tree_error: 0.
            -
               depth: 3
               sample_count: 37
               value: 7.9458272457122803e-01
               Tn: 0
               complexity: 0
               alpha: 0.
               node_risk: 1.5233859290697538e-07
               tree_risk: 0.
               tree_error: 0.
            -
               depth: 1
               sample_count: 112
               value: -1.9344202874760543e-02
               Tn: 0
               complexity: 0
               alpha: 0.
               node_risk: 3.3809063336644046e-03
               tree_risk: 0.
               tree_error: 0.
               splits:
                  - { var:0, quality:4.2324975132942200e-02,
                      le:-7.5619511306285858e-02 }
            -
               depth: 2
               sample_count: 37
               value: -2.2084061861843675e-02
               Tn: 0
               complexity: 0
               alpha: 0.
               node_risk: 2.9544717056198509e-03
               tree_risk: 0.
               tree_error: 0.
               splits:
                  - { var:3, quality:2.0510340109467506e-02,
                      le:6.4673769474029541e-01 }
            -
               depth: 3
               sample_count: 6
               value: -7.8331637382507324e-01
               Tn: 0
               complexity: 0
               alpha: 0.
               node_risk: 4.6195603167686027e-04
               tree_risk: 0.
               tree_error: 0.
            -
               depth: 3
               sample_count: 31
               value: -7.6416814327239990e-01
               Tn: 0
               complexity: 0
               alpha: 0.
               node_risk: 2.7290358439133536e-05
               tree_risk: 0.
               tree_error: 0.
            -
               depth: 2
               sample_count: 75
               value: -1.7992539107799532e-02
               Tn: 0
               complexity: 0
               alpha: 0.
               node_risk: 1.1657398669279867e-05
               tree_risk: 0.
               tree_error: 0.
               splits:
                  - { var:1, quality:2.4285996332764626e-02,
                      le:7.5940895080566406e-01 }
            -
               depth: 3
               sample_count: 42
               value: -7.6394027471542358e-01
               Tn: 0
               complexity: 0
               alpha: 0.
               node_risk: 1.3567160695136804e-06
               tree_risk: 0.
               tree_error: 0.
            -
               depth: 3
               sample_count: 33
               value: -7.6349627971649170e-01
               Tn: 0
               complexity: 0
               alpha: 0.
               node_risk: 4.1632112923063042e-06
               tree_risk: 0.
               tree_error: 0.
      -
         best_tree_idx: -1
         nodes:
            -
               depth: 0
               sample_count: 152
               value: 1.0507306647732069e-03
               Tn: 0
               complexity: 0
               alpha: 0.
               node_risk: 1.7721759552390853e-01
               tree_risk: 0.
               tree_error: 0.
               splits:
                  - { var:3, quality:1.6732493042945862e-01,
                      le:-1.4463677406311035e+00 }
            -
               depth: 1
               sample_count: 43
               value: 5.3848996455239696e-02
               Tn: 0
               complexity: 0
               alpha: 0.
               node_risk: 5.2591587188768885e-03
               tree_risk: 0.
               tree_error: 0.
               splits:
                  - { var:0, quality:1.2989185750484467e-01,
                      le:-8.8406997919082642e-01 }
            -
               depth: 2
               sample_count: 1
               value: -7.6331752538681030e-01
               Tn: 0
               complexity: 0
               alpha: 0.
               node_risk: 0.
               tree_risk: 0.
               tree_error: 0.
            -
               depth: 2
               sample_count: 42
               value: 5.5546517883028300e-02
               Tn: 0
               complexity: 0
               alpha: 0.
               node_risk: 5.5027048847439142e-05
               tree_risk: 0.
               tree_error: 0.
               splits:
                  - { var:0, quality:1.2964138388633728e-01,
                      le:-6.3944327831268311e-01 }
            -
               depth: 3
               sample_count: 1
               value: 8.0025780200958252e-01
               Tn: 0
               complexity: 0
               alpha: 0.
               node_risk: 0.
               tree_risk: 0.
               tree_error: 0.
            -
               depth: 3
               sample_count: 41
               value: 7.9396170377731323e-01
               Tn: 0
               complexity: 0
               alpha: 0.
               node_risk: 1.1008276067647760e-06
               tree_risk: 0.
               tree_error: 0.
            -
               depth: 1
               sample_count: 109
               value: -1.9777942995686051e-02
               Tn: 0
               complexity: 0
               alpha: 0.
               node_risk: 4.8013239108838437e-03
               tree_risk: 0.
               tree_error: 0.
               splits:
                  - { var:0, quality:4.3497122824192047e-02,
                      le:-7.4474617838859558e-02 }
            -
               depth: 2
               sample_count: 39
               value: -2.3540918261576921e-02
               Tn: 0
               complexity: 0
               alpha: 0.
               node_risk: 3.9318794332008217e-03
               tree_risk: 0.
               tree_error: 0.
               splits:
                  - { var:3, quality:2.4614479392766953e-02,
                      le:6.2503910064697266e-01 }
            -
               depth: 3
               sample_count: 9
               value: -7.8265208005905151e-01
               Tn: 0
               complexity: 0
               alpha: 0.
               node_risk: 7.6959754744503062e-04
               tree_risk: 0.
               tree_error: 0.
            -
               depth: 3
               sample_count: 30
               value: -7.6454275846481323e-01
               Tn: 0
               complexity: 0
               alpha: 0.
               node_risk: 1.6062006980379316e-04
               tree_risk: 0.
               tree_error: 0.
            -
               depth: 2
               sample_count: 70
               value: -1.7681428204689709e-02
               Tn: 0
               complexity: 0
               alpha: 0.
               node_risk: 9.5289476458489120e-06
               tree_risk: 0.
               tree_error: 0.
               splits:
                  - { var:1, quality:2.1889997646212578e-02,
                      le:7.5940895080566406e-01 }
            -
               depth: 3
               sample_count: 36
               value: -7.6371538639068604e-01
               Tn: 0
               complexity: 0
               alpha: 0.
               node_risk: 8.8084569868987495e-08
               tree_risk: 0.
               tree_error: 0.
            -
               depth: 3
               sample_count: 34
               value: -7.6327663660049438e-01
               Tn: 0
               complexity: 0
               alpha: 0.
               node_risk: 3.7466288316141683e-06
               tree_risk: 0.
               tree_error: 0.
      -
         best_tree_idx: -1
         nodes:
            -
               depth: 0
               sample_count: 152
               value: -4.5571191922614450e-04
               Tn: 0
               complexity: 0
               alpha: 0.
               node_risk: 1.6665651558409050e-01
               tree_risk: 0.
               tree_error: 0.
               splits:
                  - { var:3, quality:1.4895729720592499e-01,
                      le:-1.3993511199951172e+00 }
            -
               depth: 1
               sample_count: 41
               value: 5.1047301828497794e-02
               Tn: 0
               complexity: 0
               alpha: 0.
               node_risk: 1.2499016392198567e-02
               tree_risk: 0.
               tree_error: 0.
               splits:
                  - { var:0, quality:1.1909679323434830e-01,
                      le:-8.2366353273391724e-01 }
            -
               depth: 2
               sample_count: 2
               value: -7.7152895927429199e-01
               Tn: 0
               complexity: 0
               alpha: 0.
               node_risk: 1.3146157705257351e-04
               tree_risk: 0.
               tree_error: 0.
            -
               depth: 2
               sample_count: 39
               value: 5.4962904025346808e-02
               Tn: 0
               complexity: 0
               alpha: 0.
               node_risk: 1.0966833425293809e-04
               tree_risk: 0.
               tree_error: 0.
               splits:
                  - { var:0, quality:1.1792356520891190e-01,
                      le:-6.1514461040496826e-01 }
            -
               depth: 3
               sample_count: 2
               value: 7.9966706037521362e-01
               Tn: 0
               complexity: 0
               alpha: 0.
               node_risk: 1.0341398848368044e-07
               tree_risk: 0.
               tree_error: 0.
            -
               depth: 3
               sample_count: 37
               value: 7.9329621791839600e-01
               Tn: 0
               complexity: 0
               alpha: 0.
               node_risk: 1.9146085250554279e-06
               tree_risk: 0.
               tree_error: 0.
            -
               depth: 1
               sample_count: 111
               value: -1.9479347627844895e-02
               Tn: 0
               complexity: 0
               alpha: 0.
               node_risk: 5.2317643341243947e-03
               tree_risk: 0.
               tree_error: 0.
               splits:
                  - { var:0, quality:4.2941924184560776e-02,
                      le:-7.5619511306285858e-02 }
            -
               depth: 2
               sample_count: 39
               value: -2.3180293444639597e-02
               Tn: 0
               complexity: 0
               alpha: 0.
               node_risk: 4.3974212763000092e-03
               tree_risk: 0.
               tree_error: 0.
               splits:
                  - { var:3, quality:2.4481320753693581e-02,
                      le:7.0244765281677246e-01 }
            -
               depth: 3
               sample_count: 9
               value: -7.8358322381973267e-01
               Tn: 0
               complexity: 0
               alpha: 0.
               node_risk: 8.4619142333738559e-04
               tree_risk: 0.
               tree_error: 0.
            -
               depth: 3
               sample_count: 30
               value: -7.6376312971115112e-01
               Tn: 0
               complexity: 0
               alpha: 0.
               node_risk: 2.5624018362811404e-05
               tree_risk: 0.
               tree_error: 0.
            -
               depth: 2
               sample_count: 72
               value: -1.7474668643747766e-02
               Tn: 0
               complexity: 0
               alpha: 0.
               node_risk: 1.0810936501102347e-05
               tree_risk: 0.
               tree_error: 0.
               splits:
                  - { var:1, quality:2.1992418915033340e-02,
                      le:7.5940895080566406e-01 }
            -
               depth: 3
               sample_count: 42
               value: -7.6353335380554199e-01
               Tn: 0
               complexity: 0
               alpha: 0.
               node_risk: 1.3512667492582286e-06
               tree_risk: 0.
               tree_error: 0.
            -
               depth: 3
               sample_count: 30
               value: -7.6307421922683716e-01
               Tn: 0
               complexity: 0
               alpha: 0.
               node_risk: 3.2522895528769302e-06
               tree_risk: 0.
               tree_error: 0.
      -
         best_tree_idx: -1
         nodes:
            -
               depth: 0
               sample_count: 152
               value: 8.2882349134275784e-04
               Tn: 0
               complexity: 0
               alpha: 0.
               node_risk: 1.6173934461053177e-01
               tree_risk: 0.
               tree_error: 0.
               splits:
                  - { var:3, quality:1.5147799253463745e-01,
                      le:-1.4463677406311035e+00 }
            -
               depth: 1
               sample_count: 42
               value: 5.1899890725811325e-02
               Tn: 0
               complexity: 0
               alpha: 0.
               node_risk: 7.4334800401609641e-03
               tree_risk: 0.
               tree_error: 0.
               splits:
                  - { var:0, quality:1.2050569802522659e-01,
                      le:-8.0506658554077148e-01 }
            -
               depth: 2
               sample_count: 1
               value: -7.7555197477340698e-01
               Tn: 0
               complexity: 0
               alpha: 0.
               node_risk: 0.
               tree_risk: 0.
               tree_error: 0.
            -
               depth: 2
               sample_count: 41
               value: 5.3969323635101318e-02
               Tn: 0
               complexity: 0
               alpha: 0.
               node_risk: 5.8924521418646236e-05
               tree_risk: 0.
               tree_error: 0.
               splits:
                  - { var:0, quality:1.1947720497846603e-01,
                      le:-6.2084633111953735e-01 }
            -
               depth: 3
               sample_count: 1
               value: 7.9908514022827148e-01
               Tn: 0
               complexity: 0
               alpha: 0.
               node_risk: 0.
               tree_risk: 0.
               tree_error: 0.
            -
               depth: 3
               sample_count: 40
               value: 7.9263067245483398e-01
               Tn: 0
               complexity: 0
               alpha: 0.
               node_risk: 1.9226716424236567e-06
               tree_risk: 0.
               tree_error: 0.
            -
               depth: 1
               sample_count: 110
               value: -1.8671038543636147e-02
               Tn: 0
               complexity: 0
               alpha: 0.
               node_risk: 2.9322922825781583e-03
               tree_risk: 0.
               tree_error: 0.
               splits:
                  - { var:0, quality:3.8842018693685532e-02,
                      le:-7.5619511306285858e-02 }
            -
               depth: 2
               sample_count: 36
               value: -2.1712951310392883e-02
               Tn: 0
               complexity: 0
               alpha: 0.
               node_risk: 2.4281231350226258e-03
               tree_risk: 0.
               tree_error: 0.
               splits:
                  - { var:3, quality:1.8755337223410606e-02,
                      le:7.6475036144256592e-01 }
            -
               depth: 3
               sample_count: 8
               value: -7.7879595756530762e-01
               Tn: 0
               complexity: 0
               alpha: 0.
               node_risk: 5.8476914803860455e-04
               tree_risk: 0.
               tree_error: 0.
            -
               depth: 3
               sample_count: 28
               value: -7.6380276679992676e-01
               Tn: 0
               complexity: 0
               alpha: 0.
               node_risk: 6.0298630382281393e-05
               tree_risk: 0.
               tree_error: 0.
            -
               depth: 2
               sample_count: 74
               value: -1.7191189089538279e-02
               Tn: 0
               complexity: 0
               alpha: 0.
               node_risk: 8.9961233527731388e-06
               tree_risk: 0.
               tree_error: 0.
               splits:
                  - { var:1, quality:2.1875001490116119e-02,
                      le:8.2477879524230957e-01 }
            -
               depth: 3
               sample_count: 40
               value: -7.6331001520156860e-01
               Tn: 0
               complexity: 0
               alpha: 0.
               node_risk: 8.3475179483982753e-08
               tree_risk: 0.
               tree_error: 0.
            -
               depth: 3
               sample_count: 34
               value: -7.6289927959442139e-01
               Tn: 0
               complexity: 0
               alpha: 0.
               node_risk: 3.6477329126722441e-06
               tree_risk: 0.
               tree_error: 0.
   trees_1:
      -
         best_tree_idx: -1
         nodes:
            -
               depth: 0
               sample_count: 152
               value: -2.6315789473684209e-02
               Tn: 0
               complexity: 0
               alpha: 0.
               node_risk: 2.6394736842105264e+01
               tree_risk: 0.
               tree_error: 0.
               splits:
                  - { var:3, quality:7.7105264663696289e+00,
                      le:-2.1775263547897339e-01 }
            -
               depth: 1
               sample_count: 76
               value: 1.9736842105263158e-01
               Tn: 0
               complexity: 0
               alpha: 0.
               node_risk: 1.8789473684210527e+01
               tree_risk: 0.
               tree_error: 0.
               splits:
                  - { var:1, quality:2.0773256301879883e+01,
                      le:-4.6542203426361084e-01 }
            -
               depth: 2
               sample_count: 43
               value: -2.2674418604651161e-01
               Tn: 0
               complexity: 0
               alpha: 0.
               node_risk: 9.7674418604651159e-01
               tree_risk: 0.
               tree_error: 0.
               splits:
                  - { var:0, quality:3.1875000000000000e+00,
                      le:-1.1072268486022949e+00 }
            -
               depth: 3
               sample_count: 1
               value: 3.
               Tn: 0
               complexity: 0
               alpha: 0.
               node_risk: 0.
               tree_risk: 0.
               tree_error: 0.
            -
               depth: 3
               sample_count: 42
               value: -1.
               Tn: 0
               complexity: 0
               alpha: 0.
               node_risk: 0.
               tree_risk: 0.
               tree_error: 0.
            -
               depth: 2
               sample_count: 33
               value: 7.5000000000000000e-01
               Tn: 0
               complexity: 0
               alpha: 0.
               node_risk: 0.
               tree_risk: 0.
               tree_error: 0.
               splits:
                  - { var:0, quality:1.8562500000000000e+01,
                      le:-2.3036833107471466e-01 }
            -
               depth: 3
               sample_count: 1
               value: 3.
               Tn: 0
               complexity: 0
               alpha: 0.
               node_risk: 0.
               tree_risk: 0.
               tree_error: 0.
            -
               depth: 3
               sample_count: 32
               value: 3.
               Tn: 0
               complexity: 0
               alpha: 0.
               node_risk: 0.
               tree_risk: 0.
               tree_error: 0.
            -
               depth: 1
               sample_count: 76
               value: -2.5000000000000000e-01
               Tn: 0
               complexity: 0
               alpha: 0.
               node_risk: 0.
               tree_risk: 0.
               tree_error: 0.
               splits:
                  - { var:0, quality:4.7500000000000000e+00,
                      le:-8.6558842658996582e-01 }
            -
               depth: 2
               sample_count: 1
               value: -1.
               Tn: 0
               complexity: 0
               alpha: 0.
               node_risk: 0.
               tree_risk: 0.
               tree_error: 0.
            -
               depth: 2
               sample_count: 75
               value: -2.5000000000000000e-01
               Tn: 0
               complexity: 0
               alpha: 0.
               node_risk: 0.
               tree_risk: 0.
               tree_error: 0.
               splits:
                  - { var:0, quality:4.6875000000000000e+00,
                      le:-7.6424670219421387e-01 }
            -
               depth: 3
               sample_count: 1
               value: -1.
               Tn: 0
               complexity: 0
               alpha: 0.
               node_risk: 0.
               tree_risk: 0.
               tree_error: 0.
            -
               depth: 3
               sample_count: 74
               value: -1.
               Tn: 0
               complexity: 0
               alpha: 0.
               node_risk: 0.
               tree_risk: 0.
               tree_error: 0.
      -
         best_tree_idx: -1
         nodes:
            -
               depth: 0
               sample_count: 152
               value: 5.3224594969498484e-05
               Tn: 0
               complexity: 0
               alpha: 0.
               node_risk: 2.7945902049197947e+01
               tree_risk: 0.
               tree_error: 0.
               splits:
                  - { var:0, quality:9.4226799011230469e+00,
                      le:-7.5619511306285858e-02 }
            -
               depth: 1
               sample_count: 84
               value: -2.2396339263234818e-01
               Tn: 0
               complexity: 0
               alpha: 0.
               node_risk: 1.9360426095415422e+00
               tree_risk: 0.
               tree_error: 0.
               splits:
                  - { var:1, quality:6.1493954658508301e+00,
                      le:-1.2180416584014893e+00 }
            -
               depth: 2
               sample_count: 2
               value: 2.9778385162353516e+00
               Tn: 0
               complexity: 0
               alpha: 0.
               node_risk: 2.8403239760166343e-05
               tree_risk: 0.
               tree_error: 0.
            -
               depth: 2
               sample_count: 82
               value: -2.4767275554377857e-01
               Tn: 0
               complexity: 0
               alpha: 0.
               node_risk: 2.5090292385065993e-05
               tree_risk: 0.
               tree_error: 0.
               splits:
                  - { var:0, quality:5.0300436019897461e+00,
                      le:-3.5515850782394409e-01 }
            -
               depth: 3
               sample_count: 75
               value: -9.9672448635101318e-01
               Tn: 0
               complexity: 0
               alpha: 0.
               node_risk: 5.1589191700784909e-06
               tree_risk: 0.
               tree_error: 0.
            -
               depth: 3
               sample_count: 7
               value: -9.9886828660964966e-01
               Tn: 0
               complexity: 0
               alpha: 0.
               node_risk: 3.2665481869975643e-06
               tree_risk: 0.
               tree_error: 0.
            -
               depth: 1
               sample_count: 68
               value: 2.7677963411106782e-01
               Tn: 0
               complexity: 0
               alpha: 0.
               node_risk: 1.6587179687753228e+01
               tree_risk: 0.
               tree_error: 0.
               splits:
                  - { var:1, quality:2.1796451568603516e+01,
                      le:4.1874265670776367e-01 }
            -
               depth: 2
               sample_count: 36
               value: 7.4242526292800903e-01
               Tn: 0
               complexity: 0
               alpha: 0.
               node_risk: 0.
               tree_risk: 0.
               tree_error: 0.
               splits:
                  - { var:0, quality:1.9843029022216797e+01,
                      le:1.9686114788055420e-01 }
            -
               depth: 3
               sample_count: 8
               value: 2.9117763042449951e+00
               Tn: 0
               complexity: 0
               alpha: 0.
               node_risk: 0.
               tree_risk: 0.
               tree_error: 0.
            -
               depth: 3
               sample_count: 28
               value: 2.9117763042449951e+00
               Tn: 0
               complexity: 0
               alpha: 0.
               node_risk: 0.
               tree_risk: 0.
               tree_error: 0.
            -
               depth: 2
               sample_count: 32
               value: -2.4707169830799103e-01
               Tn: 0
               complexity: 0
               alpha: 0.
               node_risk: 2.0375743972067539e-06
               tree_risk: 0.
               tree_error: 0.
               splits:
                  - { var:3, quality:1.9534227848052979e+00,
                      le:9.3924129009246826e-01 }
            -
               depth: 3
               sample_count: 26
               value: -9.9598783254623413e-01
               Tn: 0
               complexity: 0
               alpha: 0.
               node_risk: 8.3592795774301010e-07
               tree_risk: 0.
               tree_error: 0.
            -
               depth: 3
               sample_count: 6
               value: -9.9664473533630371e-01
               Tn: 0
               complexity: 0
               alpha: 0.
               node_risk: 0.
               tree_risk: 0.
               tree_error: 0.
      -
         best_tree_idx: -1
         nodes:
            -
               depth: 0
               sample_count: 152
               value: 6.5434710367729791e-03
               Tn: 0
               complexity: 0
               alpha: 0.
               node_risk: 2.7872955446097926e+01
               tree_risk: 0.
               tree_error: 0.
               splits:
                  - { var:3, quality:8.8953828811645508e+00,
                      le:-2.1775263547897339e-01 }
            -
               depth: 1
               sample_count: 79
               value: 2.3900413400010218e-01
               Tn: 0
               complexity: 0
               alpha: 0.
               node_risk: 1.8983927680264848e+01
               tree_risk: 0.
               tree_error: 0.
               splits:
                  - { var:1, quality:2.1639804840087891e+01,
                      le:-4.6542203426361084e-01 }
            -
               depth: 2
               sample_count: 42
               value: -1.9801903835364751e-01
               Tn: 0
               complexity: 0
               alpha: 0.
               node_risk: 1.8567820081694637e+00
               tree_risk: 0.
               tree_error: 0.
               splits:
                  - { var:1, quality:3.5036332607269287e+00,
                      le:-1.2180416584014893e+00 }
            -
               depth: 3
               sample_count: 2
               value: 2.9103798866271973e+00
               Tn: 0
               complexity: 0
               alpha: 0.
               node_risk: 2.9261385698475806e-05
               tree_risk: 0.
               tree_error: 0.
            -
               depth: 3
               sample_count: 40
               value: -9.9342292547225952e-01
               Tn: 0
               complexity: 0
               alpha: 0.
               node_risk: 4.1622536004481958e-06
               tree_risk: 0.
               tree_error: 0.
            -
               depth: 2
               sample_count: 37
               value: 7.3508449180706126e-01
               Tn: 0
               complexity: 0
               alpha: 0.
               node_risk: 5.5346912127163250e-05
               tree_risk: 0.
               tree_error: 0.
               splits:
                  - { var:0, quality:1.9992975234985352e+01,
                      le:-2.3036833107471466e-01 }
            -
               depth: 3
               sample_count: 1
               value: 2.9117486476898193e+00
               Tn: 0
               complexity: 0
               alpha: 0.
               node_risk: 0.
               tree_risk: 0.
               tree_error: 0.
            -
               depth: 3
               sample_count: 36
               value: 2.8289146423339844e+00
               Tn: 0
               complexity: 0
               alpha: 0.
               node_risk: 1.6733281427150359e-12
               tree_risk: 0.
               tree_error: 0.
            -
               depth: 1
               sample_count: 73
               value: -2.4502354778655588e-01
               Tn: 0
               complexity: 0
               alpha: 0.
               node_risk: 1.5349757534366404e-04
               tree_risk: 0.
               tree_error: 0.
               splits:
                  - { var:0, quality:4.3827176094055176e+00,
                      le:3.8670465350151062e-02 }
            -
               depth: 2
               sample_count: 36
               value: -2.4586351753936875e-01
               Tn: 0
               complexity: 0
               alpha: 0.
               node_risk: 9.3291833484165920e-05
               tree_risk: 0.
               tree_error: 0.
               splits:
                  - { var:3, quality:2.1762473583221436e+00,
                      le:9.0832185745239258e-01 }
            -
               depth: 3
               sample_count: 9
               value: -9.9810552597045898e-01
               Tn: 0
               complexity: 0
               alpha: 0.
               node_risk: 5.1203404969335509e-06
               tree_risk: 0.
               tree_error: 0.
            -
               depth: 3
               sample_count: 27
               value: -9.9332481622695923e-01
               Tn: 0
               complexity: 0
               alpha: 0.
               node_risk: 1.5129231201171933e-11
               tree_risk: 0.
               tree_error: 0.
            -
               depth: 2
               sample_count: 37
               value: -2.4420627991895419e-01
               Tn: 0
               complexity: 0
               alpha: 0.
               node_risk: 1.0092680787110453e-05
               tree_risk: 0.
               tree_error: 0.
               splits:
                  - { var:3, quality:2.2065658569335938e+00,
                      le:9.3924129009246826e-01 }
            -
               depth: 3
               sample_count: 27
               value: -9.9196839332580566e-01
               Tn: 0
               complexity: 0
               alpha: 0.
               node_risk: 2.3105597768413588e-06
               tree_risk: 0.
               tree_error: 0.
            -
               depth: 3
               sample_count: 10
               value: -9.9332469701766968e-01
               Tn: 0
               complexity: 0
               alpha: 0.
               node_risk: 0.
               tree_risk: 0.
               tree_error: 0.
      -
         best_tree_idx: -1
         nodes:
            -
               depth: 0
               sample_count: 152
               value: 1.2969687286960451e-02
               Tn: 0
               complexity: 0
               alpha: 0.
               node_risk: 2.7753585895997915e+01
               tree_risk: 0.
               tree_error: 0.
               splits:
                  - { var:0, quality:8.6360816955566406e+00,
                      le:-7.5619511306285858e-02 }
            -
               depth: 1
               sample_count: 82
               value: -2.0693517458148120e-01
               Tn: 0
               complexity: 0
               alpha: 0.
               node_risk: 2.7663380447212056e+00
               tree_risk: 0.
               tree_error: 0.
               splits:
                  - { var:1, quality:5.3292484283447266e+00,
                      le:-1.2002644538879395e+00 }
            -
               depth: 2
               sample_count: 2
               value: 2.8276045322418213e+00
               Tn: 0
               complexity: 0
               alpha: 0.
               node_risk: 3.0350170277415600e-05
               tree_risk: 0.
               tree_error: 0.
            -
               depth: 2
               sample_count: 80
               value: -2.3047698289155960e-01
               Tn: 0
               complexity: 0
               alpha: 0.
               node_risk: 9.4847679224312387e-01
               tree_risk: 0.
               tree_error: 0.
               splits:
                  - { var:1, quality:4.3224368095397949e+00,
                      le:-3.7163081765174866e-01 }
            -
               depth: 3
               sample_count: 69
               value: -9.9013489484786987e-01
               Tn: 0
               complexity: 0
               alpha: 0.
               node_risk: 7.4331146109329893e-06
               tree_risk: 0.
               tree_error: 0.
            -
               depth: 3
               sample_count: 11
               value: -6.2674820423126221e-01
               Tn: 0
               complexity: 0
               alpha: 0.
               node_risk: 8.7560353383977685e-01
               tree_risk: 0.
               tree_error: 0.
            -
               depth: 1
               sample_count: 70
               value: 2.7057252547570637e-01
               Tn: 0
               complexity: 0
               alpha: 0.
               node_risk: 1.6376734135856900e+01
               tree_risk: 0.
               tree_error: 0.
               splits:
                  - { var:1, quality:2.1501392364501953e+01,
                      le:4.9870157241821289e-01 }
            -
               depth: 2
               sample_count: 37
               value: 7.2736679702191742e-01
               Tn: 0
               complexity: 0
               alpha: 0.
               node_risk: 4.4423131839721464e-11
               tree_risk: 0.
               tree_error: 0.
               splits:
                  - { var:0, quality:1.9575311660766602e+01,
                      le:3.7308996915817261e-01 }
            -
               depth: 3
               sample_count: 28
               value: 2.7509524822235107e+00
               Tn: 0
               complexity: 0
               alpha: 0.
               node_risk: 0.
               tree_risk: 0.
               tree_error: 0.
            -
               depth: 3
               sample_count: 9
               value: 2.7509374618530273e+00
               Tn: 0
               complexity: 0
               alpha: 0.
               node_risk: 2.9030999826318293e-11
               tree_risk: 0.
               tree_error: 0.
            -
               depth: 2
               sample_count: 33
               value: -2.4159074868216660e-01
               Tn: 0
               complexity: 0
               alpha: 0.
               node_risk: 6.6545957218000495e-06
               tree_risk: 0.
               tree_error: 0.
               splits:
                  - { var:3, quality:1.9260864257812500e+00,
                      le:9.4328677654266357e-01 }
            -
               depth: 3
               sample_count: 27
               value: -9.8866176605224609e-01
               Tn: 0
               complexity: 0
               alpha: 0.
               node_risk: 1.1724967963200328e-06
               tree_risk: 0.
               tree_error: 0.
            -
               depth: 3
               sample_count: 6
               value: -9.9004065990447998e-01
               Tn: 0
               complexity: 0
               alpha: 0.
               node_risk: 4.0527581290916714e-12
               tree_risk: 0.
               tree_error: 0.
      -
         best_tree_idx: -1
         nodes:
            -
               depth: 0
               sample_count: 152
               value: 1.2598387897014618e-02
               Tn: 0
               complexity: 0
               alpha: 0.
               node_risk: 2.7200351607178462e+01
               tree_risk: 0.
               tree_error: 0.
               splits:
                  - { var:0, quality:9.4076604843139648e+00,
                      le:-7.5619511306285858e-02 }
            -
               depth: 1
               sample_count: 82
               value: -2.1696548836260307e-01
               Tn: 0
               complexity: 0
               alpha: 0.
               node_risk: 1.8410057647910971e+00
               tree_risk: 0.
               tree_error: 0.
               splits:
                  - { var:0, quality:4.7575721740722656e+00,
                      le:-1.1072268486022949e+00 }
            -
               depth: 2
               sample_count: 1
               value: 2.7233724594116211e+00
               Tn: 0
               complexity: 0
               alpha: 0.
               node_risk: 0.
               tree_risk: 0.
               tree_error: 0.
            -
               depth: 2
               sample_count: 81
               value: -2.2858982965534116e-01
               Tn: 0
               complexity: 0
               alpha: 0.
               node_risk: 9.4350345251614609e-01
               tree_risk: 0.
               tree_error: 0.
               splits:
                  - { var:1, quality:4.2843847274780273e+00,
                      le:-3.7163081765174866e-01 }
            -
               depth: 3
               sample_count: 67
               value: -9.8705083131790161e-01
               Tn: 0
               complexity: 0
               alpha: 0.
               node_risk: 5.8908944212010539e-05
               tree_risk: 0.
               tree_error: 0.
            -
               depth: 3
               sample_count: 14
               value: -7.0317780971527100e-01
               Tn: 0
               complexity: 0
               alpha: 0.
               node_risk: 8.9157786363790092e-01
               tree_risk: 0.
               tree_error: 0.
            -
               depth: 1
               sample_count: 70
               value: 2.8151607151542390e-01
               Tn: 0
               complexity: 0
               alpha: 0.
               node_risk: 1.5975810393765038e+01
               tree_risk: 0.
               tree_error: 0.
               splits:
                  - { var:1, quality:2.1523393630981445e+01,
                      le:4.9870157241821289e-01 }
            -
               depth: 2
               sample_count: 38
               value: 7.1991099652491120e-01
               Tn: 0
               complexity: 0
               alpha: 0.
               node_risk: 5.1812776291626506e-11
               tree_risk: 0.
               tree_error: 0.
               splits:
                  - { var:0, quality:1.9694330215454102e+01,
                      le:4.0246778726577759e-01 }
            -
               depth: 3
               sample_count: 34
               value: 2.6777222156524658e+00
               Tn: 0
               complexity: 0
               alpha: 0.
               node_risk: 9.5496943686157465e-12
               tree_risk: 0.
               tree_error: 0.
            -
               depth: 3
               sample_count: 4
               value: 2.6777033805847168e+00
               Tn: 0
               complexity: 0
               alpha: 0.
               node_risk: 2.8169466759209172e-11
               tree_risk: 0.
               tree_error: 0.
            -
               depth: 2
               sample_count: 32
               value: -2.3907790193334222e-01
               Tn: 0
               complexity: 0
               alpha: 0.
               node_risk: 7.4771808273865759e-06
               tree_risk: 0.
               tree_error: 0.
               splits:
                  - { var:1, quality:1.8290684223175049e+00,
                      le:1.7038438320159912e+00 }
            -
               depth: 3
               sample_count: 27
               value: -9.8543488979339600e-01
               Tn: 0
               complexity: 0
               alpha: 0.
               node_risk: 2.8500171911360894e-06
               tree_risk: 0.
               tree_error: 0.
            -
               depth: 3
               sample_count: 5
               value: -9.8679220676422119e-01
               Tn: 0
               complexity: 0
               alpha: 0.
               node_risk: 3.5238478801602469e-12
               tree_risk: 0.
               tree_error: 0.
      -
         best_tree_idx: -1
         nodes:
            -
               depth: 0
               sample_count: 152
               value: 8.5615994114624820e-05
               Tn: 0
               complexity: 0
               alpha: 0.
               node_risk: 2.5810988053185344e+01
               tree_risk: 0.
               tree_error: 0.
               splits:
                  - { var:0, quality:8.0487794876098633e+00,
                      le:-7.5619511306285858e-02 }
            -
               depth: 1
               sample_count: 85
               value: -2.0421567944919361e-01
               Tn: 0
               complexity: 0
               alpha: 0.
               node_risk: 2.7117285371742335e+00
               tree_risk: 0.
               tree_error: 0.
               splits:
                  - { var:1, quality:5.3179049491882324e+00,
                      le:-1.2180416584014893e+00 }
            -
               depth: 2
               sample_count: 2
               value: 2.7400221824645996e+00
               Tn: 0
               complexity: 0
               alpha: 0.
               node_risk: 1.1735946489466187e-04
               tree_risk: 0.
               tree_error: 0.
            -
               depth: 2
               sample_count: 83
               value: -2.2663530527827253e-01
               Tn: 0
               complexity: 0
               alpha: 0.
               node_risk: 9.3854990998999543e-01
               tree_risk: 0.
               tree_error: 0.
               splits:
                  - { var:1, quality:4.3184394836425781e+00,
                      le:-3.7163081765174866e-01 }
            -
               depth: 3
               sample_count: 70
               value: -9.8394823074340820e-01
               Tn: 0
               complexity: 0
               alpha: 0.
               node_risk: 1.5769224901962531e-04
               tree_risk: 0.
               tree_error: 0.
            -
               depth: 3
               sample_count: 13
               value: -6.7878305912017822e-01
               Tn: 0
               complexity: 0
               alpha: 0.
               node_risk: 8.8312812882588188e-01
               tree_risk: 0.
               tree_error: 0.
            -
               depth: 1
               sample_count: 67
               value: 2.5927382663114745e-01
               Tn: 0
               complexity: 0
               alpha: 0.
               node_risk: 1.5050481462100684e+01
               tree_risk: 0.
               tree_error: 0.
               splits:
                  - { var:1, quality:1.9554405212402344e+01,
                      le:4.9870157241821289e-01 }
            -
               depth: 2
               sample_count: 35
               value: 7.1246203524725782e-01
               Tn: 0
               complexity: 0
               alpha: 0.
               node_risk: 1.7413270825272775e-10
               tree_risk: 0.
               tree_error: 0.
               splits:
                  - { var:0, quality:1.7766075134277344e+01,
                      le:3.1237271428108215e-01 }
            -
               depth: 3
               sample_count: 24
               value: 2.6083590984344482e+00
               Tn: 0
               complexity: 0
               alpha: 0.
               node_risk: 0.
               tree_risk: 0.
               tree_error: 0.
            -
               depth: 3
               sample_count: 11
               value: 2.6083340644836426e+00
               Tn: 0
               complexity: 0
               alpha: 0.
               node_risk: 1.1675727051851936e-10
               tree_risk: 0.
               tree_error: 0.
            -
               depth: 2
               sample_count: 32
               value: -2.3640077654272318e-01
               Tn: 0
               complexity: 0
               alpha: 0.
               node_risk: 1.1135512420157312e-05
               tree_risk: 0.
               tree_error: 0.
               splits:
                  - { var:3, quality:1.7883390188217163e+00,
                      le:9.3924129009246826e-01 }
            -
               depth: 3
               sample_count: 26
               value: -9.8187196254730225e-01
               Tn: 0
               complexity: 0
               alpha: 0.
               node_risk: 2.5887856838213708e-06
               tree_risk: 0.
               tree_error: 0.
            -
               depth: 3
               sample_count: 6
               value: -9.8357635736465454e-01
               Tn: 0
               complexity: 0
               alpha: 0.
               node_risk: 1.2184953046556757e-10
               tree_risk: 0.
               tree_error: 0.
      -
         best_tree_idx: -1
         nodes:
            -
               depth: 0
               sample_count: 152
               value: -6.4299588924960084e-05
               Tn: 0
               complexity: 0
               alpha: 0.
               node_risk: 2.5304059819635313e+01
               tree_risk: 0.
               tree_error: 0.
               splits:
                  - { var:3, quality:7.8084349632263184e+00,
                      le:-1.8568448722362518e-01 }
            -
               depth: 1
               sample_count: 79
               value: 2.1781103897698317e-01
               Tn: 0
               complexity: 0
               alpha: 0.
               node_risk: 1.7494913841382949e+01
               tree_risk: 0.
               tree_error: 0.
               splits:
                  - { var:1, quality:1.9503822326660156e+01,
                      le:-4.6542203426361084e-01 }
            -
               depth: 2
               sample_count: 43
               value: -1.9081452142360600e-01
               Tn: 0
               complexity: 0
               alpha: 0.
               node_risk: 1.7380836215716091e+00
               tree_risk: 0.
               tree_error: 0.
               splits:
                  - { var:1, quality:3.3035659790039062e+00,
                      le:-1.2180416584014893e+00 }
            -
               depth: 3
               sample_count: 2
               value: 2.6738071441650391e+00
               Tn: 0
               complexity: 0
               alpha: 0.
               node_risk: 1.0065800997161034e-04
               tree_risk: 0.
               tree_error: 0.
            -
               depth: 3
               sample_count: 41
               value: -9.8067730665206909e-01
               Tn: 0
               complexity: 0
               alpha: 0.
               node_risk: 5.4795858627887384e-05
               tree_risk: 0.
               tree_error: 0.
            -
               depth: 2
               sample_count: 36
               value: 7.0589156945546472e-01
               Tn: 0
               complexity: 0
               alpha: 0.
               node_risk: 8.9797710781880369e-04
               tree_risk: 0.
               tree_error: 0.
               splits:
                  - { var:0, quality:1.7939083099365234e+01,
                      le:-2.3151321709156036e-01 }
            -
               depth: 3
               sample_count: 1
               value: 2.8348817825317383e+00
               Tn: 0
               complexity: 0
               alpha: 0.
               node_risk: 0.
               tree_risk: 0.
               tree_error: 0.
            -
               depth: 3
               sample_count: 35
               value: 2.5427811145782471e+00
               Tn: 0
               complexity: 0
               alpha: 0.
               node_risk: 1.1363709973011282e-10
               tree_risk: 0.
               tree_error: 0.
            -
               depth: 1
               sample_count: 73
               value: -2.3584720022874336e-01
               Tn: 0
               complexity: 0
               alpha: 0.
               node_risk: 7.1152389954942663e-04
               tree_risk: 0.
               tree_error: 0.
               splits:
                  - { var:0, quality:4.0607190132141113e+00,
                      le:5.0820067524909973e-02 }
            -
               depth: 2
               sample_count: 40
               value: -2.3725048713386060e-01
               Tn: 0
               complexity: 0
               alpha: 0.
               node_risk: 5.2260627412126226e-04
               tree_risk: 0.
               tree_error: 0.
               splits:
                  - { var:3, quality:2.2519853115081787e+00,
                      le:9.1503900289535522e-01 }
            -
               depth: 3
               sample_count: 9
               value: -9.9160599708557129e-01
               Tn: 0
               complexity: 0
               alpha: 0.
               node_risk: 3.2729355337712818e-05
               tree_risk: 0.
               tree_error: 0.
            -
               depth: 3
               sample_count: 31
               value: -9.8090350627899170e-01
               Tn: 0
               complexity: 0
               alpha: 0.
               node_risk: 1.6319871639636219e-05
               tree_risk: 0.
               tree_error: 0.
            -
               depth: 2
               sample_count: 33
               value: -2.3414624640435883e-01
               Tn: 0
               complexity: 0
               alpha: 0.
               node_risk: 1.4672010790750534e-05
               tree_risk: 0.
               tree_error: 0.
               splits:
                  - { var:3, quality:1.8092179298400879e+00,
                      le:9.3924129009246826e-01 }
            -
               depth: 3
               sample_count: 23
               value: -9.7882229089736938e-01
               Tn: 0
               complexity: 0
               alpha: 0.
               node_risk: 4.0588151060116928e-06
               tree_risk: 0.
               tree_error: 0.
            -
               depth: 3
               sample_count: 10
               value: -9.8040026426315308e-01
               Tn: 0
               complexity: 0
               alpha: 0.
               node_risk: 1.1999889970581989e-10
               tree_risk: 0.
               tree_error: 0.
      -
         best_tree_idx: -1
         nodes:
            -
               depth: 0
               sample_count: 152
               value: -1.8349790945649147e-02
               Tn: 0
               complexity: 0
               alpha: 0.
               node_risk: 2.3427905305691283e+01
               tree_risk: 0.
               tree_error: 0.
               splits:
                  - { var:3, quality:6.8924078941345215e+00,
                      le:-2.1775263547897339e-01 }
            -
               depth: 1
               sample_count: 77
               value: 1.9102793583622227e-01
               Tn: 0
               complexity: 0
               alpha: 0.
               node_risk: 1.6585969450850865e+01
               tree_risk: 0.
               tree_error: 0.
               splits:
                  - { var:1, quality:1.7691192626953125e+01,
                      le:-4.6542203426361084e-01 }
            -
               depth: 2
               sample_count: 44
               value: -1.8969252095981079e-01
               Tn: 0
               complexity: 0
               alpha: 0.
               node_risk: 1.7036023922946564e+00
               tree_risk: 0.
               tree_error: 0.
               splits:
                  - { var:1, quality:3.2867317199707031e+00,
                      le:-1.1974571943283081e+00 }
            -
               depth: 3
               sample_count: 2
               value: 2.6046738624572754e+00
               Tn: 0
               complexity: 0
               alpha: 0.
               node_risk: 1.0381315719776296e-04
               tree_risk: 0.
               tree_error: 0.
            -
               depth: 3
               sample_count: 42
               value: -9.7736746072769165e-01
               Tn: 0
               complexity: 0
               alpha: 0.
               node_risk: 3.0074491323528463e-05
               tree_risk: 0.
               tree_error: 0.
            -
               depth: 2
               sample_count: 33
               value: 6.9865521156426635e-01
               Tn: 0
               complexity: 0
               alpha: 0.
               node_risk: 1.0322596635887749e-03
               tree_risk: 0.
               tree_error: 0.
               splits:
                  - { var:0, quality:1.6108963012695312e+01,
                      le:-2.3151321709156036e-01 }
            -
               depth: 3
               sample_count: 1
               value: 2.7808001041412354e+00
               Tn: 0
               complexity: 0
               alpha: 0.
               node_risk: 0.
               tree_risk: 0.
               tree_error: 0.
            -
               depth: 3
               sample_count: 32
               value: 2.4807043075561523e+00
               Tn: 0
               complexity: 0
               alpha: 0.
               node_risk: 7.8689055271752295e-10
               tree_risk: 0.
               tree_error: 0.
            -
               depth: 1
               sample_count: 75
               value: -2.3331092377503712e-01
               Tn: 0
               complexity: 0
               alpha: 0.
               node_risk: 7.0870742288065003e-04
               tree_risk: 0.
               tree_error: 0.
               splits:
                  - { var:0, quality:4.0827260017395020e+00,
                      le:3.8670465350151062e-02 }
            -
               depth: 2
               sample_count: 42
               value: -2.3467268227111726e-01
               Tn: 0
               complexity: 0
               alpha: 0.
               node_risk: 5.1937515794264755e-04
               tree_risk: 0.
               tree_error: 0.
               splits:
                  - { var:3, quality:2.3134417533874512e+00,
                      le:9.0832185745239258e-01 }
            -
               depth: 3
               sample_count: 9
               value: -9.8808282613754272e-01
               Tn: 0
               complexity: 0
               alpha: 0.
               node_risk: 5.2666714718929697e-05
               tree_risk: 0.
               tree_error: 0.
            -
               depth: 3
               sample_count: 33
               value: -9.7779554128646851e-01
               Tn: 0
               complexity: 0
               alpha: 0.
               node_risk: 1.8209864481866234e-05
               tree_risk: 0.
               tree_error: 0.
            -
               depth: 2
               sample_count: 33
               value: -2.3157777659820789e-01
               Tn: 0
               complexity: 0
               alpha: 0.
               node_risk: 1.2322672969133919e-05
               tree_risk: 0.
               tree_error: 0.
               splits:
                  - { var:3, quality:1.7697396278381348e+00,
                      le:9.3924129009246826e-01 }
            -
               depth: 3
               sample_count: 27
               value: -9.7575378417968750e-01
               Tn: 0
               complexity: 0
               alpha: 0.
               node_risk: 5.4476678741366413e-06
               tree_risk: 0.
               tree_error: 0.
            -
               depth: 3
               sample_count: 6
               value: -9.7725731134414673e-01
               Tn: 0
               complexity: 0
               alpha: 0.
               node_risk: 8.8324458857869104e-11
               tree_risk: 0.
               tree_error: 0.
      -
         best_tree_idx: -1
         nodes:
            -
               depth: 0
               sample_count: 152
               value: -1.6393718358717466e-04
               Tn: 0
               complexity: 0
               alpha: 0.
               node_risk: 2.4235512246928252e+01
               tree_risk: 0.
               tree_error: 0.
               splits:
                  - { var:3, quality:7.8795018196105957e+00,
                      le:-1.8568448722362518e-01 }
            -
               depth: 1
               sample_count: 77
               value: 2.2454106401313434e-01
               Tn: 0
               complexity: 0
               alpha: 0.
               node_risk: 1.6355284481882148e+01
               tree_risk: 0.
               tree_error: 0.
               splits:
                  - { var:1, quality:1.9397268295288086e+01,
                      le:-4.6542203426361084e-01 }
            -
               depth: 2
               sample_count: 40
               value: -2.0717857070267201e-01
               Tn: 0
               complexity: 0
               alpha: 0.
               node_risk: 8.3907397590510446e-01
               tree_risk: 0.
               tree_error: 0.
               splits:
                  - { var:0, quality:2.5559000968933105e+00,
                      le:-1.1072268486022949e+00 }
            -
               depth: 3
               sample_count: 1
               value: 2.4773643016815186e+00
               Tn: 0
               complexity: 0
               alpha: 0.
               node_risk: 0.
               tree_risk: 0.
               tree_error: 0.
            -
               depth: 3
               sample_count: 39
               value: -9.7450631856918335e-01
               Tn: 0
               complexity: 0
               alpha: 0.
               node_risk: 9.2314638779456004e-05
               tree_risk: 0.
               tree_error: 0.
            -
               depth: 2
               sample_count: 37
               value: 6.9126499343562775e-01
               Tn: 0
               complexity: 0
               alpha: 0.
               node_risk: 1.1814130748852847e-03
               tree_risk: 0.
               tree_error: 0.
               splits:
                  - { var:0, quality:1.7681531906127930e+01,
                      le:-2.3036833107471466e-01 }
            -
               depth: 3
               sample_count: 1
               value: 2.7289497852325439e+00
               Tn: 0
               complexity: 0
               alpha: 0.
               node_risk: 0.
               tree_risk: 0.
               tree_error: 0.
            -
               depth: 3
               sample_count: 36
               value: 2.4218800067901611e+00
               Tn: 0
               complexity: 0
               alpha: 0.
               node_risk: 1.1578720204852289e-09
               tree_risk: 0.
               tree_error: 0.
            -
               depth: 1
               sample_count: 75
               value: -2.3086107174555462e-01
               Tn: 0
               complexity: 0
               alpha: 0.
               node_risk: 7.3018057633822409e-04
               tree_risk: 0.
               tree_error: 0.
               splits:
                  - { var:0, quality:3.9974539279937744e+00,
                      le:5.0820067524909973e-02 }
            -
               depth: 2
               sample_count: 40
               value: -2.3235495872795581e-01
               Tn: 0
               complexity: 0
               alpha: 0.
               node_risk: 5.2576894838773924e-04
               tree_risk: 0.
               tree_error: 0.
               splits:
                  - { var:3, quality:2.1600069999694824e+00,
                      le:9.0832185745239258e-01 }
            -
               depth: 3
               sample_count: 9
               value: -9.8506855964660645e-01
               Tn: 0
               complexity: 0
               alpha: 0.
               node_risk: 5.4429596918148526e-05
               tree_risk: 0.
               tree_error: 0.
            -
               depth: 3
               sample_count: 31
               value: -9.7471266984939575e-01
               Tn: 0
               complexity: 0
               alpha: 0.
               node_risk: 1.7509738229559701e-05
               tree_risk: 0.
               tree_error: 0.
            -
               depth: 2
               sample_count: 35
               value: -2.2915377233709608e-01
               Tn: 0
               complexity: 0
               alpha: 0.
               node_risk: 1.3123200855780226e-05
               tree_risk: 0.
               tree_error: 0.
               splits:
                  - { var:3, quality:1.8379116058349609e+00,
                      le:9.3139314651489258e-01 }
            -
               depth: 3
               sample_count: 26
               value: -9.7254455089569092e-01
               Tn: 0
               complexity: 0
               alpha: 0.
               node_risk: 2.3061901306409283e-06
               tree_risk: 0.
               tree_error: 0.
            -
               depth: 3
               sample_count: 9
               value: -9.7415077686309814e-01
               Tn: 0
               complexity: 0
               alpha: 0.
               node_risk: 1.3253398378765269e-10
               tree_risk: 0.
               tree_error: 0.
      -
         best_tree_idx: -1
         nodes:
            -
               depth: 0
               sample_count: 152
               value: 1.1871444257466416e-02
               Tn: 0
               complexity: 0
               alpha: 0.
               node_risk: 2.4534070376127978e+01
               tree_risk: 0.
               tree_error: 0.
               splits:
                  - { var:0, quality:8.2422742843627930e+00,
                      le:-7.4474617838859558e-02 }
            -
               depth: 1
               sample_count: 81
               value: -2.0586108425517141e-01
               Tn: 0
               complexity: 0
               alpha: 0.
               node_risk: 1.7019506838796516e+00
               tree_risk: 0.
               tree_error: 0.
               splits:
                  - { var:0, quality:4.2489719390869141e+00,
                      le:-1.1072268486022949e+00 }
            -
               depth: 2
               sample_count: 1
               value: 2.4353196620941162e+00
               Tn: 0
               complexity: 0
               alpha: 0.
               node_risk: 0.
               tree_risk: 0.
               tree_error: 0.
            -
               depth: 2
               sample_count: 80
               value: -2.1708475053310394e-01
               Tn: 0
               complexity: 0
               alpha: 0.
               node_risk: 8.8566064690442037e-01
               tree_risk: 0.
               tree_error: 0.
               splits:
                  - { var:1, quality:3.8216190338134766e+00,
                      le:-3.7163081765174866e-01 }
            -
               depth: 3
               sample_count: 67
               value: -9.7186666727066040e-01
               Tn: 0
               complexity: 0
               alpha: 0.
               node_risk: 3.3955133635821255e-04
               tree_risk: 0.
               tree_error: 0.
            -
               depth: 3
               sample_count: 13
               value: -6.6324502229690552e-01
               Tn: 0
               complexity: 0
               alpha: 0.
               node_risk: 8.3376506602270539e-01
               tree_risk: 0.
               tree_error: 0.
            -
               depth: 1
               sample_count: 71
               value: 2.6027052608174339e-01
               Tn: 0
               complexity: 0
               alpha: 0.
               node_risk: 1.4611266547044091e+01
               tree_risk: 0.
               tree_error: 0.
               splits:
                  - { var:1, quality:1.9420839309692383e+01,
                      le:3.8550674915313721e-01 }
            -
               depth: 2
               sample_count: 38
               value: 6.8301663900676524e-01
               Tn: 0
               complexity: 0
               alpha: 0.
               node_risk: 1.5070682479745301e-09
               tree_risk: 0.
               tree_error: 0.
               splits:
                  - { var:0, quality:1.7727445602416992e+01,
                      le:4.0246778726577759e-01 }
            -
               depth: 3
               sample_count: 32
               value: 2.3660662174224854e+00
               Tn: 0
               complexity: 0
               alpha: 0.
               node_risk: 2.6611779446739092e-10
               tree_risk: 0.
               tree_error: 0.
            -
               depth: 3
               sample_count: 6
               value: 2.3659937381744385e+00
               Tn: 0
               complexity: 0
               alpha: 0.
               node_risk: 7.6572836960053792e-10
               tree_risk: 0.
               tree_error: 0.
            -
               depth: 2
               sample_count: 33
               value: -2.2652802819555456e-01
               Tn: 0
               complexity: 0
               alpha: 0.
               node_risk: 2.0587061428711806e-05
               tree_risk: 0.
               tree_error: 0.
               splits:
                  - { var:3, quality:1.6934046745300293e+00,
                      le:9.4599717855453491e-01 }
            -
               depth: 3
               sample_count: 26
               value: -9.6927332878112793e-01
               Tn: 0
               complexity: 0
               alpha: 0.
               node_risk: 9.1744617454203592e-06
               tree_risk: 0.
               tree_error: 0.
            -
               depth: 3
               sample_count: 7
               value: -9.7107666730880737e-01
               Tn: 0
               complexity: 0
               alpha: 0.
               node_risk: 9.4979468734379680e-11
               tree_risk: 0.
               tree_error: 0.
      -
         best_tree_idx: -1
         nodes:
            -
               depth: 0
               sample_count: 152
               value: -6.0747259933697549e-03
               Tn: 0
               complexity: 0
               alpha: 0.
               node_risk: 2.2829340939678250e+01
               tree_risk: 0.
               tree_error: 0.
               splits:
                  - { var:0, quality:7.1902728080749512e+00,
                      le:-1.0562058538198471e-01 }
            -
               depth: 1
               sample_count: 83
               value: -2.0430360590837088e-01
               Tn: 0
               complexity: 0
               alpha: 0.
               node_risk: 1.6818180587628824e+00
               tree_risk: 0.
               tree_error: 0.
               splits:
                  - { var:1, quality:5.1447129249572754e+00,
                      le:-1.2002644538879395e+00 }
            -
               depth: 2
               sample_count: 2
               value: 2.5124111175537109e+00
               Tn: 0
               complexity: 0
               alpha: 0.
               node_risk: 4.2130196577438994e-04
               tree_risk: 0.
               tree_error: 0.
            -
               depth: 2
               sample_count: 81
               value: -2.2666126434449796e-01
               Tn: 0
               complexity: 0
               alpha: 0.
               node_risk: 1.1009265526658041e-03
               tree_risk: 0.
               tree_error: 0.
               splits:
                  - { var:2, quality:4.1619081497192383e+00,
                      le:-2.3803058266639709e-01 }
            -
               depth: 3
               sample_count: 74
               value: -9.6888571977615356e-01
               Tn: 0
               complexity: 0
               alpha: 0.
               node_risk: 3.7812555214955523e-04
               tree_risk: 0.
               tree_error: 0.
            -
               depth: 3
               sample_count: 7
               value: -9.8029273748397827e-01
               Tn: 0
               complexity: 0
               alpha: 0.
               node_risk: 2.1642430745599794e-04
               tree_risk: 0.
               tree_error: 0.
            -
               depth: 1
               sample_count: 69
               value: 2.3237450636815335e-01
               Tn: 0
               complexity: 0
               alpha: 0.
               node_risk: 1.3962859195277641e+01
               tree_risk: 0.
               tree_error: 0.
               splits:
                  - { var:1, quality:1.7688684463500977e+01,
                      le:4.1874265670776367e-01 }
            -
               depth: 2
               sample_count: 35
               value: 6.7574583802904398e-01
               Tn: 0
               complexity: 0
               alpha: 0.
               node_risk: 2.6280559950464522e-09
               tree_risk: 0.
               tree_error: 0.
               splits:
                  - { var:0, quality:1.5982135772705078e+01,
                      le:3.1237271428108215e-01 }
            -
               depth: 3
               sample_count: 23
               value: 2.3130264282226562e+00
               Tn: 0
               complexity: 0
               alpha: 0.
               node_risk: 0.
               tree_risk: 0.
               tree_error: 0.
            -
               depth: 3
               sample_count: 12
               value: 2.3129506111145020e+00
               Tn: 0
               complexity: 0
               alpha: 0.
               node_risk: 1.7379102601466911e-09
               tree_risk: 0.
               tree_error: 0.
            -
               depth: 2
               sample_count: 34
               value: -2.2403715857688120e-01
               Tn: 0
               complexity: 0
               alpha: 0.
               node_risk: 2.9703264756042458e-05
               tree_risk: 0.
               tree_error: 0.
               splits:
                  - { var:3, quality:1.7065677642822266e+00,
                      le:9.3924129009246826e-01 }
            -
               depth: 3
               sample_count: 25
               value: -9.6600484848022461e-01
               Tn: 0
               complexity: 0
               alpha: 0.
               node_risk: 1.2002216349227268e-05
               tree_risk: 0.
               tree_error: 0.
            -
               depth: 3
               sample_count: 9
               value: -9.6804136037826538e-01
               Tn: 0
               complexity: 0
               alpha: 0.
               node_risk: 5.7053251012462169e-11
               tree_risk: 0.
               tree_error: 0.
      -
         best_tree_idx: -1
         nodes:
            -
               depth: 0
               sample_count: 152
               value: 1.7681867374401344e-02
               Tn: 0
               complexity: 0
               alpha: 0.
               node_risk: 2.3968995015261946e+01
               tree_risk: 0.
               tree_error: 0.
               splits:
                  - { var:3, quality:8.4584894180297852e+00,
                      le:-2.1775263547897339e-01 }
            -
               depth: 1
               sample_count: 78
               value: 2.4680540920832220e-01
               Tn: 0
               complexity: 0
               alpha: 0.
               node_risk: 1.5556785405331730e+01
               tree_risk: 0.
               tree_error: 0.
               splits:
                  - { var:1, quality:1.8709075927734375e+01,
                      le:-4.6542203426361084e-01 }
            -
               depth: 2
               sample_count: 39
               value: -1.7621591840034875e-01
               Tn: 0
               complexity: 0
               alpha: 0.
               node_risk: 1.5963676678739196e+00
               tree_risk: 0.
               tree_error: 0.
               splits:
                  - { var:1, quality:2.8067851066589355e+00,
                      le:-1.2180416584014893e+00 }
            -
               depth: 3
               sample_count: 2
               value: 2.4520297050476074e+00
               Tn: 0
               complexity: 0
               alpha: 0.
               node_risk: 4.3288097106852774e-04
               tree_risk: 0.
               tree_error: 0.
            -
               depth: 3
               sample_count: 37
               value: -9.6558225154876709e-01
               Tn: 0
               complexity: 0
               alpha: 0.
               node_risk: 1.7972266806043358e-04
               tree_risk: 0.
               tree_error: 0.
            -
               depth: 2
               sample_count: 39
               value: 6.6982673681699312e-01
               Tn: 0
               complexity: 0
               alpha: 0.
               node_risk: 2.5483357372131366e-03
               tree_risk: 0.
               tree_error: 0.
               splits:
                  - { var:0, quality:1.7500595092773438e+01,
                      le:-2.3151321709156036e-01 }
            -
               depth: 3
               sample_count: 1
               value: 2.6752879619598389e+00
               Tn: 0
               complexity: 0
               alpha: 0.
               node_risk: 0.
               tree_risk: 0.
               tree_error: 0.
            -
               depth: 3
               sample_count: 38
               value: 2.2625486850738525e+00
               Tn: 0
               complexity: 0
               alpha: 0.
               node_risk: 3.7171261624280305e-09
               tree_risk: 0.
               tree_error: 0.
            -
               depth: 1
               sample_count: 74
               value: -2.2382673077486656e-01
               Tn: 0
               complexity: 0
               alpha: 0.
               node_risk: 1.2431904517637982e-03
               tree_risk: 0.
               tree_error: 0.
               splits:
                  - { var:0, quality:3.7075879573822021e+00,
                      le:3.8670465350151062e-02 }
            -
               depth: 2
               sample_count: 40
               value: -2.2570149376988410e-01
               Tn: 0
               complexity: 0
               alpha: 0.
               node_risk: 9.1002684584173821e-04
               tree_risk: 0.
               tree_error: 0.
               splits:
                  - { var:3, quality:2.0383930206298828e+00,
                      le:8.7370610237121582e-01 }
            -
               depth: 3
               sample_count: 9
               value: -9.7883629798889160e-01
               Tn: 0
               complexity: 0
               alpha: 0.
               node_risk: 1.3590268885055323e-04
               tree_risk: 0.
               tree_error: 0.
            -
               depth: 3
               sample_count: 31
               value: -9.6572041511535645e-01
               Tn: 0
               complexity: 0
               alpha: 0.
               node_risk: 2.7565948832020126e-05
               tree_risk: 0.
               tree_error: 0.
            -
               depth: 2
               sample_count: 34
               value: -2.2162112725131652e-01
               Tn: 0
               complexity: 0
               alpha: 0.
               node_risk: 2.7174799722251564e-05
               tree_risk: 0.
               tree_error: 0.
               splits:
                  - { var:3, quality:1.6699565649032593e+00,
                      le:9.5156097412109375e-01 }
            -
               depth: 3
               sample_count: 26
               value: -9.6308505535125732e-01
               Tn: 0
               complexity: 0
               alpha: 0.
               node_risk: 1.1994180788565956e-05
               tree_risk: 0.
               tree_error: 0.
            -
               depth: 3
               sample_count: 8
               value: -9.6503448486328125e-01
               Tn: 0
               complexity: 0
               alpha: 0.
               node_risk: 4.9366399856864973e-10
               tree_risk: 0.
               tree_error: 0.
      -
         best_tree_idx: -1
         nodes:
            -
               depth: 0
               sample_count: 152
               value: 2.3195839143897359e-02
               Tn: 0
               complexity: 0
               alpha: 0.
               node_risk: 2.3823833987798665e+01
               tree_risk: 0.
               tree_error: 0.
               splits:
                  - { var:3, quality:8.7241020202636719e+00,
                      le:-2.1775263547897339e-01 }
            -
               depth: 1
               sample_count: 78
               value: 2.5544914985314393e-01
               Tn: 0
               complexity: 0
               alpha: 0.
               node_risk: 1.5179707970582381e+01
               tree_risk: 0.
               tree_error: 0.
               splits:
                  - { var:1, quality:1.8700315475463867e+01,
                      le:-4.6542203426361084e-01 }
            -
               depth: 2
               sample_count: 38
               value: -1.7312666460087425e-01
               Tn: 0
               complexity: 0
               alpha: 0.
               node_risk: 1.5666976219838058e+00
               tree_risk: 0.
               tree_error: 0.
               splits:
                  - { var:1, quality:2.7050170898437500e+00,
                      le:-1.2180416584014893e+00 }
            -
               depth: 3
               sample_count: 2
               value: 2.4075443744659424e+00
               Tn: 0
               complexity: 0
               alpha: 0.
               node_risk: 4.4096124386783231e-04
               tree_risk: 0.
               tree_error: 0.
            -
               depth: 3
               sample_count: 36
               value: -9.6277517080307007e-01
               Tn: 0
               complexity: 0
               alpha: 0.
               node_risk: 2.0747610198190714e-04
               tree_risk: 0.
               tree_error: 0.
            -
               depth: 2
               sample_count: 40
               value: 6.6259617358446121e-01
               Tn: 0
               complexity: 0
               alpha: 0.
               node_risk: 2.5276993406251336e-03
               tree_risk: 0.
               tree_error: 0.
               splits:
                  - { var:0, quality:1.7563875198364258e+01,
                      le:-2.3151321709156036e-01 }
            -
               depth: 3
               sample_count: 1
               value: 2.6063377857208252e+00
               Tn: 0
               complexity: 0
               alpha: 0.
               node_risk: 0.
               tree_risk: 0.
               tree_error: 0.
            -
               depth: 3
               sample_count: 39
               value: 2.2145011425018311e+00
               Tn: 0
               complexity: 0
               alpha: 0.
               node_risk: 5.3235069685797498e-09
               tree_risk: 0.
               tree_error: 0.
            -
               depth: 1
               sample_count: 74
               value: -2.2161170457665985e-01
               Tn: 0
               complexity: 0
               alpha: 0.
               node_risk: 1.8069148301083082e-03
               tree_risk: 0.
               tree_error: 0.
               splits:
                  - { var:0, quality:3.6347172260284424e+00,
                      le:3.8670465350151062e-02 }
            -
               depth: 2
               sample_count: 41
               value: -2.2381908283001040e-01
               Tn: 0
               complexity: 0
               alpha: 0.
               node_risk: 1.3270669104783472e-03
               tree_risk: 0.
               tree_error: 0.
               splits:
                  - { var:3, quality:2.0550117492675781e+00,
                      le:7.6475036144256592e-01 }
            -
               depth: 3
               sample_count: 8
               value: -9.7973591089248657e-01
               Tn: 0
               complexity: 0
               alpha: 0.
               node_risk: 1.2209520304284904e-04
               tree_risk: 0.
               tree_error: 0.
            -
               depth: 3
               sample_count: 33
               value: -9.6309489011764526e-01
               Tn: 0
               complexity: 0
               alpha: 0.
               node_risk: 8.7460990843668540e-05
               tree_risk: 0.
               tree_error: 0.
            -
               depth: 2
               sample_count: 33
               value: -2.1886920432249704e-01
               Tn: 0
               complexity: 0
               alpha: 0.
               node_risk: 3.1871498492819228e-05
               tree_risk: 0.
               tree_error: 0.
               splits:
                  - { var:2, quality:1.5808390378952026e+00,
                      le:2.7041554450988770e+00 }
            -
               depth: 3
               sample_count: 24
               value: -9.5962697267532349e-01
               Tn: 0
               complexity: 0
               alpha: 0.
               node_risk: 1.3932193258181513e-05
               tree_risk: 0.
               tree_error: 0.
            -
               depth: 3
               sample_count: 9
               value: -9.6154469251632690e-01
               Tn: 0
               complexity: 0
               alpha: 0.
               node_risk: 2.0023131831470309e-06
               tree_risk: 0.
               tree_error: 0.
      -
         best_tree_idx: -1
         nodes:
            -
               depth: 0
               sample_count: 152
               value: -6.2755481585075983e-03
               Tn: 0
               complexity: 0
               alpha: 0.
               node_risk: 2.1357293585219537e+01
               tree_risk: 0.
               tree_error: 0.
               splits:
                  - { var:0, quality:7.5386447906494141e+00,
                      le:-7.5619511306285858e-02 }
            -
               depth: 1
               sample_count: 83
               value: -2.0924835302025438e-01
               Tn: 0
               complexity: 0
               alpha: 0.
               node_risk: 7.8012011793501745e-01
               tree_risk: 0.
               tree_error: 0.
               splits:
                  - { var:0, quality:4.4123125076293945e+00,
                      le:-1.1072268486022949e+00 }
            -
               depth: 2
               sample_count: 1
               value: 2.2560443878173828e+00
               Tn: 0
               complexity: 0
               alpha: 0.
               node_risk: 0.
               tree_risk: 0.
               tree_error: 0.
            -
               depth: 2
               sample_count: 82
               value: -2.1994113467815446e-01
               Tn: 0
               complexity: 0
               alpha: 0.
               node_risk: 1.9521632895527219e-03
               tree_risk: 0.
               tree_error: 0.
               splits:
                  - { var:0, quality:3.9678120613098145e+00,
                      le:-3.0883741378784180e-01 }
            -
               depth: 3
               sample_count: 77
               value: -9.6034842729568481e-01
               Tn: 0
               complexity: 0
               alpha: 0.
               node_risk: 6.8514086617943448e-04
               tree_risk: 0.
               tree_error: 0.
            -
               depth: 3
               sample_count: 5
               value: -9.7995346784591675e-01
               Tn: 0
               complexity: 0
               alpha: 0.
               node_risk: 1.3132436158969085e-04
               tree_risk: 0.
               tree_error: 0.
            -
               depth: 1
               sample_count: 69
               value: 2.3788014464620230e-01
               Tn: 0
               complexity: 0
               alpha: 0.
               node_risk: 1.3044514666971157e+01
               tree_risk: 0.
               tree_error: 0.
               splits:
                  - { var:1, quality:1.6948976516723633e+01,
                      le:4.1874265670776367e-01 }
            -
               depth: 2
               sample_count: 36
               value: 6.5416873163647127e-01
               Tn: 0
               complexity: 0
               alpha: 0.
               node_risk: 9.2027470088851260e-09
               tree_risk: 0.
               tree_error: 0.
               splits:
                  - { var:0, quality:1.5405722618103027e+01,
                      le:3.0726897716522217e-01 }
            -
               depth: 3
               sample_count: 23
               value: 2.1687347888946533e+00
               Tn: 0
               complexity: 0
               alpha: 0.
               node_risk: 0.
               tree_risk: 0.
               tree_error: 0.
            -
               depth: 3
               sample_count: 13
               value: 2.1686043739318848e+00
               Tn: 0
               complexity: 0
               alpha: 0.
               node_risk: 5.6166529205370352e-09
               tree_risk: 0.
               tree_error: 0.
            -
               depth: 2
               sample_count: 33
               value: -2.1625285934318195e-01
               Tn: 0
               complexity: 0
               alpha: 0.
               node_risk: 3.7986757711161445e-05
               tree_risk: 0.
               tree_error: 0.
               splits:
                  - { var:1, quality:1.5432783365249634e+00,
                      le:1.4311609268188477e+00 }
            -
               depth: 3
               sample_count: 24
               value: -9.5631444454193115e-01
               Tn: 0
               complexity: 0
               alpha: 0.
               node_risk: 1.2583634336982286e-05
               tree_risk: 0.
               tree_error: 0.
            -
               depth: 3
               sample_count: 9
               value: -9.5862609148025513e-01
               Tn: 0
               complexity: 0
               alpha: 0.
               node_risk: 1.9579167732097780e-06
               tree_risk: 0.
               tree_error: 0.
      -
         best_tree_idx: -1
         nodes:
            -
               depth: 0
               sample_count: 152
               value: 1.7409811188515863e-02
               Tn: 0
               complexity: 0
               alpha: 0.
               node_risk: 2.2485165602023041e+01
               tree_risk: 0.
               tree_error: 0.
               splits:
                  - { var:3, quality:7.3361773490905762e+00,
                      le:-2.1775263547897339e-01 }
            -
               depth: 1
               sample_count: 81
               value: 2.2244659691681096e-01
               Tn: 0
               complexity: 0
               alpha: 0.
               node_risk: 1.5192940588286925e+01
               tree_risk: 0.
               tree_error: 0.
               splits:
                  - { var:1, quality:1.7663726806640625e+01,
                      le:-4.6542203426361084e-01 }
            -
               depth: 2
               sample_count: 42
               value: -1.7321259209087916e-01
               Tn: 0
               complexity: 0
               alpha: 0.
               node_risk: 1.5340426585335074e+00
               tree_risk: 0.
               tree_error: 0.
               splits:
                  - { var:1, quality:2.7931540012359619e+00,
                      le:-1.2180416584014893e+00 }
            -
               depth: 3
               sample_count: 2
               value: 2.3562817573547363e+00
               Tn: 0
               complexity: 0
               alpha: 0.
               node_risk: 6.8342201555537940e-04
               tree_risk: 0.
               tree_error: 0.
            -
               depth: 3
               sample_count: 40
               value: -9.5659559965133667e-01
               Tn: 0
               complexity: 0
               alpha: 0.
               node_risk: 3.1443958363697178e-04
               tree_risk: 0.
               tree_error: 0.
            -
               depth: 2
               sample_count: 39
               value: 6.4854110815586186e-01
               Tn: 0
               complexity: 0
               alpha: 0.
               node_risk: 3.2530203982688022e-03
               tree_risk: 0.
               tree_error: 0.
               splits:
                  - { var:0, quality:1.6406869888305664e+01,
                      le:-2.3151321709156036e-01 }
            -
               depth: 3
               sample_count: 1
               value: 2.5409972667694092e+00
               Tn: 0
               complexity: 0
               alpha: 0.
               node_risk: 0.
               tree_risk: 0.
               tree_error: 0.
            -
               depth: 3
               sample_count: 38
               value: 2.1250042915344238e+00
               Tn: 0
               complexity: 0
               alpha: 0.
               node_risk: 1.0610772704922056e-08
               tree_risk: 0.
               tree_error: 0.
            -
               depth: 1
               sample_count: 71
               value: -2.1650539506489122e-01
               Tn: 0
               complexity: 0
               alpha: 0.
               node_risk: 2.1192662142732743e-03
               tree_risk: 0.
               tree_error: 0.
               splits:
                  - { var:0, quality:3.3286459445953369e+00,
                      le:3.8670465350151062e-02 }
            -
               depth: 2
               sample_count: 34
               value: -2.1940945570959763e-01
               Tn: 0
               complexity: 0
               alpha: 0.
               node_risk: 1.5054050832170596e-03
               tree_risk: 0.
               tree_error: 0.
               splits:
                  - { var:3, quality:1.6380662918090820e+00,
                      le:7.0244765281677246e-01 }
            -
               depth: 3
               sample_count: 6
               value: -9.7759425640106201e-01
               Tn: 0
               complexity: 0
               alpha: 0.
               node_risk: 1.3932368000874051e-04
               tree_risk: 0.
               tree_error: 0.
            -
               depth: 3
               sample_count: 28
               value: -9.5733094215393066e-01
               Tn: 0
               complexity: 0
               alpha: 0.
               node_risk: 7.7056917773266065e-05
               tree_risk: 0.
               tree_error: 0.
            -
               depth: 2
               sample_count: 37
               value: -2.1383679879678263e-01
               Tn: 0
               complexity: 0
               alpha: 0.
               node_risk: 6.3627787744824360e-05
               tree_risk: 0.
               tree_error: 0.
               splits:
                  - { var:3, quality:1.6919097900390625e+00,
                      le:8.2776057720184326e-01 }
            -
               depth: 3
               sample_count: 23
               value: -9.5300590991973877e-01
               Tn: 0
               complexity: 0
               alpha: 0.
               node_risk: 1.6549161358403452e-05
               tree_risk: 0.
               tree_error: 0.
            -
               depth: 3
               sample_count: 14
               value: -9.5564776659011841e-01
               Tn: 0
               complexity: 0
               alpha: 0.
               node_risk: 5.8318454720929225e-06
               tree_risk: 0.
               tree_error: 0.
      -
         best_tree_idx: -1
         nodes:
            -
               depth: 0
               sample_count: 152
               value: 1.7429160640427942e-02
               Tn: 0
               complexity: 0
               alpha: 0.
               node_risk: 2.1988670909745323e+01
               tree_risk: 0.
               tree_error: 0.
               splits:
                  - { var:3, quality:7.1784939765930176e+00,
                      le:-2.1775263547897339e-01 }
            -
               depth: 1
               sample_count: 81
               value: 2.2023491966135708e-01
               Tn: 0
               complexity: 0
               alpha: 0.
               node_risk: 1.4854347139197273e+01
               tree_risk: 0.
               tree_error: 0.
               splits:
                  - { var:1, quality:1.7274181365966797e+01,
                      le:-4.6542203426361084e-01 }
            -
               depth: 2
               sample_count: 42
               value: -1.7090398037717455e-01
               Tn: 0
               complexity: 0
               alpha: 0.
               node_risk: 1.5057210234121641e+00
               tree_risk: 0.
               tree_error: 0.
               splits:
                  - { var:1, quality:2.7316169738769531e+00,
                      le:-1.1974571943283081e+00 }
            -
               depth: 3
               sample_count: 2
               value: 2.3157908916473389e+00
               Tn: 0
               complexity: 0
               alpha: 0.
               node_risk: 6.9497339109148015e-04
               tree_risk: 0.
               tree_error: 0.
            -
               depth: 3
               sample_count: 40
               value: -9.5328658819198608e-01
               Tn: 0
               complexity: 0
               alpha: 0.
               node_risk: 1.5215628505416134e-04
               tree_risk: 0.
               tree_error: 0.
            -
               depth: 2
               sample_count: 39
               value: 6.4146142739516043e-01
               Tn: 0
               complexity: 0
               alpha: 0.
               node_risk: 3.2222107172827918e-03
               tree_risk: 0.
               tree_error: 0.
               splits:
                  - { var:0, quality:1.6050659179687500e+01,
                      le:-2.3151321709156036e-01 }
            -
               depth: 3
               sample_count: 1
               value: 2.4792840480804443e+00
               Tn: 0
               complexity: 0
               alpha: 0.
               node_risk: 0.
               tree_risk: 0.
               tree_error: 0.
            -
               depth: 3
               sample_count: 38
               value: 2.0832574367523193e+00
               Tn: 0
               complexity: 0
               alpha: 0.
               node_risk: 1.7991210299328486e-08
               tree_risk: 0.
               tree_error: 0.
            -
               depth: 1
               sample_count: 71
               value: -2.1394078979189968e-01
               Tn: 0
               complexity: 0
               alpha: 0.
               node_risk: 2.0036919144987841e-03
               tree_risk: 0.
               tree_error: 0.
               splits:
                  - { var:0, quality:3.2501959800720215e+00,
                      le:3.8670465350151062e-02 }
            -
               depth: 2
               sample_count: 36
               value: -2.1650183242228296e-01
               Tn: 0
               complexity: 0
               alpha: 0.
               node_risk: 1.4506154724809317e-03
               tree_risk: 0.
               tree_error: 0.
               splits:
                  - { var:3, quality:1.6886454820632935e+00,
                      le:8.7370610237121582e-01 }
            -
               depth: 3
               sample_count: 6
               value: -9.7357767820358276e-01
               Tn: 0
               complexity: 0
               alpha: 0.
               node_risk: 2.0415749822288998e-04
               tree_risk: 0.
               tree_error: 0.
            -
               depth: 3
               sample_count: 30
               value: -9.5408624410629272e-01
               Tn: 0
               complexity: 0
               alpha: 0.
               node_risk: 3.0532584199383095e-05
               tree_risk: 0.
               tree_error: 0.
            -
               depth: 2
               sample_count: 35
               value: -2.1130657451493398e-01
               Tn: 0
               complexity: 0
               alpha: 0.
               node_risk: 7.4086470863266030e-05
               tree_risk: 0.
               tree_error: 0.
               splits:
                  - { var:3, quality:1.5628082752227783e+00,
                      le:9.3924129009246826e-01 }
            -
               depth: 3
               sample_count: 27
               value: -9.5022976398468018e-01
               Tn: 0
               complexity: 0
               alpha: 0.
               node_risk: 3.2259862110084470e-05
               tree_risk: 0.
               tree_error: 0.
            -
               depth: 3
               sample_count: 8
               value: -9.5336747169494629e-01
               Tn: 0
               complexity: 0
               alpha: 0.
               node_risk: 5.9945404196071195e-10
               tree_risk: 0.
               tree_error: 0.
      -
         best_tree_idx: -1
         nodes:
            -
               depth: 0
               sample_count: 152
               value: 5.8138851860636163e-03
               Tn: 0
               complexity: 0
               alpha: 0.
               node_risk: 2.0863570293723086e+01
               tree_risk: 0.
               tree_error: 0.
               splits:
                  - { var:3, quality:6.8447875976562500e+00,
                      le:-2.1775263547897339e-01 }
            -
               depth: 1
               sample_count: 78
               value: 2.1242976437012354e-01
               Tn: 0
               complexity: 0
               alpha: 0.
               node_risk: 1.4021025788988098e+01
               tree_risk: 0.
               tree_error: 0.
               splits:
                  - { var:1, quality:1.6063617706298828e+01,
                      le:-4.6542203426361084e-01 }
            -
               depth: 2
               sample_count: 41
               value: -1.6852681193409896e-01
               Tn: 0
               complexity: 0
               alpha: 0.
               node_risk: 1.4738148069942658e+00
               tree_risk: 0.
               tree_error: 0.
               splits:
                  - { var:1, quality:2.6371314525604248e+00,
                      le:-1.2180416584014893e+00 }
            -
               depth: 3
               sample_count: 2
               value: 2.2652854919433594e+00
               Tn: 0
               complexity: 0
               alpha: 0.
               node_risk: 7.1051008362310597e-04
               tree_risk: 0.
               tree_error: 0.
            -
               depth: 3
               sample_count: 39
               value: -9.5116943120956421e-01
               Tn: 0
               complexity: 0
               alpha: 0.
               node_risk: 4.2554571482744663e-04
               tree_risk: 0.
               tree_error: 0.
            -
               depth: 2
               sample_count: 37
               value: 6.3457083540993764e-01
               Tn: 0
               complexity: 0
               alpha: 0.
               node_risk: 3.4524450172703780e-03
               tree_risk: 0.
               tree_error: 0.
               splits:
                  - { var:0, quality:1.4902617454528809e+01,
                      le:-2.3151321709156036e-01 }
            -
               depth: 3
               sample_count: 1
               value: 2.4392521381378174e+00
               Tn: 0
               complexity: 0
               alpha: 0.
               node_risk: 0.
               tree_risk: 0.
               tree_error: 0.
            -
               depth: 3
               sample_count: 36
               value: 2.0433790683746338e+00
               Tn: 0
               complexity: 0
               alpha: 0.
               node_risk: 1.9286199304247020e-08
               tree_risk: 0.
               tree_error: 0.
            -
               depth: 1
               sample_count: 74
               value: -2.1197041989983739e-01
               Tn: 0
               complexity: 0
               alpha: 0.
               node_risk: 2.8947632274070045e-03
               tree_risk: 0.
               tree_error: 0.
               splits:
                  - { var:0, quality:3.3256528377532959e+00,
                      le:3.8670465350151062e-02 }
            -
               depth: 2
               sample_count: 39
               value: -2.1493527369621473e-01
               Tn: 0
               complexity: 0
               alpha: 0.
               node_risk: 2.1142603423958128e-03
               tree_risk: 0.
               tree_error: 0.
               splits:
                  - { var:3, quality:1.8035044670104980e+00,
                      le:8.7370610237121582e-01 }
            -
               depth: 3
               sample_count: 8
               value: -9.7214692831039429e-01
               Tn: 0
               complexity: 0
               alpha: 0.
               node_risk: 2.7130947247688830e-04
               tree_risk: 0.
               tree_error: 0.
            -
               depth: 3
               sample_count: 31
               value: -9.5114213228225708e-01
               Tn: 0
               complexity: 0
               alpha: 0.
               node_risk: 2.8237273000941698e-05
               tree_risk: 0.
               tree_error: 0.
            -
               depth: 2
               sample_count: 35
               value: -2.0866672566958835e-01
               Tn: 0
               complexity: 0
               alpha: 0.
               node_risk: 5.5675076849892591e-05
               tree_risk: 0.
               tree_error: 0.
               splits:
                  - { var:0, quality:1.5239940881729126e+00,
                      le:9.5496785640716553e-01 }
            -
               depth: 3
               sample_count: 30
               value: -9.4731193780899048e-01
               Tn: 0
               complexity: 0
               alpha: 0.
               node_risk: 2.4624394768135716e-05
               tree_risk: 0.
               tree_error: 0.
            -
               depth: 3
               sample_count: 5
               value: -9.5053887367248535e-01
               Tn: 0
               complexity: 0
               alpha: 0.
               node_risk: 3.6324832031198184e-12
               tree_risk: 0.
               tree_error: 0.
      -
         best_tree_idx: -1
         nodes:
            -
               depth: 0
               sample_count: 152
               value: -5.4278707033709479e-03
               Tn: 0
               complexity: 0
               alpha: 0.
               node_risk: 1.9730862815958645e+01
               tree_risk: 0.
               tree_error: 0.
               splits:
                  - { var:3, quality:6.7198381423950195e+00,
                      le:-2.1775263547897339e-01 }
            -
               depth: 1
               sample_count: 74
               value: 2.1036857588065638e-01
               Tn: 0
               complexity: 0
               alpha: 0.
               node_risk: 1.3011561845470238e+01
               tree_risk: 0.
               tree_error: 0.
               splits:
                  - { var:1, quality:1.4839390754699707e+01,
                      le:-4.6542203426361084e-01 }
            -
               depth: 2
               sample_count: 39
               value: -1.6412965494852799e-01
               Tn: 0
               complexity: 0
               alpha: 0.
               node_risk: 1.4436236602078341e+00
               tree_risk: 0.
               tree_error: 0.
               splits:
                  - { var:1, quality:2.4931366443634033e+00,
                      le:-1.2180416584014893e+00 }
            -
               depth: 3
               sample_count: 2
               value: 2.2296552658081055e+00
               Tn: 0
               complexity: 0
               alpha: 0.
               node_risk: 7.2066833730133339e-04
               tree_risk: 0.
               tree_error: 0.
            -
               depth: 3
               sample_count: 37
               value: -9.4803696870803833e-01
               Tn: 0
               complexity: 0
               alpha: 0.
               node_risk: 3.6965328242954953e-04
               tree_risk: 0.
               tree_error: 0.
            -
               depth: 2
               sample_count: 35
               value: 6.2766660451889034e-01
               Tn: 0
               complexity: 0
               alpha: 0.
               node_risk: 3.4125497015580208e-03
               tree_risk: 0.
               tree_error: 0.
               splits:
                  - { var:0, quality:1.3792200088500977e+01,
                      le:-2.3151321709156036e-01 }
            -
               depth: 3
               sample_count: 1
               value: 2.3827893733978271e+00
               Tn: 0
               complexity: 0
               alpha: 0.
               node_risk: 0.
               tree_risk: 0.
               tree_error: 0.
            -
               depth: 3
               sample_count: 34
               value: 2.0052037239074707e+00
               Tn: 0
               complexity: 0
               alpha: 0.
               node_risk: 2.7119128276353877e-08
               tree_risk: 0.
               tree_error: 0.
            -
               depth: 1
               sample_count: 78
               value: -2.1015783284719175e-01
               Tn: 0
               complexity: 0
               alpha: 0.
               node_risk: 3.9412228207074129e-03
               tree_risk: 0.
               tree_error: 0.
               splits:
                  - { var:0, quality:3.4460222721099854e+00,
                      le:3.8670465350151062e-02 }
            -
               depth: 2
               sample_count: 40
               value: -2.1373354867100716e-01
               Tn: 0
               complexity: 0
               alpha: 0.
               node_risk: 2.8036929305430558e-03
               tree_risk: 0.
               tree_error: 0.
               splits:
                  - { var:3, quality:1.8296890258789062e+00,
                      le:8.7370610237121582e-01 }
            -
               depth: 3
               sample_count: 10
               value: -9.7066146135330200e-01
               Tn: 0
               complexity: 0
               alpha: 0.
               node_risk: 3.6172653995514281e-04
               tree_risk: 0.
               tree_error: 0.
            -
               depth: 3
               sample_count: 30
               value: -9.4847816228866577e-01
               Tn: 0
               complexity: 0
               alpha: 0.
               node_risk: 3.4154315951218095e-05
               tree_risk: 0.
               tree_error: 0.
            -
               depth: 2
               sample_count: 38
               value: -2.0639392145370183e-01
               Tn: 0
               complexity: 0
               alpha: 0.
               node_risk: 8.7753042896432376e-05
               tree_risk: 0.
               tree_error: 0.
               splits:
                  - { var:3, quality:1.6187922954559326e+00,
                      le:9.3814897537231445e-01 }
            -
               depth: 3
               sample_count: 30
               value: -9.4434684514999390e-01
               Tn: 0
               complexity: 0
               alpha: 0.
               node_risk: 3.6528567550764279e-05
               tree_risk: 0.
               tree_error: 0.
            -
               depth: 3
               sample_count: 8
               value: -9.4773823022842407e-01
               Tn: 0
               complexity: 0
               alpha: 0.
               node_risk: 4.9890713782474450e-10
               tree_risk: 0.
               tree_error: 0.
      -
         best_tree_idx: -1
         nodes:
            -
               depth: 0
               sample_count: 152
               value: 1.8834714826784636e-04
               Tn: 0
               complexity: 0
               alpha: 0.
               node_risk: 1.9604490712326967e+01
               tree_risk: 0.
               tree_error: 0.
               splits:
                  - { var:3, quality:6.0480947494506836e+00,
                      le:-2.1775263547897339e-01 }
            -
               depth: 1
               sample_count: 79
               value: 1.9193826578085935e-01
               Tn: 0
               complexity: 0
               alpha: 0.
               node_risk: 1.3553087726739498e+01
               tree_risk: 0.
               tree_error: 0.
               splits:
                  - { var:1, quality:1.5700362205505371e+01,
                      le:-4.6542203426361084e-01 }
            -
               depth: 2
               sample_count: 42
               value: -1.8571876805453075e-01
               Tn: 0
               complexity: 0
               alpha: 0.
               node_risk: 7.5972753747850574e-01
               tree_risk: 0.
               tree_error: 0.
               splits:
                  - { var:1, quality:2.2077906131744385e+00,
                      le:-1.2180416584014893e+00 }
            -
               depth: 3
               sample_count: 1
               value: 2.3086726665496826e+00
               Tn: 0
               complexity: 0
               alpha: 0.
               node_risk: 0.
               tree_risk: 0.
               tree_error: 0.
            -
               depth: 3
               sample_count: 41
               value: -9.4551736116409302e-01
               Tn: 0
               complexity: 0
               alpha: 0.
               node_risk: 5.7818348136939868e-04
               tree_risk: 0.
               tree_error: 0.
            -
               depth: 2
               sample_count: 37
               value: 6.2063003391832916e-01
               Tn: 0
               complexity: 0
               alpha: 0.
               node_risk: 3.3817240897864309e-03
               tree_risk: 0.
               tree_error: 0.
               splits:
                  - { var:0, quality:1.4255102157592773e+01,
                      le:-2.3151321709156036e-01 }
            -
               depth: 3
               sample_count: 1
               value: 2.3291289806365967e+00
               Tn: 0
               complexity: 0
               alpha: 0.
               node_risk: 0.
               tree_risk: 0.
               tree_error: 0.
            -
               depth: 3
               sample_count: 36
               value: 1.9686933755874634e+00
               Tn: 0
               complexity: 0
               alpha: 0.
               node_risk: 2.2053733061966341e-08
               tree_risk: 0.
               tree_error: 0.
            -
               depth: 1
               sample_count: 73
               value: -2.0732183876919419e-01
               Tn: 0
               complexity: 0
               alpha: 0.
               node_risk: 3.3136732911245304e-03
               tree_risk: 0.
               tree_error: 0.
               splits:
                  - { var:0, quality:3.1386287212371826e+00,
                      le:3.8670465350151062e-02 }
            -
               depth: 2
               sample_count: 34
               value: -2.1111897072371313e-01
               Tn: 0
               complexity: 0
               alpha: 0.
               node_risk: 2.3141266674080452e-03
               tree_risk: 0.
               tree_error: 0.
               splits:
                  - { var:3, quality:1.5174758434295654e+00,
                      le:9.1503900289535522e-01 }
            -
               depth: 3
               sample_count: 8
               value: -9.6807307004928589e-01
               Tn: 0
               complexity: 0
               alpha: 0.
               node_risk: 2.3903975073169548e-04
               tree_risk: 0.
               tree_error: 0.
            -
               depth: 3
               sample_count: 26
               value: -9.4555020332336426e-01
               Tn: 0
               complexity: 0
               alpha: 0.
               node_risk: 2.0698981044064979e-05
               tree_risk: 0.
               tree_error: 0.
            -
               depth: 2
               sample_count: 39
               value: -2.0401151860371614e-01
               Tn: 0
               complexity: 0
               alpha: 0.
               node_risk: 8.1956882679534715e-05
               tree_risk: 0.
               tree_error: 0.
               splits:
                  - { var:3, quality:1.6232532262802124e+00,
                      le:9.3924129009246826e-01 }
            -
               depth: 3
               sample_count: 32
               value: -9.4163084030151367e-01
               Tn: 0
               complexity: 0
               alpha: 0.
               node_risk: 3.6036238436842893e-05
               tree_risk: 0.
               tree_error: 0.
            -
               depth: 3
               sample_count: 7
               value: -9.4497901201248169e-01
               Tn: 0
               complexity: 0
               alpha: 0.
               node_risk: 2.5325364028105923e-10
               tree_risk: 0.
               tree_error: 0.
      -
         best_tree_idx: -1
         nodes:
            -
               depth: 0
               sample_count: 152
               value: 5.5285153028212094e-03
               Tn: 0
               complexity: 0
               alpha: 0.
               node_risk: 1.9537748574786598e+01
               tree_risk: 0.
               tree_error: 0.
               splits:
                  - { var:0, quality:6.1657495498657227e+00,
                      le:-7.5619511306285858e-02 }
            -
               depth: 1
               sample_count: 84
               value: -1.7561479019267218e-01
               Tn: 0
               complexity: 0
               alpha: 0.
               node_risk: 2.1640875403242674e+00
               tree_risk: 0.
               tree_error: 0.
               splits:
                  - { var:1, quality:3.9901926517486572e+00,
                      le:-1.2180416584014893e+00 }
            -
               depth: 2
               sample_count: 2
               value: 2.1511542797088623e+00
               Tn: 0
               complexity: 0
               alpha: 0.
               node_risk: 5.8210629686072934e-04
               tree_risk: 0.
               tree_error: 0.
            -
               depth: 2
               sample_count: 82
               value: -1.9577375599523869e-01
               Tn: 0
               complexity: 0
               alpha: 0.
               node_risk: 7.6391927475057164e-01
               tree_risk: 0.
               tree_error: 0.
               splits:
                  - { var:1, quality:3.1794962882995605e+00,
                      le:-3.7163081765174866e-01 }
            -
               depth: 3
               sample_count: 69
               value: -9.4345843791961670e-01
               Tn: 0
               complexity: 0
               alpha: 0.
               node_risk: 1.4399580711650373e-03
               tree_risk: 0.
               tree_error: 0.
            -
               depth: 3
               sample_count: 13
               value: -6.3830262422561646e-01
               Tn: 0
               complexity: 0
               alpha: 0.
               node_risk: 7.2582672620405209e-01
               tree_risk: 0.
               tree_error: 0.
            -
               depth: 1
               sample_count: 68
               value: 2.2929377503254833e-01
               Tn: 0
               complexity: 0
               alpha: 0.
               node_risk: 1.1212557056482281e+01
               tree_risk: 0.
               tree_error: 0.
               splits:
                  - { var:1, quality:1.4787620544433594e+01,
                      le:4.1874265670776367e-01 }
            -
               depth: 2
               sample_count: 36
               value: 6.1213621000448859e-01
               Tn: 0
               complexity: 0
               alpha: 0.
               node_risk: 3.8261180890231117e-08
               tree_risk: 0.
               tree_error: 0.
               splits:
                  - { var:0, quality:1.3489586830139160e+01,
                      le:3.7308996915817261e-01 }
            -
               depth: 3
               sample_count: 26
               value: 1.9337302446365356e+00
               Tn: 0
               complexity: 0
               alpha: 0.
               node_risk: 7.1935346568352543e-10
               tree_risk: 0.
               tree_error: 0.
            -
               depth: 3
               sample_count: 10
               value: 1.9335081577301025e+00
               Tn: 0
               complexity: 0
               alpha: 0.
               node_risk: 2.3202035848157720e-08
               tree_risk: 0.
               tree_error: 0.
            -
               depth: 2
               sample_count: 32
               value: -2.0140396431088448e-01
               Tn: 0
               complexity: 0
               alpha: 0.
               node_risk: 7.9772054928373137e-05
               tree_risk: 0.
               tree_error: 0.
               splits:
                  - { var:3, quality:1.2980746030807495e+00,
                      le:9.3139314651489258e-01 }
            -
               depth: 3
               sample_count: 27
               value: -9.3858551979064941e-01
               Tn: 0
               complexity: 0
               alpha: 0.
               node_risk: 3.8968747750889321e-05
               tree_risk: 0.
               tree_error: 0.
            -
               depth: 3
               sample_count: 5
               value: -9.4224417209625244e-01
               Tn: 0
               complexity: 0
               alpha: 0.
               node_risk: 4.8082135495342015e-10
               tree_risk: 0.
               tree_error: 0.
      -
         best_tree_idx: -1
         nodes:
            -
               depth: 0
               sample_count: 152
               value: 2.4161262339667271e-04
               Tn: 0
               complexity: 0
               alpha: 0.
               node_risk: 1.8793087742136933e+01
               tree_risk: 0.
               tree_error: 0.
               splits:
                  - { var:3, quality:6.2717790603637695e+00,
                      le:-2.1775263547897339e-01 }
            -
               depth: 1
               sample_count: 76
               value: 2.0337123796343803e-01
               Tn: 0
               complexity: 0
               alpha: 0.
               node_risk: 1.2517034549075092e+01
               tree_risk: 0.
               tree_error: 0.
               splits:
                  - { var:1, quality:1.4291360855102539e+01,
                      le:-4.6542203426361084e-01 }
            -
               depth: 2
               sample_count: 40
               value: -1.5996872596442699e-01
               Tn: 0
               complexity: 0
               alpha: 0.
               node_risk: 1.3649406695533532e+00
               tree_risk: 0.
               tree_error: 0.
               splits:
                  - { var:1, quality:2.3874421119689941e+00,
                      le:-1.2180416584014893e+00 }
            -
               depth: 3
               sample_count: 2
               value: 2.1145358085632324e+00
               Tn: 0
               complexity: 0
               alpha: 0.
               node_risk: 5.2256744476331107e-04
               tree_risk: 0.
               tree_error: 0.
            -
               depth: 3
               sample_count: 38
               value: -9.4032746553421021e-01
               Tn: 0
               complexity: 0
               alpha: 0.
               node_risk: 5.7584013761813324e-04
               tree_risk: 0.
               tree_error: 0.
            -
               depth: 2
               sample_count: 36
               value: 6.0708230899439919e-01
               Tn: 0
               complexity: 0
               alpha: 0.
               node_risk: 4.0820646108805647e-03
               tree_risk: 0.
               tree_error: 0.
               splits:
                  - { var:0, quality:1.3271843910217285e+01,
                      le:-2.3151321709156036e-01 }
            -
               depth: 3
               sample_count: 1
               value: 2.2732739448547363e+00
               Tn: 0
               complexity: 0
               alpha: 0.
               node_risk: 0.
               tree_risk: 0.
               tree_error: 0.
            -
               depth: 3
               sample_count: 35
               value: 1.9000926017761230e+00
               Tn: 0
               complexity: 0
               alpha: 0.
               node_risk: 4.8026445043092281e-08
               tree_risk: 0.
               tree_error: 0.
            -
               depth: 1
               sample_count: 76
               value: -2.0288801271664469e-01
               Tn: 0
               complexity: 0
               alpha: 0.
               node_risk: 4.2832000624208888e-03
               tree_risk: 0.
               tree_error: 0.
               splits:
                  - { var:0, quality:3.1295208930969238e+00,
                      le:3.8670465350151062e-02 }
            -
               depth: 2
               sample_count: 39
               value: -2.0657894244560829e-01
               Tn: 0
               complexity: 0
               alpha: 0.
               node_risk: 3.0888829927893102e-03
               tree_risk: 0.
               tree_error: 0.
               splits:
                  - { var:3, quality:1.6669631004333496e+00,
                      le:8.7370610237121582e-01 }
            -
               depth: 3
               sample_count: 8
               value: -9.6525686979293823e-01
               Tn: 0
               complexity: 0
               alpha: 0.
               node_risk: 3.9005148519688504e-04
               tree_risk: 0.
               tree_error: 0.
            -
               depth: 3
               sample_count: 31
               value: -9.4032722711563110e-01
               Tn: 0
               complexity: 0
               alpha: 0.
               node_risk: 5.5228984024990879e-05
               tree_risk: 0.
               tree_error: 0.
            -
               depth: 2
               sample_count: 37
               value: -1.9899757327260198e-01
               Tn: 0
               complexity: 0
               alpha: 0.
               node_risk: 1.0300733582391253e-04
               tree_risk: 0.
               tree_error: 0.
               splits:
                  - { var:3, quality:1.4652552604675293e+00,
                      le:9.3924129009246826e-01 }
            -
               depth: 3
               sample_count: 31
               value: -9.3571507930755615e-01
               Tn: 0
               complexity: 0
               alpha: 0.
               node_risk: 4.8984018987008326e-05
               tree_risk: 0.
               tree_error: 0.
            -
               depth: 3
               sample_count: 6
               value: -9.3954837322235107e-01
               Tn: 0
               complexity: 0
               alpha: 0.
               node_risk: 4.5111009372433841e-10
               tree_risk: 0.
               tree_error: 0.
      -
         best_tree_idx: -1
         nodes:
            -
               depth: 0
               sample_count: 152
               value: -1.0659228030003999e-02
               Tn: 0
               complexity: 0
               alpha: 0.
               node_risk: 1.7753182041928824e+01
               tree_risk: 0.
               tree_error: 0.
               splits:
                  - { var:3, quality:5.5534887313842773e+00,
                      le:-1.8568448722362518e-01 }
            -
               depth: 1
               sample_count: 76
               value: 1.8018754454035507e-01
               Tn: 0
               complexity: 0
               alpha: 0.
               node_risk: 1.2210934970055398e+01
               tree_risk: 0.
               tree_error: 0.
               splits:
                  - { var:1, quality:1.3329782485961914e+01,
                      le:-4.6542203426361084e-01 }
            -
               depth: 2
               sample_count: 42
               value: -1.5996042319706508e-01
               Tn: 0
               complexity: 0
               alpha: 0.
               node_risk: 1.3446565885577926e+00
               tree_risk: 0.
               tree_error: 0.
               splits:
                  - { var:1, quality:2.4181458950042725e+00,
                      le:-1.2180416584014893e+00 }
            -
               depth: 3
               sample_count: 2
               value: 2.0850396156311035e+00
               Tn: 0
               complexity: 0
               alpha: 0.
               node_risk: 5.2529954146685043e-04
               tree_risk: 0.
               tree_error: 0.
            -
               depth: 3
               sample_count: 40
               value: -9.3754029273986816e-01
               Tn: 0
               complexity: 0
               alpha: 0.
               node_risk: 6.5349227189503978e-04
               tree_risk: 0.
               tree_error: 0.
            -
               depth: 2
               sample_count: 34
               value: 6.0037032821599179e-01
               Tn: 0
               complexity: 0
               alpha: 0.
               node_risk: 4.0300656380942712e-03
               tree_risk: 0.
               tree_error: 0.
               splits:
                  - { var:0, quality:1.2259143829345703e+01,
                      le:-2.3151321709156036e-01 }
            -
               depth: 3
               sample_count: 1
               value: 2.2249391078948975e+00
               Tn: 0
               complexity: 0
               alpha: 0.
               node_risk: 0.
               tree_risk: 0.
               tree_error: 0.
            -
               depth: 3
               sample_count: 33
               value: 1.8678792715072632e+00
               Tn: 0
               complexity: 0
               alpha: 0.
               node_risk: 5.9016683096047018e-08
               tree_risk: 0.
               tree_error: 0.
            -
               depth: 1
               sample_count: 76
               value: -2.0150600060036308e-01
               Tn: 0
               complexity: 0
               alpha: 0.
               node_risk: 6.0285005940166059e-03
               tree_risk: 0.
               tree_error: 0.
               splits:
                  - { var:0, quality:3.0875976085662842e+00,
                      le:5.0820067524909973e-02 }
            -
               depth: 2
               sample_count: 40
               value: -2.0591659508645535e-01
               Tn: 0
               complexity: 0
               alpha: 0.
               node_risk: 4.2734228504677230e-03
               tree_risk: 0.
               tree_error: 0.
               splits:
                  - { var:3, quality:1.6998069286346436e+00,
                      le:8.7370610237121582e-01 }
            -
               depth: 3
               sample_count: 10
               value: -9.6509838104248047e-01
               Tn: 0
               complexity: 0
               alpha: 0.
               node_risk: 4.6722673145371818e-04
               tree_risk: 0.
               tree_error: 0.
            -
               depth: 3
               sample_count: 30
               value: -9.3790310621261597e-01
               Tn: 0
               complexity: 0
               alpha: 0.
               node_risk: 6.5028301673430988e-05
               tree_risk: 0.
               tree_error: 0.
            -
               depth: 2
               sample_count: 36
               value: -1.9660534006026056e-01
               Tn: 0
               complexity: 0
               alpha: 0.
               node_risk: 1.1235094046813110e-04
               tree_risk: 0.
               tree_error: 0.
               splits:
                  - { var:3, quality:1.3916165828704834e+00,
                      le:9.3924129009246826e-01 }
            -
               depth: 3
               sample_count: 28
               value: -9.3259227275848389e-01
               Tn: 0
               complexity: 0
               alpha: 0.
               node_risk: 2.7563975176336797e-05
               tree_risk: 0.
               tree_error: 0.
            -
               depth: 3
               sample_count: 8
               value: -9.3688684701919556e-01
               Tn: 0
               complexity: 0
               alpha: 0.
               node_risk: 5.2169235598142905e-10
               tree_risk: 0.
               tree_error: 0.
      -
         best_tree_idx: -1
         nodes:
            -
               depth: 0
               sample_count: 152
               value: 5.2470909921746502e-05
               Tn: 0
               complexity: 0
               alpha: 0.
               node_risk: 1.7986172965298266e+01
               tree_risk: 0.
               tree_error: 0.
               splits:
                  - { var:3, quality:6.1827378273010254e+00,
                      le:-2.1775263547897339e-01 }
            -
               depth: 1
               sample_count: 75
               value: 2.0440656503041585e-01
               Tn: 0
               complexity: 0
               alpha: 0.
               node_risk: 1.1797777003036595e+01
               tree_risk: 0.
               tree_error: 0.
               splits:
                  - { var:1, quality:1.3618223190307617e+01,
                      le:-4.6542203426361084e-01 }
            -
               depth: 2
               sample_count: 39
               value: -1.5481601005945450e-01
               Tn: 0
               complexity: 0
               alpha: 0.
               node_risk: 1.3089037255402234e+00
               tree_risk: 0.
               tree_error: 0.
               splits:
                  - { var:1, quality:2.2426307201385498e+00,
                      le:-1.2180416584014893e+00 }
            -
               depth: 3
               sample_count: 2
               value: 2.0450627803802490e+00
               Tn: 0
               complexity: 0
               alpha: 0.
               node_risk: 5.3379366648442783e-04
               tree_risk: 0.
               tree_error: 0.
            -
               depth: 3
               sample_count: 37
               value: -9.3453204631805420e-01
               Tn: 0
               complexity: 0
               alpha: 0.
               node_risk: 4.9098731598085088e-04
               tree_risk: 0.
               tree_error: 0.
            -
               depth: 2
               sample_count: 36
               value: 5.9356435471110869e-01
               Tn: 0
               complexity: 0
               alpha: 0.
               node_risk: 4.3035280928229724e-03
               tree_risk: 0.
               tree_error: 0.
               splits:
                  - { var:0, quality:1.2687774658203125e+01,
                      le:-2.3151321709156036e-01 }
            -
               depth: 3
               sample_count: 1
               value: 2.1945707798004150e+00
               Tn: 0
               complexity: 0
               alpha: 0.
               node_risk: 0.
               tree_risk: 0.
               tree_error: 0.
            -
               depth: 3
               sample_count: 35
               value: 1.8369578123092651e+00
               Tn: 0
               complexity: 0
               alpha: 0.
               node_risk: 7.4489957313517152e-08
               tree_risk: 0.
               tree_error: 0.
            -
               depth: 1
               sample_count: 77
               value: -1.9899372466198809e-01
               Tn: 0
               complexity: 0
               alpha: 0.
               node_risk: 5.6584046589418513e-03
               tree_risk: 0.
               tree_error: 0.
               splits:
                  - { var:0, quality:3.0504808425903320e+00,
                      le:3.8670465350151062e-02 }
            -
               depth: 2
               sample_count: 41
               value: -2.0298368283888188e-01
               Tn: 0
               complexity: 0
               alpha: 0.
               node_risk: 4.1448131725370096e-03
               tree_risk: 0.
               tree_error: 0.
               splits:
                  - { var:3, quality:1.6929075717926025e+00,
                      le:8.7370610237121582e-01 }
            -
               depth: 3
               sample_count: 9
               value: -9.6266716718673706e-01
               Tn: 0
               complexity: 0
               alpha: 0.
               node_risk: 4.7052789235357828e-04
               tree_risk: 0.
               tree_error: 0.
            -
               depth: 3
               sample_count: 32
               value: -9.3518239259719849e-01
               Tn: 0
               complexity: 0
               alpha: 0.
               node_risk: 6.4137470044300926e-05
               tree_risk: 0.
               tree_error: 0.
            -
               depth: 2
               sample_count: 36
               value: -1.9444960562719238e-01
               Tn: 0
               complexity: 0
               alpha: 0.
               node_risk: 1.1751642913560012e-04
               tree_risk: 0.
               tree_error: 0.
               splits:
                  - { var:3, quality:1.3612502813339233e+00,
                      le:9.4599717855453491e-01 }
            -
               depth: 3
               sample_count: 29
               value: -9.3027734756469727e-01
               Tn: 0
               complexity: 0
               alpha: 0.
               node_risk: 5.0605513698842586e-05
               tree_risk: 0.
               tree_error: 0.
            -
               depth: 3
               sample_count: 7
               value: -9.3425869941711426e-01
               Tn: 0
               complexity: 0
               alpha: 0.
               node_risk: 5.4527438120288707e-10
               tree_risk: 0.
               tree_error: 0.
      -
         best_tree_idx: -1
         nodes:
            -
               depth: 0
               sample_count: 152
               value: 1.0217722897466860e-02
               Tn: 0
               complexity: 0
               alpha: 0.
               node_risk: 1.8182041191794433e+01
               tree_risk: 0.
               tree_error: 0.
               splits:
                  - { var:3, quality:5.7315907478332520e+00,
                      le:-2.1775263547897339e-01 }
            -
               depth: 1
               sample_count: 81
               value: 1.9176945844550192e-01
               Tn: 0
               complexity: 0
               alpha: 0.
               node_risk: 1.2461279602202730e+01
               tree_risk: 0.
               tree_error: 0.
               splits:
                  - { var:1, quality:1.4145338058471680e+01,
                      le:-4.6542203426361084e-01 }
            -
               depth: 2
               sample_count: 43
               value: -1.5726957660774851e-01
               Tn: 0
               complexity: 0
               alpha: 0.
               node_risk: 1.2904982220862109e+00
               tree_risk: 0.
               tree_error: 0.
               splits:
                  - { var:1, quality:2.3528387546539307e+00,
                      le:-1.2180416584014893e+00 }
            -
               depth: 3
               sample_count: 2
               value: 2.0113902091979980e+00
               Tn: 0
               complexity: 0
               alpha: 0.
               node_risk: 4.8886256820424023e-04
               tree_risk: 0.
               tree_error: 0.
            -
               depth: 3
               sample_count: 41
               value: -9.3237602710723877e-01
               Tn: 0
               complexity: 0
               alpha: 0.
               node_risk: 7.2066513022739365e-04
               tree_risk: 0.
               tree_error: 0.
            -
               depth: 2
               sample_count: 38
               value: 5.8673468232154846e-01
               Tn: 0
               complexity: 0
               alpha: 0.
               node_risk: 4.2606497923269870e-03
               tree_risk: 0.
               tree_error: 0.
               splits:
                  - { var:0, quality:1.3086049079895020e+01,
                      le:-2.3151321709156036e-01 }
            -
               depth: 3
               sample_count: 1
               value: 2.1498770713806152e+00
               Tn: 0
               complexity: 0
               alpha: 0.
               node_risk: 0.
               tree_risk: 0.
               tree_error: 0.
            -
               depth: 3
               sample_count: 37
               value: 1.8072024583816528e+00
               Tn: 0
               complexity: 0
               alpha: 0.
               node_risk: 1.2038649899182019e-07
               tree_risk: 0.
               tree_error: 0.
            -
               depth: 1
               sample_count: 71
               value: -1.9690467962916469e-01
               Tn: 0
               complexity: 0
               alpha: 0.
               node_risk: 5.0399788541937163e-03
               tree_risk: 0.
               tree_error: 0.
               splits:
                  - { var:0, quality:2.7540752887725830e+00,
                      le:3.8670465350151062e-02 }
            -
               depth: 2
               sample_count: 37
               value: -2.0100989776688652e-01
               Tn: 0
               complexity: 0
               alpha: 0.
               node_risk: 3.6219191544191176e-03
               tree_risk: 0.
               tree_error: 0.
               splits:
                  - { var:3, quality:1.4981265068054199e+00,
                      le:8.7370610237121582e-01 }
            -
               depth: 3
               sample_count: 9
               value: -9.5844221115112305e-01
               Tn: 0
               complexity: 0
               alpha: 0.
               node_risk: 4.2158653027390969e-04
               tree_risk: 0.
               tree_error: 0.
            -
               depth: 3
               sample_count: 28
               value: -9.3259894847869873e-01
               Tn: 0
               complexity: 0
               alpha: 0.
               node_risk: 5.8060117503533348e-05
               tree_risk: 0.
               tree_error: 0.
            -
               depth: 2
               sample_count: 34
               value: -1.9243723636164384e-01
               Tn: 0
               complexity: 0
               alpha: 0.
               node_risk: 1.1593183147073916e-04
               tree_risk: 0.
               tree_error: 0.
               splits:
                  - { var:3, quality:1.2591590881347656e+00,
                      le:9.3139314651489258e-01 }
            -
               depth: 3
               sample_count: 26
               value: -9.2783010005950928e-01
               Tn: 0
               complexity: 0
               alpha: 0.
               node_risk: 4.7921167131592668e-05
               tree_risk: 0.
               tree_error: 0.
            -
               depth: 3
               sample_count: 8
               value: -9.3166190385818481e-01
               Tn: 0
               complexity: 0
               alpha: 0.
               node_risk: 5.5073845484088224e-10
               tree_risk: 0.
               tree_error: 0.
      -
         best_tree_idx: -1
         nodes:
            -
               depth: 0
               sample_count: 152
               value: 5.2738608302254422e-03
               Tn: 0
               complexity: 0
               alpha: 0.
               node_risk: 1.7476176153151812e+01
               tree_risk: 0.
               tree_error: 0.
               splits:
                  - { var:3, quality:5.7562499046325684e+00,
                      le:-1.8568448722362518e-01 }
            -
               depth: 1
               sample_count: 78
               value: 1.9475109665057597e-01
               Tn: 0
               complexity: 0
               alpha: 0.
               node_risk: 1.1718531075077243e+01
               tree_risk: 0.
               tree_error: 0.
               splits:
                  - { var:1, quality:1.3410834312438965e+01,
                      le:-4.6542203426361084e-01 }
            -
               depth: 2
               sample_count: 41
               value: -1.5300175220501133e-01
               Tn: 0
               complexity: 0
               alpha: 0.
               node_risk: 1.2618724953693099e+00
               tree_risk: 0.
               tree_error: 0.
               splits:
                  - { var:1, quality:2.2208719253540039e+00,
                      le:-1.1974571943283081e+00 }
            -
               depth: 3
               sample_count: 2
               value: 1.9833365678787231e+00
               Tn: 0
               complexity: 0
               alpha: 0.
               node_risk: 4.9081026307362663e-04
               tree_risk: 0.
               tree_error: 0.
            -
               depth: 3
               sample_count: 39
               value: -9.2908877134323120e-01
               Tn: 0
               complexity: 0
               alpha: 0.
               node_risk: 3.0063337134444978e-04
               tree_risk: 0.
               tree_error: 0.
            -
               depth: 2
               sample_count: 37
               value: 5.8009884808514567e-01
               Tn: 0
               complexity: 0
               alpha: 0.
               node_risk: 4.2078675135588384e-03
               tree_risk: 0.
               tree_error: 0.
               splits:
                  - { var:0, quality:1.2455250740051270e+01,
                      le:-2.3151321709156036e-01 }
            -
               depth: 3
               sample_count: 1
               value: 2.1072337627410889e+00
               Tn: 0
               complexity: 0
               alpha: 0.
               node_risk: 0.
               tree_risk: 0.
               tree_error: 0.
            -
               depth: 3
               sample_count: 36
               value: 1.7786062955856323e+00
               Tn: 0
               complexity: 0
               alpha: 0.
               node_risk: 1.5566810063205594e-07
               tree_risk: 0.
               tree_error: 0.
            -
               depth: 1
               sample_count: 74
               value: -1.9444538773717107e-01
               Tn: 0
               complexity: 0
               alpha: 0.
               node_risk: 5.6229019570603889e-03
               tree_risk: 0.
               tree_error: 0.
               splits:
                  - { var:0, quality:2.7993021011352539e+00,
                      le:5.0820067524909973e-02 }
            -
               depth: 2
               sample_count: 39
               value: -1.9861771510197565e-01
               Tn: 0
               complexity: 0
               alpha: 0.
               node_risk: 4.0799107063385076e-03
               tree_risk: 0.
               tree_error: 0.
               splits:
                  - { var:3, quality:1.5420247316360474e+00,
                      le:8.7370610237121582e-01 }
            -
               depth: 3
               sample_count: 9
               value: -9.5688879489898682e-01
               Tn: 0
               complexity: 0
               alpha: 0.
               node_risk: 5.0956492881093496e-04
               tree_risk: 0.
               tree_error: 0.
            -
               depth: 3
               sample_count: 30
               value: -9.2986172437667847e-01
               Tn: 0
               complexity: 0
               alpha: 0.
               node_risk: 5.6508789678000326e-05
               tree_risk: 0.
               tree_error: 0.
            -
               depth: 2
               sample_count: 35
               value: -1.8979622295924595e-01
               Tn: 0
               complexity: 0
               alpha: 0.
               node_risk: 1.0755128117012625e-04
               tree_risk: 0.
               tree_error: 0.
               splits:
                  - { var:3, quality:1.2608684301376343e+00,
                      le:9.3924129009246826e-01 }
            -
               depth: 3
               sample_count: 28
               value: -9.2485189437866211e-01
               Tn: 0
               complexity: 0
               alpha: 0.
               node_risk: 3.0349513139737994e-05
               tree_risk: 0.
               tree_error: 0.
            -
               depth: 3
               sample_count: 7
               value: -9.2909932136535645e-01
               Tn: 0
               complexity: 0
               alpha: 0.
               node_risk: 2.6907664985031943e-10
               tree_risk: 0.
               tree_error: 0.
      -
         best_tree_idx: -1
         nodes:
            -
               depth: 0
               sample_count: 152
               value: 5.1287903793548282e-03
               Tn: 0
               complexity: 0
               alpha: 0.
               node_risk: 1.7089709301743287e+01
               tree_risk: 0.
               tree_error: 0.
               splits:
                  - { var:0, quality:5.0725722312927246e+00,
                      le:-9.2776104807853699e-02 }
            -
               depth: 1
               sample_count: 82
               value: -1.6358990167699208e-01
               Tn: 0
               complexity: 0
               alpha: 0.
               node_risk: 1.9321830110357099e+00
               tree_risk: 0.
               tree_error: 0.
               splits:
                  - { var:1, quality:3.4356505870819092e+00,
                      le:-1.2180416584014893e+00 }
            -
               depth: 2
               sample_count: 2
               value: 1.9476900100708008e+00
               Tn: 0
               complexity: 0
               alpha: 0.
               node_risk: 4.9738318193703890e-04
               tree_risk: 0.
               tree_error: 0.
            -
               depth: 2
               sample_count: 80
               value: -1.8304274342954158e-01
               Tn: 0
               complexity: 0
               alpha: 0.
               node_risk: 6.9049081647464883e-01
               tree_risk: 0.
               tree_error: 0.
               splits:
                  - { var:1, quality:2.7091681957244873e+00,
                      le:-3.7163081765174866e-01 }
            -
               depth: 3
               sample_count: 66
               value: -9.2816525697708130e-01
               Tn: 0
               complexity: 0
               alpha: 0.
               node_risk: 2.1949204583520121e-03
               tree_risk: 0.
               tree_error: 0.
            -
               depth: 3
               sample_count: 14
               value: -6.4095199108123779e-01
               Tn: 0
               complexity: 0
               alpha: 0.
               node_risk: 6.5949942071640455e-01
               tree_risk: 0.
               tree_error: 0.
            -
               depth: 1
               sample_count: 70
               value: 2.0277068678821836e-01
               Tn: 0
               complexity: 0
               alpha: 0.
               node_risk: 1.0088952187546377e+01
               tree_risk: 0.
               tree_error: 0.
               splits:
                  - { var:1, quality:1.2966952323913574e+01,
                      le:4.1874265670776367e-01 }
            -
               depth: 2
               sample_count: 36
               value: 5.7171406514114809e-01
               Tn: 0
               complexity: 0
               alpha: 0.
               node_risk: 1.0932323135648403e-07
               tree_risk: 0.
               tree_error: 0.
               splits:
                  - { var:0, quality:1.1766851425170898e+01,
                      le:3.1237271428108215e-01 }
            -
               depth: 3
               sample_count: 27
               value: 1.7512621879577637e+00
               Tn: 0
               complexity: 0
               alpha: 0.
               node_risk: 0.
               tree_risk: 0.
               tree_error: 0.
            -
               depth: 3
               sample_count: 9
               value: 1.7508795261383057e+00
               Tn: 0
               complexity: 0
               alpha: 0.
               node_risk: 5.0171075294258571e-08
               tree_risk: 0.
               tree_error: 0.
            -
               depth: 2
               sample_count: 34
               value: -1.8787524323253071e-01
               Tn: 0
               complexity: 0
               alpha: 0.
               node_risk: 1.1603690574135683e-04
               tree_risk: 0.
               tree_error: 0.
               splits:
                  - { var:3, quality:1.2001769542694092e+00,
                      le:9.3924129009246826e-01 }
            -
               depth: 3
               sample_count: 26
               value: -9.2257541418075562e-01
               Tn: 0
               complexity: 0
               alpha: 0.
               node_risk: 4.0769950109043052e-05
               tree_risk: 0.
               tree_error: 0.
            -
               depth: 3
               sample_count: 8
               value: -9.2656368017196655e-01
               Tn: 0
               complexity: 0
               alpha: 0.
               node_risk: 5.4710058705609299e-10
               tree_risk: 0.
               tree_error: 0.
      -
         best_tree_idx: -1
         nodes:
            -
               depth: 0
               sample_count: 152
               value: 1.9531084420649630e-02
               Tn: 0
               complexity: 0
               alpha: 0.
               node_risk: 1.7415177198991032e+01
               tree_risk: 0.
               tree_error: 0.
               splits:
                  - { var:3, quality:6.0682091712951660e+00,
                      le:-3.1305208802223206e-01 }
            -
               depth: 1
               sample_count: 80
               value: 2.0817590299993755e-01
               Tn: 0
               complexity: 0
               alpha: 0.
               node_risk: 1.1399510629486510e+01
               tree_risk: 0.
               tree_error: 0.
               splits:
                  - { var:0, quality:1.3660701751708984e+01,
                      le:-1.7155738174915314e-01 }
            -
               depth: 2
               sample_count: 40
               value: -1.4878566674888133e-01
               Tn: 0
               complexity: 0
               alpha: 0.
               node_risk: 1.2057854465295592e+00
               tree_risk: 0.
               tree_error: 0.
               splits:
                  - { var:1, quality:2.0900709629058838e+00,
                      le:-1.2180416584014893e+00 }
            -
               depth: 3
               sample_count: 2
               value: 1.9135227203369141e+00
               Tn: 0
               complexity: 0
               alpha: 0.
               node_risk: 5.0355142443159195e-04
               tree_risk: 0.
               tree_error: 0.
            -
               depth: 3
               sample_count: 38
               value: -9.2443639039993286e-01
               Tn: 0
               complexity: 0
               alpha: 0.
               node_risk: 6.9799632162470537e-04
               tree_risk: 0.
               tree_error: 0.
            -
               depth: 2
               sample_count: 40
               value: 5.6513747274875636e-01
               Tn: 0
               complexity: 0
               alpha: 0.
               node_risk: 2.0075368212246758e-07
               tree_risk: 0.
               tree_error: 0.
               splits:
                  - { var:3, quality:1.2775215148925781e+01,
                      le:-9.2900770902633667e-01 }
            -
               depth: 3
               sample_count: 34
               value: 1.7247986793518066e+00
               Tn: 0
               complexity: 0
               alpha: 0.
               node_risk: 2.5489832466973894e-09
               tree_risk: 0.
               tree_error: 0.
            -
               depth: 3
               sample_count: 6
               value: 1.7240273952484131e+00
               Tn: 0
               complexity: 0
               alpha: 0.
               node_risk: 5.1883222162985021e-09
               tree_risk: 0.
               tree_error: 0.
            -
               depth: 1
               sample_count: 72
               value: -1.9007426955633694e-01
               Tn: 0
               complexity: 0
               alpha: 0.
               node_risk: 5.4400454206611215e-03
               tree_risk: 0.
               tree_error: 0.
               splits:
                  - { var:0, quality:2.6026124954223633e+00,
                      le:3.8670465350151062e-02 }
            -
               depth: 2
               sample_count: 37
               value: -1.9433243371344902e-01
               Tn: 0
               complexity: 0
               alpha: 0.
               node_risk: 3.9511577212905102e-03
               tree_risk: 0.
               tree_error: 0.
               splits:
                  - { var:3, quality:1.4006805419921875e+00,
                      le:8.7370610237121582e-01 }
            -
               depth: 3
               sample_count: 8
               value: -9.5275342464447021e-01
               Tn: 0
               complexity: 0
               alpha: 0.
               node_risk: 5.0909908550522687e-04
               tree_risk: 0.
               tree_error: 0.
            -
               depth: 3
               sample_count: 29
               value: -9.2516195774078369e-01
               Tn: 0
               complexity: 0
               alpha: 0.
               node_risk: 7.0048570859571058e-05
               tree_risk: 0.
               tree_error: 0.
            -
               depth: 2
               sample_count: 35
               value: -1.8557278173310415e-01
               Tn: 0
               complexity: 0
               alpha: 0.
               node_risk: 1.0878636398659047e-04
               tree_risk: 0.
               tree_error: 0.
               splits:
                  - { var:3, quality:1.2053724527359009e+00,
                      le:9.3924129009246826e-01 }
            -
               depth: 3
               sample_count: 28
               value: -9.2011153697967529e-01
               Tn: 0
               complexity: 0
               alpha: 0.
               node_risk: 4.0354017679988807e-05
               tree_risk: 0.
               tree_error: 0.
            -
               depth: 3
               sample_count: 7
               value: -9.2406564950942993e-01
               Tn: 0
               complexity: 0
               alpha: 0.
               node_risk: 2.5612434395583250e-10
               tree_risk: 0.
               tree_error: 0.
      -
         best_tree_idx: -1
         nodes:
            -
               depth: 0
               sample_count: 152
               value: -9.4340058337700986e-03
               Tn: 0
               complexity: 0
               alpha: 0.
               node_risk: 1.5491578394193485e+01
               tree_risk: 0.
               tree_error: 0.
               splits:
                  - { var:3, quality:4.3480405807495117e+00,
                      le:-2.1775263547897339e-01 }
            -
               depth: 1
               sample_count: 80
               value: 1.5076860208064319e-01
               Tn: 0
               complexity: 0
               alpha: 0.
               node_risk: 1.1151997143183007e+01
               tree_risk: 0.
               tree_error: 0.
               splits:
                  - { var:1, quality:1.1771203994750977e+01,
                      le:-4.6542203426361084e-01 }
            -
               depth: 2
               sample_count: 46
               value: -1.5247121420891388e-01
               Tn: 0
               complexity: 0
               alpha: 0.
               node_risk: 1.1926502661792400e+00
               tree_risk: 0.
               tree_error: 0.
               splits:
                  - { var:1, quality:2.2605175971984863e+00,
                      le:-1.2180416584014893e+00 }
            -
               depth: 3
               sample_count: 2
               value: 1.8878126144409180e+00
               Tn: 0
               complexity: 0
               alpha: 0.
               node_risk: 5.0510368696343733e-04
               tree_risk: 0.
               tree_error: 0.
            -
               depth: 3
               sample_count: 44
               value: -9.2239785194396973e-01
               Tn: 0
               complexity: 0
               alpha: 0.
               node_risk: 1.0111785202504553e-03
               tree_risk: 0.
               tree_error: 0.
            -
               depth: 2
               sample_count: 34
               value: 5.6103423588416157e-01
               Tn: 0
               complexity: 0
               alpha: 0.
               node_risk: 6.6368430439585069e-03
               tree_risk: 0.
               tree_error: 0.
               splits:
                  - { var:0, quality:1.0708456993103027e+01,
                      le:-2.3036833107471466e-01 }
            -
               depth: 3
               sample_count: 1
               value: 2.0908408164978027e+00
               Tn: 0
               complexity: 0
               alpha: 0.
               node_risk: 0.
               tree_risk: 0.
               tree_error: 0.
            -
               depth: 3
               sample_count: 33
               value: 1.6991474628448486e+00
               Tn: 0
               complexity: 0
               alpha: 0.
               node_risk: 2.3871182008861069e-07
               tree_risk: 0.
               tree_error: 0.
            -
               depth: 1
               sample_count: 72
               value: -1.8743690351645151e-01
               Tn: 0
               complexity: 0
               alpha: 0.
               node_risk: 5.0689303971092059e-03
               tree_risk: 0.
               tree_error: 0.
               splits:
                  - { var:0, quality:2.5307524204254150e+00,
                      le:3.8670465350151062e-02 }
            -
               depth: 2
               sample_count: 34
               value: -1.9176322046448202e-01
               Tn: 0
               complexity: 0
               alpha: 0.
               node_risk: 3.7142818982154324e-03
               tree_risk: 0.
               tree_error: 0.
               splits:
                  - { var:3, quality:1.2535434961318970e+00,
                      le:9.0832185745239258e-01 }
            -
               depth: 3
               sample_count: 7
               value: -9.5089620351791382e-01
               Tn: 0
               complexity: 0
               alpha: 0.
               node_risk: 4.2103176726582259e-04
               tree_risk: 0.
               tree_error: 0.
            -
               depth: 3
               sample_count: 27
               value: -9.2226749658584595e-01
               Tn: 0
               complexity: 0
               alpha: 0.
               node_risk: 3.6281438553720236e-05
               tree_risk: 0.
               tree_error: 0.
            -
               depth: 2
               sample_count: 38
               value: -1.8356598835242421e-01
               Tn: 0
               complexity: 0
               alpha: 0.
               node_risk: 1.4887847564182266e-04
               tree_risk: 0.
               tree_error: 0.
               splits:
                  - { var:3, quality:1.2805596590042114e+00,
                      le:9.3139314651489258e-01 }
            -
               depth: 3
               sample_count: 28
               value: -9.1758608818054199e-01
               Tn: 0
               complexity: 0
               alpha: 0.
               node_risk: 5.5105199613825206e-05
               tree_risk: 0.
               tree_error: 0.
            -
               depth: 3
               sample_count: 10
               value: -9.2159622907638550e-01
               Tn: 0
               complexity: 0
               alpha: 0.
               node_risk: 7.7024797651148447e-10
               tree_risk: 0.
               tree_error: 0.
      -
         best_tree_idx: -1
         nodes:
            -
               depth: 0
               sample_count: 152
               value: -4.2465270349853914e-05
               Tn: 0
               complexity: 0
               alpha: 0.
               node_risk: 1.5721000800632025e+01
               tree_risk: 0.
               tree_error: 0.
               splits:
                  - { var:3, quality:5.1227703094482422e+00,
                      le:-1.8568448722362518e-01 }
            -
               depth: 1
               sample_count: 77
               value: 1.8113988870150083e-01
               Tn: 0
               complexity: 0
               alpha: 0.
               node_risk: 1.0590937380792791e+01
               tree_risk: 0.
               tree_error: 0.
               splits:
                  - { var:1, quality:1.1950819015502930e+01,
                      le:-4.6542203426361084e-01 }
            -
               depth: 2
               sample_count: 41
               value: -1.4668279450114180e-01
               Tn: 0
               complexity: 0
               alpha: 0.
               node_risk: 1.1596553979005382e+00
               tree_risk: 0.
               tree_error: 0.
               splits:
                  - { var:1, quality:2.0402853488922119e+00,
                      le:-1.2180416584014893e+00 }
            -
               depth: 3
               sample_count: 2
               value: 1.8560627698898315e+00
               Tn: 0
               complexity: 0
               alpha: 0.
               node_risk: 5.1052113474447935e-04
               tree_risk: 0.
               tree_error: 0.
            -
               depth: 3
               sample_count: 39
               value: -9.2011326551437378e-01
               Tn: 0
               complexity: 0
               alpha: 0.
               node_risk: 1.0089722517760968e-03
               tree_risk: 0.
               tree_error: 0.
            -
               depth: 2
               sample_count: 36
               value: 5.5449350012673271e-01
               Tn: 0
               complexity: 0
               alpha: 0.
               node_risk: 6.9607164693952228e-03
               tree_risk: 0.
               tree_error: 0.
               splits:
                  - { var:0, quality:1.1075630187988281e+01,
                      le:-2.3151321709156036e-01 }
            -
               depth: 3
               sample_count: 1
               value: 2.0647294521331787e+00
               Tn: 0
               complexity: 0
               alpha: 0.
               node_risk: 0.
               tree_risk: 0.
               tree_error: 0.
            -
               depth: 3
               sample_count: 35
               value: 1.6746422052383423e+00
               Tn: 0
               complexity: 0
               alpha: 0.
               node_risk: 2.0040558013079135e-07
               tree_risk: 0.
               tree_error: 0.
            -
               depth: 1
               sample_count: 75
               value: -1.8605634868144988e-01
               Tn: 0
               complexity: 0
               alpha: 0.
               node_risk: 7.2935631232495801e-03
               tree_risk: 0.
               tree_error: 0.
               splits:
                  - { var:0, quality:2.5982124805450439e+00,
                      le:3.3663474023342133e-02 }
            -
               depth: 2
               sample_count: 36
               value: -1.9135009828541014e-01
               Tn: 0
               complexity: 0
               alpha: 0.
               node_risk: 5.2259907363689795e-03
               tree_risk: 0.
               tree_error: 0.
               splits:
                  - { var:3, quality:1.3227214813232422e+00,
                      le:8.4672790765762329e-01 }
            -
               depth: 3
               sample_count: 9
               value: -9.5081710815429688e-01
               Tn: 0
               complexity: 0
               alpha: 0.
               node_risk: 5.7815401996919036e-04
               tree_risk: 0.
               tree_error: 0.
            -
               depth: 3
               sample_count: 27
               value: -9.2007118463516235e-01
               Tn: 0
               complexity: 0
               alpha: 0.
               node_risk: 6.1367190950400996e-05
               tree_risk: 0.
               tree_error: 0.
            -
               depth: 2
               sample_count: 39
               value: -1.8116981058548659e-01
               Tn: 0
               complexity: 0
               alpha: 0.
               node_risk: 1.2746420361331445e-04
               tree_risk: 0.
               tree_error: 0.
               splits:
                  - { var:3, quality:1.2801605463027954e+00,
                      le:9.3924129009246826e-01 }
            -
               depth: 3
               sample_count: 31
               value: -9.1512143611907959e-01
               Tn: 0
               complexity: 0
               alpha: 0.
               node_risk: 4.4454669413607206e-05
               tree_risk: 0.
               tree_error: 0.
            -
               depth: 3
               sample_count: 8
               value: -9.1916459798812866e-01
               Tn: 0
               complexity: 0
               alpha: 0.
               node_risk: 5.0666082440642413e-10
               tree_risk: 0.
               tree_error: 0.
      -
         best_tree_idx: -1
         nodes:
            -
               depth: 0
               sample_count: 152
               value: 4.8835291282126776e-03
               Tn: 0
               complexity: 0
               alpha: 0.
               node_risk: 1.5615198276508073e+01
               tree_risk: 0.
               tree_error: 0.
               splits:
                  - { var:3, quality:4.9995312690734863e+00,
                      le:-2.1775263547897339e-01 }
            -
               depth: 1
               sample_count: 79
               value: 1.7915778578836708e-01
               Tn: 0
               complexity: 0
               alpha: 0.
               node_risk: 1.0613179313653255e+01
               tree_risk: 0.
               tree_error: 0.
               splits:
                  - { var:1, quality:1.2006731033325195e+01,
                      le:-4.6542203426361084e-01 }
            -
               depth: 2
               sample_count: 42
               value: -1.4582563901231402e-01
               Tn: 0
               complexity: 0
               alpha: 0.
               node_risk: 1.1348550894245362e+00
               tree_risk: 0.
               tree_error: 0.
               splits:
                  - { var:1, quality:2.0264613628387451e+00,
                      le:-1.2180416584014893e+00 }
            -
               depth: 3
               sample_count: 2
               value: 1.8258864879608154e+00
               Tn: 0
               complexity: 0
               alpha: 0.
               node_risk: 5.1534538216202463e-04
               tree_risk: 0.
               tree_error: 0.
            -
               depth: 3
               sample_count: 40
               value: -9.1765105724334717e-01
               Tn: 0
               complexity: 0
               alpha: 0.
               node_risk: 1.0133664824218958e-03
               tree_risk: 0.
               tree_error: 0.
            -
               depth: 2
               sample_count: 37
               value: 5.4805788961616719e-01
               Tn: 0
               complexity: 0
               alpha: 0.
               node_risk: 7.2971112771789137e-03
               tree_risk: 0.
               tree_error: 0.
               splits:
                  - { var:0, quality:1.1120892524719238e+01,
                      le:-2.3151321709156036e-01 }
            -
               depth: 3
               sample_count: 1
               value: 2.0398015975952148e+00
               Tn: 0
               complexity: 0
               alpha: 0.
               node_risk: 0.
               tree_risk: 0.
               tree_error: 0.
            -
               depth: 3
               sample_count: 36
               value: 1.6509546041488647e+00
               Tn: 0
               complexity: 0
               alpha: 0.
               node_risk: 2.7043624939437905e-07
               tree_risk: 0.
               tree_error: 0.
            -
               depth: 1
               sample_count: 73
               value: -1.8371463903825577e-01
               Tn: 0
               complexity: 0
               alpha: 0.
               node_risk: 6.1125170237610327e-03
               tree_risk: 0.
               tree_error: 0.
               splits:
                  - { var:0, quality:2.4651627540588379e+00,
                      le:3.8670465350151062e-02 }
            -
               depth: 2
               sample_count: 40
               value: -1.8759849444031715e-01
               Tn: 0
               complexity: 0
               alpha: 0.
               node_risk: 4.6763654766246443e-03
               tree_risk: 0.
               tree_error: 0.
               splits:
                  - { var:3, quality:1.4118225574493408e+00,
                      le:8.7370610237121582e-01 }
            -
               depth: 3
               sample_count: 8
               value: -9.4714534282684326e-01
               Tn: 0
               complexity: 0
               alpha: 0.
               node_risk: 5.2002798877859302e-04
               tree_risk: 0.
               tree_error: 0.
            -
               depth: 3
               sample_count: 32
               value: -9.1748744249343872e-01
               Tn: 0
               complexity: 0
               alpha: 0.
               node_risk: 6.1528714693892539e-05
               tree_risk: 0.
               tree_error: 0.
            -
               depth: 2
               sample_count: 33
               value: -1.7900693552060562e-01
               Tn: 0
               complexity: 0
               alpha: 0.
               node_risk: 1.0141664624141455e-04
               tree_risk: 0.
               tree_error: 0.
               splits:
                  - { var:3, quality:1.0574961900711060e+00,
                      le:9.5156097412109375e-01 }
            -
               depth: 3
               sample_count: 27
               value: -9.1282302141189575e-01
               Tn: 0
               complexity: 0
               alpha: 0.
               node_risk: 4.0163395246262112e-05
               tree_risk: 0.
               tree_error: 0.
            -
               depth: 3
               sample_count: 6
               value: -9.1675502061843872e-01
               Tn: 0
               complexity: 0
               alpha: 0.
               node_risk: 7.5396475174294153e-10
               tree_risk: 0.
               tree_error: 0.
      -
         best_tree_idx: -1
         nodes:
            -
               depth: 0
               sample_count: 152
               value: 9.2066695031366858e-03
               Tn: 0
               complexity: 0
               alpha: 0.
               node_risk: 1.5436623226523142e+01
               tree_risk: 0.
               tree_error: 0.
               splits:
                  - { var:3, quality:5.0020799636840820e+00,
                      le:-2.1775263547897339e-01 }
            -
               depth: 1
               sample_count: 80
               value: 1.8108247797936200e-01
               Tn: 0
               complexity: 0
               alpha: 0.
               node_risk: 1.0440718203988526e+01
               tree_risk: 0.
               tree_error: 0.
               splits:
                  - { var:1, quality:1.2510418891906738e+01,
                      le:-4.6542203426361084e-01 }
            -
               depth: 2
               sample_count: 41
               value: -1.6178866457648394e-01
               Tn: 0
               complexity: 0
               alpha: 0.
               node_risk: 5.4635258167373113e-01
               tree_risk: 0.
               tree_error: 0.
               splits:
                  - { var:0, quality:1.6187248229980469e+00,
                      le:-1.1072268486022949e+00 }
            -
               depth: 3
               sample_count: 1
               value: 1.7350910902023315e+00
               Tn: 0
               complexity: 0
               alpha: 0.
               node_risk: 0.
               tree_risk: 0.
               tree_error: 0.
            -
               depth: 3
               sample_count: 40
               value: -9.1479229927062988e-01
               Tn: 0
               complexity: 0
               alpha: 0.
               node_risk: 8.2616956907988204e-04
               tree_risk: 0.
               tree_error: 0.
            -
               depth: 2
               sample_count: 39
               value: 5.4153675605089235e-01
               Tn: 0
               complexity: 0
               alpha: 0.
               node_risk: 7.2160093925379698e-03
               tree_risk: 0.
               tree_error: 0.
               splits:
                  - { var:0, quality:1.1444436073303223e+01,
                      le:-2.3151321709156036e-01 }
            -
               depth: 3
               sample_count: 1
               value: 2.0020580291748047e+00
               Tn: 0
               complexity: 0
               alpha: 0.
               node_risk: 0.
               tree_risk: 0.
               tree_error: 0.
            -
               depth: 3
               sample_count: 38
               value: 1.6280642747879028e+00
               Tn: 0
               complexity: 0
               alpha: 0.
               node_risk: 3.8775623600884046e-07
               tree_risk: 0.
               tree_error: 0.
            -
               depth: 1
               sample_count: 72
               value: -1.8176645102600256e-01
               Tn: 0
               complexity: 0
               alpha: 0.
               node_risk: 6.7087803322642969e-03
               tree_risk: 0.
               tree_error: 0.
               splits:
                  - { var:0, quality:2.3804593086242676e+00,
                      le:2.1513871848583221e-02 }
            -
               depth: 2
               sample_count: 36
               value: -1.8655107418696085e-01
               Tn: 0
               complexity: 0
               alpha: 0.
               node_risk: 4.9321231170940116e-03
               tree_risk: 0.
               tree_error: 0.
               splits:
                  - { var:3, quality:1.2571707963943481e+00,
                      le:8.4672790765762329e-01 }
            -
               depth: 3
               sample_count: 8
               value: -9.4623285531997681e-01
               Tn: 0
               complexity: 0
               alpha: 0.
               node_risk: 5.4517364605999319e-04
               tree_risk: 0.
               tree_error: 0.
            -
               depth: 3
               sample_count: 28
               value: -9.1542178392410278e-01
               Tn: 0
               complexity: 0
               alpha: 0.
               node_risk: 6.3085814748009561e-05
               tree_risk: 0.
               tree_error: 0.
            -
               depth: 2
               sample_count: 36
               value: -1.7698182786504427e-01
               Tn: 0
               complexity: 0
               alpha: 0.
               node_risk: 1.2838866212105948e-04
               tree_risk: 0.
               tree_error: 0.
               splits:
                  - { var:3, quality:1.1276924610137939e+00,
                      le:9.3924129009246826e-01 }
            -
               depth: 3
               sample_count: 28
               value: -9.1040939092636108e-01
               Tn: 0
               complexity: 0
               alpha: 0.
               node_risk: 4.8377852940317823e-05
               tree_risk: 0.
               tree_error: 0.
            -
               depth: 3
               sample_count: 8
               value: -9.1437864303588867e-01
               Tn: 0
               complexity: 0
               alpha: 0.
               node_risk: 8.4631890384656572e-10
               tree_risk: 0.
               tree_error: 0.
      -
         best_tree_idx: -1
         nodes:
            -
               depth: 0
               sample_count: 152
               value: -1.6695084540467514e-05
               Tn: 0
               complexity: 0
               alpha: 0.
               node_risk: 1.4679424988162991e+01
               tree_risk: 0.
               tree_error: 0.
               splits:
                  - { var:3, quality:4.3118038177490234e+00,
                      le:-2.1775263547897339e-01 }
            -
               depth: 1
               sample_count: 81
               value: 1.5766974768520872e-01
               Tn: 0
               complexity: 0
               alpha: 0.
               node_risk: 1.0360441309786149e+01
               tree_risk: 0.
               tree_error: 0.
               splits:
                  - { var:1, quality:1.1258012771606445e+01,
                      le:-4.6542203426361084e-01 }
            -
               depth: 2
               sample_count: 45
               value: -1.4449319905704922e-01
               Tn: 0
               complexity: 0
               alpha: 0.
               node_risk: 1.1089615310753249e+00
               tree_risk: 0.
               tree_error: 0.
               splits:
                  - { var:1, quality:2.0466136932373047e+00,
                      le:-1.2180416584014893e+00 }
            -
               depth: 3
               sample_count: 2
               value: 1.8003973960876465e+00
               Tn: 0
               complexity: 0
               alpha: 0.
               node_risk: 7.3842005585511572e-04
               tree_risk: 0.
               tree_error: 0.
            -
               depth: 3
               sample_count: 43
               value: -9.1292858123779297e-01
               Tn: 0
               complexity: 0
               alpha: 0.
               node_risk: 1.1322023008668580e-03
               tree_risk: 0.
               tree_error: 0.
            -
               depth: 2
               sample_count: 36
               value: 5.3537343111303115e-01
               Tn: 0
               complexity: 0
               alpha: 0.
               node_risk: 7.1070823344072664e-03
               tree_risk: 0.
               tree_error: 0.
               splits:
                  - { var:0, quality:1.0325595855712891e+01,
                      le:-2.3151321709156036e-01 }
            -
               depth: 3
               sample_count: 1
               value: 1.9658999443054199e+00
               Tn: 0
               complexity: 0
               alpha: 0.
               node_risk: 0.
               tree_risk: 0.
               tree_error: 0.
            -
               depth: 3
               sample_count: 35
               value: 1.6059906482696533e+00
               Tn: 0
               complexity: 0
               alpha: 0.
               node_risk: 4.2253016019344614e-07
               tree_risk: 0.
               tree_error: 0.
            -
               depth: 1
               sample_count: 71
               value: -1.7991249599087406e-01
               Tn: 0
               complexity: 0
               alpha: 0.
               node_risk: 7.1800834283695103e-03
               tree_risk: 0.
               tree_error: 0.
               splits:
                  - { var:0, quality:2.2997891902923584e+00,
                      le:3.8670465350151062e-02 }
            -
               depth: 2
               sample_count: 37
               value: -1.8449884371177569e-01
               Tn: 0
               complexity: 0
               alpha: 0.
               node_risk: 5.4140866254219766e-03
               tree_risk: 0.
               tree_error: 0.
               splits:
                  - { var:3, quality:1.2642133235931396e+00,
                      le:8.7370610237121582e-01 }
            -
               depth: 3
               sample_count: 8
               value: -9.4508081674575806e-01
               Tn: 0
               complexity: 0
               alpha: 0.
               node_risk: 6.0776999157929890e-04
               tree_risk: 0.
               tree_error: 0.
            -
               depth: 3
               sample_count: 29
               value: -9.1303855180740356e-01
               Tn: 0
               complexity: 0
               alpha: 0.
               node_risk: 6.6418649028454624e-05
               tree_risk: 0.
               tree_error: 0.
            -
               depth: 2
               sample_count: 34
               value: -1.7492147052989288e-01
               Tn: 0
               complexity: 0
               alpha: 0.
               node_risk: 1.4076574734489533e-04
               tree_risk: 0.
               tree_error: 0.
               splits:
                  - { var:3, quality:1.0403941869735718e+00,
                      le:9.4599717855453491e-01 }
            -
               depth: 3
               sample_count: 26
               value: -9.0809237957000732e-01
               Tn: 0
               complexity: 0
               alpha: 0.
               node_risk: 6.2344414580750573e-05
               tree_risk: 0.
               tree_error: 0.
            -
               depth: 3
               sample_count: 8
               value: -9.1203081607818604e-01
               Tn: 0
               complexity: 0
               alpha: 0.
               node_risk: 5.5521853781215214e-10
               tree_risk: 0.
               tree_error: 0.
      -
         best_tree_idx: -1
         nodes:
            -
               depth: 0
               sample_count: 152
               value: -4.0092557472617999e-03
               Tn: 0
               complexity: 0
               alpha: 0.
               node_risk: 1.4059122566140410e+01
               tree_risk: 0.
               tree_error: 0.
               splits:
                  - { var:0, quality:4.0362892150878906e+00,
                      le:-9.1631218791007996e-02 }
            -
               depth: 1
               sample_count: 84
               value: -1.5058182020272529e-01
               Tn: 0
               complexity: 0
               alpha: 0.
               node_risk: 1.7100926712864730e+00
               tree_risk: 0.
               tree_error: 0.
               splits:
                  - { var:1, quality:2.9922182559967041e+00,
                      le:-1.2180416584014893e+00 }
            -
               depth: 2
               sample_count: 2
               value: 1.7799044847488403e+00
               Tn: 0
               complexity: 0
               alpha: 0.
               node_risk: 7.3849106576773238e-04
               tree_risk: 0.
               tree_error: 0.
            -
               depth: 2
               sample_count: 82
               value: -1.6835187030274693e-01
               Tn: 0
               complexity: 0
               alpha: 0.
               node_risk: 6.2182618038143378e-01
               tree_risk: 0.
               tree_error: 0.
               splits:
                  - { var:1, quality:2.3599302768707275e+00,
                      le:-3.7163081765174866e-01 }
            -
               depth: 3
               sample_count: 72
               value: -9.1045939922332764e-01
               Tn: 0
               complexity: 0
               alpha: 0.
               node_risk: 1.2039743622529464e-03
               tree_risk: 0.
               tree_error: 0.
            -
               depth: 3
               sample_count: 10
               value: -5.1487827301025391e-01
               Tn: 0
               complexity: 0
               alpha: 0.
               node_risk: 5.8476475968043795e-01
               tree_risk: 0.
               tree_error: 0.
            -
               depth: 1
               sample_count: 68
               value: 1.7705097093301661e-01
               Tn: 0
               complexity: 0
               alpha: 0.
               node_risk: 8.3151837095507108e+00
               tree_risk: 0.
               tree_error: 0.
               splits:
                  - { var:1, quality:1.0446640968322754e+01,
                      le:4.1874265670776367e-01 }
            -
               depth: 2
               sample_count: 34
               value: 5.2673657676752872e-01
               Tn: 0
               complexity: 0
               alpha: 0.
               node_risk: 3.7115075990357127e-07
               tree_risk: 0.
               tree_error: 0.
               splits:
                  - { var:0, quality:9.4333486557006836e+00,
                      le:3.0726897716522217e-01 }
            -
               depth: 3
               sample_count: 21
               value: 1.5848891735076904e+00
               Tn: 0
               complexity: 0
               alpha: 0.
               node_risk: 0.
               tree_risk: 0.
               tree_error: 0.
            -
               depth: 3
               sample_count: 13
               value: 1.5845021009445190e+00
               Tn: 0
               complexity: 0
               alpha: 0.
               node_risk: 2.6381509021788929e-07
               tree_risk: 0.
               tree_error: 0.
            -
               depth: 2
               sample_count: 34
               value: -1.7263463490149555e-01
               Tn: 0
               complexity: 0
               alpha: 0.
               node_risk: 1.4177930617087497e-04
               tree_risk: 0.
               tree_error: 0.
               splits:
                  - { var:3, quality:1.0133826732635498e+00,
                      le:9.3924129009246826e-01 }
            -
               depth: 3
               sample_count: 26
               value: -9.0551531314849854e-01
               Tn: 0
               complexity: 0
               alpha: 0.
               node_risk: 5.1512271048936853e-05
               tree_risk: 0.
               tree_error: 0.
            -
               depth: 3
               sample_count: 8
               value: -9.0972167253494263e-01
               Tn: 0
               complexity: 0
               alpha: 0.
               node_risk: 1.0313234433123597e-09
               tree_risk: 0.
               tree_error: 0.
      -
         best_tree_idx: -1
         nodes:
            -
               depth: 0
               sample_count: 152
               value: -4.9062374194985938e-03
               Tn: 0
               complexity: 0
               alpha: 0.
               node_risk: 1.3751193240169600e+01
               tree_risk: 0.
               tree_error: 0.
               splits:
                  - { var:3, quality:4.4507455825805664e+00,
                      le:-2.1775263547897339e-01 }
            -
               depth: 1
               sample_count: 76
               value: 1.6614097415616638e-01
               Tn: 0
               complexity: 0
               alpha: 0.
               node_risk: 9.2947673288411661e+00
               tree_risk: 0.
               tree_error: 0.
               splits:
                  - { var:1, quality:1.0812624931335449e+01,
                      le:-4.7052299976348877e-01 }
            -
               depth: 2
               sample_count: 40
               value: -1.5510925091803074e-01
               Tn: 0
               complexity: 0
               alpha: 0.
               node_risk: 5.7161498954361745e-01
               tree_risk: 0.
               tree_error: 0.
               splits:
                  - { var:1, quality:1.5327564477920532e+00,
                      le:-1.2180416584014893e+00 }
            -
               depth: 3
               sample_count: 1
               value: 1.8321261405944824e+00
               Tn: 0
               complexity: 0
               alpha: 0.
               node_risk: 0.
               tree_risk: 0.
               tree_error: 0.
            -
               depth: 3
               sample_count: 39
               value: -9.0844082832336426e-01
               Tn: 0
               complexity: 0
               alpha: 0.
               node_risk: 1.2137109327310380e-03
               tree_risk: 0.
               tree_error: 0.
            -
               depth: 2
               sample_count: 36
               value: 5.2308566868305206e-01
               Tn: 0
               complexity: 0
               alpha: 0.
               node_risk: 8.3415166565536936e-03
               tree_risk: 0.
               tree_error: 0.
               splits:
                  - { var:0, quality:9.8586111068725586e+00,
                      le:-2.3151321709156036e-01 }
            -
               depth: 3
               sample_count: 1
               value: 1.9386746883392334e+00
               Tn: 0
               complexity: 0
               alpha: 0.
               node_risk: 0.
               tree_risk: 0.
               tree_error: 0.
            -
               depth: 3
               sample_count: 35
               value: 1.5641709566116333e+00
               Tn: 0
               complexity: 0
               alpha: 0.
               node_risk: 4.3695372831109580e-07
               tree_risk: 0.
               tree_error: 0.
            -
               depth: 1
               sample_count: 76
               value: -1.7595344899516357e-01
               Tn: 0
               complexity: 0
               alpha: 0.
               node_risk: 9.3393259812786233e-03
               tree_risk: 0.
               tree_error: 0.
               splits:
                  - { var:0, quality:2.3551614284515381e+00,
                      le:3.8670465350151062e-02 }
            -
               depth: 2
               sample_count: 39
               value: -1.8123017480740181e-01
               Tn: 0
               complexity: 0
               alpha: 0.
               node_risk: 6.9594093057132600e-03
               tree_risk: 0.
               tree_error: 0.
               splits:
                  - { var:3, quality:1.2869721651077271e+00,
                      le:8.7370610237121582e-01 }
            -
               depth: 3
               sample_count: 9
               value: -9.4269275665283203e-01
               Tn: 0
               complexity: 0
               alpha: 0.
               node_risk: 8.3122841756605448e-04
               tree_risk: 0.
               tree_error: 0.
            -
               depth: 3
               sample_count: 30
               value: -9.0846282243728638e-01
               Tn: 0
               complexity: 0
               alpha: 0.
               node_risk: 8.6678810495288694e-05
               tree_risk: 0.
               tree_error: 0.
            -
               depth: 2
               sample_count: 37
               value: -1.7039149476064219e-01
               Tn: 0
               complexity: 0
               alpha: 0.
               node_risk: 1.4939970740579511e-04
               tree_risk: 0.
               tree_error: 0.
               splits:
                  - { var:3, quality:1.0743292570114136e+00,
                      le:9.3924129009246826e-01 }
            -
               depth: 3
               sample_count: 29
               value: -9.0311855077743530e-01
               Tn: 0
               complexity: 0
               alpha: 0.
               node_risk: 5.0761623596629057e-05
               tree_risk: 0.
               tree_error: 0.
            -
               depth: 3
               sample_count: 8
               value: -9.0744119882583618e-01
               Tn: 0
               complexity: 0
               alpha: 0.
               node_risk: 1.0514312753784338e-09
               tree_risk: 0.
               tree_error: 0.
      -
         best_tree_idx: -1
         nodes:
            -
               depth: 0
               sample_count: 152
               value: -8.1502459943294525e-04
               Tn: 0
               complexity: 0
               alpha: 0.
               node_risk: 1.3502750649659523e+01
               tree_risk: 0.
               tree_error: 0.
               splits:
                  - { var:0, quality:4.2421054840087891e+00,
                      le:-7.5619511306285858e-02 }
            -
               depth: 1
               sample_count: 77
               value: -1.6568782964310089e-01
               Tn: 0
               complexity: 0
               alpha: 0.
               node_risk: 5.2447419114771243e-01
               tree_risk: 0.
               tree_error: 0.
               splits:
                  - { var:0, quality:2.6303160190582275e+00,
                      le:-1.1072268486022949e+00 }
            -
               depth: 2
               sample_count: 1
               value: 1.6603701114654541e+00
               Tn: 0
               complexity: 0
               alpha: 0.
               node_risk: 0.
               tree_risk: 0.
               tree_error: 0.
            -
               depth: 2
               sample_count: 76
               value: -1.7508232044546226e-01
               Tn: 0
               complexity: 0
               alpha: 0.
               node_risk: 7.9974022342734763e-03
               tree_risk: 0.
               tree_error: 0.
               splits:
                  - { var:0, quality:2.3340237140655518e+00,
                      le:-3.5515850782394409e-01 }
            -
               depth: 3
               sample_count: 71
               value: -9.0725398063659668e-01
               Tn: 0
               complexity: 0
               alpha: 0.
               node_risk: 3.0868971833557524e-03
               tree_risk: 0.
               tree_error: 0.
            -
               depth: 3
               sample_count: 5
               value: -9.4233459234237671e-01
               Tn: 0
               complexity: 0
               alpha: 0.
               node_risk: 5.7692146136928413e-04
               tree_risk: 0.
               tree_error: 0.
            -
               depth: 1
               sample_count: 75
               value: 1.6845438857873282e-01
               Tn: 0
               complexity: 0
               alpha: 0.
               node_risk: 8.7362721687772815e+00
               tree_risk: 0.
               tree_error: 0.
               splits:
                  - { var:1, quality:1.0864365577697754e+01,
                      le:4.1874265670776367e-01 }
            -
               depth: 2
               sample_count: 37
               value: 5.1432931745374522e-01
               Tn: 0
               complexity: 0
               alpha: 0.
               node_risk: 5.6078538079873397e-07
               tree_risk: 0.
               tree_error: 0.
               splits:
                  - { var:1, quality:9.7877826690673828e+00,
                      le:1.2748797237873077e-01 }
            -
               depth: 3
               sample_count: 30
               value: 1.5443898439407349e+00
               Tn: 0
               complexity: 0
               alpha: 0.
               node_risk: 1.5449616785900844e-07
               tree_risk: 0.
               tree_error: 0.
            -
               depth: 3
               sample_count: 7
               value: 1.5436841249465942e+00
               Tn: 0
               complexity: 0
               alpha: 0.
               node_risk: 1.2643459146310931e-07
               tree_risk: 0.
               tree_error: 0.
            -
               depth: 2
               sample_count: 38
               value: -1.6831856848377930e-01
               Tn: 0
               complexity: 0
               alpha: 0.
               node_risk: 1.7241516512567223e-04
               tree_risk: 0.
               tree_error: 0.
               splits:
                  - { var:3, quality:1.0766983032226562e+00,
                      le:9.3924129009246826e-01 }
            -
               depth: 3
               sample_count: 29
               value: -9.0075099468231201e-01
               Tn: 0
               complexity: 0
               alpha: 0.
               node_risk: 5.7457507176783551e-05
               tree_risk: 0.
               tree_error: 0.
            -
               depth: 3
               sample_count: 9
               value: -9.0518569946289062e-01
               Tn: 0
               complexity: 0
               alpha: 0.
               node_risk: 1.3016626665418585e-09
               tree_risk: 0.
               tree_error: 0.
      -
         best_tree_idx: -1
         nodes:
            -
               depth: 0
               sample_count: 152
               value: -5.5829563031071106e-04
               Tn: 0
               complexity: 0
               alpha: 0.
               node_risk: 1.3319213278814070e+01
               tree_risk: 0.
               tree_error: 0.
               splits:
                  - { var:0, quality:4.0217576026916504e+00,
                      le:-7.5619511306285858e-02 }
            -
               depth: 1
               sample_count: 80
               value: -1.5487212389707566e-01
               Tn: 0
               complexity: 0
               alpha: 0.
               node_risk: 1.1046933115292799e+00
               tree_risk: 0.
               tree_error: 0.
               splits:
                  - { var:0, quality:2.4136085510253906e+00,
                      le:-1.1072268486022949e+00 }
            -
               depth: 2
               sample_count: 1
               value: 1.6451795101165771e+00
               Tn: 0
               complexity: 0
               alpha: 0.
               node_risk: 0.
               tree_risk: 0.
               tree_error: 0.
            -
               depth: 2
               sample_count: 79
               value: -1.6372015959099878e-01
               Tn: 0
               complexity: 0
               alpha: 0.
               node_risk: 6.0991482227855531e-01
               tree_risk: 0.
               tree_error: 0.
               splits:
                  - { var:1, quality:2.1423497200012207e+00,
                      le:-3.7163081765174866e-01 }
            -
               depth: 3
               sample_count: 67
               value: -9.0530234575271606e-01
               Tn: 0
               complexity: 0
               alpha: 0.
               node_risk: 3.7553675146679844e-03
               tree_risk: 0.
               tree_error: 0.
            -
               depth: 3
               sample_count: 12
               value: -5.7257169485092163e-01
               Tn: 0
               complexity: 0
               alpha: 0.
               node_risk: 5.8134861301567853e-01
               tree_risk: 0.
               tree_error: 0.
            -
               depth: 1
               sample_count: 72
               value: 1.7090151355498368e-01
               Tn: 0
               complexity: 0
               alpha: 0.
               node_risk: 8.1928097957954833e+00
               tree_risk: 0.
               tree_error: 0.
               splits:
                  - { var:1, quality:1.0295568466186523e+01,
                      le:4.1874265670776367e-01 }
            -
               depth: 2
               sample_count: 36
               value: 5.0822431842486060e-01
               Tn: 0
               complexity: 0
               alpha: 0.
               node_risk: 4.5320320296582395e-07
               tree_risk: 0.
               tree_error: 0.
               splits:
                  - { var:0, quality:9.2985105514526367e+00,
                      le:3.7308996915817261e-01 }
            -
               depth: 3
               sample_count: 27
               value: 1.5252060890197754e+00
               Tn: 0
               complexity: 0
               alpha: 0.
               node_risk: 1.1604939231801836e-11
               tree_risk: 0.
               tree_error: 0.
            -
               depth: 3
               sample_count: 9
               value: 1.5247243642807007e+00
               Tn: 0
               complexity: 0
               alpha: 0.
               node_risk: 2.9010993074507496e-07
               tree_risk: 0.
               tree_error: 0.
            -
               depth: 2
               sample_count: 36
               value: -1.6642129131489330e-01
               Tn: 0
               complexity: 0
               alpha: 0.
               node_risk: 1.6876525204956305e-04
               tree_risk: 0.
               tree_error: 0.
               splits:
                  - { var:3, quality:9.9714887142181396e-01,
                      le:9.3924129009246826e-01 }
            -
               depth: 3
               sample_count: 28
               value: -8.9883571863174438e-01
               Tn: 0
               complexity: 0
               alpha: 0.
               node_risk: 7.7555672159612676e-05
               tree_risk: 0.
               tree_error: 0.
            -
               depth: 3
               sample_count: 8
               value: -9.0296077728271484e-01
               Tn: 0
               complexity: 0
               alpha: 0.
               node_risk: 9.3094509878710596e-10
               tree_risk: 0.
               tree_error: 0.
      -
         best_tree_idx: -1
         nodes:
            -
               depth: 0
               sample_count: 152
               value: 4.3156954802964862e-03
               Tn: 0
               complexity: 0
               alpha: 0.
               node_risk: 1.3333376905774962e+01
               tree_risk: 0.
               tree_error: 0.
               splits:
                  - { var:0, quality:4.1788816452026367e+00,
                      le:-7.5619511306285858e-02 }
            -
               depth: 1
               sample_count: 84
               value: -1.4481803757094203e-01
               Tn: 0
               complexity: 0
               alpha: 0.
               node_risk: 1.6343409234187340e+00
               tree_risk: 0.
               tree_error: 0.
               splits:
                  - { var:1, quality:2.7847328186035156e+00,
                      le:-1.2180416584014893e+00 }
            -
               depth: 2
               sample_count: 2
               value: 1.7157170772552490e+00
               Tn: 0
               complexity: 0
               alpha: 0.
               node_risk: 1.1625400665664642e-03
               tree_risk: 0.
               tree_error: 0.
            -
               depth: 2
               sample_count: 82
               value: -1.6205336535122336e-01
               Tn: 0
               complexity: 0
               alpha: 0.
               node_risk: 6.1011571575093759e-01
               tree_risk: 0.
               tree_error: 0.
               splits:
                  - { var:1, quality:2.1742539405822754e+00,
                      le:-3.7163081765174866e-01 }
            -
               depth: 3
               sample_count: 70
               value: -9.0236246585845947e-01
               Tn: 0
               complexity: 0
               alpha: 0.
               node_risk: 2.3180767492481102e-03
               tree_risk: 0.
               tree_error: 0.
            -
               depth: 3
               sample_count: 12
               value: -5.7663720846176147e-01
               Tn: 0
               complexity: 0
               alpha: 0.
               node_risk: 5.8696979715378994e-01
               tree_risk: 0.
               tree_error: 0.
            -
               depth: 1
               sample_count: 68
               value: 1.8853971866123817e-01
               Tn: 0
               complexity: 0
               alpha: 0.
               node_risk: 7.5229855055630894e+00
               tree_risk: 0.
               tree_error: 0.
               splits:
                  - { var:1, quality:9.9400510787963867e+00,
                      le:4.9870157241821289e-01 }
            -
               depth: 2
               sample_count: 36
               value: 5.0212826000319588e-01
               Tn: 0
               complexity: 0
               alpha: 0.
               node_risk: 7.1306033433415905e-07
               tree_risk: 0.
               tree_error: 0.
               splits:
                  - { var:3, quality:9.0767812728881836e+00,
                      le:-9.2900770902633667e-01 }
            -
               depth: 3
               sample_count: 30
               value: 1.5066009759902954e+00
               Tn: 0
               complexity: 0
               alpha: 0.
               node_risk: 6.1788991700950646e-09
               tree_risk: 0.
               tree_error: 0.
            -
               depth: 3
               sample_count: 6
               value: 1.5054683685302734e+00
               Tn: 0
               complexity: 0
               alpha: 0.
               node_risk: 5.5261750731006032e-09
               tree_risk: 0.
               tree_error: 0.
            -
               depth: 2
               sample_count: 32
               value: -1.6424739034846425e-01
               Tn: 0
               complexity: 0
               alpha: 0.
               node_risk: 1.4513803804205860e-04
               tree_risk: 0.
               tree_error: 0.
               splits:
                  - { var:3, quality:8.6335849761962891e-01,
                      le:9.4599717855453491e-01 }
            -
               depth: 3
               sample_count: 25
               value: -8.9646905660629272e-01
               Tn: 0
               complexity: 0
               alpha: 0.
               node_risk: 5.7236343901756470e-05
               tree_risk: 0.
               tree_error: 0.
            -
               depth: 3
               sample_count: 7
               value: -9.0077054500579834e-01
               Tn: 0
               complexity: 0
               alpha: 0.
               node_risk: 9.1582416650304310e-10
               tree_risk: 0.
               tree_error: 0.
      -
         best_tree_idx: -1
         nodes:
            -
               depth: 0
               sample_count: 152
               value: 8.6348516572462893e-03
               Tn: 0
               complexity: 0
               alpha: 0.
               node_risk: 1.3243145060840710e+01
               tree_risk: 0.
               tree_error: 0.
               splits:
                  - { var:3, quality:4.2955088615417480e+00,
                      le:-2.1775263547897339e-01 }
            -
               depth: 1
               sample_count: 80
               value: 1.6790452636778355e-01
               Tn: 0
               complexity: 0
               alpha: 0.
               node_risk: 8.9478551689330441e+00
               tree_risk: 0.
               tree_error: 0.
               splits:
                  - { var:1, quality:1.0191997528076172e+01,
                      le:-4.6542203426361084e-01 }
            -
               depth: 2
               sample_count: 42
               value: -1.3169462553092412e-01
               Tn: 0
               complexity: 0
               alpha: 0.
               node_risk: 9.9920398139742661e-01
               tree_risk: 0.
               tree_error: 0.
               splits:
                  - { var:1, quality:1.7251647710800171e+00,
                      le:-1.2180416584014893e+00 }
            -
               depth: 3
               sample_count: 2
               value: 1.6979315280914307e+00
               Tn: 0
               complexity: 0
               alpha: 0.
               node_risk: 1.1604974926644473e-03
               tree_risk: 0.
               tree_error: 0.
            -
               depth: 3
               sample_count: 40
               value: -8.9964509010314941e-01
               Tn: 0
               complexity: 0
               alpha: 0.
               node_risk: 1.3046449490843326e-03
               tree_risk: 0.
               tree_error: 0.
            -
               depth: 2
               sample_count: 38
               value: 4.9904043109793411e-01
               Tn: 0
               complexity: 0
               alpha: 0.
               node_risk: 1.2008289906466629e-02
               tree_risk: 0.
               tree_error: 0.
               splits:
                  - { var:0, quality:9.4755792617797852e+00,
                      le:-2.3151321709156036e-01 }
            -
               depth: 3
               sample_count: 1
               value: 1.9092143774032593e+00
               Tn: 0
               complexity: 0
               alpha: 0.
               node_risk: 0.
               tree_risk: 0.
               tree_error: 0.
            -
               depth: 3
               sample_count: 37
               value: 1.4884439706802368e+00
               Tn: 0
               complexity: 0
               alpha: 0.
               node_risk: 6.7320789831626371e-07
               tree_risk: 0.
               tree_error: 0.
            -
               depth: 1
               sample_count: 72
               value: -1.6833145357668400e-01
               Tn: 0
               complexity: 0
               alpha: 0.
               node_risk: 1.1114279768969837e-02
               tree_risk: 0.
               tree_error: 0.
               splits:
                  - { var:0, quality:2.0424048900604248e+00,
                      le:3.8670465350151062e-02 }
            -
               depth: 2
               sample_count: 38
               value: -1.7361973931914881e-01
               Tn: 0
               complexity: 0
               alpha: 0.
               node_risk: 8.6966620084658608e-03
               tree_risk: 0.
               tree_error: 0.
               splits:
                  - { var:3, quality:1.1531271934509277e+00,
                      le:7.6475036144256592e-01 }
            -
               depth: 3
               sample_count: 6
               value: -9.4534677267074585e-01
               Tn: 0
               complexity: 0
               alpha: 0.
               node_risk: 2.8142047120816027e-04
               tree_risk: 0.
               tree_error: 0.
            -
               depth: 3
               sample_count: 32
               value: -9.0102154016494751e-01
               Tn: 0
               complexity: 0
               alpha: 0.
               node_risk: 7.5298552528213492e-04
               tree_risk: 0.
               tree_error: 0.
            -
               depth: 2
               sample_count: 34
               value: -1.6242101657039978e-01
               Tn: 0
               complexity: 0
               alpha: 0.
               node_risk: 1.6718001835536178e-04
               tree_risk: 0.
               tree_error: 0.
               splits:
                  - { var:3, quality:8.9704632759094238e-01,
                      le:9.3814897537231445e-01 }
            -
               depth: 3
               sample_count: 25
               value: -8.9432066679000854e-01
               Tn: 0
               complexity: 0
               alpha: 0.
               node_risk: 6.0772062921765624e-05
               tree_risk: 0.
               tree_error: 0.
            -
               depth: 3
               sample_count: 9
               value: -8.9860117435455322e-01
               Tn: 0
               complexity: 0
               alpha: 0.
               node_risk: 1.1863076632145919e-09
               tree_risk: 0.
               tree_error: 0.
      -
         best_tree_idx: -1
         nodes:
            -
               depth: 0
               sample_count: 152
               value: 3.8050521949404164e-03
               Tn: 0
               complexity: 0
               alpha: 0.
               node_risk: 1.2630608445167500e+01
               tree_risk: 0.
               tree_error: 0.
               splits:
                  - { var:0, quality:3.9655466079711914e+00,
                      le:-9.2776104807853699e-02 }
            -
               depth: 1
               sample_count: 80
               value: -1.4938495736569166e-01
               Tn: 0
               complexity: 0
               alpha: 0.
               node_risk: 1.0603590215777217e+00
               tree_risk: 0.
               tree_error: 0.
               splits:
                  - { var:0, quality:2.2480103969573975e+00,
                      le:-1.1072268486022949e+00 }
            -
               depth: 2
               sample_count: 1
               value: 1.5842870473861694e+00
               Tn: 0
               complexity: 0
               alpha: 0.
               node_risk: 0.
               tree_risk: 0.
               tree_error: 0.
            -
               depth: 2
               sample_count: 79
               value: -1.5794174109078660e-01
               Tn: 0
               complexity: 0
               alpha: 0.
               node_risk: 5.9761779999964815e-01
               tree_risk: 0.
               tree_error: 0.
               splits:
                  - { var:1, quality:1.9958240985870361e+00,
                      le:-3.7163081765174866e-01 }
            -
               depth: 3
               sample_count: 68
               value: -8.9870512485504150e-01
               Tn: 0
               complexity: 0
               alpha: 0.
               node_risk: 3.9515993265000215e-03
               tree_risk: 0.
               tree_error: 0.
            -
               depth: 3
               sample_count: 11
               value: -5.3708386421203613e-01
               Tn: 0
               complexity: 0
               alpha: 0.
               node_risk: 5.6854395563189086e-01
               tree_risk: 0.
               tree_error: 0.
            -
               depth: 1
               sample_count: 72
               value: 1.7401617392897606e-01
               Tn: 0
               complexity: 0
               alpha: 0.
               node_risk: 7.6069036319938297e+00
               tree_risk: 0.
               tree_error: 0.
               splits:
                  - { var:1, quality:9.7870149612426758e+00,
                      le:3.8550674915313721e-01 }
            -
               depth: 2
               sample_count: 37
               value: 4.9014647909112879e-01
               Tn: 0
               complexity: 0
               alpha: 0.
               node_risk: 7.8617834198269065e-07
               tree_risk: 0.
               tree_error: 0.
               splits:
                  - { var:3, quality:8.8890132904052734e+00,
                      le:-9.2900770902633667e-01 }
            -
               depth: 3
               sample_count: 32
               value: 1.4711757898330688e+00
               Tn: 0
               complexity: 0
               alpha: 0.
               node_risk: 6.2296052760757448e-09
               tree_risk: 0.
               tree_error: 0.
            -
               depth: 3
               sample_count: 5
               value: 1.4699553251266479e+00
               Tn: 0
               complexity: 0
               alpha: 0.
               node_risk: 5.2910280601281556e-09
               tree_risk: 0.
               tree_error: 0.
            -
               depth: 2
               sample_count: 35
               value: -1.6017872009958539e-01
               Tn: 0
               complexity: 0
               alpha: 0.
               node_risk: 1.6520984795986848e-04
               tree_risk: 0.
               tree_error: 0.
               splits:
                  - { var:3, quality:8.9810895919799805e-01,
                      le:9.4599717855453491e-01 }
            -
               depth: 3
               sample_count: 27
               value: -8.9205479621887207e-01
               Tn: 0
               complexity: 0
               alpha: 0.
               node_risk: 5.9050721146314267e-05
               tree_risk: 0.
               tree_error: 0.
            -
               depth: 3
               sample_count: 8
               value: -8.9646244049072266e-01
               Tn: 0
               complexity: 0
               alpha: 0.
               node_risk: 9.5605034999834970e-10
               tree_risk: 0.
               tree_error: 0.
      -
         best_tree_idx: -1
         nodes:
            -
               depth: 0
               sample_count: 152
               value: 8.5246690401905457e-03
               Tn: 0
               complexity: 0
               alpha: 0.
               node_risk: 1.2639001732361811e+01
               tree_risk: 0.
               tree_error: 0.
               splits:
                  - { var:3, quality:4.3160405158996582e+00,
                      le:-2.1775263547897339e-01 }
            -
               depth: 1
               sample_count: 78
               value: 1.7244509607553482e-01
               Tn: 0
               complexity: 0
               alpha: 0.
               node_risk: 8.3234452869959252e+00
               tree_risk: 0.
               tree_error: 0.
               splits:
                  - { var:1, quality:9.6686525344848633e+00,
                      le:-4.6542203426361084e-01 }
            -
               depth: 2
               sample_count: 40
               value: -1.2673509903252125e-01
               Tn: 0
               complexity: 0
               alpha: 0.
               node_risk: 9.6019082459493310e-01
               tree_risk: 0.
               tree_error: 0.
               splits:
                  - { var:1, quality:1.5998898744583130e+00,
                      le:-1.2180416584014893e+00 }
            -
               depth: 3
               sample_count: 2
               value: 1.6629357337951660e+00
               Tn: 0
               complexity: 0
               alpha: 0.
               node_risk: 1.4855529430590764e-03
               tree_risk: 0.
               tree_error: 0.
            -
               depth: 3
               sample_count: 38
               value: -8.9545500278472900e-01
               Tn: 0
               complexity: 0
               alpha: 0.
               node_risk: 1.2868093321467544e-03
               tree_risk: 0.
               tree_error: 0.
            -
               depth: 2
               sample_count: 38
               value: 4.8737161724190964e-01
               Tn: 0
               complexity: 0
               alpha: 0.
               node_risk: 1.4111774714917757e-02
               tree_risk: 0.
               tree_error: 0.
               splits:
                  - { var:0, quality:9.0402917861938477e+00,
                      le:-2.3036833107471466e-01 }
            -
               depth: 3
               sample_count: 1
               value: 1.8967479467391968e+00
               Tn: 0
               complexity: 0
               alpha: 0.
               node_risk: 0.
               tree_risk: 0.
               tree_error: 0.
            -
               depth: 3
               sample_count: 37
               value: 1.4540624618530273e+00
               Tn: 0
               complexity: 0
               alpha: 0.
               node_risk: 1.1457894419919512e-06
               tree_risk: 0.
               tree_error: 0.
            -
               depth: 1
               sample_count: 74
               value: -1.6425632161868586e-01
               Tn: 0
               complexity: 0
               alpha: 0.
               node_risk: 1.0561711962182141e-02
               tree_risk: 0.
               tree_error: 0.
               splits:
                  - { var:0, quality:1.9989112615585327e+00,
                      le:3.8670465350151062e-02 }
            -
               depth: 2
               sample_count: 39
               value: -1.6962987375565064e-01
               Tn: 0
               complexity: 0
               alpha: 0.
               node_risk: 8.0311120975684602e-03
               tree_risk: 0.
               tree_error: 0.
               splits:
                  - { var:3, quality:1.1289876699447632e+00,
                      le:8.7370610237121582e-01 }
            -
               depth: 3
               sample_count: 9
               value: -9.3094325065612793e-01
               Tn: 0
               complexity: 0
               alpha: 0.
               node_risk: 1.1243179818934967e-03
               tree_risk: 0.
               tree_error: 0.
            -
               depth: 3
               sample_count: 30
               value: -8.9544385671615601e-01
               Tn: 0
               complexity: 0
               alpha: 0.
               node_risk: 1.1653437263980937e-04
               tree_risk: 0.
               tree_error: 0.
            -
               depth: 2
               sample_count: 35
               value: -1.5826864923749651e-01
               Tn: 0
               complexity: 0
               alpha: 0.
               node_risk: 1.4964470537948138e-04
               tree_risk: 0.
               tree_error: 0.
               splits:
                  - { var:3, quality:8.7678509950637817e-01,
                      le:9.5156097412109375e-01 }
            -
               depth: 3
               sample_count: 29
               value: -8.9035183191299438e-01
               Tn: 0
               complexity: 0
               alpha: 0.
               node_risk: 7.8302027085586090e-05
               tree_risk: 0.
               tree_error: 0.
            -
               depth: 3
               sample_count: 6
               value: -8.9435565471649170e-01
               Tn: 0
               complexity: 0
               alpha: 0.
               node_risk: 9.6601288079867231e-10
               tree_risk: 0.
               tree_error: 0.
      -
         best_tree_idx: -1
         nodes:
            -
               depth: 0
               sample_count: 152
               value: 7.9800133642397436e-03
               Tn: 0
               complexity: 0
               alpha: 0.
               node_risk: 1.2367696615926706e+01
               tree_risk: 0.
               tree_error: 0.
               splits:
                  - { var:3, quality:4.0243105888366699e+00,
                      le:-1.8568448722362518e-01 }
            -
               depth: 1
               sample_count: 80
               value: 1.6215797308832408e-01
               Tn: 0
               complexity: 0
               alpha: 0.
               node_risk: 8.3401194208440348e+00
               tree_risk: 0.
               tree_error: 0.
               splits:
                  - { var:1, quality:9.4846696853637695e+00,
                      le:-4.6542203426361084e-01 }
            -
               depth: 2
               sample_count: 42
               value: -1.2676450574681872e-01
               Tn: 0
               complexity: 0
               alpha: 0.
               node_risk: 9.4515795883005516e-01
               tree_risk: 0.
               tree_error: 0.
               splits:
                  - { var:1, quality:1.6172257661819458e+00,
                      le:-1.2180416584014893e+00 }
            -
               depth: 3
               sample_count: 2
               value: 1.6464272737503052e+00
               Tn: 0
               complexity: 0
               alpha: 0.
               node_risk: 1.4826530730420728e-03
               tree_risk: 0.
               tree_error: 0.
            -
               depth: 3
               sample_count: 40
               value: -8.9335662126541138e-01
               Tn: 0
               complexity: 0
               alpha: 0.
               node_risk: 1.3575780157524253e-03
               tree_risk: 0.
               tree_error: 0.
            -
               depth: 2
               sample_count: 38
               value: 4.8149334443242925e-01
               Tn: 0
               complexity: 0
               alpha: 0.
               node_risk: 1.3908096535605097e-02
               tree_risk: 0.
               tree_error: 0.
               splits:
                  - { var:0, quality:8.8236684799194336e+00,
                      le:-2.3151321709156036e-01 }
            -
               depth: 3
               sample_count: 1
               value: 1.8650187253952026e+00
               Tn: 0
               complexity: 0
               alpha: 0.
               node_risk: 0.
               tree_risk: 0.
               tree_error: 0.
            -
               depth: 3
               sample_count: 37
               value: 1.4377411603927612e+00
               Tn: 0
               complexity: 0
               alpha: 0.
               node_risk: 1.0957283027579479e-06
               tree_risk: 0.
               tree_error: 0.
            -
               depth: 1
               sample_count: 72
               value: -1.6332883077363172e-01
               Tn: 0
               complexity: 0
               alpha: 0.
               node_risk: 1.2945888158736762e-02
               tree_risk: 0.
               tree_error: 0.
               splits:
                  - { var:3, quality:1.9236099720001221e+00,
                      le:2.8212577104568481e-01 }
            -
               depth: 2
               sample_count: 6
               value: -9.2239320278167725e-01
               Tn: 0
               complexity: 0
               alpha: 0.
               node_risk: 2.7248399729654094e-03
               tree_risk: 0.
               tree_error: 0.
            -
               depth: 2
               sample_count: 66
               value: -1.6141005289373975e-01
               Tn: 0
               complexity: 0
               alpha: 0.
               node_risk: 7.3051350123001235e-03
               tree_risk: 0.
               tree_error: 0.
               splits:
                  - { var:0, quality:1.7210237979888916e+00,
                      le:1.2941838800907135e-01 }
            -
               depth: 3
               sample_count: 36
               value: -9.0006583929061890e-01
               Tn: 0
               complexity: 0
               alpha: 0.
               node_risk: 5.6573039908416334e-03
               tree_risk: 0.
               tree_error: 0.
            -
               depth: 3
               sample_count: 30
               value: -8.8883137702941895e-01
               Tn: 0
               complexity: 0
               alpha: 0.
               node_risk: 1.3560232170961584e-04
               tree_risk: 0.
               tree_error: 0.
      -
         best_tree_idx: -1
         nodes:
            -
               depth: 0
               sample_count: 152
               value: 1.2185486719796532e-02
               Tn: 0
               complexity: 0
               alpha: 0.
               node_risk: 1.2251965188729198e+01
               tree_risk: 0.
               tree_error: 0.
               splits:
                  - { var:3, quality:4.2441625595092773e+00,
                      le:-2.1775263547897339e-01 }
            -
               depth: 1
               sample_count: 79
               value: 1.7238612567322165e-01
               Tn: 0
               complexity: 0
               alpha: 0.
               node_risk: 8.0173518480509713e+00
               tree_risk: 0.
               tree_error: 0.
               splits:
                  - { var:1, quality:9.4311609268188477e+00,
                      le:-4.6542203426361084e-01 }
            -
               depth: 2
               sample_count: 40
               value: -1.2328800112009049e-01
               Tn: 0
               complexity: 0
               alpha: 0.
               node_risk: 9.1951016282380549e-01
               tree_risk: 0.
               tree_error: 0.
               splits:
                  - { var:1, quality:1.5250802040100098e+00,
                      le:-1.2180416584014893e+00 }
            -
               depth: 3
               sample_count: 2
               value: 1.6237615346908569e+00
               Tn: 0
               complexity: 0
               alpha: 0.
               node_risk: 1.4884426378376503e-03
               tree_risk: 0.
               tree_error: 0.
            -
               depth: 3
               sample_count: 38
               value: -8.9092862606048584e-01
               Tn: 0
               complexity: 0
               alpha: 0.
               node_risk: 9.3871611236417962e-04
               tree_risk: 0.
               tree_error: 0.
            -
               depth: 2
               sample_count: 39
               value: 4.7564164033302891e-01
               Tn: 0
               complexity: 0
               alpha: 0.
               node_risk: 1.4321735335862229e-02
               tree_risk: 0.
               tree_error: 0.
               splits:
                  - { var:0, quality:8.8374843597412109e+00,
                      le:-2.3151321709156036e-01 }
            -
               depth: 3
               sample_count: 1
               value: 1.8462251424789429e+00
               Tn: 0
               complexity: 0
               alpha: 0.
               node_risk: 0.
               tree_risk: 0.
               tree_error: 0.
            -
               depth: 3
               sample_count: 38
               value: 1.4218903779983521e+00
               Tn: 0
               complexity: 0
               alpha: 0.
               node_risk: 1.2557441078087095e-06
               tree_risk: 0.
               tree_error: 0.
            -
               depth: 1
               sample_count: 73
               value: -1.6118232803801968e-01
               Tn: 0
               complexity: 0
               alpha: 0.
               node_risk: 1.3020866557741151e-02
               tree_risk: 0.
               tree_error: 0.
               splits:
                  - { var:0, quality:1.8997043371200562e+00,
                      le:3.8670465350151062e-02 }
            -
               depth: 2
               sample_count: 38
               value: -1.6751967801859505e-01
               Tn: 0
               complexity: 0
               alpha: 0.
               node_risk: 9.6716556434572887e-03
               tree_risk: 0.
               tree_error: 0.
               splits:
                  - { var:3, quality:1.0746185779571533e+00,
                      le:8.7370610237121582e-01 }
            -
               depth: 3
               sample_count: 10
               value: -9.2917346954345703e-01
               Tn: 0
               complexity: 0
               alpha: 0.
               node_risk: 1.3159039417398599e-03
               tree_risk: 0.
               tree_error: 0.
            -
               depth: 3
               sample_count: 28
               value: -8.9153325557708740e-01
               Tn: 0
               complexity: 0
               alpha: 0.
               node_risk: 1.2514837026655901e-04
               tree_risk: 0.
               tree_error: 0.
            -
               depth: 2
               sample_count: 35
               value: -1.5430177663053785e-01
               Tn: 0
               complexity: 0
               alpha: 0.
               node_risk: 1.6608516429972298e-04
               tree_risk: 0.
               tree_error: 0.
               splits:
                  - { var:3, quality:8.3340740203857422e-01,
                      le:9.3139314651489258e-01 }
            -
               depth: 3
               sample_count: 28
               value: -8.8601458072662354e-01
               Tn: 0
               complexity: 0
               alpha: 0.
               node_risk: 7.5031382177681571e-05
               tree_risk: 0.
               tree_error: 0.
            -
               depth: 3
               sample_count: 7
               value: -8.9023691415786743e-01
               Tn: 0
               complexity: 0
               alpha: 0.
               node_risk: 9.9642682993561493e-10
               tree_risk: 0.
               tree_error: 0.
      -
         best_tree_idx: -1
         nodes:
            -
               depth: 0
               sample_count: 152
               value: -3.9455480873584747e-03
               Tn: 0
               complexity: 0
               alpha: 0.
               node_risk: 1.1132162496176912e+01
               tree_risk: 0.
               tree_error: 0.
               splits:
                  - { var:0, quality:3.4676392078399658e+00,
                      le:-7.5619511306285858e-02 }
            -
               depth: 1
               sample_count: 83
               value: -1.4161336763077473e-01
               Tn: 0
               complexity: 0
               alpha: 0.
               node_risk: 1.0544386933975802e+00
               tree_risk: 0.
               tree_error: 0.
               splits:
                  - { var:1, quality:2.1596722602844238e+00,
                      le:-1.2180416584014893e+00 }
            -
               depth: 2
               sample_count: 1
               value: 1.6961110830307007e+00
               Tn: 0
               complexity: 0
               alpha: 0.
               node_risk: 0.
               tree_risk: 0.
               tree_error: 0.
            -
               depth: 2
               sample_count: 82
               value: -1.5014294498577352e-01
               Tn: 0
               complexity: 0
               alpha: 0.
               node_risk: 5.5927708024507639e-01
               tree_risk: 0.
               tree_error: 0.
               splits:
                  - { var:1, quality:1.8681536912918091e+00,
                      le:-3.7731277942657471e-01 }
            -
               depth: 3
               sample_count: 69
               value: -8.8978648185729980e-01
               Tn: 0
               complexity: 0
               alpha: 0.
               node_risk: 2.6127955297805538e-03
               tree_risk: 0.
               tree_error: 0.
            -
               depth: 3
               sample_count: 13
               value: -5.7095140218734741e-01
               Tn: 0
               complexity: 0
               alpha: 0.
               node_risk: 5.3702870283747528e-01
               tree_risk: 0.
               tree_error: 0.
            -
               depth: 1
               sample_count: 69
               value: 1.6165487252283786e-01
               Tn: 0
               complexity: 0
               alpha: 0.
               node_risk: 6.6124507820058351e+00
               tree_risk: 0.
               tree_error: 0.
               splits:
                  - { var:1, quality:8.4154319763183594e+00,
                      le:4.1874265670776367e-01 }
            -
               depth: 2
               sample_count: 35
               value: 4.6676545824323384e-01
               Tn: 0
               complexity: 0
               alpha: 0.
               node_risk: 1.1591348556549974e-06
               tree_risk: 0.
               tree_error: 0.
               splits:
                  - { var:3, quality:7.6254510879516602e+00,
                      le:-9.2900770902633667e-01 }
            -
               depth: 3
               sample_count: 29
               value: 1.4067283868789673e+00
               Tn: 0
               complexity: 0
               alpha: 0.
               node_risk: 6.0744760332909209e-09
               tree_risk: 0.
               tree_error: 0.
            -
               depth: 3
               sample_count: 6
               value: 1.4054588079452515e+00
               Tn: 0
               complexity: 0
               alpha: 0.
               node_risk: 5.6445959017992209e-12
               tree_risk: 0.
               tree_error: 0.
            -
               depth: 2
               sample_count: 34
               value: -1.5242955395404031e-01
               Tn: 0
               complexity: 0
               alpha: 0.
               node_risk: 1.4627323795035618e-04
               tree_risk: 0.
               tree_error: 0.
               splits:
                  - { var:3, quality:7.9005497694015503e-01,
                      le:9.4371277093887329e-01 }
            -
               depth: 3
               sample_count: 28
               value: -8.8419336080551147e-01
               Tn: 0
               complexity: 0
               alpha: 0.
               node_risk: 7.3427200641407175e-05
               tree_risk: 0.
               tree_error: 0.
            -
               depth: 3
               sample_count: 6
               value: -8.8819575309753418e-01
               Tn: 0
               complexity: 0
               alpha: 0.
               node_risk: 7.2732148082010895e-10
               tree_risk: 0.
               tree_error: 0.
      -
         best_tree_idx: -1
         nodes:
            -
               depth: 0
               sample_count: 152
               value: -3.9789311979946335e-03
               Tn: 0
               complexity: 0
               alpha: 0.
               node_risk: 1.0875911426214895e+01
               tree_risk: 0.
               tree_error: 0.
               splits:
                  - { var:0, quality:3.2955989837646484e+00,
                      le:-7.4474617838859558e-02 }
            -
               depth: 1
               sample_count: 82
               value: -1.3997578729943530e-01
               Tn: 0
               complexity: 0
               alpha: 0.
               node_risk: 1.0405673602994092e+00
               tree_risk: 0.
               tree_error: 0.
               splits:
                  - { var:1, quality:2.0905542373657227e+00,
                      le:-1.2180416584014893e+00 }
            -
               depth: 2
               sample_count: 1
               value: 1.6718902587890625e+00
               Tn: 0
               complexity: 0
               alpha: 0.
               node_risk: 0.
               tree_risk: 0.
               tree_error: 0.
            -
               depth: 2
               sample_count: 81
               value: -1.4851136450414304e-01
               Tn: 0
               complexity: 0
               alpha: 0.
               node_risk: 5.5665728877860077e-01
               tree_risk: 0.
               tree_error: 0.
               splits:
                  - { var:1, quality:1.8030592203140259e+00,
                      le:-3.7163081765174866e-01 }
            -
               depth: 3
               sample_count: 67
               value: -8.8789612054824829e-01
               Tn: 0
               complexity: 0
               alpha: 0.
               node_risk: 2.7057156977230434e-03
               tree_risk: 0.
               tree_error: 0.
            -
               depth: 3
               sample_count: 14
               value: -5.9065973758697510e-01
               Tn: 0
               complexity: 0
               alpha: 0.
               node_risk: 5.3739799435196134e-01
               tree_risk: 0.
               tree_error: 0.
            -
               depth: 1
               sample_count: 70
               value: 1.5533167166369302e-01
               Tn: 0
               complexity: 0
               alpha: 0.
               node_risk: 6.5421514137276500e+00
               tree_risk: 0.
               tree_error: 0.
               splits:
                  - { var:1, quality:8.2309350967407227e+00,
                      le:4.9870157241821289e-01 }
            -
               depth: 2
               sample_count: 35
               value: 4.6103881597518920e-01
               Tn: 0
               complexity: 0
               alpha: 0.
               node_risk: 1.3529616813556800e-06
               tree_risk: 0.
               tree_error: 0.
               splits:
                  - { var:3, quality:7.4394888877868652e+00,
                      le:-9.2900770902633667e-01 }
            -
               depth: 3
               sample_count: 28
               value: 1.3918186426162720e+00
               Tn: 0
               complexity: 0
               alpha: 0.
               node_risk: 6.1098788251001679e-09
               tree_risk: 0.
               tree_error: 0.
            -
               depth: 3
               sample_count: 7
               value: 1.3905557394027710e+00
               Tn: 0
               complexity: 0
               alpha: 0.
               node_risk: 5.6239650714218214e-09
               tree_risk: 0.
               tree_error: 0.
            -
               depth: 2
               sample_count: 35
               value: -1.5037547264780318e-01
               Tn: 0
               complexity: 0
               alpha: 0.
               node_risk: 1.6999494967873119e-04
               tree_risk: 0.
               tree_error: 0.
               splits:
                  - { var:3, quality:7.9156148433685303e-01,
                      le:9.3139314651489258e-01 }
            -
               depth: 3
               sample_count: 27
               value: -8.8173747062683105e-01
               Tn: 0
               complexity: 0
               alpha: 0.
               node_risk: 5.5933127593110754e-05
               tree_risk: 0.
               tree_error: 0.
            -
               depth: 3
               sample_count: 8
               value: -8.8620209693908691e-01
               Tn: 0
               complexity: 0
               alpha: 0.
               node_risk: 1.2677341121314356e-09
               tree_risk: 0.
               tree_error: 0.
      -
         best_tree_idx: -1
         nodes:
            -
               depth: 0
               sample_count: 152
               value: -4.5643360599091180e-03
               Tn: 0
               complexity: 0
               alpha: 0.
               node_risk: 1.0652997528606599e+01
               tree_risk: 0.
               tree_error: 0.
               splits:
                  - { var:3, quality:3.5508160591125488e+00,
                      le:-1.8568448722362518e-01 }
            -
               depth: 1
               sample_count: 75
               value: 1.5023292799790700e-01
               Tn: 0
               complexity: 0
               alpha: 0.
               node_risk: 7.0928483677513672e+00
               tree_risk: 0.
               tree_error: 0.
               splits:
                  - { var:1, quality:8.2934083938598633e+00,
                      le:-4.6542203426361084e-01 }
            -
               depth: 2
               sample_count: 39
               value: -1.3479151137364218e-01
               Tn: 0
               complexity: 0
               alpha: 0.
               node_risk: 4.7571335032238116e-01
               tree_risk: 0.
               tree_error: 0.
               splits:
                  - { var:1, quality:1.1829252243041992e+00,
                      le:-1.2180416584014893e+00 }
            -
               depth: 3
               sample_count: 1
               value: 1.6485240459442139e+00
               Tn: 0
               complexity: 0
               alpha: 0.
               node_risk: 0.
               tree_risk: 0.
               tree_error: 0.
            -
               depth: 3
               sample_count: 38
               value: -8.8539248704910278e-01
               Tn: 0
               complexity: 0
               alpha: 0.
               node_risk: 1.3694955949675736e-03
               tree_risk: 0.
               tree_error: 0.
            -
               depth: 2
               sample_count: 36
               value: 4.5900940398375195e-01
               Tn: 0
               complexity: 0
               alpha: 0.
               node_risk: 1.6471870504882524e-02
               tree_risk: 0.
               tree_error: 0.
               splits:
                  - { var:0, quality:7.6012973785400391e+00,
                      le:-2.1894747018814087e-01 }
            -
               depth: 3
               sample_count: 1
               value: 1.8096381425857544e+00
               Tn: 0
               complexity: 0
               alpha: 0.
               node_risk: 0.
               tree_risk: 0.
               tree_error: 0.
            -
               depth: 3
               sample_count: 35
               value: 1.3771423101425171e+00
               Tn: 0
               complexity: 0
               alpha: 0.
               node_risk: 1.1930967946938154e-06
               tree_risk: 0.
               tree_error: 0.
            -
               depth: 1
               sample_count: 77
               value: -1.5534089196037937e-01
               Tn: 0
               complexity: 0
               alpha: 0.
               node_risk: 1.2499813562371953e-02
               tree_risk: 0.
               tree_error: 0.
               splits:
                  - { var:0, quality:1.8603122234344482e+00,
                      le:5.0820067524909973e-02 }
            -
               depth: 2
               sample_count: 45
               value: -1.5989040931065876e-01
               Tn: 0
               complexity: 0
               alpha: 0.
               node_risk: 1.0094955434803543e-02
               tree_risk: 0.
               tree_error: 0.
               splits:
                  - { var:3, quality:1.1589431762695312e+00,
                      le:8.7370610237121582e-01 }
            -
               depth: 3
               sample_count: 9
               value: -9.2391568422317505e-01
               Tn: 0
               complexity: 0
               alpha: 0.
               node_risk: 1.3937204101397427e-03
               tree_risk: 0.
               tree_error: 0.
            -
               depth: 3
               sample_count: 36
               value: -8.8552308082580566e-01
               Tn: 0
               complexity: 0
               alpha: 0.
               node_risk: 1.8048944414661428e-04
               tree_risk: 0.
               tree_error: 0.
            -
               depth: 2
               sample_count: 32
               value: -1.4894313318654895e-01
               Tn: 0
               complexity: 0
               alpha: 0.
               node_risk: 1.6364110764621742e-04
               tree_risk: 0.
               tree_error: 0.
               splits:
                  - { var:3, quality:7.0999222993850708e-01,
                      le:9.3924129009246826e-01 }
            -
               depth: 3
               sample_count: 23
               value: -8.8011848926544189e-01
               Tn: 0
               complexity: 0
               alpha: 0.
               node_risk: 6.1214517575347571e-05
               tree_risk: 0.
               tree_error: 0.
            -
               depth: 3
               sample_count: 9
               value: -8.8422870635986328e-01
               Tn: 0
               complexity: 0
               alpha: 0.
               node_risk: 1.3271701237993483e-09
               tree_risk: 0.
               tree_error: 0.
      -
         best_tree_idx: -1
         nodes:
            -
               depth: 0
               sample_count: 152
               value: 4.1658570499796613e-03
               Tn: 0
               complexity: 0
               alpha: 0.
               node_risk: 1.0773258628618889e+01
               tree_risk: 0.
               tree_error: 0.
               splits:
                  - { var:3, quality:3.4731919765472412e+00,
                      le:-1.8568448722362518e-01 }
            -
               depth: 1
               sample_count: 79
               value: 1.4941898931430864e-01
               Tn: 0
               complexity: 0
               alpha: 0.
               node_risk: 7.2899017370526460e+00
               tree_risk: 0.
               tree_error: 0.
               splits:
                  - { var:1, quality:8.1894721984863281e+00,
                      le:-4.7052299976348877e-01 }
            -
               depth: 2
               sample_count: 42
               value: -1.1826563023385547e-01
               Tn: 0
               complexity: 0
               alpha: 0.
               node_risk: 8.4795060234151831e-01
               tree_risk: 0.
               tree_error: 0.
               splits:
                  - { var:1, quality:1.4339495897293091e+00,
                      le:-1.1974571943283081e+00 }
            -
               depth: 3
               sample_count: 2
               value: 1.5546662807464600e+00
               Tn: 0
               complexity: 0
               alpha: 0.
               node_risk: 9.7852805751763583e-04
               tree_risk: 0.
               tree_error: 0.
            -
               depth: 3
               sample_count: 40
               value: -8.8244467973709106e-01
               Tn: 0
               complexity: 0
               alpha: 0.
               node_risk: 4.6639864951103505e-04
               tree_risk: 0.
               tree_error: 0.
            -
               depth: 2
               sample_count: 37
               value: 4.5327720609871119e-01
               Tn: 0
               complexity: 0
               alpha: 0.
               node_risk: 1.6235613346334610e-02
               tree_risk: 0.
               tree_error: 0.
               splits:
                  - { var:0, quality:7.6182627677917480e+00,
                      le:-2.3036833107471466e-01 }
            -
               depth: 3
               sample_count: 1
               value: 1.7812933921813965e+00
               Tn: 0
               complexity: 0
               alpha: 0.
               node_risk: 0.
               tree_risk: 0.
               tree_error: 0.
            -
               depth: 3
               sample_count: 36
               value: 1.3631063699722290e+00
               Tn: 0
               complexity: 0
               alpha: 0.
               node_risk: 1.2818754884236228e-06
               tree_risk: 0.
               tree_error: 0.
            -
               depth: 1
               sample_count: 73
               value: -1.5302588882511609e-01
               Tn: 0
               complexity: 0
               alpha: 0.
               node_risk: 1.2802686488940562e-02
               tree_risk: 0.
               tree_error: 0.
               splits:
                  - { var:3, quality:1.7129474878311157e+00,
                      le:2.8126892447471619e-01 }
            -
               depth: 2
               sample_count: 5
               value: -9.1716402769088745e-01
               Tn: 0
               complexity: 0
               alpha: 0.
               node_risk: 3.2653342419393105e-03
               tree_risk: 0.
               tree_error: 0.
            -
               depth: 2
               sample_count: 68
               value: -1.5114504405680826e-01
               Tn: 0
               complexity: 0
               alpha: 0.
               node_risk: 6.0252457592360198e-03
               tree_risk: 0.
               tree_error: 0.
               splits:
                  - { var:0, quality:1.5546926259994507e+00,
                      le:1.5481616556644440e-01 }
            -
               depth: 3
               sample_count: 39
               value: -8.8821178674697876e-01
               Tn: 0
               complexity: 0
               alpha: 0.
               node_risk: 4.6655647039139936e-03
               tree_risk: 0.
               tree_error: 0.
            -
               depth: 3
               sample_count: 29
               value: -8.7843710184097290e-01
               Tn: 0
               complexity: 0
               alpha: 0.
               node_risk: 1.1509943593657201e-04
               tree_risk: 0.
               tree_error: 0.
      -
         best_tree_idx: -1
         nodes:
            -
               depth: 0
               sample_count: 152
               value: -1.0071204681145518e-04
               Tn: 0
               complexity: 0
               alpha: 0.
               node_risk: 1.0243008648210585e+01
               tree_risk: 0.
               tree_error: 0.
               splits:
                  - { var:3, quality:3.2596271038055420e+00,
                      le:-2.1775263547897339e-01 }
            -
               depth: 1
               sample_count: 78
               value: 1.4253576883138755e-01
               Tn: 0
               complexity: 0
               alpha: 0.
               node_risk: 6.9724259969704079e+00
               tree_risk: 0.
               tree_error: 0.
               splits:
                  - { var:1, quality:8.1437644958496094e+00,
                      le:-4.6542203426361084e-01 }
            -
               depth: 2
               sample_count: 41
               value: -1.3293984350634785e-01
               Tn: 0
               complexity: 0
               alpha: 0.
               node_risk: 3.9673150659448009e-01
               tree_risk: 0.
               tree_error: 0.
               splits:
                  - { var:0, quality:1.1202138662338257e+00,
                      le:-1.1072268486022949e+00 }
            -
               depth: 3
               sample_count: 1
               value: 1.4657776355743408e+00
               Tn: 0
               complexity: 0
               alpha: 0.
               node_risk: 0.
               tree_risk: 0.
               tree_error: 0.
            -
               depth: 3
               sample_count: 40
               value: -8.8096261024475098e-01
               Tn: 0
               complexity: 0
               alpha: 0.
               node_risk: 1.1107326734689504e-03
               tree_risk: 0.
               tree_error: 0.
            -
               depth: 2
               sample_count: 37
               value: 4.4779252844887812e-01
               Tn: 0
               complexity: 0
               alpha: 0.
               node_risk: 1.6612653858761206e-02
               tree_risk: 0.
               tree_error: 0.
               splits:
                  - { var:0, quality:7.4357833862304688e+00,
                      le:-2.3151321709156036e-01 }
            -
               depth: 3
               sample_count: 1
               value: 1.7643952369689941e+00
               Tn: 0
               complexity: 0
               alpha: 0.
               node_risk: 0.
               tree_risk: 0.
               tree_error: 0.
            -
               depth: 3
               sample_count: 36
               value: 1.3495546579360962e+00
               Tn: 0
               complexity: 0
               alpha: 0.
               node_risk: 9.7746077276639198e-07
               tree_risk: 0.
               tree_error: 0.
            -
               depth: 1
               sample_count: 74
               value: -1.5044727297248067e-01
               Tn: 0
               complexity: 0
               alpha: 0.
               node_risk: 1.0957188128471351e-02
               tree_risk: 0.
               tree_error: 0.
               splits:
                  - { var:0, quality:1.6774870157241821e+00,
                      le:3.8670465350151062e-02 }
            -
               depth: 2
               sample_count: 38
               value: -1.5615273267030716e-01
               Tn: 0
               complexity: 0
               alpha: 0.
               node_risk: 8.2632738925457749e-03
               tree_risk: 0.
               tree_error: 0.
               splits:
                  - { var:3, quality:9.3347537517547607e-01,
                      le:8.7370610237121582e-01 }
            -
               depth: 3
               sample_count: 8
               value: -9.1808080673217773e-01
               Tn: 0
               complexity: 0
               alpha: 0.
               node_risk: 1.2237746367822488e-03
               tree_risk: 0.
               tree_error: 0.
            -
               depth: 3
               sample_count: 30
               value: -8.8155281543731689e-01
               Tn: 0
               complexity: 0
               alpha: 0.
               node_risk: 1.4381479780345430e-04
               tree_risk: 0.
               tree_error: 0.
            -
               depth: 2
               sample_count: 36
               value: -1.4442484329144159e-01
               Tn: 0
               complexity: 0
               alpha: 0.
               node_risk: 1.5122022864155760e-04
               tree_risk: 0.
               tree_error: 0.
               splits:
                  - { var:3, quality:7.5099337100982666e-01,
                      le:8.4673655033111572e-01 }
            -
               depth: 3
               sample_count: 27
               value: -8.7570369243621826e-01
               Tn: 0
               complexity: 0
               alpha: 0.
               node_risk: 5.3998336775107347e-05
               tree_risk: 0.
               tree_error: 0.
            -
               depth: 3
               sample_count: 9
               value: -8.7936490774154663e-01
               Tn: 0
               complexity: 0
               alpha: 0.
               node_risk: 1.1129260689052289e-05
               tree_risk: 0.
               tree_error: 0.
      -
         best_tree_idx: -1
         nodes:
            -
               depth: 0
               sample_count: 152
               value: 3.7361850079737210e-03
               Tn: 0
               complexity: 0
               alpha: 0.
               node_risk: 1.0289820733005241e+01
               tree_risk: 0.
               tree_error: 0.
               splits:
                  - { var:3, quality:3.3217310905456543e+00,
                      le:-2.1775263547897339e-01 }
            -
               depth: 1
               sample_count: 79
               value: 1.4579545678217201e-01
               Tn: 0
               complexity: 0
               alpha: 0.
               node_risk: 6.9542613776579731e+00
               tree_risk: 0.
               tree_error: 0.
               splits:
                  - { var:1, quality:7.7952914237976074e+00,
                      le:-4.6542203426361084e-01 }
            -
               depth: 2
               sample_count: 42
               value: -1.1535928966034026e-01
               Tn: 0
               complexity: 0
               alpha: 0.
               node_risk: 8.2173411451228795e-01
               tree_risk: 0.
               tree_error: 0.
               splits:
                  - { var:1, quality:1.3782564401626587e+00,
                      le:-1.2180416584014893e+00 }
            -
               depth: 3
               sample_count: 2
               value: 1.5321439504623413e+00
               Tn: 0
               complexity: 0
               alpha: 0.
               node_risk: 1.2461173928262070e-03
               tree_risk: 0.
               tree_error: 0.
            -
               depth: 3
               sample_count: 40
               value: -8.7903124094009399e-01
               Tn: 0
               complexity: 0
               alpha: 0.
               node_risk: 1.1577510122654511e-03
               tree_risk: 0.
               tree_error: 0.
            -
               depth: 2
               sample_count: 37
               value: 4.4224138517637512e-01
               Tn: 0
               complexity: 0
               alpha: 0.
               node_risk: 1.6484623313128388e-02
               tree_risk: 0.
               tree_error: 0.
               splits:
                  - { var:0, quality:7.2528486251831055e+00,
                      le:-2.3036833107471466e-01 }
            -
               depth: 3
               sample_count: 1
               value: 1.7396609783172607e+00
               Tn: 0
               complexity: 0
               alpha: 0.
               node_risk: 0.
               tree_risk: 0.
               tree_error: 0.
            -
               depth: 3
               sample_count: 36
               value: 1.3362402915954590e+00
               Tn: 0
               complexity: 0
               alpha: 0.
               node_risk: 1.4094023299549008e-06
               tree_risk: 0.
               tree_error: 0.
            -
               depth: 1
               sample_count: 73
               value: -1.4999919129561071e-01
               Tn: 0
               complexity: 0
               alpha: 0.
               node_risk: 1.5949943597105554e-02
               tree_risk: 0.
               tree_error: 0.
               splits:
                  - { var:0, quality:1.6463465690612793e+00,
                      le:3.8670465350151062e-02 }
            -
               depth: 2
               sample_count: 36
               value: -1.5737516267432106e-01
               Tn: 0
               complexity: 0
               alpha: 0.
               node_risk: 1.1920227414196516e-02
               tree_risk: 0.
               tree_error: 0.
               splits:
                  - { var:3, quality:9.0203505754470825e-01,
                      le:7.9172849655151367e-01 }
            -
               depth: 3
               sample_count: 8
               value: -9.2579996585845947e-01
               Tn: 0
               complexity: 0
               alpha: 0.
               node_risk: 1.0265585480800921e-03
               tree_risk: 0.
               tree_error: 0.
            -
               depth: 3
               sample_count: 28
               value: -8.8068675994873047e-01
               Tn: 0
               complexity: 0
               alpha: 0.
               node_risk: 4.6850086623084763e-04
               tree_risk: 0.
               tree_error: 0.
            -
               depth: 2
               sample_count: 37
               value: -1.4282257049470334e-01
               Tn: 0
               complexity: 0
               alpha: 0.
               node_risk: 1.6549406040433645e-04
               tree_risk: 0.
               tree_error: 0.
               splits:
                  - { var:3, quality:7.5486105680465698e-01,
                      le:8.2776057720184326e-01 }
            -
               depth: 3
               sample_count: 26
               value: -8.7375688552856445e-01
               Tn: 0
               complexity: 0
               alpha: 0.
               node_risk: 2.9918577963305992e-05
               tree_risk: 0.
               tree_error: 0.
            -
               depth: 3
               sample_count: 11
               value: -8.7785977125167847e-01
               Tn: 0
               complexity: 0
               alpha: 0.
               node_risk: 1.1097970721102302e-05
               tree_risk: 0.
               tree_error: 0.
      -
         best_tree_idx: -1
         nodes:
            -
               depth: 0
               sample_count: 152
               value: 1.5750332686461900e-02
               Tn: 0
               complexity: 0
               alpha: 0.
               node_risk: 1.0470335121758673e+01
               tree_risk: 0.
               tree_error: 0.
               splits:
                  - { var:3, quality:3.4710600376129150e+00,
                      le:-2.1775263547897339e-01 }
            -
               depth: 1
               sample_count: 82
               value: 1.5461109051617181e-01
               Tn: 0
               complexity: 0
               alpha: 0.
               node_risk: 7.0266394790594653e+00
               tree_risk: 0.
               tree_error: 0.
               splits:
                  - { var:1, quality:8.1662063598632812e+00,
                      le:-4.6542203426361084e-01 }
            -
               depth: 2
               sample_count: 42
               value: -1.1386483588388988e-01
               Tn: 0
               complexity: 0
               alpha: 0.
               node_risk: 8.0435650600095632e-01
               tree_risk: 0.
               tree_error: 0.
               splits:
                  - { var:1, quality:1.3465324640274048e+00,
                      le:-1.2180416584014893e+00 }
            -
               depth: 3
               sample_count: 2
               value: 1.5159784555435181e+00
               Tn: 0
               complexity: 0
               alpha: 0.
               node_risk: 1.1622009496932151e-03
               tree_risk: 0.
               tree_error: 0.
            -
               depth: 3
               sample_count: 40
               value: -8.7716346979141235e-01
               Tn: 0
               complexity: 0
               alpha: 0.
               node_risk: 1.2002464032445648e-03
               tree_risk: 0.
               tree_error: 0.
            -
               depth: 2
               sample_count: 40
               value: 4.3651081323623658e-01
               Tn: 0
               complexity: 0
               alpha: 0.
               node_risk: 1.6253257904936369e-02
               tree_risk: 0.
               tree_error: 0.
               splits:
                  - { var:0, quality:7.6379194259643555e+00,
                      le:-2.3151321709156036e-01 }
            -
               depth: 3
               sample_count: 1
               value: 1.7138561010360718e+00
               Tn: 0
               complexity: 0
               alpha: 0.
               node_risk: 0.
               tree_risk: 0.
               tree_error: 0.
            -
               depth: 3
               sample_count: 39
               value: 1.3234122991561890e+00
               Tn: 0
               complexity: 0
               alpha: 0.
               node_risk: 1.3070335498355234e-06
               tree_risk: 0.
               tree_error: 0.
            -
               depth: 1
               sample_count: 70
               value: -1.4691512648548399e-01
               Tn: 0
               complexity: 0
               alpha: 0.
               node_risk: 1.0342604832431990e-02
               tree_risk: 0.
               tree_error: 0.
               splits:
                  - { var:3, quality:1.5134726762771606e+00,
                      le:2.8364697098731995e-01 }
            -
               depth: 2
               sample_count: 5
               value: -9.0554755926132202e-01
               Tn: 0
               complexity: 0
               alpha: 0.
               node_risk: 2.4734291219783988e-03
               tree_risk: 0.
               tree_error: 0.
            -
               depth: 2
               sample_count: 65
               value: -1.4522844644693228e-01
               Tn: 0
               complexity: 0
               alpha: 0.
               node_risk: 5.2803262177252286e-03
               tree_risk: 0.
               tree_error: 0.
               splits:
                  - { var:0, quality:1.3718318939208984e+00,
                      le:9.9417313933372498e-02 }
            -
               depth: 3
               sample_count: 34
               value: -8.8195258378982544e-01
               Tn: 0
               complexity: 0
               alpha: 0.
               node_risk: 4.2391514037658506e-03
               tree_risk: 0.
               tree_error: 0.
            -
               depth: 3
               sample_count: 31
               value: -8.7348479032516479e-01
               Tn: 0
               complexity: 0
               alpha: 0.
               node_risk: 1.4391142097469611e-04
               tree_risk: 0.
               tree_error: 0.
      -
         best_tree_idx: -1
         nodes:
            -
               depth: 0
               sample_count: 152
               value: 1.4997124769969991e-02
               Tn: 0
               complexity: 0
               alpha: 0.
               node_risk: 1.0243665827316718e+01
               tree_risk: 0.
               tree_error: 0.
               splits:
                  - { var:3, quality:3.4774372577667236e+00,
                      le:-2.1775263547897339e-01 }
            -
               depth: 1
               sample_count: 81
               value: 1.5590951104222991e-01
               Tn: 0
               complexity: 0
               alpha: 0.
               node_risk: 6.7880940899071689e+00
               tree_risk: 0.
               tree_error: 0.
               splits:
                  - { var:1, quality:7.9520459175109863e+00,
                      le:-4.6542203426361084e-01 }
            -
               depth: 2
               sample_count: 41
               value: -1.1253793210518069e-01
               Tn: 0
               complexity: 0
               alpha: 0.
               node_risk: 7.8897826824438089e-01
               tree_risk: 0.
               tree_error: 0.
               splits:
                  - { var:1, quality:1.3056021928787231e+00,
                      le:-1.2180416584014893e+00 }
            -
               depth: 3
               sample_count: 2
               value: 1.5002853870391846e+00
               Tn: 0
               complexity: 0
               alpha: 0.
               node_risk: 1.0805775532123363e-03
               tree_risk: 0.
               tree_error: 0.
            -
               depth: 3
               sample_count: 39
               value: -8.7634837627410889e-01
               Tn: 0
               complexity: 0
               alpha: 0.
               node_risk: 1.5517832185143465e-03
               tree_risk: 0.
               tree_error: 0.
            -
               depth: 2
               sample_count: 40
               value: 4.3106814026832579e-01
               Tn: 0
               complexity: 0
               alpha: 0.
               node_risk: 1.5999753131753280e-02
               tree_risk: 0.
               tree_error: 0.
               splits:
                  - { var:0, quality:7.4487876892089844e+00,
                      le:-2.3151321709156036e-01 }
            -
               depth: 3
               sample_count: 1
               value: 1.6890391111373901e+00
               Tn: 0
               complexity: 0
               alpha: 0.
               node_risk: 0.
               tree_risk: 0.
               tree_error: 0.
            -
               depth: 3
               sample_count: 39
               value: 1.3108813762664795e+00
               Tn: 0
               complexity: 0
               alpha: 0.
               node_risk: 1.6910677782533412e-06
               tree_risk: 0.
               tree_error: 0.
            -
               depth: 1
               sample_count: 71
               value: -1.4576207647021389e-01
               Tn: 0
               complexity: 0
               alpha: 0.
               node_risk: 1.2321412789101593e-02
               tree_risk: 0.
               tree_error: 0.
               splits:
                  - { var:3, quality:1.5128339529037476e+00,
                      le:2.8212577104568481e-01 }
            -
               depth: 2
               sample_count: 6
               value: -9.0848302841186523e-01
               Tn: 0
               complexity: 0
               alpha: 0.
               node_risk: 3.0783023653883912e-03
               tree_risk: 0.
               tree_error: 0.
            -
               depth: 2
               sample_count: 65
               value: -1.4339036299632146e-01
               Tn: 0
               complexity: 0
               alpha: 0.
               node_risk: 4.9165288466548329e-03
               tree_risk: 0.
               tree_error: 0.
               splits:
                  - { var:0, quality:1.3373992443084717e+00,
                      le:1.2941838800907135e-01 }
            -
               depth: 3
               sample_count: 35
               value: -8.7994390726089478e-01
               Tn: 0
               complexity: 0
               alpha: 0.
               node_risk: 3.8454960116540704e-03
               tree_risk: 0.
               tree_error: 0.
            -
               depth: 3
               sample_count: 30
               value: -8.7137973308563232e-01
               Tn: 0
               complexity: 0
               alpha: 0.
               node_risk: 1.2351545269861930e-04
               tree_risk: 0.
               tree_error: 0.
      -
         best_tree_idx: -1
         nodes:
            -
               depth: 0
               sample_count: 152
               value: 1.7520635927978315e-02
               Tn: 0
               complexity: 0
               alpha: 0.
               node_risk: 1.0071585508200299e+01
               tree_risk: 0.
               tree_error: 0.
               splits:
                  - { var:0, quality:3.8158285617828369e+00,
                      le:-7.5619511306285858e-02 }
            -
               depth: 1
               sample_count: 81
               value: -1.2990997124601295e-01
               Tn: 0
               complexity: 0
               alpha: 0.
               node_risk: 8.5963976849591073e-01
               tree_risk: 0.
               tree_error: 0.
               splits:
                  - { var:0, quality:1.7333137989044189e+00,
                      le:-1.0989487171173096e+00 }
            -
               depth: 2
               sample_count: 1
               value: 1.4193179607391357e+00
               Tn: 0
               complexity: 0
               alpha: 0.
               node_risk: 0.
               tree_risk: 0.
               tree_error: 0.
            -
               depth: 2
               sample_count: 80
               value: -1.3742856048047541e-01
               Tn: 0
               complexity: 0
               alpha: 0.
               node_risk: 4.9333065567970458e-01
               tree_risk: 0.
               tree_error: 0.
               splits:
                  - { var:2, quality:1.5257848501205444e+00,
                      le:-4.8582744598388672e-01 }
            -
               depth: 3
               sample_count: 63
               value: -7.9267954826354980e-01
               Tn: 0
               complexity: 0
               alpha: 0.
               node_risk: 4.7088002098350179e-01
               tree_risk: 0.
               tree_error: 0.
            -
               depth: 3
               sample_count: 17
               value: -8.9970290660858154e-01
               Tn: 0
               complexity: 0
               alpha: 0.
               node_risk: 7.5945375999464382e-03
               tree_risk: 0.
               tree_error: 0.
            -
               depth: 1
               sample_count: 71
               value: 1.8571611735182750e-01
               Tn: 0
               complexity: 0
               alpha: 0.
               node_risk: 5.4427771232679465e+00
               tree_risk: 0.
               tree_error: 0.
               splits:
                  - { var:1, quality:7.8914537429809570e+00,
                      le:4.1874265670776367e-01 }
            -
               depth: 2
               sample_count: 41
               value: 4.2255004876997415e-01
               Tn: 0
               complexity: 0
               alpha: 0.
               node_risk: 1.3995294452229246e-06
               tree_risk: 0.
               tree_error: 0.
               splits:
                  - { var:3, quality:7.3204917907714844e+00,
                      le:-8.9606118202209473e-01 }
            -
               depth: 3
               sample_count: 36
               value: 1.2989677190780640e+00
               Tn: 0
               complexity: 0
               alpha: 0.
               node_risk: 5.9397606833044847e-09
               tree_risk: 0.
               tree_error: 0.
            -
               depth: 3
               sample_count: 5
               value: 1.2977068424224854e+00
               Tn: 0
               complexity: 0
               alpha: 0.
               node_risk: 1.1677752875804970e-08
               tree_risk: 0.
               tree_error: 0.
            -
               depth: 2
               sample_count: 30
               value: -1.3795692225297293e-01
               Tn: 0
               complexity: 0
               alpha: 0.
               node_risk: 1.4587281819100628e-04
               tree_risk: 0.
               tree_error: 0.
               splits:
                  - { var:3, quality:5.7105654478073120e-01,
                      le:8.5357058048248291e-01 }
            -
               depth: 3
               sample_count: 20
               value: -8.6878699064254761e-01
               Tn: 0
               complexity: 0
               alpha: 0.
               node_risk: 4.5717374788034615e-05
               tree_risk: 0.
               tree_error: 0.
            -
               depth: 3
               sample_count: 10
               value: -8.7255406379699707e-01
               Tn: 0
               complexity: 0
               alpha: 0.
               node_risk: 6.9652910784645528e-06
               tree_risk: 0.
               tree_error: 0.
      -
         best_tree_idx: -1
         nodes:
            -
               depth: 0
               sample_count: 152
               value: -7.4694107629750903e-03
               Tn: 0
               complexity: 0
               alpha: 0.
               node_risk: 8.8122136982751460e+00
               tree_risk: 0.
               tree_error: 0.
               splits:
                  - { var:3, quality:2.9834659099578857e+00,
                      le:-2.1775263547897339e-01 }
            -
               depth: 1
               sample_count: 73
               value: 1.3806736326380953e-01
               Tn: 0
               complexity: 0
               alpha: 0.
               node_risk: 5.8237176693415540e+00
               tree_risk: 0.
               tree_error: 0.
               splits:
                  - { var:1, quality:6.7740230560302734e+00,
                      le:-4.6542203426361084e-01 }
            -
               depth: 2
               sample_count: 38
               value: -1.2253055094104064e-01
               Tn: 0
               complexity: 0
               alpha: 0.
               node_risk: 4.2432425043041966e-01
               tree_risk: 0.
               tree_error: 0.
               splits:
                  - { var:1, quality:9.9332851171493530e-01,
                      le:-1.2180416584014893e+00 }
            -
               depth: 3
               sample_count: 1
               value: 1.5595512390136719e+00
               Tn: 0
               complexity: 0
               alpha: 0.
               node_risk: 0.
               tree_risk: 0.
               tree_error: 0.
            -
               depth: 3
               sample_count: 37
               value: -8.7226033210754395e-01
               Tn: 0
               complexity: 0
               alpha: 0.
               node_risk: 1.5176989529435136e-03
               tree_risk: 0.
               tree_error: 0.
            -
               depth: 2
               sample_count: 35
               value: 4.2100224154336113e-01
               Tn: 0
               complexity: 0
               alpha: 0.
               node_risk: 1.6939962022969546e-02
               tree_risk: 0.
               tree_error: 0.
               splits:
                  - { var:0, quality:6.2204394340515137e+00,
                      le:-2.3151321709156036e-01 }
            -
               depth: 3
               sample_count: 1
               value: 1.6639932394027710e+00
               Tn: 0
               complexity: 0
               alpha: 0.
               node_risk: 0.
               tree_risk: 0.
               tree_error: 0.
            -
               depth: 3
               sample_count: 34
               value: 1.2869561910629272e+00
               Tn: 0
               complexity: 0
               alpha: 0.
               node_risk: 1.5930212153847378e-06
               tree_risk: 0.
               tree_error: 0.
            -
               depth: 1
               sample_count: 79
               value: -1.4195275891430770e-01
               Tn: 0
               complexity: 0
               alpha: 0.
               node_risk: 1.3510586093193444e-02
               tree_risk: 0.
               tree_error: 0.
               splits:
                  - { var:0, quality:1.5947575569152832e+00,
                      le:8.6693912744522095e-03 }
            -
               depth: 2
               sample_count: 38
               value: -1.4820395292420135e-01
               Tn: 0
               complexity: 0
               alpha: 0.
               node_risk: 1.0467867923118712e-02
               tree_risk: 0.
               tree_error: 0.
               splits:
                  - { var:3, quality:8.4364485740661621e-01,
                      le:7.6475036144256592e-01 }
            -
               depth: 3
               sample_count: 7
               value: -9.1616284847259521e-01
               Tn: 0
               complexity: 0
               alpha: 0.
               node_risk: 9.8986150383811866e-04
               tree_risk: 0.
               tree_error: 0.
            -
               depth: 3
               sample_count: 31
               value: -8.7311047315597534e-01
               Tn: 0
               complexity: 0
               alpha: 0.
               node_risk: 4.8081290892154627e-04
               tree_risk: 0.
               tree_error: 0.
            -
               depth: 2
               sample_count: 41
               value: -1.3615896934416236e-01
               Tn: 0
               complexity: 0
               alpha: 0.
               node_risk: 1.8148806029205655e-04
               tree_risk: 0.
               tree_error: 0.
               splits:
                  - { var:3, quality:7.6021265983581543e-01,
                      le:8.2776057720184326e-01 }
            -
               depth: 3
               sample_count: 27
               value: -8.6708879470825195e-01
               Tn: 0
               complexity: 0
               alpha: 0.
               node_risk: 6.4825034177928842e-05
               tree_risk: 0.
               tree_error: 0.
            -
               depth: 3
               sample_count: 14
               value: -8.7043803930282593e-01
               Tn: 0
               complexity: 0
               alpha: 0.
               node_risk: 1.3886118107597767e-05
               tree_risk: 0.
               tree_error: 0.
      -
         best_tree_idx: -1
         nodes:
            -
               depth: 0
               sample_count: 152
               value: -4.5880990985192752e-03
               Tn: 0
               complexity: 0
               alpha: 0.
               node_risk: 8.6867407942194301e+00
               tree_risk: 0.
               tree_error: 0.
               splits:
                  - { var:3, quality:2.6780107021331787e+00,
                      le:-3.1305208802223206e-01 }
            -
               depth: 1
               sample_count: 78
               value: 1.2462106538124573e-01
               Tn: 0
               complexity: 0
               alpha: 0.
               node_risk: 5.9970075530417750e+00
               tree_risk: 0.
               tree_error: 0.
               splits:
                  - { var:0, quality:6.4534749984741211e+00,
                      le:-1.7155738174915314e-01 }
            -
               depth: 2
               sample_count: 43
               value: -1.0926549171292504e-01
               Tn: 0
               complexity: 0
               alpha: 0.
               node_risk: 7.5490284283839526e-01
               tree_risk: 0.
               tree_error: 0.
               splits:
                  - { var:1, quality:1.2649173736572266e+00,
                      le:-1.2180416584014893e+00 }
            -
               depth: 3
               sample_count: 2
               value: 1.4724777936935425e+00
               Tn: 0
               complexity: 0
               alpha: 0.
               node_risk: 1.3149120085316213e-03
               tree_risk: 0.
               tree_error: 0.
            -
               depth: 3
               sample_count: 41
               value: -8.7090271711349487e-01
               Tn: 0
               complexity: 0
               alpha: 0.
               node_risk: 2.0453033169250956e-03
               tree_risk: 0.
               tree_error: 0.
            -
               depth: 2
               sample_count: 35
               value: 4.1196740695408413e-01
               Tn: 0
               complexity: 0
               alpha: 0.
               node_risk: 1.8813253923610773e-06
               tree_risk: 0.
               tree_error: 0.
               splits:
                  - { var:3, quality:5.9401021003723145e+00,
                      le:-9.4335150718688965e-01 }
            -
               depth: 3
               sample_count: 28
               value: 1.2756897211074829e+00
               Tn: 0
               complexity: 0
               alpha: 0.
               node_risk: 7.1270100931997149e-11
               tree_risk: 0.
               tree_error: 0.
            -
               depth: 3
               sample_count: 7
               value: 1.2744394540786743e+00
               Tn: 0
               complexity: 0
               alpha: 0.
               node_risk: 1.8113026634125617e-08
               tree_risk: 0.
               tree_error: 0.
            -
               depth: 1
               sample_count: 74
               value: -1.4078154273935267e-01
               Tn: 0
               complexity: 0
               alpha: 0.
               node_risk: 1.4922199988645746e-02
               tree_risk: 0.
               tree_error: 0.
               splits:
                  - { var:0, quality:1.4700828790664673e+00,
                      le:3.8670465350151062e-02 }
            -
               depth: 2
               sample_count: 37
               value: -1.4760367089026682e-01
               Tn: 0
               complexity: 0
               alpha: 0.
               node_risk: 1.1337111689724844e-02
               tree_risk: 0.
               tree_error: 0.
               splits:
                  - { var:3, quality:8.1547462940216064e-01,
                      le:7.6475036144256592e-01 }
            -
               depth: 3
               sample_count: 7
               value: -9.1623187065124512e-01
               Tn: 0
               complexity: 0
               alpha: 0.
               node_risk: 1.1335218187328577e-03
               tree_risk: 0.
               tree_error: 0.
            -
               depth: 3
               sample_count: 30
               value: -8.7221556901931763e-01
               Tn: 0
               complexity: 0
               alpha: 0.
               node_risk: 8.4214989843189869e-04
               tree_risk: 0.
               tree_error: 0.
            -
               depth: 2
               sample_count: 37
               value: -1.3395941458843849e-01
               Tn: 0
               complexity: 0
               alpha: 0.
               node_risk: 1.4102229336654393e-04
               tree_risk: 0.
               tree_error: 0.
               splits:
                  - { var:1, quality:6.6404038667678833e-01,
                      le:1.5843656063079834e+00 }
            -
               depth: 3
               sample_count: 29
               value: -8.6530059576034546e-01
               Tn: 0
               complexity: 0
               alpha: 0.
               node_risk: 6.2411055941735682e-05
               tree_risk: 0.
               tree_error: 0.
            -
               depth: 3
               sample_count: 8
               value: -8.6865854263305664e-01
               Tn: 0
               complexity: 0
               alpha: 0.
               node_risk: 7.8398050091799121e-06
               tree_risk: 0.
               tree_error: 0.
      -
         best_tree_idx: -1
         nodes:
            -
               depth: 0
               sample_count: 152
               value: 3.1064369372631375e-03
               Tn: 0
               complexity: 0
               alpha: 0.
               node_risk: 8.8575942237870340e+00
               tree_risk: 0.
               tree_error: 0.
               splits:
                  - { var:3, quality:3.1580603122711182e+00,
                      le:-2.1775263547897339e-01 }
            -
               depth: 1
               sample_count: 75
               value: 1.4912304739157359e-01
               Tn: 0
               complexity: 0
               alpha: 0.
               node_risk: 5.6862671105476830e+00
               tree_risk: 0.
               tree_error: 0.
               splits:
                  - { var:1, quality:6.9256081581115723e+00,
                      le:-4.7052299976348877e-01 }
            -
               depth: 2
               sample_count: 37
               value: -1.1920222841404579e-01
               Tn: 0
               complexity: 0
               alpha: 0.
               node_risk: 4.1011882969157265e-01
               tree_risk: 0.
               tree_error: 0.
               splits:
                  - { var:1, quality:9.3369913101196289e-01,
                      le:-1.2180416584014893e+00 }
            -
               depth: 3
               sample_count: 1
               value: 1.5331923961639404e+00
               Tn: 0
               complexity: 0
               alpha: 0.
               node_risk: 0.
               tree_risk: 0.
               tree_error: 0.
            -
               depth: 3
               sample_count: 36
               value: -8.6920410394668579e-01
               Tn: 0
               complexity: 0
               alpha: 0.
               node_risk: 2.1590593172596817e-03
               tree_risk: 0.
               tree_error: 0.
            -
               depth: 2
               sample_count: 38
               value: 4.1038713172862407e-01
               Tn: 0
               complexity: 0
               alpha: 0.
               node_risk: 1.8366469267985686e-02
               tree_risk: 0.
               tree_error: 0.
               splits:
                  - { var:0, quality:6.4182333946228027e+00,
                      le:-2.3151321709156036e-01 }
            -
               depth: 3
               sample_count: 1
               value: 1.6451257467269897e+00
               Tn: 0
               complexity: 0
               alpha: 0.
               node_risk: 0.
               tree_risk: 0.
               tree_error: 0.
            -
               depth: 3
               sample_count: 37
               value: 1.2642719745635986e+00
               Tn: 0
               complexity: 0
               alpha: 0.
               node_risk: 1.9774453976495465e-06
               tree_risk: 0.
               tree_error: 0.
            -
               depth: 1
               sample_count: 77
               value: -1.3911753428446783e-01
               Tn: 0
               complexity: 0
               alpha: 0.
               node_risk: 1.4733658360779778e-02
               tree_risk: 0.
               tree_error: 0.
               splits:
                  - { var:0, quality:1.4932961463928223e+00,
                      le:3.8670465350151062e-02 }
            -
               depth: 2
               sample_count: 40
               value: -1.4518269449472426e-01
               Tn: 0
               complexity: 0
               alpha: 0.
               node_risk: 1.1528279880715808e-02
               tree_risk: 0.
               tree_error: 0.
               splits:
                  - { var:3, quality:8.5268485546112061e-01,
                      le:7.6475036144256592e-01 }
            -
               depth: 3
               sample_count: 7
               value: -9.1424793004989624e-01
               Tn: 0
               complexity: 0
               alpha: 0.
               node_risk: 1.1221908228644106e-03
               tree_risk: 0.
               tree_error: 0.
            -
               depth: 3
               sample_count: 33
               value: -8.7031769752502441e-01
               Tn: 0
               complexity: 0
               alpha: 0.
               node_risk: 8.4181578437791948e-04
               tree_risk: 0.
               tree_error: 0.
            -
               depth: 2
               sample_count: 37
               value: -1.3256060432743383e-01
               Tn: 0
               complexity: 0
               alpha: 0.
               node_risk: 1.4317851794731773e-04
               tree_risk: 0.
               tree_error: 0.
               splits:
                  - { var:3, quality:6.5024775266647339e-01,
                      le:8.2776057720184326e-01 }
            -
               depth: 3
               sample_count: 26
               value: -8.6372697353363037e-01
               Tn: 0
               complexity: 0
               alpha: 0.
               node_risk: 6.0053749776578513e-05
               tree_risk: 0.
               tree_error: 0.
            -
               depth: 3
               sample_count: 11
               value: -8.6676591634750366e-01
               Tn: 0
               complexity: 0
               alpha: 0.
               node_risk: 1.1003830172745532e-05
               tree_risk: 0.
               tree_error: 0.
      -
         best_tree_idx: -1
         nodes:
            -
               depth: 0
               sample_count: 152
               value: 5.6105892320996833e-03
               Tn: 0
               complexity: 0
               alpha: 0.
               node_risk: 8.6583137041161340e+00
               tree_risk: 0.
               tree_error: 0.
               splits:
                  - { var:3, quality:2.9770240783691406e+00,
                      le:-3.1305208802223206e-01 }
            -
               depth: 1
               sample_count: 78
               value: 1.4181421181330314e-01
               Tn: 0
               complexity: 0
               alpha: 0.
               node_risk: 5.6687820388189714e+00
               tree_risk: 0.
               tree_error: 0.
               splits:
                  - { var:0, quality:6.8349480628967285e+00,
                      le:-1.7155738174915314e-01 }
            -
               depth: 2
               sample_count: 39
               value: -1.1802471486421731e-01
               Tn: 0
               complexity: 0
               alpha: 0.
               node_risk: 4.0251125164615731e-01
               tree_risk: 0.
               tree_error: 0.
               splits:
                  - { var:1, quality:9.4417858123779297e-01,
                      le:-1.2180416584014893e+00 }
            -
               depth: 3
               sample_count: 1
               value: 1.5212471485137939e+00
               Tn: 0
               complexity: 0
               alpha: 0.
               node_risk: 0.
               tree_risk: 0.
               tree_error: 0.
            -
               depth: 3
               sample_count: 38
               value: -8.6683624982833862e-01
               Tn: 0
               complexity: 0
               alpha: 0.
               node_risk: 1.5961601124088176e-03
               tree_risk: 0.
               tree_error: 0.
            -
               depth: 2
               sample_count: 39
               value: 4.0165313849082362e-01
               Tn: 0
               complexity: 0
               alpha: 0.
               node_risk: 1.8974525968218359e-06
               tree_risk: 0.
               tree_error: 0.
               splits:
                  - { var:3, quality:6.2916865348815918e+00,
                      le:-9.2900770902633667e-01 }
            -
               depth: 3
               sample_count: 33
               value: 1.2536491155624390e+00
               Tn: 0
               complexity: 0
               alpha: 0.
               node_risk: 1.2530222193163354e-08
               tree_risk: 0.
               tree_error: 0.
            -
               depth: 3
               sample_count: 6
               value: 1.2523792982101440e+00
               Tn: 0
               complexity: 0
               alpha: 0.
               node_risk: 1.7043921163306663e-08
               tree_risk: 0.
               tree_error: 0.
            -
               depth: 1
               sample_count: 74
               value: -1.3795539132646611e-01
               Tn: 0
               complexity: 0
               alpha: 0.
               node_risk: 1.7292257309282189e-02
               tree_risk: 0.
               tree_error: 0.
               splits:
                  - { var:0, quality:1.4119172096252441e+00,
                      le:3.8670465350151062e-02 }
            -
               depth: 2
               sample_count: 37
               value: -1.4490323131148880e-01
               Tn: 0
               complexity: 0
               alpha: 0.
               node_risk: 1.3538221966565733e-02
               tree_risk: 0.
               tree_error: 0.
               splits:
                  - { var:3, quality:7.8846567869186401e-01,
                      le:6.7546951770782471e-01 }
            -
               depth: 3
               sample_count: 7
               value: -9.1726881265640259e-01
               Tn: 0
               complexity: 0
               alpha: 0.
               node_risk: 1.0549885294833805e-03
               tree_risk: 0.
               tree_error: 0.
            -
               depth: 3
               sample_count: 30
               value: -8.6863791942596436e-01
               Tn: 0
               complexity: 0
               alpha: 0.
               node_risk: 9.0459735642622885e-04
               tree_risk: 0.
               tree_error: 0.
            -
               depth: 2
               sample_count: 37
               value: -1.3100755134144346e-01
               Tn: 0
               complexity: 0
               alpha: 0.
               node_risk: 1.8187178886275301e-04
               tree_risk: 0.
               tree_error: 0.
               splits:
                  - { var:3, quality:6.3514584302902222e-01,
                      le:8.5149610042572021e-01 }
            -
               depth: 3
               sample_count: 26
               value: -8.6194610595703125e-01
               Tn: 0
               complexity: 0
               alpha: 0.
               node_risk: 6.2372173144198406e-05
               tree_risk: 0.
               tree_error: 0.
            -
               depth: 3
               sample_count: 11
               value: -8.6577928066253662e-01
               Tn: 0
               complexity: 0
               alpha: 0.
               node_risk: 3.8360728373820763e-06
               tree_risk: 0.
               tree_error: 0.
      -
         best_tree_idx: -1
         nodes:
            -
               depth: 0
               sample_count: 152
               value: 2.9388111280767540e-03
               Tn: 0
               complexity: 0
               alpha: 0.
               node_risk: 8.5049823842846521e+00
               tree_risk: 0.
               tree_error: 0.
               splits:
                  - { var:3, quality:2.8880462646484375e+00,
                      le:-2.1775263547897339e-01 }
            -
               depth: 1
               sample_count: 77
               value: 1.3894755267477654e-01
               Tn: 0
               complexity: 0
               alpha: 0.
               node_risk: 5.5996881871684003e+00
               tree_risk: 0.
               tree_error: 0.
               splits:
                  - { var:1, quality:6.3539824485778809e+00,
                      le:-4.6542203426361084e-01 }
            -
               depth: 2
               sample_count: 40
               value: -1.0286201238632202e-01
               Tn: 0
               complexity: 0
               alpha: 0.
               node_risk: 7.1288690470011418e-01
               tree_risk: 0.
               tree_error: 0.
               splits:
                  - { var:1, quality:1.1326848268508911e+00,
                      le:-1.2180416584014893e+00 }
            -
               depth: 3
               sample_count: 2
               value: 1.4394853115081787e+00
               Tn: 0
               complexity: 0
               alpha: 0.
               node_risk: 1.2711355913257449e-03
               tree_risk: 0.
               tree_error: 0.
            -
               depth: 3
               sample_count: 38
               value: -8.6589109897613525e-01
               Tn: 0
               complexity: 0
               alpha: 0.
               node_risk: 2.1546993652874491e-03
               tree_risk: 0.
               tree_error: 0.
            -
               depth: 2
               sample_count: 37
               value: 4.0036329868677500e-01
               Tn: 0
               complexity: 0
               alpha: 0.
               node_risk: 1.9413538535421715e-02
               tree_risk: 0.
               tree_error: 0.
               splits:
                  - { var:0, quality:5.9501700401306152e+00,
                      le:-2.3151321709156036e-01 }
            -
               depth: 3
               sample_count: 1
               value: 1.6226489543914795e+00
               Tn: 0
               complexity: 0
               alpha: 0.
               node_risk: 0.
               tree_risk: 0.
               tree_error: 0.
            -
               depth: 3
               sample_count: 36
               value: 1.2428452968597412e+00
               Tn: 0
               complexity: 0
               alpha: 0.
               node_risk: 2.0349620966086945e-06
               tree_risk: 0.
               tree_error: 0.
            -
               depth: 1
               sample_count: 75
               value: -1.3669683019320170e-01
               Tn: 0
               complexity: 0
               alpha: 0.
               node_risk: 1.8560683737901540e-02
               tree_risk: 0.
               tree_error: 0.
               splits:
                  - { var:0, quality:1.4053605794906616e+00,
                      le:3.8670465350151062e-02 }
            -
               depth: 2
               sample_count: 38
               value: -1.4382045127843557e-01
               Tn: 0
               complexity: 0
               alpha: 0.
               node_risk: 1.4480007223524161e-02
               tree_risk: 0.
               tree_error: 0.
               splits:
                  - { var:3, quality:7.9826754331588745e-01,
                      le:7.6475036144256592e-01 }
            -
               depth: 3
               sample_count: 8
               value: -9.1413325071334839e-01
               Tn: 0
               complexity: 0
               alpha: 0.
               node_risk: 1.3464666497193800e-03
               tree_risk: 0.
               tree_error: 0.
            -
               depth: 3
               sample_count: 30
               value: -8.6681079864501953e-01
               Tn: 0
               complexity: 0
               alpha: 0.
               node_risk: 8.7021863017611167e-04
               tree_risk: 0.
               tree_error: 0.
            -
               depth: 2
               sample_count: 37
               value: -1.2938067880836693e-01
               Tn: 0
               complexity: 0
               alpha: 0.
               node_risk: 1.7186474429453646e-04
               tree_risk: 0.
               tree_error: 0.
               splits:
                  - { var:3, quality:6.1945235729217529e-01,
                      le:8.2776057720184326e-01 }
            -
               depth: 3
               sample_count: 24
               value: -8.6030447483062744e-01
               Tn: 0
               complexity: 0
               alpha: 0.
               node_risk: 6.3542006157102371e-05
               tree_risk: 0.
               tree_error: 0.
            -
               depth: 3
               sample_count: 13
               value: -8.6363434791564941e-01
               Tn: 0
               complexity: 0
               alpha: 0.
               node_risk: 1.2285833096148391e-05
               tree_risk: 0.
               tree_error: 0.
      -
         best_tree_idx: -1
         nodes:
            -
               depth: 0
               sample_count: 152
               value: -3.1506776025420741e-03
               Tn: 0
               complexity: 0
               alpha: 0.
               node_risk: 7.9863533280828118e+00
               tree_risk: 0.
               tree_error: 0.
               splits:
                  - { var:3, quality:2.3258931636810303e+00,
                      le:-2.1775263547897339e-01 }
            -
               depth: 1
               sample_count: 80
               value: 1.1416428890079260e-01
               Tn: 0
               complexity: 0
               alpha: 0.
               node_risk: 5.6479527058177581e+00
               tree_risk: 0.
               tree_error: 0.
               splits:
                  - { var:1, quality:5.9714937210083008e+00,
                      le:-4.6542203426361084e-01 }
            -
               depth: 2
               sample_count: 45
               value: -1.0473987956841786e-01
               Tn: 0
               complexity: 0
               alpha: 0.
               node_risk: 6.9940024574430382e-01
               tree_risk: 0.
               tree_error: 0.
               splits:
                  - { var:1, quality:1.1896686553955078e+00,
                      le:-1.2180416584014893e+00 }
            -
               depth: 3
               sample_count: 2
               value: 1.4238516092300415e+00
               Tn: 0
               complexity: 0
               alpha: 0.
               node_risk: 1.2676217959910474e-03
               tree_risk: 0.
               tree_error: 0.
            -
               depth: 3
               sample_count: 43
               value: -8.6399388313293457e-01
               Tn: 0
               complexity: 0
               alpha: 0.
               node_risk: 2.1338486251363253e-03
               tree_risk: 0.
               tree_error: 0.
            -
               depth: 2
               sample_count: 35
               value: 3.9561250550406318e-01
               Tn: 0
               complexity: 0
               alpha: 0.
               node_risk: 1.9737434258959574e-02
               tree_risk: 0.
               tree_error: 0.
               splits:
                  - { var:0, quality:5.4975595474243164e+00,
                      le:-2.3036833107471466e-01 }
            -
               depth: 3
               sample_count: 1
               value: 1.6097019910812378e+00
               Tn: 0
               complexity: 0
               alpha: 0.
               node_risk: 0.
               tree_risk: 0.
               tree_error: 0.
            -
               depth: 3
               sample_count: 34
               value: 1.2326204776763916e+00
               Tn: 0
               complexity: 0
               alpha: 0.
               node_risk: 1.6194070573405384e-06
               tree_risk: 0.
               tree_error: 0.
            -
               depth: 1
               sample_count: 72
               value: -1.3350064038402504e-01
               Tn: 0
               complexity: 0
               alpha: 0.
               node_risk: 1.4016391617130974e-02
               tree_risk: 0.
               tree_error: 0.
               splits:
                  - { var:3, quality:1.2861387729644775e+00,
                      le:2.8126892447471619e-01 }
            -
               depth: 2
               sample_count: 7
               value: -8.9096236228942871e-01
               Tn: 0
               complexity: 0
               alpha: 0.
               node_risk: 5.6648978653866811e-03
               tree_risk: 0.
               tree_error: 0.
            -
               depth: 2
               sample_count: 65
               value: -1.3140916228294372e-01
               Tn: 0
               complexity: 0
               alpha: 0.
               node_risk: 5.4269746904047622e-03
               tree_risk: 0.
               tree_error: 0.
               splits:
                  - { var:0, quality:1.1233295202255249e+00,
                      le:1.2941838800907135e-01 }
            -
               depth: 3
               sample_count: 35
               value: -8.6781692504882812e-01
               Tn: 0
               complexity: 0
               alpha: 0.
               node_risk: 4.4163477311550681e-03
               tree_risk: 0.
               tree_error: 0.
            -
               depth: 3
               sample_count: 30
               value: -8.5955440998077393e-01
               Tn: 0
               complexity: 0
               alpha: 0.
               node_risk: 1.2500537381765486e-04
               tree_risk: 0.
               tree_error: 0.
      -
         best_tree_idx: -1
         nodes:
            -
               depth: 0
               sample_count: 152
               value: -9.1345631272384993e-03
               Tn: 0
               complexity: 0
               alpha: 0.
               node_risk: 7.4081419427357114e+00
               tree_risk: 0.
               tree_error: 0.
               splits:
                  - { var:0, quality:2.6099159717559814e+00,
                      le:-7.5619511306285858e-02 }
            -
               depth: 1
               sample_count: 79
               value: -1.3479007431600667e-01
               Tn: 0
               complexity: 0
               alpha: 0.
               node_risk: 1.9178938389756928e-02
               tree_risk: 0.
               tree_error: 0.
               splits:
                  - { var:0, quality:1.4442210197448730e+00,
                      le:-3.5515850782394409e-01 }
            -
               depth: 2
               sample_count: 72
               value: -1.3147680078529650e-01
               Tn: 0
               complexity: 0
               alpha: 0.
               node_risk: 7.0058923176694599e-03
               tree_risk: 0.
               tree_error: 0.
               splits:
                  - { var:0, quality:1.2463852167129517e+00,
                      le:-9.3404805660247803e-01 }
            -
               depth: 3
               sample_count: 2
               value: -8.9424324035644531e-01
               Tn: 0
               complexity: 0
               alpha: 0.
               node_risk: 1.2512577395584756e-04
               tree_risk: 0.
               tree_error: 0.
            -
               depth: 3
               sample_count: 70
               value: -8.6325299739837646e-01
               Tn: 0
               complexity: 0
               alpha: 0.
               node_risk: 5.0982436537008180e-03
               tree_risk: 0.
               tree_error: 0.
            -
               depth: 2
               sample_count: 7
               value: -9.0538293123245239e-01
               Tn: 0
               complexity: 0
               alpha: 0.
               node_risk: 3.2528144847780438e-03
               tree_risk: 0.
               tree_error: 0.
            -
               depth: 1
               sample_count: 73
               value: 1.2684879829622295e-01
               Tn: 0
               complexity: 0
               alpha: 0.
               node_risk: 4.7917300678354868e+00
               tree_risk: 0.
               tree_error: 0.
               splits:
                  - { var:1, quality:5.9661793708801270e+00,
                      le:4.1874265670776367e-01 }
            -
               depth: 2
               sample_count: 36
               value: 3.8658161958058673e-01
               Tn: 0
               complexity: 0
               alpha: 0.
               node_risk: 1.2365854402673904e-06
               tree_risk: 0.
               tree_error: 0.
               splits:
                  - { var:3, quality:5.3800339698791504e+00,
                      le:-8.9606118202209473e-01 }
            -
               depth: 3
               sample_count: 32
               value: 1.2227865457534790e+00
               Tn: 0
               complexity: 0
               alpha: 0.
               node_risk: 1.2191449627607653e-08
               tree_risk: 0.
               tree_error: 0.
            -
               depth: 3
               sample_count: 4
               value: 1.2216176986694336e+00
               Tn: 0
               complexity: 0
               alpha: 0.
               node_risk: 4.2632564145606011e-14
               tree_risk: 0.
               tree_error: 0.
            -
               depth: 2
               sample_count: 37
               value: -1.2586421700748238e-01
               Tn: 0
               complexity: 0
               alpha: 0.
               node_risk: 1.6472712202009188e-04
               tree_risk: 0.
               tree_error: 0.
               splits:
                  - { var:3, quality:5.8623963594436646e-01,
                      le:9.3924129009246826e-01 }
            -
               depth: 3
               sample_count: 29
               value: -8.5719299316406250e-01
               Tn: 0
               complexity: 0
               alpha: 0.
               node_risk: 7.1706240081459427e-05
               tree_risk: 0.
               tree_error: 0.
            -
               depth: 3
               sample_count: 8
               value: -8.6096364259719849e-01
               Tn: 0
               complexity: 0
               alpha: 0.
               node_risk: 6.3995517218806697e-10
               tree_risk: 0.
               tree_error: 0.
      -
         best_tree_idx: -1
         nodes:
            -
               depth: 0
               sample_count: 152
               value: -1.3824673516577795e-02
               Tn: 0
               complexity: 0
               alpha: 0.
               node_risk: 7.1092932542355820e+00
               tree_risk: 0.
               tree_error: 0.
               splits:
                  - { var:3, quality:1.9904894828796387e+00,
                      le:-2.1775263547897339e-01 }
            -
               depth: 1
               sample_count: 78
               value: 9.6820932168226972e-02
               Tn: 0
               complexity: 0
               alpha: 0.
               node_risk: 5.1326012616474728e+00
               tree_risk: 0.
               tree_error: 0.
               splits:
                  - { var:1, quality:5.5196781158447266e+00,
                      le:-4.6542203426361084e-01 }
            -
               depth: 2
               sample_count: 45
               value: -1.1535807185702854e-01
               Tn: 0
               complexity: 0
               alpha: 0.
               node_risk: 3.2262181956048419e-01
               tree_risk: 0.
               tree_error: 0.
               splits:
                  - { var:0, quality:9.1925662755966187e-01,
                      le:-1.1072268486022949e+00 }
            -
               depth: 3
               sample_count: 1
               value: 1.3498274087905884e+00
               Tn: 0
               complexity: 0
               alpha: 0.
               node_risk: 0.
               tree_risk: 0.
               tree_error: 0.
            -
               depth: 3
               sample_count: 44
               value: -8.6055558919906616e-01
               Tn: 0
               complexity: 0
               alpha: 0.
               node_risk: 2.2020268710317703e-03
               tree_risk: 0.
               tree_error: 0.
            -
               depth: 2
               sample_count: 33
               value: 3.8615593765721179e-01
               Tn: 0
               complexity: 0
               alpha: 0.
               node_risk: 2.1496005132007667e-02
               tree_risk: 0.
               tree_error: 0.
               splits:
                  - { var:0, quality:4.9423360824584961e+00,
                      le:-2.3151321709156036e-01 }
            -
               depth: 3
               sample_count: 1
               value: 1.5975400209426880e+00
               Tn: 0
               complexity: 0
               alpha: 0.
               node_risk: 0.
               tree_risk: 0.
               tree_error: 0.
            -
               depth: 3
               sample_count: 32
               value: 1.2128943204879761e+00
               Tn: 0
               complexity: 0
               alpha: 0.
               node_risk: 1.3039534749736958e-06
               tree_risk: 0.
               tree_error: 0.
            -
               depth: 1
               sample_count: 74
               value: -1.3045112275191256e-01
               Tn: 0
               complexity: 0
               alpha: 0.
               node_risk: 1.5252967182318500e-02
               tree_risk: 0.
               tree_error: 0.
               splits:
                  - { var:3, quality:1.2632968425750732e+00,
                      le:2.8126892447471619e-01 }
            -
               depth: 2
               sample_count: 7
               value: -8.9080870151519775e-01
               Tn: 0
               complexity: 0
               alpha: 0.
               node_risk: 5.2176091215109244e-03
               tree_risk: 0.
               tree_error: 0.
            -
               depth: 2
               sample_count: 67
               value: -1.2807404694717323e-01
               Tn: 0
               complexity: 0
               alpha: 0.
               node_risk: 6.0331971531841777e-03
               tree_risk: 0.
               tree_error: 0.
               splits:
                  - { var:0, quality:1.1000796556472778e+00,
                      le:1.2941838800907135e-01 }
            -
               depth: 3
               sample_count: 32
               value: -8.6546409130096436e-01
               Tn: 0
               complexity: 0
               alpha: 0.
               node_risk: 4.8152636243321556e-03
               tree_risk: 0.
               tree_error: 0.
            -
               depth: 3
               sample_count: 35
               value: -8.5642278194427490e-01
               Tn: 0
               complexity: 0
               alpha: 0.
               node_risk: 1.3670350216610228e-04
               tree_risk: 0.
               tree_error: 0.
      -
         best_tree_idx: -1
         nodes:
            -
               depth: 0
               sample_count: 152
               value: -3.4674883967167453e-03
               Tn: 0
               complexity: 0
               alpha: 0.
               node_risk: 7.3235869445030906e+00
               tree_risk: 0.
               tree_error: 0.
               splits:
                  - { var:0, quality:2.4809663295745850e+00,
                      le:-7.5619511306285858e-02 }
            -
               depth: 1
               sample_count: 86
               value: -1.1534720763217571e-01
               Tn: 0
               complexity: 0
               alpha: 0.
               node_risk: 7.4929774221002532e-01
               tree_risk: 0.
               tree_error: 0.
               splits:
                  - { var:0, quality:1.4577764272689819e+00,
                      le:-1.0989487171173096e+00 }
            -
               depth: 2
               sample_count: 1
               value: 1.3425018787384033e+00
               Tn: 0
               complexity: 0
               alpha: 0.
               node_risk: 0.
               tree_risk: 0.
               tree_error: 0.
            -
               depth: 2
               sample_count: 85
               value: -1.2189648747444153e-01
               Tn: 0
               complexity: 0
               alpha: 0.
               node_risk: 4.3574942644364412e-01
               tree_risk: 0.
               tree_error: 0.
               splits:
                  - { var:1, quality:1.2789815664291382e+00,
                      le:-3.7163081765174866e-01 }
            -
               depth: 3
               sample_count: 74
               value: -8.5983210802078247e-01
               Tn: 0
               complexity: 0
               alpha: 0.
               node_risk: 5.2003991774838276e-03
               tree_risk: 0.
               tree_error: 0.
            -
               depth: 3
               sample_count: 11
               value: -4.7423475980758667e-01
               Tn: 0
               complexity: 0
               alpha: 0.
               node_risk: 4.1456146893835621e-01
               tree_risk: 0.
               tree_error: 0.
            -
               depth: 1
               sample_count: 66
               value: 1.4231517606160857e-01
               Tn: 0
               complexity: 0
               alpha: 0.
               node_risk: 4.0951504198058961e+00
               tree_risk: 0.
               tree_error: 0.
               splits:
                  - { var:1, quality:5.4317622184753418e+00,
                      le:4.9870157241821289e-01 }
            -
               depth: 2
               sample_count: 35
               value: 3.7673971652984617e-01
               Tn: 0
               complexity: 0
               alpha: 0.
               node_risk: 1.9002647508870041e-06
               tree_risk: 0.
               tree_error: 0.
               splits:
                  - { var:3, quality:4.9676504135131836e+00,
                      le:-9.2900770902633667e-01 }
            -
               depth: 3
               sample_count: 30
               value: 1.2035312652587891e+00
               Tn: 0
               complexity: 0
               alpha: 0.
               node_risk: 1.7029483601049833e-08
               tree_risk: 0.
               tree_error: 0.
            -
               depth: 3
               sample_count: 5
               value: 1.2022603750228882e+00
               Tn: 0
               complexity: 0
               alpha: 0.
               node_risk: 2.3338873167411123e-08
               tree_risk: 0.
               tree_error: 0.
            -
               depth: 2
               sample_count: 31
               value: -1.2235769220898228e-01
               Tn: 0
               complexity: 0
               alpha: 0.
               node_risk: 1.2469530406566953e-04
               tree_risk: 0.
               tree_error: 0.
               splits:
                  - { var:3, quality:4.6420666575431824e-01,
                      le:8.4673655033111572e-01 }
            -
               depth: 3
               sample_count: 22
               value: -8.5349321365356445e-01
               Tn: 0
               complexity: 0
               alpha: 0.
               node_risk: 2.4542045469699847e-05
               tree_risk: 0.
               tree_error: 0.
            -
               depth: 3
               sample_count: 9
               value: -8.5721498727798462e-01
               Tn: 0
               complexity: 0
               alpha: 0.
               node_risk: 7.0375683249856991e-06
               tree_risk: 0.
               tree_error: 0.
      -
         best_tree_idx: -1
         nodes:
            -
               depth: 0
               sample_count: 152
               value: -8.0482803873325650e-03
               Tn: 0
               complexity: 0
               alpha: 0.
               node_risk: 6.9743268500333224e+00
               tree_risk: 0.
               tree_error: 0.
               splits:
                  - { var:0, quality:2.6462967395782471e+00,
                      le:-9.2776104807853699e-02 }
            -
               depth: 1
               sample_count: 87
               value: -1.2188571571618662e-01
               Tn: 0
               complexity: 0
               alpha: 0.
               node_risk: 4.0961829466880495e-01
               tree_risk: 0.
               tree_error: 0.
               splits:
                  - { var:1, quality:1.6817222833633423e+00,
                      le:-1.2180416584014893e+00 }
            -
               depth: 2
               sample_count: 1
               value: 1.4952411651611328e+00
               Tn: 0
               complexity: 0
               alpha: 0.
               node_risk: 0.
               tree_risk: 0.
               tree_error: 0.
            -
               depth: 2
               sample_count: 86
               value: -1.2909844119188396e-01
               Tn: 0
               complexity: 0
               alpha: 0.
               node_risk: 2.0379150118681855e-02
               tree_risk: 0.
               tree_error: 0.
               splits:
                  - { var:0, quality:1.4435365200042725e+00,
                      le:-3.2409077882766724e-01 }
            -
               depth: 3
               sample_count: 81
               value: -8.5924470424652100e-01
               Tn: 0
               complexity: 0
               alpha: 0.
               node_risk: 7.6895480224035140e-03
               tree_risk: 0.
               tree_error: 0.
            -
               depth: 3
               sample_count: 5
               value: -9.1001278162002563e-01
               Tn: 0
               complexity: 0
               alpha: 0.
               node_risk: 2.4641818832027707e-03
               tree_risk: 0.
               tree_error: 0.
            -
               depth: 1
               sample_count: 65
               value: 1.4431874843744130e-01
               Tn: 0
               complexity: 0
               alpha: 0.
               node_risk: 3.9282576432708636e+00
               tree_risk: 0.
               tree_error: 0.
               splits:
                  - { var:1, quality:5.2819242477416992e+00,
                      le:4.1874265670776367e-01 }
            -
               depth: 2
               sample_count: 35
               value: 3.7191326618194581e-01
               Tn: 0
               complexity: 0
               alpha: 0.
               node_risk: 1.7142591541841057e-06
               tree_risk: 0.
               tree_error: 0.
               splits:
                  - { var:3, quality:4.8411831855773926e+00,
                      le:-9.2900770902633667e-01 }
            -
               depth: 3
               sample_count: 30
               value: 1.1942734718322754e+00
               Tn: 0
               complexity: 0
               alpha: 0.
               node_risk: 1.6853489270829414e-08
               tree_risk: 0.
               tree_error: 0.
            -
               depth: 3
               sample_count: 5
               value: 1.1930786371231079e+00
               Tn: 0
               complexity: 0
               alpha: 0.
               node_risk: 2.2198207716428442e-09
               tree_risk: 0.
               tree_error: 0.
            -
               depth: 2
               sample_count: 30
               value: -1.2120818893114725e-01
               Tn: 0
               complexity: 0
               alpha: 0.
               node_risk: 1.4503720406144893e-04
               tree_risk: 0.
               tree_error: 0.
               splits:
                  - { var:3, quality:4.4082388281822205e-01,
                      le:9.3924129009246826e-01 }
            -
               depth: 3
               sample_count: 22
               value: -8.5250598192214966e-01
               Tn: 0
               complexity: 0
               alpha: 0.
               node_risk: 6.3890270832644980e-05
               tree_risk: 0.
               tree_error: 0.
            -
               depth: 3
               sample_count: 8
               value: -8.5610091686248779e-01
               Tn: 0
               complexity: 0
               alpha: 0.
               node_risk: 3.0904604653159140e-08
               tree_risk: 0.
               tree_error: 0.
      -
         best_tree_idx: -1
         nodes:
            -
               depth: 0
               sample_count: 152
               value: -5.9747085661480299e-03
               Tn: 0
               complexity: 0
               alpha: 0.
               node_risk: 6.9716370335040638e+00
               tree_risk: 0.
               tree_error: 0.
               splits:
                  - { var:3, quality:2.0155408382415771e+00,
                      le:-2.1775263547897339e-01 }
            -
               depth: 1
               sample_count: 79
               value: 1.0456963364459292e-01
               Tn: 0
               complexity: 0
               alpha: 0.
               node_risk: 4.9469371854693209e+00
               tree_risk: 0.
               tree_error: 0.
               splits:
                  - { var:1, quality:5.1242647171020508e+00,
                      le:-4.6542203426361084e-01 }
            -
               depth: 2
               sample_count: 45
               value: -9.7288195126586485e-02
               Tn: 0
               complexity: 0
               alpha: 0.
               node_risk: 6.6285214363377731e-01
               tree_risk: 0.
               tree_error: 0.
               splits:
                  - { var:1, quality:1.0846573114395142e+00,
                      le:-1.2180416584014893e+00 }
            -
               depth: 3
               sample_count: 2
               value: 1.4031960964202881e+00
               Tn: 0
               complexity: 0
               alpha: 0.
               node_risk: 1.6582839024366081e-03
               tree_risk: 0.
               tree_error: 0.
            -
               depth: 3
               sample_count: 43
               value: -8.5601329803466797e-01
               Tn: 0
               complexity: 0
               alpha: 0.
               node_risk: 2.4612259175426088e-03
               tree_risk: 0.
               tree_error: 0.
            -
               depth: 2
               sample_count: 34
               value: 3.7173440701821270e-01
               Tn: 0
               complexity: 0
               alpha: 0.
               node_risk: 2.3670256725440098e-02
               tree_risk: 0.
               tree_error: 0.
               splits:
                  - { var:0, quality:4.7220082283020020e+00,
                      le:-2.0741215348243713e-01 }
            -
               depth: 3
               sample_count: 1
               value: 1.5733190774917603e+00
               Tn: 0
               complexity: 0
               alpha: 0.
               node_risk: 0.
               tree_risk: 0.
               tree_error: 0.
            -
               depth: 3
               sample_count: 33
               value: 1.1850992441177368e+00
               Tn: 0
               complexity: 0
               alpha: 0.
               node_risk: 1.7630985205130401e-06
               tree_risk: 0.
               tree_error: 0.
            -
               depth: 1
               sample_count: 73
               value: -1.2560488712297727e-01
               Tn: 0
               complexity: 0
               alpha: 0.
               node_risk: 1.4585059672772349e-02
               tree_risk: 0.
               tree_error: 0.
               splits:
                  - { var:0, quality:1.1545574665069580e+00,
                      le:3.8670465350151062e-02 }
            -
               depth: 2
               sample_count: 37
               value: -1.3178608969256683e-01
               Tn: 0
               complexity: 0
               alpha: 0.
               node_risk: 1.1580712926091752e-02
               tree_risk: 0.
               tree_error: 0.
               splits:
                  - { var:3, quality:6.5199637413024902e-01,
                      le:8.7370610237121582e-01 }
            -
               depth: 3
               sample_count: 8
               value: -8.9682400226593018e-01
               Tn: 0
               complexity: 0
               alpha: 0.
               node_risk: 2.0604041559607600e-03
               tree_risk: 0.
               tree_error: 0.
            -
               depth: 3
               sample_count: 29
               value: -8.5562807321548462e-01
               Tn: 0
               complexity: 0
               alpha: 0.
               node_risk: 1.2417016161186956e-04
               tree_risk: 0.
               tree_error: 0.
            -
               depth: 2
               sample_count: 36
               value: -1.1925198448201020e-01
               Tn: 0
               complexity: 0
               alpha: 0.
               node_risk: 1.3774054328752339e-04
               tree_risk: 0.
               tree_error: 0.
               splits:
                  - { var:3, quality:5.1204258203506470e-01,
                      le:8.2776057720184326e-01 }
            -
               depth: 3
               sample_count: 25
               value: -8.5057663917541504e-01
               Tn: 0
               complexity: 0
               alpha: 0.
               node_risk: 4.1732259281390682e-05
               tree_risk: 0.
               tree_error: 0.
            -
               depth: 3
               sample_count: 11
               value: -8.5380584001541138e-01
               Tn: 0
               complexity: 0
               alpha: 0.
               node_risk: 1.0741908003208955e-05
               tree_risk: 0.
               tree_error: 0.
      -
         best_tree_idx: -1
         nodes:
            -
               depth: 0
               sample_count: 152
               value: 1.6616705412927427e-03
               Tn: 0
               complexity: 0
               alpha: 0.
               node_risk: 7.0542794766843970e+00
               tree_risk: 0.
               tree_error: 0.
               splits:
                  - { var:3, quality:2.4645943641662598e+00,
                      le:-3.1305208802223206e-01 }
            -
               depth: 1
               sample_count: 76
               value: 1.2898674989609341e-01
               Tn: 0
               complexity: 0
               alpha: 0.
               node_risk: 4.5702628021891751e+00
               tree_risk: 0.
               tree_error: 0.
               splits:
                  - { var:0, quality:5.1920194625854492e+00,
                      le:-1.7871460318565369e-01 }
            -
               depth: 2
               sample_count: 39
               value: -9.2436569050336495e-02
               Tn: 0
               complexity: 0
               alpha: 0.
               node_risk: 6.4269700659477191e-01
               tree_risk: 0.
               tree_error: 0.
               splits:
                  - { var:1, quality:9.7192233800888062e-01,
                      le:-1.2180416584014893e+00 }
            -
               depth: 3
               sample_count: 2
               value: 1.3883534669876099e+00
               Tn: 0
               complexity: 0
               alpha: 0.
               node_risk: 1.6527791382987544e-03
               tree_risk: 0.
               tree_error: 0.
            -
               depth: 3
               sample_count: 37
               value: -8.5490626096725464e-01
               Tn: 0
               complexity: 0
               alpha: 0.
               node_risk: 2.3581391470838264e-03
               tree_risk: 0.
               tree_error: 0.
            -
               depth: 2
               sample_count: 37
               value: 3.6237889689368169e-01
               Tn: 0
               complexity: 0
               alpha: 0.
               node_risk: 2.5464722348544910e-06
               tree_risk: 0.
               tree_error: 0.
               splits:
                  - { var:3, quality:4.8587856292724609e+00,
                      le:-9.2900770902633667e-01 }
            -
               depth: 3
               sample_count: 31
               value: 1.1764577627182007e+00
               Tn: 0
               complexity: 0
               alpha: 0.
               node_risk: 2.5226446709325501e-08
               tree_risk: 0.
               tree_error: 0.
            -
               depth: 3
               sample_count: 6
               value: 1.1751600503921509e+00
               Tn: 0
               complexity: 0
               alpha: 0.
               node_risk: 2.9674978918592387e-08
               tree_risk: 0.
               tree_error: 0.
            -
               depth: 1
               sample_count: 76
               value: -1.2566340881350793e-01
               Tn: 0
               complexity: 0
               alpha: 0.
               node_risk: 1.9841947923872505e-02
               tree_risk: 0.
               tree_error: 0.
               splits:
                  - { var:3, quality:1.2051649093627930e+00,
                      le:2.8212577104568481e-01 }
            -
               depth: 2
               sample_count: 6
               value: -8.9059764146804810e-01
               Tn: 0
               complexity: 0
               alpha: 0.
               node_risk: 4.0756698107035916e-03
               tree_risk: 0.
               tree_error: 0.
            -
               depth: 2
               sample_count: 70
               value: -1.2328239062002727e-01
               Tn: 0
               complexity: 0
               alpha: 0.
               node_risk: 1.0739545207754331e-02
               tree_risk: 0.
               tree_error: 0.
               splits:
                  - { var:0, quality:1.0658603906631470e+00,
                      le:1.5851593017578125e-01 }
            -
               depth: 3
               sample_count: 37
               value: -8.6217391490936279e-01
               Tn: 0
               complexity: 0
               alpha: 0.
               node_risk: 8.6554501490502256e-03
               tree_risk: 0.
               tree_error: 0.
            -
               depth: 3
               sample_count: 33
               value: -8.5005849599838257e-01
               Tn: 0
               complexity: 0
               alpha: 0.
               node_risk: 1.2201136933481793e-04
               tree_risk: 0.
               tree_error: 0.
      -
         best_tree_idx: -1
         nodes:
            -
               depth: 0
               sample_count: 152
               value: 3.9437839663342426e-04
               Tn: 0
               complexity: 0
               alpha: 0.
               node_risk: 6.8692523238902625e+00
               tree_risk: 0.
               tree_error: 0.
               splits:
                  - { var:0, quality:1.9921160936355591e+00,
                      le:-7.5619511306285858e-02 }
            -
               depth: 1
               sample_count: 84
               value: -1.0260812255243461e-01
               Tn: 0
               complexity: 0
               alpha: 0.
               node_risk: 1.0593565424418845e+00
               tree_risk: 0.
               tree_error: 0.
               splits:
                  - { var:1, quality:1.5154409408569336e+00,
                      le:-1.2180416584014893e+00 }
            -
               depth: 2
               sample_count: 2
               value: 1.3741328716278076e+00
               Tn: 0
               complexity: 0
               alpha: 0.
               node_risk: 1.6459939836881432e-03
               tree_risk: 0.
               tree_error: 0.
            -
               depth: 2
               sample_count: 82
               value: -1.1614446696348307e-01
               Tn: 0
               complexity: 0
               alpha: 0.
               node_risk: 4.2665740512817929e-01
               tree_risk: 0.
               tree_error: 0.
               splits:
                  - { var:2, quality:1.1184184551239014e+00,
                      le:-3.7672281265258789e-01 }
            -
               depth: 3
               sample_count: 71
               value: -7.7419602870941162e-01
               Tn: 0
               complexity: 0
               alpha: 0.
               node_risk: 4.0751638908353405e-01
               tree_risk: 0.
               tree_error: 0.
            -
               depth: 3
               sample_count: 11
               value: -8.8388031721115112e-01
               Tn: 0
               complexity: 0
               alpha: 0.
               node_risk: 6.8646550139681572e-03
               tree_risk: 0.
               tree_error: 0.
            -
               depth: 1
               sample_count: 68
               value: 1.2763276192195275e-01
               Tn: 0
               complexity: 0
               alpha: 0.
               node_risk: 3.8178032800350339e+00
               tree_risk: 0.
               tree_error: 0.
               splits:
                  - { var:1, quality:4.9253973960876465e+00,
                      le:3.8550674915313721e-01 }
            -
               depth: 2
               sample_count: 35
               value: 3.5770680563790458e-01
               Tn: 0
               complexity: 0
               alpha: 0.
               node_risk: 2.2487495661138723e-06
               tree_risk: 0.
               tree_error: 0.
               splits:
                  - { var:3, quality:4.4783978462219238e+00,
                      le:-9.2900770902633667e-01 }
            -
               depth: 3
               sample_count: 30
               value: 1.1678769588470459e+00
               Tn: 0
               complexity: 0
               alpha: 0.
               node_risk: 2.4943302090463249e-08
               tree_risk: 0.
               tree_error: 0.
            -
               depth: 3
               sample_count: 5
               value: 1.1665769815444946e+00
               Tn: 0
               complexity: 0
               alpha: 0.
               node_risk: 2.9215367236545831e-08
               tree_risk: 0.
               tree_error: 0.
            -
               depth: 2
               sample_count: 33
               value: -1.1638516323132948e-01
               Tn: 0
               complexity: 0
               alpha: 0.
               node_risk: 1.3205830040358135e-04
               tree_risk: 0.
               tree_error: 0.
               splits:
                  - { var:2, quality:4.4708698987960815e-01,
                      le:2.8202819824218750e+00 }
            -
               depth: 3
               sample_count: 22
               value: -8.4770977497100830e-01
               Tn: 0
               complexity: 0
               alpha: 0.
               node_risk: 3.7672884717177002e-05
               tree_risk: 0.
               tree_error: 0.
            -
               depth: 3
               sample_count: 11
               value: -8.5098236799240112e-01
               Tn: 0
               complexity: 0
               alpha: 0.
               node_risk: 9.0995713358799080e-06
               tree_risk: 0.
               tree_error: 0.
      -
         best_tree_idx: -1
         nodes:
            -
               depth: 0
               sample_count: 152
               value: -3.1364381705459798e-03
               Tn: 0
               complexity: 0
               alpha: 0.
               node_risk: 6.6135290632074000e+00
               tree_risk: 0.
               tree_error: 0.
               splits:
                  - { var:3, quality:2.2560281753540039e+00,
                      le:-2.1775263547897339e-01 }
            -
               depth: 1
               sample_count: 74
               value: 1.2190038841721174e-01
               Tn: 0
               complexity: 0
               alpha: 0.
               node_risk: 4.3393263005372553e+00
               tree_risk: 0.
               tree_error: 0.
               splits:
                  - { var:1, quality:4.7964658737182617e+00,
                      le:-4.6542203426361084e-01 }
            -
               depth: 2
               sample_count: 39
               value: -8.9838992517728075e-02
               Tn: 0
               complexity: 0
               alpha: 0.
               node_risk: 6.1541131418609796e-01
               tree_risk: 0.
               tree_error: 0.
               splits:
                  - { var:1, quality:9.2613625526428223e-01,
                      le:-1.2180416584014893e+00 }
            -
               depth: 3
               sample_count: 2
               value: 1.3648681640625000e+00
               Tn: 0
               complexity: 0
               alpha: 0.
               node_risk: 1.6266230486579047e-03
               tree_risk: 0.
               tree_error: 0.
            -
               depth: 3
               sample_count: 37
               value: -8.5178679227828979e-01
               Tn: 0
               complexity: 0
               alpha: 0.
               node_risk: 2.4191479024816553e-03
               tree_risk: 0.
               tree_error: 0.
            -
               depth: 2
               sample_count: 35
               value: 3.5783855574471612e-01
               Tn: 0
               complexity: 0
               alpha: 0.
               node_risk: 2.7067276176255817e-02
               tree_risk: 0.
               tree_error: 0.
               splits:
                  - { var:0, quality:4.5087599754333496e+00,
                      le:-2.3151321709156036e-01 }
            -
               depth: 3
               sample_count: 1
               value: 1.5624525547027588e+00
               Tn: 0
               complexity: 0
               alpha: 0.
               node_risk: 0.
               tree_risk: 0.
               tree_error: 0.
            -
               depth: 3
               sample_count: 34
               value: 1.1593211889266968e+00
               Tn: 0
               complexity: 0
               alpha: 0.
               node_risk: 2.3822647463589419e-06
               tree_risk: 0.
               tree_error: 0.
            -
               depth: 1
               sample_count: 78
               value: -1.2176111980508535e-01
               Tn: 0
               complexity: 0
               alpha: 0.
               node_risk: 1.9669793192127027e-02
               tree_risk: 0.
               tree_error: 0.
               splits:
                  - { var:3, quality:1.1607940196990967e+00,
                      le:2.8212577104568481e-01 }
            -
               depth: 2
               sample_count: 7
               value: -8.8347816467285156e-01
               Tn: 0
               complexity: 0
               alpha: 0.
               node_risk: 5.5512345664724128e-03
               tree_risk: 0.
               tree_error: 0.
            -
               depth: 2
               sample_count: 71
               value: -1.1940713027413462e-01
               Tn: 0
               complexity: 0
               alpha: 0.
               node_risk: 9.7346250470704554e-03
               tree_risk: 0.
               tree_error: 0.
               splits:
                  - { var:0, quality:1.0138443708419800e+00,
                      le:1.2941838800907135e-01 }
            -
               depth: 3
               sample_count: 35
               value: -8.5808628797531128e-01
               Tn: 0
               complexity: 0
               alpha: 0.
               node_risk: 8.0765767113427644e-03
               tree_risk: 0.
               tree_error: 0.
            -
               depth: 3
               sample_count: 36
               value: -8.4733796119689941e-01
               Tn: 0
               complexity: 0
               alpha: 0.
               node_risk: 1.3616398318994083e-04
               tree_risk: 0.
               tree_error: 0.
      -
         best_tree_idx: -1
         nodes:
            -
               depth: 0
               sample_count: 152
               value: -4.8031104042341833e-04
               Tn: 0
               complexity: 0
               alpha: 0.
               node_risk: 6.5052462028343649e+00
               tree_risk: 0.
               tree_error: 0.
               splits:
                  - { var:3, quality:2.1233081817626953e+00,
                      le:-2.1775263547897339e-01 }
            -
               depth: 1
               sample_count: 77
               value: 1.1616476218808781e-01
               Tn: 0
               complexity: 0
               alpha: 0.
               node_risk: 4.3645929759514592e+00
               tree_risk: 0.
               tree_error: 0.
               splits:
                  - { var:1, quality:5.0353207588195801e+00,
                      le:-4.6542203426361084e-01 }
            -
               depth: 2
               sample_count: 40
               value: -1.0294037815183402e-01
               Tn: 0
               complexity: 0
               alpha: 0.
               node_risk: 3.4090967341134121e-01
               tree_risk: 0.
               tree_error: 0.
               splits:
                  - { var:1, quality:7.6250559091567993e-01,
                      le:-1.2180416584014893e+00 }
            -
               depth: 3
               sample_count: 1
               value: 1.4195526838302612e+00
               Tn: 0
               complexity: 0
               alpha: 0.
               node_risk: 0.
               tree_risk: 0.
               tree_error: 0.
            -
               depth: 3
               sample_count: 39
               value: -8.5050320625305176e-01
               Tn: 0
               complexity: 0
               alpha: 0.
               node_risk: 2.2729338561835455e-03
               tree_risk: 0.
               tree_error: 0.
            -
               depth: 2
               sample_count: 37
               value: 3.5303518417719248e-01
               Tn: 0
               complexity: 0
               alpha: 0.
               node_risk: 2.7419719513074092e-02
               tree_risk: 0.
               tree_error: 0.
               splits:
                  - { var:0, quality:4.6388692855834961e+00,
                      le:-2.3151321709156036e-01 }
            -
               depth: 3
               sample_count: 1
               value: 1.5507526397705078e+00
               Tn: 0
               complexity: 0
               alpha: 0.
               node_risk: 0.
               tree_risk: 0.
               tree_error: 0.
            -
               depth: 3
               sample_count: 36
               value: 1.1511868238449097e+00
               Tn: 0
               complexity: 0
               alpha: 0.
               node_risk: 2.4563227478680005e-06
               tree_risk: 0.
               tree_error: 0.
            -
               depth: 1
               sample_count: 75
               value: -1.2023591955502828e-01
               Tn: 0
               complexity: 0
               alpha: 0.
               node_risk: 1.7380164726818137e-02
               tree_risk: 0.
               tree_error: 0.
               splits:
                  - { var:0, quality:1.0875325202941895e+00,
                      le:3.8670465350151062e-02 }
            -
               depth: 2
               sample_count: 38
               value: -1.2676317538870008e-01
               Tn: 0
               complexity: 0
               alpha: 0.
               node_risk: 1.3943988601949786e-02
               tree_risk: 0.
               tree_error: 0.
               splits:
                  - { var:3, quality:6.2216782569885254e-01,
                      le:7.6475036144256592e-01 }
            -
               depth: 3
               sample_count: 7
               value: -8.9790397882461548e-01
               Tn: 0
               complexity: 0
               alpha: 0.
               node_risk: 1.4535397368100056e-03
               tree_risk: 0.
               tree_error: 0.
            -
               depth: 3
               sample_count: 31
               value: -8.5104936361312866e-01
               Tn: 0
               complexity: 0
               alpha: 0.
               node_risk: 9.4093408824802438e-04
               tree_risk: 0.
               tree_error: 0.
            -
               depth: 2
               sample_count: 37
               value: -1.1353225140152751e-01
               Tn: 0
               complexity: 0
               alpha: 0.
               node_risk: 1.5443434522427468e-04
               tree_risk: 0.
               tree_error: 0.
               splits:
                  - { var:3, quality:4.7700825333595276e-01,
                      le:8.4673655033111572e-01 }
            -
               depth: 3
               sample_count: 24
               value: -8.4495419263839722e-01
               Tn: 0
               complexity: 0
               alpha: 0.
               node_risk: 5.1809362320742736e-05
               tree_risk: 0.
               tree_error: 0.
            -
               depth: 3
               sample_count: 13
               value: -8.4813278913497925e-01
               Tn: 0
               complexity: 0
               alpha: 0.
               node_risk: 8.5461611999126941e-06
               tree_risk: 0.
               tree_error: 0.
      -
         best_tree_idx: -1
         nodes:
            -
               depth: 0
               sample_count: 152
               value: 3.3818408846855164e-03
               Tn: 0
               complexity: 0
               alpha: 0.
               node_risk: 6.4770184890681612e+00
               tree_risk: 0.
               tree_error: 0.
               splits:
                  - { var:3, quality:2.1840205192565918e+00,
                      le:-2.1775263547897339e-01 }
            -
               depth: 1
               sample_count: 77
               value: 1.2163668000078820e-01
               Tn: 0
               complexity: 0
               alpha: 0.
               node_risk: 4.2799591306057323e+00
               tree_risk: 0.
               tree_error: 0.
               splits:
                  - { var:1, quality:4.8053698539733887e+00,
                      le:-4.6542203426361084e-01 }
            -
               depth: 2
               sample_count: 40
               value: -8.8222857192158693e-02
               Tn: 0
               complexity: 0
               alpha: 0.
               node_risk: 5.8610382333827038e-01
               tree_risk: 0.
               tree_error: 0.
               splits:
                  - { var:1, quality:8.9347422122955322e-01,
                      le:-1.2180416584014893e+00 }
            -
               depth: 3
               sample_count: 2
               value: 1.3380098342895508e+00
               Tn: 0
               complexity: 0
               alpha: 0.
               node_risk: 1.6095811083971512e-03
               tree_risk: 0.
               tree_error: 0.
            -
               depth: 3
               sample_count: 38
               value: -8.4883201122283936e-01
               Tn: 0
               complexity: 0
               alpha: 0.
               node_risk: 2.3508933631936069e-03
               tree_risk: 0.
               tree_error: 0.
            -
               depth: 2
               sample_count: 37
               value: 3.4851185534451457e-01
               Tn: 0
               complexity: 0
               alpha: 0.
               node_risk: 2.7737521305824409e-02
               tree_risk: 0.
               tree_error: 0.
               splits:
                  - { var:0, quality:4.5217738151550293e+00,
                      le:-2.3151321709156036e-01 }
            -
               depth: 3
               sample_count: 1
               value: 1.5393552780151367e+00
               Tn: 0
               complexity: 0
               alpha: 0.
               node_risk: 0.
               tree_risk: 0.
               tree_error: 0.
            -
               depth: 3
               sample_count: 36
               value: 1.1432038545608521e+00
               Tn: 0
               complexity: 0
               alpha: 0.
               node_risk: 2.9116922091176889e-06
               tree_risk: 0.
               tree_error: 0.
            -
               depth: 1
               sample_count: 75
               value: -1.1802646060784658e-01
               Tn: 0
               complexity: 0
               alpha: 0.
               node_risk: 1.4777246087904539e-02
               tree_risk: 0.
               tree_error: 0.
               splits:
                  - { var:0, quality:1.0474678277969360e+00,
                      le:3.8670465350151062e-02 }
            -
               depth: 2
               sample_count: 38
               value: -1.2394629477670319e-01
               Tn: 0
               complexity: 0
               alpha: 0.
               node_risk: 1.1932125767925239e-02
               tree_risk: 0.
               tree_error: 0.
               splits:
                  - { var:3, quality:5.9337615966796875e-01,
                      le:8.4215891361236572e-01 }
            -
               depth: 3
               sample_count: 7
               value: -8.9186066389083862e-01
               Tn: 0
               complexity: 0
               alpha: 0.
               node_risk: 1.8474507587601385e-03
               tree_risk: 0.
               tree_error: 0.
            -
               depth: 3
               sample_count: 31
               value: -8.4892684221267700e-01
               Tn: 0
               complexity: 0
               alpha: 0.
               node_risk: 4.9052828640472335e-04
               tree_risk: 0.
               tree_error: 0.
            -
               depth: 2
               sample_count: 37
               value: -1.1194663092091277e-01
               Tn: 0
               complexity: 0
               alpha: 0.
               node_risk: 1.4575155586532551e-04
               tree_risk: 0.
               tree_error: 0.
               splits:
                  - { var:3, quality:4.6378755569458008e-01,
                      le:8.0613911151885986e-01 }
            -
               depth: 3
               sample_count: 24
               value: -8.4339731931686401e-01
               Tn: 0
               complexity: 0
               alpha: 0.
               node_risk: 3.5722964126849721e-05
               tree_risk: 0.
               tree_error: 0.
            -
               depth: 3
               sample_count: 13
               value: -8.4669774770736694e-01
               Tn: 0
               complexity: 0
               alpha: 0.
               node_risk: 8.2476846307855123e-06
               tree_risk: 0.
               tree_error: 0.
      -
         best_tree_idx: -1
         nodes:
            -
               depth: 0
               sample_count: 152
               value: -7.1196013473366435e-03
               Tn: 0
               complexity: 0
               alpha: 0.
               node_risk: 5.9345041967030774e+00
               tree_risk: 0.
               tree_error: 0.
               splits:
                  - { var:0, quality:1.8321949243545532e+00,
                      le:-9.2776104807853699e-02 }
            -
               depth: 1
               sample_count: 84
               value: -1.0569392038243157e-01
               Tn: 0
               complexity: 0
               alpha: 0.
               node_risk: 6.7329051431792153e-01
               tree_risk: 0.
               tree_error: 0.
               splits:
                  - { var:0, quality:1.2030568122863770e+00,
                      le:-1.1072268486022949e+00 }
            -
               depth: 2
               sample_count: 1
               value: 1.2619909048080444e+00
               Tn: 0
               complexity: 0
               alpha: 0.
               node_risk: 0.
               tree_risk: 0.
               tree_error: 0.
            -
               depth: 2
               sample_count: 83
               value: -1.1185530402574194e-01
               Tn: 0
               complexity: 0
               alpha: 0.
               node_risk: 4.0861492967275503e-01
               tree_risk: 0.
               tree_error: 0.
               splits:
                  - { var:2, quality:1.0528203248977661e+00,
                      le:-3.7672281265258789e-01 }
            -
               depth: 3
               sample_count: 70
               value: -7.6661378145217896e-01
               Tn: 0
               complexity: 0
               alpha: 0.
               node_risk: 3.8533418557585564e-01
               tree_risk: 0.
               tree_error: 0.
            -
               depth: 3
               sample_count: 13
               value: -8.7945139408111572e-01
               Tn: 0
               complexity: 0
               alpha: 0.
               node_risk: 8.9239130874985695e-03
               tree_risk: 0.
               tree_error: 0.
            -
               depth: 1
               sample_count: 68
               value: 1.1464867510778062e-01
               Tn: 0
               complexity: 0
               alpha: 0.
               node_risk: 3.4367234927758248e+00
               tree_risk: 0.
               tree_error: 0.
               splits:
                  - { var:1, quality:4.3304190635681152e+00,
                      le:4.1874265670776367e-01 }
            -
               depth: 2
               sample_count: 34
               value: 3.3945596218109131e-01
               Tn: 0
               complexity: 0
               alpha: 0.
               node_risk: 3.0344724919473265e-06
               tree_risk: 0.
               tree_error: 0.
               splits:
                  - { var:3, quality:3.9178349971771240e+00,
                      le:-9.2900770902633667e-01 }
            -
               depth: 3
               sample_count: 28
               value: 1.1356633901596069e+00
               Tn: 0
               complexity: 0
               alpha: 0.
               node_risk: 2.3774987312208395e-08
               tree_risk: 0.
               tree_error: 0.
            -
               depth: 3
               sample_count: 6
               value: 1.1343289613723755e+00
               Tn: 0
               complexity: 0
               alpha: 0.
               node_risk: 2.7905595390009807e-08
               tree_risk: 0.
               tree_error: 0.
            -
               depth: 2
               sample_count: 34
               value: -1.1015861196553006e-01
               Tn: 0
               complexity: 0
               alpha: 0.
               node_risk: 1.1494845751613969e-04
               tree_risk: 0.
               tree_error: 0.
               splits:
                  - { var:3, quality:4.1264286637306213e-01,
                      le:8.2776057720184326e-01 }
            -
               depth: 3
               sample_count: 25
               value: -8.4213852882385254e-01
               Tn: 0
               complexity: 0
               alpha: 0.
               node_risk: 5.1052163885678681e-05
               tree_risk: 0.
               tree_error: 0.
            -
               depth: 3
               sample_count: 9
               value: -8.4487789869308472e-01
               Tn: 0
               complexity: 0
               alpha: 0.
               node_risk: 8.3172058841368690e-06
               tree_risk: 0.
               tree_error: 0.
      -
         best_tree_idx: -1
         nodes:
            -
               depth: 0
               sample_count: 152
               value: 6.4368771977330510e-03
               Tn: 0
               complexity: 0
               alpha: 0.
               node_risk: 6.2587099935546204e+00
               tree_risk: 0.
               tree_error: 0.
               splits:
                  - { var:3, quality:2.0179879665374756e+00,
                      le:-2.1775263547897339e-01 }
            -
               depth: 1
               sample_count: 80
               value: 1.1557588418945670e-01
               Tn: 0
               complexity: 0
               alpha: 0.
               node_risk: 4.2324957809576222e+00
               tree_risk: 0.
               tree_error: 0.
               splits:
                  - { var:1, quality:4.6994309425354004e+00,
                      le:-4.6542203426361084e-01 }
            -
               depth: 2
               sample_count: 42
               value: -8.7063473072789971e-02
               Tn: 0
               complexity: 0
               alpha: 0.
               node_risk: 5.7304805636156031e-01
               tree_risk: 0.
               tree_error: 0.
               splits:
                  - { var:1, quality:8.8717490434646606e-01,
                      le:-1.2180416584014893e+00 }
            -
               depth: 3
               sample_count: 2
               value: 1.3286870718002319e+00
               Tn: 0
               complexity: 0
               alpha: 0.
               node_risk: 1.8645883364527549e-03
               tree_risk: 0.
               tree_error: 0.
            -
               depth: 3
               sample_count: 40
               value: -8.4612846374511719e-01
               Tn: 0
               complexity: 0
               alpha: 0.
               node_risk: 2.3705842699413004e-03
               tree_risk: 0.
               tree_error: 0.
            -
               depth: 2
               sample_count: 38
               value: 3.3954570011088725e-01
               Tn: 0
               complexity: 0
               alpha: 0.
               node_risk: 2.8639761039070954e-02
               tree_risk: 0.
               tree_error: 0.
               splits:
                  - { var:0, quality:4.4097051620483398e+00,
                      le:-2.3151321709156036e-01 }
            -
               depth: 3
               sample_count: 1
               value: 1.5198420286178589e+00
               Tn: 0
               complexity: 0
               alpha: 0.
               node_risk: 0.
               tree_risk: 0.
               tree_error: 0.
            -
               depth: 3
               sample_count: 37
               value: 1.1278754472732544e+00
               Tn: 0
               complexity: 0
               alpha: 0.
               node_risk: 3.1914126141785459e-06
               tree_risk: 0.
               tree_error: 0.
            -
               depth: 1
               sample_count: 72
               value: -1.1482868612640434e-01
               Tn: 0
               complexity: 0
               alpha: 0.
               node_risk: 1.4524131746762925e-02
               tree_risk: 0.
               tree_error: 0.
               splits:
                  - { var:0, quality:9.5217806100845337e-01,
                      le:3.8670465350151062e-02 }
            -
               depth: 2
               sample_count: 34
               value: -1.2143658583655077e-01
               Tn: 0
               complexity: 0
               alpha: 0.
               node_risk: 1.1568845429625996e-02
               tree_risk: 0.
               tree_error: 0.
               splits:
                  - { var:3, quality:5.1067942380905151e-01,
                      le:6.7546951770782471e-01 }
            -
               depth: 3
               sample_count: 5
               value: -8.9593940973281860e-01
               Tn: 0
               complexity: 0
               alpha: 0.
               node_risk: 1.3312230429309568e-03
               tree_risk: 0.
               tree_error: 0.
            -
               depth: 3
               sample_count: 29
               value: -8.4732395410537720e-01
               Tn: 0
               complexity: 0
               alpha: 0.
               node_risk: 9.5093133742268909e-04
               tree_risk: 0.
               tree_error: 0.
            -
               depth: 2
               sample_count: 38
               value: -1.0891635480679963e-01
               Tn: 0
               complexity: 0
               alpha: 0.
               node_risk: 1.4238366339502928e-04
               tree_risk: 0.
               tree_error: 0.
               splits:
                  - { var:3, quality:4.5086380839347839e-01,
                      le:8.2776057720184326e-01 }
            -
               depth: 3
               sample_count: 25
               value: -8.4071248769760132e-01
               Tn: 0
               complexity: 0
               alpha: 0.
               node_risk: 5.1920946449235394e-05
               tree_risk: 0.
               tree_error: 0.
            -
               depth: 3
               sample_count: 13
               value: -8.4356594085693359e-01
               Tn: 0
               complexity: 0
               alpha: 0.
               node_risk: 1.2016508214529598e-05
               tree_risk: 0.
               tree_error: 0.
      -
         best_tree_idx: -1
         nodes:
            -
               depth: 0
               sample_count: 152
               value: -1.5639549513396463e-02
               Tn: 0
               complexity: 0
               alpha: 0.
               node_risk: 5.2540228991144531e+00
               tree_risk: 0.
               tree_error: 0.
               splits:
                  - { var:0, quality:1.6457588672637939e+00,
                      le:-7.5619511306285858e-02 }
            -
               depth: 1
               sample_count: 84
               value: -1.0819764133720171e-01
               Tn: 0
               complexity: 0
               alpha: 0.
               node_risk: 3.9325702276004659e-01
               tree_risk: 0.
               tree_error: 0.
               splits:
                  - { var:2, quality:9.9646008014678955e-01,
                      le:-4.8582744598388672e-01 }
            -
               depth: 2
               sample_count: 65
               value: -1.0144723711105494e-01
               Tn: 0
               complexity: 0
               alpha: 0.
               node_risk: 3.6937658162599263e-01
               tree_risk: 0.
               tree_error: 0.
               splits:
                  - { var:1, quality:1.0370398759841919e+00,
                      le:-3.7163081765174866e-01 }
            -
               depth: 3
               sample_count: 64
               value: -8.4367793798446655e-01
               Tn: 0
               complexity: 0
               alpha: 0.
               node_risk: 1.2869740634513516e-03
               tree_risk: 0.
               tree_error: 0.
            -
               depth: 3
               sample_count: 1
               value: 1.5017167329788208e+00
               Tn: 0
               complexity: 0
               alpha: 0.
               node_risk: 0.
               tree_risk: 0.
               tree_error: 0.
            -
               depth: 2
               sample_count: 19
               value: -1.3129112947928279e-01
               Tn: 0
               complexity: 0
               alpha: 0.
               node_risk: 1.0785649218189253e-02
               tree_risk: 0.
               tree_error: 0.
               splits:
                  - { var:3, quality:3.3664968609809875e-01,
                      le:7.6475036144256592e-01 }
            -
               depth: 3
               sample_count: 6
               value: -8.9765131473541260e-01
               Tn: 0
               complexity: 0
               alpha: 0.
               node_risk: 8.9418810590241593e-04
               tree_risk: 0.
               tree_error: 0.
            -
               depth: 3
               sample_count: 13
               value: -8.4926897287368774e-01
               Tn: 0
               complexity: 0
               alpha: 0.
               node_risk: 7.5162797219560651e-04
               tree_risk: 0.
               tree_error: 0.
            -
               depth: 1
               sample_count: 68
               value: 9.8696916857186484e-02
               Tn: 0
               complexity: 0
               alpha: 0.
               node_risk: 3.2521855730774529e+00
               tree_risk: 0.
               tree_error: 0.
               splits:
                  - { var:1, quality:3.9144368171691895e+00,
                      le:4.1874265670776367e-01 }
            -
               depth: 2
               sample_count: 32
               value: 3.3064990304410458e-01
               Tn: 0
               complexity: 0
               alpha: 0.
               node_risk: 2.8146478152635268e-06
               tree_risk: 0.
               tree_error: 0.
               splits:
                  - { var:3, quality:3.4985423088073730e+00,
                      le:-9.2900770902633667e-01 }
            -
               depth: 3
               sample_count: 27
               value: 1.1207016706466675e+00
               Tn: 0
               complexity: 0
               alpha: 0.
               node_risk: 2.3026694329075781e-08
               tree_risk: 0.
               tree_error: 0.
            -
               depth: 3
               sample_count: 5
               value: 1.1193473339080811e+00
               Tn: 0
               complexity: 0
               alpha: 0.
               node_risk: 2.5212517629213949e-08
               tree_risk: 0.
               tree_error: 0.
            -
               depth: 2
               sample_count: 36
               value: -1.0748351530896293e-01
               Tn: 0
               complexity: 0
               alpha: 0.
               node_risk: 1.3940690079849993e-04
               tree_risk: 0.
               tree_error: 0.
               splits:
                  - { var:3, quality:4.1597414016723633e-01,
                      le:9.3924129009246826e-01 }
            -
               depth: 3
               sample_count: 28
               value: -8.3960622549057007e-01
               Tn: 0
               complexity: 0
               alpha: 0.
               node_risk: 6.2660390253654885e-05
               tree_risk: 0.
               tree_error: 0.
            -
               depth: 3
               sample_count: 8
               value: -8.4290003776550293e-01
               Tn: 0
               complexity: 0
               alpha: 0.
               node_risk: 1.8058496475958918e-08
               tree_risk: 0.
               tree_error: 0.
      -
         best_tree_idx: -1
         nodes:
            -
               depth: 0
               sample_count: 152
               value: 2.0062290132045746e-03
               Tn: 0
               complexity: 0
               alpha: 0.
               node_risk: 5.8570188548487865e+00
               tree_risk: 0.
               tree_error: 0.
               splits:
                  - { var:0, quality:1.9410955905914307e+00,
                      le:-7.4474617838859558e-02 }
            -
               depth: 1
               sample_count: 83
               value: -1.0101309894438250e-01
               Tn: 0
               complexity: 0
               alpha: 0.
               node_risk: 7.1344700897677604e-01
               tree_risk: 0.
               tree_error: 0.
               splits:
                  - { var:1, quality:1.1701666116714478e+00,
                      le:-1.2180416584014893e+00 }
            -
               depth: 2
               sample_count: 1
               value: 1.3995527029037476e+00
               Tn: 0
               complexity: 0
               alpha: 0.
               node_risk: 0.
               tree_risk: 0.
               tree_error: 0.
            -
               depth: 2
               sample_count: 82
               value: -1.0790489877506000e-01
               Tn: 0
               complexity: 0
               alpha: 0.
               node_risk: 3.9018307418567899e-01
               tree_risk: 0.
               tree_error: 0.
               splits:
                  - { var:2, quality:9.6972995996475220e-01,
                      le:-2.3803058266639709e-01 }
            -
               depth: 3
               sample_count: 74
               value: -7.6731795072555542e-01
               Tn: 0
               complexity: 0
               alpha: 0.
               node_risk: 3.6996352971384938e-01
               tree_risk: 0.
               tree_error: 0.
            -
               depth: 3
               sample_count: 8
               value: -8.8589698076248169e-01
               Tn: 0
               complexity: 0
               alpha: 0.
               node_risk: 5.2538651186865015e-03
               tree_risk: 0.
               tree_error: 0.
            -
               depth: 1
               sample_count: 69
               value: 1.2592802931001221e-01
               Tn: 0
               complexity: 0
               alpha: 0.
               node_risk: 3.2030880768195513e+00
               tree_risk: 0.
               tree_error: 0.
               splits:
                  - { var:1, quality:4.2971630096435547e+00,
                      le:4.1874265670776367e-01 }
            -
               depth: 2
               sample_count: 37
               value: 3.2629494409303406e-01
               Tn: 0
               complexity: 0
               alpha: 0.
               node_risk: 3.6430068166559693e-06
               tree_risk: 0.
               tree_error: 0.
               splits:
                  - { var:3, quality:3.9393341541290283e+00,
                      le:-9.4335150718688965e-01 }
            -
               depth: 3
               sample_count: 30
               value: 1.1134960651397705e+00
               Tn: 0
               complexity: 0
               alpha: 0.
               node_risk: 8.1978424049111709e-11
               tree_risk: 0.
               tree_error: 0.
            -
               depth: 3
               sample_count: 7
               value: 1.1121798753738403e+00
               Tn: 0
               complexity: 0
               alpha: 0.
               node_risk: 3.6797691671530686e-08
               tree_risk: 0.
               tree_error: 0.
            -
               depth: 2
               sample_count: 32
               value: -1.0574621590785682e-01
               Tn: 0
               complexity: 0
               alpha: 0.
               node_risk: 1.1452513244747387e-04
               tree_risk: 0.
               tree_error: 0.
               splits:
                  - { var:3, quality:3.5788637399673462e-01,
                      le:9.4599717855453491e-01 }
            -
               depth: 3
               sample_count: 27
               value: -8.3818417787551880e-01
               Tn: 0
               complexity: 0
               alpha: 0.
               node_risk: 6.0535565914621170e-05
               tree_risk: 0.
               tree_error: 0.
            -
               depth: 3
               sample_count: 5
               value: -8.4152829647064209e-01
               Tn: 0
               complexity: 0
               alpha: 0.
               node_risk: 9.2887382646678063e-09
               tree_risk: 0.
               tree_error: 0.
      -
         best_tree_idx: -1
         nodes:
            -
               depth: 0
               sample_count: 152
               value: -5.9520035099826360e-03
               Tn: 0
               complexity: 0
               alpha: 0.
               node_risk: 5.4884433140856750e+00
               tree_risk: 0.
               tree_error: 0.
               splits:
                  - { var:0, quality:1.6335389614105225e+00,
                      le:-7.5619511306285858e-02 }
            -
               depth: 1
               sample_count: 88
               value: -9.4214178621768951e-02
               Tn: 0
               complexity: 0
               alpha: 0.
               node_risk: 9.5280903454401589e-01
               tree_risk: 0.
               tree_error: 0.
               splits:
                  - { var:1, quality:1.3441840410232544e+00,
                      le:-1.2180416584014893e+00 }
            -
               depth: 2
               sample_count: 2
               value: 1.3214251995086670e+00
               Tn: 0
               complexity: 0
               alpha: 0.
               node_risk: 1.8170706646447599e-03
               tree_risk: 0.
               tree_error: 0.
            -
               depth: 2
               sample_count: 86
               value: -1.0641264083773591e-01
               Tn: 0
               complexity: 0
               alpha: 0.
               node_risk: 3.8792337791570186e-01
               tree_risk: 0.
               tree_error: 0.
               splits:
                  - { var:2, quality:9.8992639780044556e-01,
                      le:-3.7672281265258789e-01 }
            -
               depth: 3
               sample_count: 72
               value: -7.6035946607589722e-01
               Tn: 0
               complexity: 0
               alpha: 0.
               node_risk: 3.6179414039828506e-01
               tree_risk: 0.
               tree_error: 0.
            -
               depth: 3
               sample_count: 14
               value: -8.7478929758071899e-01
               Tn: 0
               complexity: 0
               alpha: 0.
               node_risk: 1.0036734906730904e-02
               tree_risk: 0.
               tree_error: 0.
            -
               depth: 1
               sample_count: 64
               value: 1.1540848726872355e-01
               Tn: 0
               complexity: 0
               alpha: 0.
               node_risk: 2.9074800644497647e+00
               tree_risk: 0.
               tree_error: 0.
               splits:
                  - { var:1, quality:3.7597777843475342e+00,
                      le:4.1874265670776367e-01 }
            -
               depth: 2
               sample_count: 33
               value: 3.2198591665788129e-01
               Tn: 0
               complexity: 0
               alpha: 0.
               node_risk: 3.4870478011761463e-06
               tree_risk: 0.
               tree_error: 0.
               splits:
                  - { var:3, quality:3.4212760925292969e+00,
                      le:-9.2900770902633667e-01 }
            -
               depth: 3
               sample_count: 26
               value: 1.1064442396163940e+00
               Tn: 0
               complexity: 0
               alpha: 0.
               node_risk: 2.2414415656868414e-08
               tree_risk: 0.
               tree_error: 0.
            -
               depth: 3
               sample_count: 7
               value: 1.1051608324050903e+00
               Tn: 0
               complexity: 0
               alpha: 0.
               node_risk: 4.7061166852380154e-08
               tree_risk: 0.
               tree_error: 0.
            -
               depth: 2
               sample_count: 31
               value: -1.0449651821005729e-01
               Tn: 0
               complexity: 0
               alpha: 0.
               node_risk: 1.2228993859397796e-04
               tree_risk: 0.
               tree_error: 0.
               splits:
                  - { var:3, quality:3.3856755495071411e-01,
                      le:8.5149610042572021e-01 }
            -
               depth: 3
               sample_count: 22
               value: -8.3669173717498779e-01
               Tn: 0
               complexity: 0
               alpha: 0.
               node_risk: 5.2869734952942782e-05
               tree_risk: 0.
               tree_error: 0.
            -
               depth: 3
               sample_count: 9
               value: -8.3960372209548950e-01
               Tn: 0
               complexity: 0
               alpha: 0.
               node_risk: 7.0540754253112237e-06
               tree_risk: 0.
               tree_error: 0.
      -
         best_tree_idx: -1
         nodes:
            -
               depth: 0
               sample_count: 152
               value: -5.9906419268564177e-03
               Tn: 0
               complexity: 0
               alpha: 0.
               node_risk: 5.3624603855515378e+00
               tree_risk: 0.
               tree_error: 0.
               splits:
                  - { var:3, quality:1.6852792501449585e+00,
                      le:-1.8568448722362518e-01 }
            -
               depth: 1
               sample_count: 76
               value: 9.9135356906213265e-02
               Tn: 0
               complexity: 0
               alpha: 0.
               node_risk: 3.6597598497200527e+00
               tree_risk: 0.
               tree_error: 0.
               splits:
                  - { var:1, quality:3.8316271305084229e+00,
                      le:-4.6542203426361084e-01 }
            -
               depth: 2
               sample_count: 42
               value: -8.2130241252127145e-02
               Tn: 0
               complexity: 0
               alpha: 0.
               node_risk: 5.4400227288752079e-01
               tree_risk: 0.
               tree_error: 0.
               splits:
                  - { var:1, quality:8.2316493988037109e-01,
                      le:-1.2180416584014893e+00 }
            -
               depth: 3
               sample_count: 2
               value: 1.3089494705200195e+00
               Tn: 0
               complexity: 0
               alpha: 0.
               node_risk: 1.8060419631655833e-03
               tree_risk: 0.
               tree_error: 0.
            -
               depth: 3
               sample_count: 40
               value: -8.4083092212677002e-01
               Tn: 0
               complexity: 0
               alpha: 0.
               node_risk: 2.3371301674554590e-03
               tree_risk: 0.
               tree_error: 0.
            -
               depth: 2
               sample_count: 34
               value: 3.2305168404298668e-01
               Tn: 0
               complexity: 0
               alpha: 0.
               node_risk: 3.1044726666726863e-02
               tree_risk: 0.
               tree_error: 0.
               splits:
                  - { var:0, quality:3.5793631076812744e+00,
                      le:-2.3151321709156036e-01 }
            -
               depth: 3
               sample_count: 1
               value: 1.4899528026580811e+00
               Tn: 0
               complexity: 0
               alpha: 0.
               node_risk: 0.
               tree_risk: 0.
               tree_error: 0.
            -
               depth: 3
               sample_count: 33
               value: 1.0993715524673462e+00
               Tn: 0
               complexity: 0
               alpha: 0.
               node_risk: 2.8741007089827519e-06
               tree_risk: 0.
               tree_error: 0.
            -
               depth: 1
               sample_count: 76
               value: -1.1111664075992610e-01
               Tn: 0
               complexity: 0
               alpha: 0.
               node_risk: 2.2876239972609791e-02
               tree_risk: 0.
               tree_error: 0.
               splits:
                  - { var:3, quality:9.4293361902236938e-01,
                      le:2.8126892447471619e-01 }
            -
               depth: 2
               sample_count: 7
               value: -8.7406373023986816e-01
               Tn: 0
               complexity: 0
               alpha: 0.
               node_risk: 6.1444326786189718e-03
               tree_risk: 0.
               tree_error: 0.
            -
               depth: 2
               sample_count: 69
               value: -1.0864712848611500e-01
               Tn: 0
               complexity: 0
               alpha: 0.
               node_risk: 1.2163166419002391e-02
               tree_risk: 0.
               tree_error: 0.
               splits:
                  - { var:0, quality:8.1654196977615356e-01,
                      le:1.2941838800907135e-01 }
            -
               depth: 3
               sample_count: 36
               value: -8.4870857000350952e-01
               Tn: 0
               complexity: 0
               alpha: 0.
               node_risk: 9.9847450908782664e-03
               tree_risk: 0.
               tree_error: 0.
            -
               depth: 3
               sample_count: 33
               value: -8.3610922098159790e-01
               Tn: 0
               complexity: 0
               alpha: 0.
               node_risk: 1.2614095442547990e-04
               tree_risk: 0.
               tree_error: 0.
      -
         best_tree_idx: -1
         nodes:
            -
               depth: 0
               sample_count: 152
               value: 4.0029981908829585e-03
               Tn: 0
               complexity: 0
               alpha: 0.
               node_risk: 5.3593243034361189e+00
               tree_risk: 0.
               tree_error: 0.
               splits:
                  - { var:3, quality:2.0412232875823975e+00,
                      le:-3.1305208802223206e-01 }
            -
               depth: 1
               sample_count: 74
               value: 1.2290677005374753e-01
               Tn: 0
               complexity: 0
               alpha: 0.
               node_risk: 3.3007753918857934e+00
               tree_risk: 0.
               tree_error: 0.
               splits:
                  - { var:0, quality:4.1156325340270996e+00,
                      le:-1.7985948920249939e-01 }
            -
               depth: 2
               sample_count: 35
               value: -8.9555851476533069e-02
               Tn: 0
               complexity: 0
               alpha: 0.
               node_risk: 3.0298828907082048e-01
               tree_risk: 0.
               tree_error: 0.
               splits:
                  - { var:1, quality:5.8183044195175171e-01,
                      le:-1.2180416584014893e+00 }
            -
               depth: 3
               sample_count: 1
               value: 1.3668513298034668e+00
               Tn: 0
               complexity: 0
               alpha: 0.
               node_risk: 0.
               tree_risk: 0.
               tree_error: 0.
            -
               depth: 3
               sample_count: 34
               value: -8.3891093730926514e-01
               Tn: 0
               complexity: 0
               alpha: 0.
               node_risk: 1.8666328639690977e-03
               tree_risk: 0.
               tree_error: 0.
            -
               depth: 2
               sample_count: 39
               value: 3.1357835347835833e-01
               Tn: 0
               complexity: 0
               alpha: 0.
               node_risk: 3.8523515151211996e-06
               tree_risk: 0.
               tree_error: 0.
               splits:
                  - { var:3, quality:3.8349277973175049e+00,
                      le:-9.2900770902633667e-01 }
            -
               depth: 3
               sample_count: 32
               value: 1.0928544998168945e+00
               Tn: 0
               complexity: 0
               alpha: 0.
               node_risk: 2.1889697165988764e-08
               tree_risk: 0.
               tree_error: 0.
            -
               depth: 3
               sample_count: 7
               value: 1.0915653705596924e+00
               Tn: 0
               complexity: 0
               alpha: 0.
               node_risk: 5.7203780823300576e-08
               tree_risk: 0.
               tree_error: 0.
            -
               depth: 1
               sample_count: 78
               value: -1.0880314434568088e-01
               Tn: 0
               complexity: 0
               alpha: 0.
               node_risk: 1.9761384341919430e-02
               tree_risk: 0.
               tree_error: 0.
               splits:
                  - { var:0, quality:9.2697137594223022e-01,
                      le:3.8670465350151062e-02 }
            -
               depth: 2
               sample_count: 41
               value: -1.1525485446540321e-01
               Tn: 0
               complexity: 0
               alpha: 0.
               node_risk: 1.6025346044770350e-02
               tree_risk: 0.
               tree_error: 0.
               splits:
                  - { var:3, quality:5.5789655447006226e-01,
                      le:7.6475036144256592e-01 }
            -
               depth: 3
               sample_count: 7
               value: -8.8917404413223267e-01
               Tn: 0
               complexity: 0
               alpha: 0.
               node_risk: 1.7599055392345520e-03
               tree_risk: 0.
               tree_error: 0.
            -
               depth: 3
               sample_count: 34
               value: -8.4021162986755371e-01
               Tn: 0
               complexity: 0
               alpha: 0.
               node_risk: 9.9981214411815067e-04
               tree_risk: 0.
               tree_error: 0.
            -
               depth: 2
               sample_count: 37
               value: -1.0165395205085342e-01
               Tn: 0
               complexity: 0
               alpha: 0.
               node_risk: 1.3832602759195067e-04
               tree_risk: 0.
               tree_error: 0.
               splits:
                  - { var:3, quality:3.8241735100746155e-01,
                      le:8.4673655033111572e-01 }
            -
               depth: 3
               sample_count: 26
               value: -8.3401590585708618e-01
               Tn: 0
               complexity: 0
               alpha: 0.
               node_risk: 5.2953052702087167e-05
               tree_risk: 0.
               tree_error: 0.
            -
               depth: 3
               sample_count: 11
               value: -8.3693915605545044e-01
               Tn: 0
               complexity: 0
               alpha: 0.
               node_risk: 8.4933311234325348e-06
               tree_risk: 0.
               tree_error: 0.
      -
         best_tree_idx: -1
         nodes:
            -
               depth: 0
               sample_count: 152
               value: -6.8179581706461151e-03
               Tn: 0
               complexity: 0
               alpha: 0.
               node_risk: 4.9442701800931319e+00
               tree_risk: 0.
               tree_error: 0.
               splits:
                  - { var:3, quality:1.5632029771804810e+00,
                      le:-3.1305208802223206e-01 }
            -
               depth: 1
               sample_count: 76
               value: 9.4363786574257050e-02
               Tn: 0
               complexity: 0
               alpha: 0.
               node_risk: 3.3662963202429386e+00
               tree_risk: 0.
               tree_error: 0.
               splits:
                  - { var:0, quality:3.5226812362670898e+00,
                      le:-1.7155738174915314e-01 }
            -
               depth: 2
               sample_count: 42
               value: -7.9745001913536159e-02
               Tn: 0
               complexity: 0
               alpha: 0.
               node_risk: 5.2035554944318707e-01
               tree_risk: 0.
               tree_error: 0.
               splits:
                  - { var:1, quality:7.8329908847808838e-01,
                      le:-1.2180416584014893e+00 }
            -
               depth: 3
               sample_count: 2
               value: 1.2890616655349731e+00
               Tn: 0
               complexity: 0
               alpha: 0.
               node_risk: 1.7722487275921850e-03
               tree_risk: 0.
               tree_error: 0.
            -
               depth: 3
               sample_count: 40
               value: -8.3808475732803345e-01
               Tn: 0
               complexity: 0
               alpha: 0.
               node_risk: 2.3733402206185805e-03
               tree_risk: 0.
               tree_error: 0.
            -
               depth: 2
               sample_count: 34
               value: 3.0943934882388396e-01
               Tn: 0
               complexity: 0
               alpha: 0.
               node_risk: 3.3069771259164327e-06
               tree_risk: 0.
               tree_error: 0.
               splits:
                  - { var:3, quality:3.2555954456329346e+00,
                      le:-9.2900770902633667e-01 }
            -
               depth: 3
               sample_count: 28
               value: 1.0862985849380493e+00
               Tn: 0
               complexity: 0
               alpha: 0.
               node_risk: 2.1454285903388381e-08
               tree_risk: 0.
               tree_error: 0.
            -
               depth: 3
               sample_count: 6
               value: 1.0850276947021484e+00
               Tn: 0
               complexity: 0
               alpha: 0.
               node_risk: 5.3996037308046141e-08
               tree_risk: 0.
               tree_error: 0.
            -
               depth: 1
               sample_count: 76
               value: -1.0799970291554928e-01
               Tn: 0
               complexity: 0
               alpha: 0.
               node_risk: 2.1836548467535688e-02
               tree_risk: 0.
               tree_error: 0.
               splits:
                  - { var:0, quality:8.9015698432922363e-01,
                      le:3.8670465350151062e-02 }
            -
               depth: 2
               sample_count: 42
               value: -1.1427571163291023e-01
               Tn: 0
               complexity: 0
               alpha: 0.
               node_risk: 1.8017676982000075e-02
               tree_risk: 0.
               tree_error: 0.
               splits:
                  - { var:3, quality:5.6386274099349976e-01,
                      le:6.7546951770782471e-01 }
            -
               depth: 3
               sample_count: 7
               value: -8.9134609699249268e-01
               Tn: 0
               complexity: 0
               alpha: 0.
               node_risk: 1.6498572064482520e-03
               tree_risk: 0.
               tree_error: 0.
            -
               depth: 3
               sample_count: 35
               value: -8.3890813589096069e-01
               Tn: 0
               complexity: 0
               alpha: 0.
               node_risk: 9.8051069856391893e-04
               tree_risk: 0.
               tree_error: 0.
            -
               depth: 2
               sample_count: 34
               value: -1.0024698626469164e-01
               Tn: 0
               complexity: 0
               alpha: 0.
               node_risk: 1.2100657195124320e-04
               tree_risk: 0.
               tree_error: 0.
               splits:
                  - { var:3, quality:3.4174501895904541e-01,
                      le:8.6461186408996582e-01 }
            -
               depth: 3
               sample_count: 26
               value: -8.3287960290908813e-01
               Tn: 0
               complexity: 0
               alpha: 0.
               node_risk: 5.3068487526675145e-05
               tree_risk: 0.
               tree_error: 0.
            -
               depth: 3
               sample_count: 8
               value: -8.3585500717163086e-01
               Tn: 0
               complexity: 0
               alpha: 0.
               node_risk: 4.4876813328487142e-06
               tree_risk: 0.
               tree_error: 0.
      -
         best_tree_idx: -1
         nodes:
            -
               depth: 0
               sample_count: 152
               value: 1.3240950280114224e-03
               Tn: 0
               complexity: 0
               alpha: 0.
               node_risk: 5.0845292362714218e+00
               tree_risk: 0.
               tree_error: 0.
               splits:
                  - { var:3, quality:1.5383881330490112e+00,
                      le:-1.5397888422012329e-01 }
            -
               depth: 1
               sample_count: 80
               value: 9.6756265778094527e-02
               Tn: 0
               complexity: 0
               alpha: 0.
               node_risk: 3.5326051930080613e+00
               tree_risk: 0.
               tree_error: 0.
               splits:
                  - { var:1, quality:3.7433009147644043e+00,
                      le:-4.6542203426361084e-01 }
            -
               depth: 2
               sample_count: 44
               value: -7.8241236338561226e-02
               Tn: 0
               complexity: 0
               alpha: 0.
               node_risk: 5.0287160321018465e-01
               tree_risk: 0.
               tree_error: 0.
               splits:
                  - { var:0, quality:7.7039074897766113e-01,
                      le:-8.2366353273391724e-01 }
            -
               depth: 3
               sample_count: 2
               value: 1.2774887084960938e+00
               Tn: 0
               complexity: 0
               alpha: 0.
               node_risk: 1.7595038493301018e-03
               tree_risk: 0.
               tree_error: 0.
            -
               depth: 3
               sample_count: 42
               value: -8.3476656675338745e-01
               Tn: 0
               complexity: 0
               alpha: 0.
               node_risk: 7.5785124724669917e-05
               tree_risk: 0.
               tree_error: 0.
            -
               depth: 2
               sample_count: 36
               value: 3.1064210169845158e-01
               Tn: 0
               complexity: 0
               alpha: 0.
               node_risk: 3.5374627862247543e-02
               tree_risk: 0.
               tree_error: 0.
               splits:
                  - { var:0, quality:3.5093176364898682e+00,
                      le:-2.3151321709156036e-01 }
            -
               depth: 3
               sample_count: 1
               value: 1.4883422851562500e+00
               Tn: 0
               complexity: 0
               alpha: 0.
               node_risk: 0.
               tree_risk: 0.
               tree_error: 0.
            -
               depth: 3
               sample_count: 35
               value: 1.0796712636947632e+00
               Tn: 0
               complexity: 0
               alpha: 0.
               node_risk: 3.5192867655631233e-06
               tree_risk: 0.
               tree_error: 0.
            -
               depth: 1
               sample_count: 72
               value: -1.0471165024985869e-01
               Tn: 0
               complexity: 0
               alpha: 0.
               node_risk: 1.3802398219912138e-02
               tree_risk: 0.
               tree_error: 0.
               splits:
                  - { var:0, quality:7.9163610935211182e-01,
                      le:5.1204293966293335e-02 }
            -
               depth: 2
               sample_count: 37
               value: -1.1007561152045792e-01
               Tn: 0
               complexity: 0
               alpha: 0.
               node_risk: 1.1486652340963188e-02
               tree_risk: 0.
               tree_error: 0.
               splits:
                  - { var:3, quality:4.5799571275711060e-01,
                      le:7.0244765281677246e-01 }
            -
               depth: 3
               sample_count: 5
               value: -8.8522565364837646e-01
               Tn: 0
               complexity: 0
               alpha: 0.
               node_risk: 1.3314188398790144e-03
               tree_risk: 0.
               tree_error: 0.
            -
               depth: 3
               sample_count: 32
               value: -8.3689028024673462e-01
               Tn: 0
               complexity: 0
               alpha: 0.
               node_risk: 4.7520022272973250e-04
               tree_risk: 0.
               tree_error: 0.
            -
               depth: 2
               sample_count: 35
               value: -9.9041176906653816e-02
               Tn: 0
               complexity: 0
               alpha: 0.
               node_risk: 1.2577952222803113e-04
               tree_risk: 0.
               tree_error: 0.
               splits:
                  - { var:3, quality:3.4341797232627869e-01,
                      le:8.2776057720184326e-01 }
            -
               depth: 3
               sample_count: 22
               value: -8.3127027750015259e-01
               Tn: 0
               complexity: 0
               alpha: 0.
               node_risk: 1.8518529213806811e-05
               tree_risk: 0.
               tree_error: 0.
            -
               depth: 3
               sample_count: 13
               value: -8.3446496725082397e-01
               Tn: 0
               complexity: 0
               alpha: 0.
               node_risk: 9.6952718673937177e-06
               tree_risk: 0.
               tree_error: 0.
      -
         best_tree_idx: -1
         nodes:
            -
               depth: 0
               sample_count: 152
               value: 4.6041961269159062e-03
               Tn: 0
               complexity: 0
               alpha: 0.
               node_risk: 4.9905582582750538e+00
               tree_risk: 0.
               tree_error: 0.
               splits:
                  - { var:0, quality:1.6556416749954224e+00,
                      le:-7.5619511306285858e-02 }
            -
               depth: 1
               sample_count: 81
               value: -9.3012706641061801e-02
               Tn: 0
               complexity: 0
               alpha: 0.
               node_risk: 5.2890644857128188e-01
               tree_risk: 0.
               tree_error: 0.
               splits:
                  - { var:0, quality:1.2104556560516357e+00,
                      le:-9.7008264064788818e-01 }
            -
               depth: 2
               sample_count: 2
               value: 1.2662354707717896e+00
               Tn: 0
               complexity: 0
               alpha: 0.
               node_risk: 1.7461250829526875e-03
               tree_risk: 0.
               tree_error: 0.
            -
               depth: 2
               sample_count: 79
               value: -1.0563430142930791e-01
               Tn: 0
               complexity: 0
               alpha: 0.
               node_risk: 1.7465079820048413e-02
               tree_risk: 0.
               tree_error: 0.
               splits:
                  - { var:2, quality:8.8981270790100098e-01,
                      le:-3.7672281265258789e-01 }
            -
               depth: 3
               sample_count: 68
               value: -8.3500260114669800e-01
               Tn: 0
               complexity: 0
               alpha: 0.
               node_risk: 1.9550215387055259e-03
               tree_risk: 0.
               tree_error: 0.
            -
               depth: 3
               sample_count: 11
               value: -8.6816084384918213e-01
               Tn: 0
               complexity: 0
               alpha: 0.
               node_risk: 7.2272015920606114e-03
               tree_risk: 0.
               tree_error: 0.
            -
               depth: 1
               sample_count: 71
               value: 1.1596995843967921e-01
               Tn: 0
               complexity: 0
               alpha: 0.
               node_risk: 2.8092323294160315e+00
               tree_risk: 0.
               tree_error: 0.
               splits:
                  - { var:1, quality:3.7640047073364258e+00,
                      le:4.1874265670776367e-01 }
            -
               depth: 2
               sample_count: 38
               value: 3.0133226200153951e-01
               Tn: 0
               complexity: 0
               alpha: 0.
               node_risk: 2.7028594526967709e-06
               tree_risk: 0.
               tree_error: 0.
               splits:
                  - { var:3, quality:3.4504456520080566e+00,
                      le:-9.2900770902633667e-01 }
            -
               depth: 3
               sample_count: 33
               value: 1.0736304521560669e+00
               Tn: 0
               complexity: 0
               alpha: 0.
               node_risk: 2.1024845864303643e-08
               tree_risk: 0.
               tree_error: 0.
            -
               depth: 3
               sample_count: 5
               value: 1.0724244117736816e+00
               Tn: 0
               complexity: 0
               alpha: 0.
               node_risk: 1.7944543628800602e-09
               tree_risk: 0.
               tree_error: 0.
            -
               depth: 2
               sample_count: 33
               value: -9.7477542631553879e-02
               Tn: 0
               complexity: 0
               alpha: 0.
               node_risk: 1.0607190244521503e-04
               tree_risk: 0.
               tree_error: 0.
               splits:
                  - { var:1, quality:3.1364423036575317e-01,
                      le:1.6109232902526855e+00 }
            -
               depth: 3
               sample_count: 24
               value: -8.3012151718139648e-01
               Tn: 0
               complexity: 0
               alpha: 0.
               node_risk: 1.9286277166519206e-05
               tree_risk: 0.
               tree_error: 0.
            -
               depth: 3
               sample_count: 9
               value: -8.3339238166809082e-01
               Tn: 0
               complexity: 0
               alpha: 0.
               node_risk: 4.3210069429200360e-06
               tree_risk: 0.
               tree_error: 0.
      -
         best_tree_idx: -1
         nodes:
            -
               depth: 0
               sample_count: 152
               value: 3.8063065884144684e-03
               Tn: 0
               complexity: 0
               alpha: 0.
               node_risk: 4.8897058511689222e+00
               tree_risk: 0.
               tree_error: 0.
               splits:
                  - { var:0, quality:1.7038756608963013e+00,
                      le:-7.4474617838859558e-02 }
            -
               depth: 1
               sample_count: 79
               value: -9.7903823173498800e-02
               Tn: 0
               complexity: 0
               alpha: 0.
               node_risk: 3.6987838237626247e-01
               tree_risk: 0.
               tree_error: 0.
               splits:
                  - { var:2, quality:7.6941722631454468e-01,
                      le:-4.8582744598388672e-01 }
            -
               depth: 2
               sample_count: 61
               value: -9.1156154260283617e-02
               Tn: 0
               complexity: 0
               alpha: 0.
               node_risk: 3.4750943756630515e-01
               tree_risk: 0.
               tree_error: 0.
               splits:
                  - { var:1, quality:8.5046803951263428e-01,
                      le:-3.8243472576141357e-01 }
            -
               depth: 3
               sample_count: 60
               value: -8.3471769094467163e-01
               Tn: 0
               complexity: 0
               alpha: 0.
               node_risk: 3.9174864689196509e-03
               tree_risk: 0.
               tree_error: 0.
            -
               depth: 3
               sample_count: 1
               value: 1.4711261987686157e+00
               Tn: 0
               complexity: 0
               alpha: 0.
               node_risk: 0.
               tree_risk: 0.
               tree_error: 0.
            -
               depth: 2
               sample_count: 18
               value: -1.2077092337939474e-01
               Tn: 0
               complexity: 0
               alpha: 0.
               node_risk: 1.0179274735576171e-02
               tree_risk: 0.
               tree_error: 0.
               splits:
                  - { var:3, quality:2.7118039131164551e-01,
                      le:7.6475036144256592e-01 }
            -
               depth: 3
               sample_count: 6
               value: -8.8523328304290771e-01
               Tn: 0
               complexity: 0
               alpha: 0.
               node_risk: 9.2163640036108108e-04
               tree_risk: 0.
               tree_error: 0.
            -
               depth: 3
               sample_count: 12
               value: -8.3870953321456909e-01
               Tn: 0
               complexity: 0
               alpha: 0.
               node_risk: 6.1834671054178392e-04
               tree_risk: 0.
               tree_error: 0.
            -
               depth: 1
               sample_count: 73
               value: 1.1387617304308774e-01
               Tn: 0
               complexity: 0
               alpha: 0.
               node_risk: 2.8181539679954977e+00
               tree_risk: 0.
               tree_error: 0.
               splits:
                  - { var:1, quality:3.7646872997283936e+00,
                      le:4.1874265670776367e-01 }
            -
               depth: 2
               sample_count: 39
               value: 2.9732681696231550e-01
               Tn: 0
               complexity: 0
               alpha: 0.
               node_risk: 3.0582089851627359e-06
               tree_risk: 0.
               tree_error: 0.
               splits:
                  - { var:3, quality:3.4477291107177734e+00,
                      le:-9.2900770902633667e-01 }
            -
               depth: 3
               sample_count: 34
               value: 1.0675138235092163e+00
               Tn: 0
               complexity: 0
               alpha: 0.
               node_risk: 2.0650881005224164e-08
               tree_risk: 0.
               tree_error: 0.
            -
               depth: 3
               sample_count: 5
               value: 1.0662571191787720e+00
               Tn: 0
               complexity: 0
               alpha: 0.
               node_risk: 4.8393484053388391e-08
               tree_risk: 0.
               tree_error: 0.
            -
               depth: 2
               sample_count: 34
               value: -9.6552506746614683e-02
               Tn: 0
               complexity: 0
               alpha: 0.
               node_risk: 1.1170291245971020e-04
               tree_risk: 0.
               tree_error: 0.
               splits:
                  - { var:3, quality:3.1703215837478638e-01,
                      le:8.2776057720184326e-01 }
            -
               depth: 3
               sample_count: 22
               value: -8.2918781042098999e-01
               Tn: 0
               complexity: 0
               alpha: 0.
               node_risk: 3.2280292895370266e-05
               tree_risk: 0.
               tree_error: 0.
            -
               depth: 3
               sample_count: 12
               value: -8.3196198940277100e-01
               Tn: 0
               complexity: 0
               alpha: 0.
               node_risk: 8.4027818351289918e-06
               tree_risk: 0.
               tree_error: 0.
      -
         best_tree_idx: -1
         nodes:
            -
               depth: 0
               sample_count: 152
               value: 4.6507479917061957e-03
               Tn: 0
               complexity: 0
               alpha: 0.
               node_risk: 4.8004444938732798e+00
               tree_risk: 0.
               tree_error: 0.
               splits:
                  - { var:0, quality:1.6057863235473633e+00,
                      le:-7.5619511306285858e-02 }
            -
               depth: 1
               sample_count: 82
               value: -9.0217117401884817e-02
               Tn: 0
               complexity: 0
               alpha: 0.
               node_risk: 5.7703194954677228e-01
               tree_risk: 0.
               tree_error: 0.
               splits:
                  - { var:0, quality:8.8617599010467529e-01,
                      le:-1.1072268486022949e+00 }
            -
               depth: 2
               sample_count: 1
               value: 1.1993244886398315e+00
               Tn: 0
               complexity: 0
               alpha: 0.
               node_risk: 0.
               tree_risk: 0.
               tree_error: 0.
            -
               depth: 2
               sample_count: 81
               value: -9.5956192616327304e-02
               Tn: 0
               complexity: 0
               alpha: 0.
               node_risk: 3.5826449971307184e-01
               tree_risk: 0.
               tree_error: 0.
               splits:
                  - { var:2, quality:7.5741434097290039e-01,
                      le:-2.7587991952896118e-01 }
            -
               depth: 3
               sample_count: 73
               value: -7.4899011850357056e-01
               Tn: 0
               complexity: 0
               alpha: 0.
               node_risk: 3.4190782754970039e-01
               tree_risk: 0.
               tree_error: 0.
            -
               depth: 3
               sample_count: 8
               value: -8.6866509914398193e-01
               Tn: 0
               complexity: 0
               alpha: 0.
               node_risk: 4.7572055399421886e-03
               tree_risk: 0.
               tree_error: 0.
            -
               depth: 1
               sample_count: 70
               value: 1.1578167602419853e-01
               Tn: 0
               complexity: 0
               alpha: 0.
               node_risk: 2.6209139482354979e+00
               tree_risk: 0.
               tree_error: 0.
               splits:
                  - { var:1, quality:3.5591795444488525e+00,
                      le:4.1874265670776367e-01 }
            -
               depth: 2
               sample_count: 38
               value: 2.9334418240346405e-01
               Tn: 0
               complexity: 0
               alpha: 0.
               node_risk: 3.4677301452568088e-06
               tree_risk: 0.
               tree_error: 0.
               splits:
                  - { var:3, quality:3.2699341773986816e+00,
                      le:-9.2900770902633667e-01 }
            -
               depth: 3
               sample_count: 32
               value: 1.0615314245223999e+00
               Tn: 0
               complexity: 0
               alpha: 0.
               node_risk: 2.0325703786738814e-08
               tree_risk: 0.
               tree_error: 0.
            -
               depth: 3
               sample_count: 6
               value: 1.0603014230728149e+00
               Tn: 0
               complexity: 0
               alpha: 0.
               node_risk: 5.2985162257712659e-08
               tree_risk: 0.
               tree_error: 0.
            -
               depth: 2
               sample_count: 32
               value: -9.5073800301179290e-02
               Tn: 0
               complexity: 0
               alpha: 0.
               node_risk: 1.0860029639614410e-04
               tree_risk: 0.
               tree_error: 0.
               splits:
                  - { var:1, quality:2.8931868076324463e-01,
                      le:1.6109232902526855e+00 }
            -
               depth: 3
               sample_count: 22
               value: -8.2790011167526245e-01
               Tn: 0
               complexity: 0
               alpha: 0.
               node_risk: 3.2288200776664500e-05
               tree_risk: 0.
               tree_error: 0.
            -
               depth: 3
               sample_count: 10
               value: -8.3081430196762085e-01
               Tn: 0
               complexity: 0
               alpha: 0.
               node_risk: 6.5034951189091306e-06
               tree_risk: 0.
               tree_error: 0.
      -
         best_tree_idx: -1
         nodes:
            -
               depth: 0
               sample_count: 152
               value: -4.7936227760816876e-03
               Tn: 0
               complexity: 0
               alpha: 0.
               node_risk: 4.4991130518052547e+00
               tree_risk: 0.
               tree_error: 0.
               splits:
                  - { var:3, quality:1.3610121011734009e+00,
                      le:-2.1775263547897339e-01 }
            -
               depth: 1
               sample_count: 77
               value: 8.8475197843917011e-02
               Tn: 0
               complexity: 0
               alpha: 0.
               node_risk: 3.1228654863049958e+00
               tree_risk: 0.
               tree_error: 0.
               splits:
                  - { var:1, quality:3.2029740810394287e+00,
                      le:-4.6542203426361084e-01 }
            -
               depth: 2
               sample_count: 43
               value: -7.4929918140866039e-02
               Tn: 0
               complexity: 0
               alpha: 0.
               node_risk: 4.8583161032746108e-01
               tree_risk: 0.
               tree_error: 0.
               splits:
                  - { var:1, quality:7.2190243005752563e-01,
                      le:-1.2180416584014893e+00 }
            -
               depth: 3
               sample_count: 2
               value: 1.2629586458206177e+00
               Tn: 0
               complexity: 0
               alpha: 0.
               node_risk: 2.0007717110122059e-03
               tree_risk: 0.
               tree_error: 0.
            -
               depth: 3
               sample_count: 41
               value: -8.3250862360000610e-01
               Tn: 0
               complexity: 0
               alpha: 0.
               node_risk: 3.3516033740864648e-03
               tree_risk: 0.
               tree_error: 0.
            -
               depth: 2
               sample_count: 34
               value: 2.9513460923643675e-01
               Tn: 0
               complexity: 0
               alpha: 0.
               node_risk: 3.6805084206025018e-02
               tree_risk: 0.
               tree_error: 0.
               splits:
                  - { var:0, quality:2.9983525276184082e+00,
                      le:-2.3036833107471466e-01 }
            -
               depth: 3
               sample_count: 1
               value: 1.4538542032241821e+00
               Tn: 0
               complexity: 0
               alpha: 0.
               node_risk: 0.
               tree_risk: 0.
               tree_error: 0.
            -
               depth: 3
               sample_count: 33
               value: 1.0554577112197876e+00
               Tn: 0
               complexity: 0
               alpha: 0.
               node_risk: 3.4846638743424307e-06
               tree_risk: 0.
               tree_error: 0.
            -
               depth: 1
               sample_count: 75
               value: -1.0054961194594701e-01
               Tn: 0
               complexity: 0
               alpha: 0.
               node_risk: 1.8728242569696629e-02
               tree_risk: 0.
               tree_error: 0.
               splits:
                  - { var:2, quality:7.6155525445938110e-01,
                      le:-1.2140106409788132e-03 }
            -
               depth: 2
               sample_count: 39
               value: -1.0691145597360073e-01
               Tn: 0
               complexity: 0
               alpha: 0.
               node_risk: 1.5300388535562481e-02
               tree_risk: 0.
               tree_error: 0.
               splits:
                  - { var:3, quality:4.5870599150657654e-01,
                      le:7.6475036144256592e-01 }
            -
               depth: 3
               sample_count: 7
               value: -8.7990051507949829e-01
               Tn: 0
               complexity: 0
               alpha: 0.
               node_risk: 1.8205108192649033e-03
               tree_risk: 0.
               tree_error: 0.
            -
               depth: 3
               sample_count: 32
               value: -8.3200913667678833e-01
               Tn: 0
               complexity: 0
               alpha: 0.
               node_risk: 5.4620876315686351e-04
               tree_risk: 0.
               tree_error: 0.
            -
               depth: 2
               sample_count: 36
               value: -9.3657614249322146e-02
               Tn: 0
               complexity: 0
               alpha: 0.
               node_risk: 1.3941795526972722e-04
               tree_risk: 0.
               tree_error: 0.
               splits:
                  - { var:3, quality:3.1585446000099182e-01,
                      le:8.6461186408996582e-01 }
            -
               depth: 3
               sample_count: 28
               value: -8.2683193683624268e-01
               Tn: 0
               complexity: 0
               alpha: 0.
               node_risk: 4.9547620734419207e-05
               tree_risk: 0.
               tree_error: 0.
            -
               depth: 3
               sample_count: 8
               value: -8.2993829250335693e-01
               Tn: 0
               complexity: 0
               alpha: 0.
               node_risk: 1.8351650366565941e-05
               tree_risk: 0.
               tree_error: 0.
      -
         best_tree_idx: -1
         nodes:
            -
               depth: 0
               sample_count: 152
               value: -2.7244778742131436e-03
               Tn: 0
               complexity: 0
               alpha: 0.
               node_risk: 4.4800022637243133e+00
               tree_risk: 0.
               tree_error: 0.
               splits:
                  - { var:3, quality:1.3865123987197876e+00,
                      le:-2.1775263547897339e-01 }
            -
               depth: 1
               sample_count: 78
               value: 9.0264584487065286e-02
               Tn: 0
               complexity: 0
               alpha: 0.
               node_risk: 3.0720027129547676e+00
               tree_risk: 0.
               tree_error: 0.
               splits:
                  - { var:1, quality:3.1963152885437012e+00,
                      le:-4.6542203426361084e-01 }
            -
               depth: 2
               sample_count: 43
               value: -7.3206106417400899e-02
               Tn: 0
               complexity: 0
               alpha: 0.
               node_risk: 4.7479424601037035e-01
               tree_risk: 0.
               tree_error: 0.
               splits:
                  - { var:1, quality:7.0082873106002808e-01,
                      le:-1.2180416584014893e+00 }
            -
               depth: 3
               sample_count: 2
               value: 1.2558944225311279e+00
               Tn: 0
               complexity: 0
               alpha: 0.
               node_risk: 1.9759003812396259e-03
               tree_risk: 0.
               tree_error: 0.
            -
               depth: 3
               sample_count: 41
               value: -8.3049333095550537e-01
               Tn: 0
               complexity: 0
               alpha: 0.
               node_risk: 2.4323654714799026e-03
               tree_risk: 0.
               tree_error: 0.
            -
               depth: 2
               sample_count: 35
               value: 2.9110000474112374e-01
               Tn: 0
               complexity: 0
               alpha: 0.
               node_risk: 3.6413484196855972e-02
               tree_risk: 0.
               tree_error: 0.
               splits:
                  - { var:0, quality:3.0022828578948975e+00,
                      le:-2.3151321709156036e-01 }
            -
               depth: 3
               sample_count: 1
               value: 1.4400070905685425e+00
               Tn: 0
               complexity: 0
               alpha: 0.
               node_risk: 0.
               tree_risk: 0.
               tree_error: 0.
            -
               depth: 3
               sample_count: 34
               value: 1.0497863292694092e+00
               Tn: 0
               complexity: 0
               alpha: 0.
               node_risk: 3.1480409239392770e-06
               tree_risk: 0.
               tree_error: 0.
            -
               depth: 1
               sample_count: 74
               value: -1.0073997603880393e-01
               Tn: 0
               complexity: 0
               alpha: 0.
               node_risk: 2.2615421547308667e-02
               tree_risk: 0.
               tree_error: 0.
               splits:
                  - { var:3, quality:7.5569921731948853e-01,
                      le:3.0624675750732422e-01 }
            -
               depth: 2
               sample_count: 7
               value: -8.6433035135269165e-01
               Tn: 0
               complexity: 0
               alpha: 0.
               node_risk: 6.0239994665242103e-03
               tree_risk: 0.
               tree_error: 0.
            -
               depth: 2
               sample_count: 67
               value: -9.8162051790685795e-02
               Tn: 0
               complexity: 0
               alpha: 0.
               node_risk: 1.1884372363476503e-02
               tree_risk: 0.
               tree_error: 0.
               splits:
                  - { var:0, quality:6.4745247364044189e-01,
                      le:1.6354668140411377e-01 }
            -
               depth: 3
               sample_count: 37
               value: -8.3846920728683472e-01
               Tn: 0
               complexity: 0
               alpha: 0.
               node_risk: 9.9488520804879021e-03
               tree_risk: 0.
               tree_error: 0.
            -
               depth: 3
               sample_count: 30
               value: -8.2630807161331177e-01
               Tn: 0
               complexity: 0
               alpha: 0.
               node_risk: 8.0842744265119393e-05
               tree_risk: 0.
               tree_error: 0.
      -
         best_tree_idx: -1
         nodes:
            -
               depth: 0
               sample_count: 152
               value: 8.6673809901664130e-03
               Tn: 0
               complexity: 0
               alpha: 0.
               node_risk: 4.5831074046381071e+00
               tree_risk: 0.
               tree_error: 0.
               splits:
                  - { var:3, quality:1.4690620899200439e+00,
                      le:-2.1775263547897339e-01 }
            -
               depth: 1
               sample_count: 82
               value: 9.9145992500026051e-02
               Tn: 0
               complexity: 0
               alpha: 0.
               node_risk: 3.1099271678392122e+00
               tree_risk: 0.
               tree_error: 0.
               splits:
                  - { var:1, quality:3.4206585884094238e+00,
                      le:-4.6542203426361084e-01 }
            -
               depth: 2
               sample_count: 43
               value: -7.0910862711972972e-02
               Tn: 0
               complexity: 0
               alpha: 0.
               node_risk: 4.5950349208334174e-01
               tree_risk: 0.
               tree_error: 0.
               splits:
                  - { var:0, quality:6.7379724979400635e-01,
                      le:-8.2366353273391724e-01 }
            -
               depth: 3
               sample_count: 2
               value: 1.2468856573104858e+00
               Tn: 0
               complexity: 0
               alpha: 0.
               node_risk: 1.8613938947282804e-03
               tree_risk: 0.
               tree_error: 0.
            -
               depth: 3
               sample_count: 41
               value: -8.2755064964294434e-01
               Tn: 0
               complexity: 0
               alpha: 0.
               node_risk: 6.3920361486724531e-05
               tree_risk: 0.
               tree_error: 0.
            -
               depth: 2
               sample_count: 39
               value: 2.8664457645171726e-01
               Tn: 0
               complexity: 0
               alpha: 0.
               node_risk: 3.5819273186607603e-02
               tree_risk: 0.
               tree_error: 0.
               splits:
                  - { var:0, quality:3.2402548789978027e+00,
                      le:-2.3151321709156036e-01 }
            -
               depth: 3
               sample_count: 1
               value: 1.4243723154067993e+00
               Tn: 0
               complexity: 0
               alpha: 0.
               node_risk: 0.
               tree_risk: 0.
               tree_error: 0.
            -
               depth: 3
               sample_count: 38
               value: 1.0441740751266479e+00
               Tn: 0
               complexity: 0
               alpha: 0.
               node_risk: 3.8136909319419487e-06
               tree_risk: 0.
               tree_error: 0.
            -
               depth: 1
               sample_count: 70
               value: -9.7321849635669158e-02
               Tn: 0
               complexity: 0
               alpha: 0.
               node_risk: 1.5536956651253431e-02
               tree_risk: 0.
               tree_error: 0.
               splits:
                  - { var:0, quality:6.6626042127609253e-01,
                      le:3.8670465350151062e-02 }
            -
               depth: 2
               sample_count: 31
               value: -1.0496735644917335e-01
               Tn: 0
               complexity: 0
               alpha: 0.
               node_risk: 1.2167198355841125e-02
               tree_risk: 0.
               tree_error: 0.
               splits:
                  - { var:3, quality:3.5194703936576843e-01,
                      le:7.6475036144256592e-01 }
            -
               depth: 3
               sample_count: 5
               value: -8.8024538755416870e-01
               Tn: 0
               complexity: 0
               alpha: 0.
               node_risk: 9.2508946761675481e-04
               tree_risk: 0.
               tree_error: 0.
            -
               depth: 3
               sample_count: 26
               value: -8.3082365989685059e-01
               Tn: 0
               complexity: 0
               alpha: 0.
               node_risk: 8.5758687760911778e-04
               tree_risk: 0.
               tree_error: 0.
            -
               depth: 2
               sample_count: 39
               value: -9.1244651912114560e-02
               Tn: 0
               complexity: 0
               alpha: 0.
               node_risk: 1.1733033324146103e-04
               tree_risk: 0.
               tree_error: 0.
               splits:
                  - { var:3, quality:3.2476425170898438e-01,
                      le:8.2776057720184326e-01 }
            -
               depth: 3
               sample_count: 28
               value: -8.2457840442657471e-01
               Tn: 0
               complexity: 0
               alpha: 0.
               node_risk: 4.3974078210162748e-05
               tree_risk: 0.
               tree_error: 0.
            -
               depth: 3
               sample_count: 11
               value: -8.2720553874969482e-01
               Tn: 0
               complexity: 0
               alpha: 0.
               node_risk: 6.9734159580114863e-06
               tree_risk: 0.
               tree_error: 0.
      -
         best_tree_idx: -1
         nodes:
            -
               depth: 0
               sample_count: 152
               value: -1.3535765048704650e-02
               Tn: 0
               complexity: 0
               alpha: 0.
               node_risk: 3.8003476311922011e+00
               tree_risk: 0.
               tree_error: 0.
               splits:
                  - { var:0, quality:1.2027394771575928e+00,
                      le:-7.5619511306285858e-02 }
            -
               depth: 1
               sample_count: 89
               value: -8.7505178253972124e-02
               Tn: 0
               complexity: 0
               alpha: 0.
               node_risk: 4.9147681545175392e-01
               tree_risk: 0.
               tree_error: 0.
               splits:
                  - { var:1, quality:1.1500815153121948e+00,
                      le:-1.2180416584014893e+00 }
            -
               depth: 2
               sample_count: 2
               value: 1.2364549636840820e+00
               Tn: 0
               complexity: 0
               alpha: 0.
               node_risk: 1.8452853344701481e-03
               tree_risk: 0.
               tree_error: 0.
            -
               depth: 2
               sample_count: 87
               value: -9.8506858037120990e-02
               Tn: 0
               complexity: 0
               alpha: 0.
               node_risk: 2.1036947023044705e-02
               tree_risk: 0.
               tree_error: 0.
               splits:
                  - { var:0, quality:8.5144841670989990e-01,
                      le:-3.5515850782394409e-01 }
            -
               depth: 3
               sample_count: 81
               value: -8.3086812496185303e-01
               Tn: 0
               complexity: 0
               alpha: 0.
               node_risk: 1.0148745184491714e-02
               tree_risk: 0.
               tree_error: 0.
            -
               depth: 3
               sample_count: 6
               value: -8.6868435144424438e-01
               Tn: 0
               complexity: 0
               alpha: 0.
               node_risk: 3.6531032300477218e-03
               tree_risk: 0.
               tree_error: 0.
            -
               depth: 1
               sample_count: 63
               value: 9.0960707574609723e-02
               Tn: 0
               complexity: 0
               alpha: 0.
               node_risk: 2.1339803159214856e+00
               tree_risk: 0.
               tree_error: 0.
               splits:
                  - { var:1, quality:2.6551275253295898e+00,
                      le:4.1874265670776367e-01 }
            -
               depth: 2
               sample_count: 31
               value: 2.7794638756782780e-01
               Tn: 0
               complexity: 0
               alpha: 0.
               node_risk: 3.1771490807130931e-06
               tree_risk: 0.
               tree_error: 0.
               splits:
                  - { var:3, quality:2.3948831558227539e+00,
                      le:-8.9115762710571289e-01 }
            -
               depth: 3
               sample_count: 26
               value: 1.0389038324356079e+00
               Tn: 0
               complexity: 0
               alpha: 0.
               node_risk: 2.4821799282648271e-08
               tree_risk: 0.
               tree_error: 0.
            -
               depth: 3
               sample_count: 5
               value: 1.0376665592193604e+00
               Tn: 0
               complexity: 0
               alpha: 0.
               node_risk: 4.5170001738981114e-08
               tree_risk: 0.
               tree_error: 0.
            -
               depth: 2
               sample_count: 32
               value: -9.0181669918820262e-02
               Tn: 0
               complexity: 0
               alpha: 0.
               node_risk: 1.0220900698143520e-04
               tree_risk: 0.
               tree_error: 0.
               splits:
                  - { var:3, quality:2.6031619310379028e-01,
                      le:8.4673655033111572e-01 }
            -
               depth: 3
               sample_count: 22
               value: -8.2345980405807495e-01
               Tn: 0
               complexity: 0
               alpha: 0.
               node_risk: 2.9560164983538639e-05
               tree_risk: 0.
               tree_error: 0.
            -
               depth: 3
               sample_count: 10
               value: -8.2631838321685791e-01
               Tn: 0
               complexity: 0
               alpha: 0.
               node_risk: 3.9276435776364194e-06
               tree_risk: 0.
               tree_error: 0.
      -
         best_tree_idx: -1
         nodes:
            -
               depth: 0
               sample_count: 152
               value: 2.4426684371734922e-04
               Tn: 0
               complexity: 0
               alpha: 0.
               node_risk: 4.1995846870314502e+00
               tree_risk: 0.
               tree_error: 0.
               splits:
                  - { var:3, quality:1.2886047363281250e+00,
                      le:-2.1775263547897339e-01 }
            -
               depth: 1
               sample_count: 79
               value: 8.8752653308307075e-02
               Tn: 0
               complexity: 0
               alpha: 0.
               node_risk: 2.8930408235755491e+00
               tree_risk: 0.
               tree_error: 0.
               splits:
                  - { var:1, quality:3.0337951183319092e+00,
                      le:-4.6542203426361084e-01 }
            -
               depth: 2
               sample_count: 43
               value: -7.1110346462837482e-02
               Tn: 0
               complexity: 0
               alpha: 0.
               node_risk: 4.4413761474985325e-01
               tree_risk: 0.
               tree_error: 0.
               splits:
                  - { var:1, quality:6.5579390525817871e-01,
                      le:-1.2180416584014893e+00 }
            -
               depth: 3
               sample_count: 2
               value: 1.2263032197952271e+00
               Tn: 0
               complexity: 0
               alpha: 0.
               node_risk: 1.8286051073346243e-03
               tree_risk: 0.
               tree_error: 0.
            -
               depth: 3
               sample_count: 41
               value: -8.2821881771087646e-01
               Tn: 0
               complexity: 0
               alpha: 0.
               node_risk: 3.9524072377207231e-03
               tree_risk: 0.
               tree_error: 0.
            -
               depth: 2
               sample_count: 36
               value: 2.7970012525717419e-01
               Tn: 0
               complexity: 0
               alpha: 0.
               node_risk: 3.7393791333168558e-02
               tree_risk: 0.
               tree_error: 0.
               splits:
                  - { var:0, quality:2.8537485599517822e+00,
                      le:-2.3151321709156036e-01 }
            -
               depth: 3
               sample_count: 1
               value: 1.4160636663436890e+00
               Tn: 0
               complexity: 0
               alpha: 0.
               node_risk: 0.
               tree_risk: 0.
               tree_error: 0.
            -
               depth: 3
               sample_count: 35
               value: 1.0334178209304810e+00
               Tn: 0
               complexity: 0
               alpha: 0.
               node_risk: 2.9067928606352211e-06
               tree_risk: 0.
               tree_error: 0.
            -
               depth: 1
               sample_count: 73
               value: -9.5538781522071528e-02
               Tn: 0
               complexity: 0
               alpha: 0.
               node_risk: 1.7948198105505409e-02
               tree_risk: 0.
               tree_error: 0.
               splits:
                  - { var:0, quality:6.6924494504928589e-01,
                      le:3.8670465350151062e-02 }
            -
               depth: 2
               sample_count: 38
               value: -1.0161461975229413e-01
               Tn: 0
               complexity: 0
               alpha: 0.
               node_risk: 1.4927373320585302e-02
               tree_risk: 0.
               tree_error: 0.
               splits:
                  - { var:3, quality:4.0485313534736633e-01,
                      le:6.7546951770782471e-01 }
            -
               depth: 3
               sample_count: 6
               value: -8.7751674652099609e-01
               Tn: 0
               complexity: 0
               alpha: 0.
               node_risk: 1.5873684106436081e-03
               tree_risk: 0.
               tree_error: 0.
            -
               depth: 3
               sample_count: 32
               value: -8.2786214351654053e-01
               Tn: 0
               complexity: 0
               alpha: 0.
               node_risk: 8.5703804465264710e-04
               tree_risk: 0.
               tree_error: 0.
            -
               depth: 2
               sample_count: 35
               value: -8.8942157157829826e-02
               Tn: 0
               complexity: 0
               alpha: 0.
               node_risk: 9.4983142225502082e-05
               tree_risk: 0.
               tree_error: 0.
               splits:
                  - { var:3, quality:2.7693444490432739e-01,
                      le:8.2776057720184326e-01 }
            -
               depth: 3
               sample_count: 23
               value: -8.2238000631332397e-01
               Tn: 0
               complexity: 0
               alpha: 0.
               node_risk: 2.8008229153247965e-05
               tree_risk: 0.
               tree_error: 0.
            -
               depth: 3
               sample_count: 12
               value: -8.2486164569854736e-01
               Tn: 0
               complexity: 0
               alpha: 0.
               node_risk: 7.2991722444154528e-06
               tree_risk: 0.
               tree_error: 0.
      -
         best_tree_idx: -1
         nodes:
            -
               depth: 0
               sample_count: 152
               value: -1.9724969507048003e-03
               Tn: 0
               complexity: 0
               alpha: 0.
               node_risk: 3.9096602887867111e+00
               tree_risk: 0.
               tree_error: 0.
               splits:
                  - { var:0, quality:1.2912063598632812e+00,
                      le:-7.5619511306285858e-02 }
            -
               depth: 1
               sample_count: 79
               value: -9.0550203866596457e-02
               Tn: 0
               complexity: 0
               alpha: 0.
               node_risk: 2.7739809577378038e-01
               tree_risk: 0.
               tree_error: 0.
               splits:
                  - { var:1, quality:9.0268284082412720e-01,
                      le:-1.2180416584014893e+00 }
            -
               depth: 2
               sample_count: 1
               value: 1.2736794948577881e+00
               Tn: 0
               complexity: 0
               alpha: 0.
               node_risk: 0.
               tree_risk: 0.
               tree_error: 0.
            -
               depth: 2
               sample_count: 78
               value: -9.6982320149739579e-02
               Tn: 0
               complexity: 0
               alpha: 0.
               node_risk: 2.2463093073992080e-02
               tree_risk: 0.
               tree_error: 0.
               splits:
                  - { var:0, quality:7.4343621730804443e-01,
                      le:-3.0883741378784180e-01 }
            -
               depth: 3
               sample_count: 72
               value: -8.2880139350891113e-01
               Tn: 0
               complexity: 0
               alpha: 0.
               node_risk: 8.9936658479831122e-03
               tree_risk: 0.
               tree_error: 0.
            -
               depth: 3
               sample_count: 6
               value: -8.7241321802139282e-01
               Tn: 0
               complexity: 0
               alpha: 0.
               node_risk: 3.6676946513813646e-03
               tree_risk: 0.
               tree_error: 0.
            -
               depth: 1
               sample_count: 73
               value: 9.3885569437725899e-02
               Tn: 0
               complexity: 0
               alpha: 0.
               node_risk: 2.3416472610809995e+00
               tree_risk: 0.
               tree_error: 0.
               splits:
                  - { var:1, quality:2.9849987030029297e+00,
                      le:4.1874265670776367e-01 }
            -
               depth: 2
               sample_count: 37
               value: 2.7054619950217168e-01
               Tn: 0
               complexity: 0
               alpha: 0.
               node_risk: 3.6031778343215137e-06
               tree_risk: 0.
               tree_error: 0.
               splits:
                  - { var:3, quality:2.7082276344299316e+00,
                      le:-9.2900770902633667e-01 }
            -
               depth: 3
               sample_count: 32
               value: 1.0283387899398804e+00
               Tn: 0
               complexity: 0
               alpha: 0.
               node_risk: 2.4299470435806825e-08
               tree_risk: 0.
               tree_error: 0.
            -
               depth: 3
               sample_count: 5
               value: 1.0270653963088989e+00
               Tn: 0
               complexity: 0
               alpha: 0.
               node_risk: 4.2834706448502402e-08
               tree_risk: 0.
               tree_error: 0.
            -
               depth: 2
               sample_count: 36
               value: -8.7682300350732267e-02
               Tn: 0
               complexity: 0
               alpha: 0.
               node_risk: 1.0337573412516621e-04
               tree_risk: 0.
               tree_error: 0.
               splits:
                  - { var:3, quality:2.7683421969413757e-01,
                      le:8.5149610042572021e-01 }
            -
               depth: 3
               sample_count: 26
               value: -8.2137960195541382e-01
               Tn: 0
               complexity: 0
               alpha: 0.
               node_risk: 3.9186161279181064e-05
               tree_risk: 0.
               tree_error: 0.
            -
               depth: 3
               sample_count: 10
               value: -8.2395952939987183e-01
               Tn: 0
               complexity: 0
               alpha: 0.
               node_risk: 4.6522422657568896e-06
               tree_risk: 0.
               tree_error: 0.
      -
         best_tree_idx: -1
         nodes:
            -
               depth: 0
               sample_count: 152
               value: -5.7784940949396086e-03
               Tn: 0
               complexity: 0
               alpha: 0.
               node_risk: 3.7797309634516574e+00
               tree_risk: 0.
               tree_error: 0.
               splits:
                  - { var:3, quality:1.1399500370025635e+00,
                      le:-2.1775263547897339e-01 }
            -
               depth: 1
               sample_count: 78
               value: 7.8384408966088906e-02
               Tn: 0
               complexity: 0
               alpha: 0.
               node_risk: 2.6232305932396489e+00
               tree_risk: 0.
               tree_error: 0.
               splits:
                  - { var:1, quality:2.8743872642517090e+00,
                      le:-4.7052299976348877e-01 }
            -
               depth: 2
               sample_count: 43
               value: -7.9710729593454405e-02
               Tn: 0
               complexity: 0
               alpha: 0.
               node_risk: 1.8914402708288908e-01
               tree_risk: 0.
               tree_error: 0.
               splits:
                  - { var:0, quality:4.6120733022689819e-01,
                      le:-1.0989487171173096e+00 }
            -
               depth: 3
               sample_count: 1
               value: 1.1517210006713867e+00
               Tn: 0
               complexity: 0
               alpha: 0.
               node_risk: 0.
               tree_risk: 0.
               tree_error: 0.
            -
               depth: 3
               sample_count: 42
               value: -8.2437324523925781e-01
               Tn: 0
               complexity: 0
               alpha: 0.
               node_risk: 1.1501164470000269e-03
               tree_risk: 0.
               tree_error: 0.
            -
               depth: 2
               sample_count: 35
               value: 2.7261557919638496e-01
               Tn: 0
               complexity: 0
               alpha: 0.
               node_risk: 3.8940272085770111e-02
               tree_risk: 0.
               tree_error: 0.
               splits:
                  - { var:0, quality:2.6401109695434570e+00,
                      le:-2.3151321709156036e-01 }
            -
               depth: 3
               sample_count: 1
               value: 1.4073960781097412e+00
               Tn: 0
               complexity: 0
               alpha: 0.
               node_risk: 0.
               tree_risk: 0.
               tree_error: 0.
            -
               depth: 3
               sample_count: 34
               value: 1.0230468511581421e+00
               Tn: 0
               complexity: 0
               alpha: 0.
               node_risk: 3.2144157824376407e-06
               tree_risk: 0.
               tree_error: 0.
            -
               depth: 1
               sample_count: 74
               value: -9.4490743267375069e-02
               Tn: 0
               complexity: 0
               alpha: 0.
               node_risk: 2.1625745243335048e-02
               tree_risk: 0.
               tree_error: 0.
               splits:
                  - { var:3, quality:6.6444808244705200e-01,
                      le:2.8126892447471619e-01 }
            -
               depth: 2
               sample_count: 8
               value: -8.5462296009063721e-01
               Tn: 0
               complexity: 0
               alpha: 0.
               node_risk: 6.9056908544267992e-03
               tree_risk: 0.
               tree_error: 0.
            -
               depth: 2
               sample_count: 66
               value: -9.2015950855883683e-02
               Tn: 0
               complexity: 0
               alpha: 0.
               node_risk: 1.0980987627383865e-02
               tree_risk: 0.
               tree_error: 0.
               splits:
                  - { var:0, quality:5.6039279699325562e-01,
                      le:1.2941838800907135e-01 }
            -
               depth: 3
               sample_count: 36
               value: -8.3255398273468018e-01
               Tn: 0
               complexity: 0
               alpha: 0.
               node_risk: 9.3148566070753724e-03
               tree_risk: 0.
               tree_error: 0.
            -
               depth: 3
               sample_count: 30
               value: -8.2119739055633545e-01
               Tn: 0
               complexity: 0
               alpha: 0.
               node_risk: 9.1029247479168518e-05
               tree_risk: 0.
               tree_error: 0.
      -
         best_tree_idx: -1
         nodes:
            -
               depth: 0
               sample_count: 152
               value: 8.2501807299099478e-03
               Tn: 0
               complexity: 0
               alpha: 0.
               node_risk: 3.9832576918619123e+00
               tree_risk: 0.
               tree_error: 0.
               splits:
                  - { var:3, quality:1.4844557046890259e+00,
                      le:-3.1305208802223206e-01 }
            -
               depth: 1
               sample_count: 77
               value: 1.0544170148960956e-01
               Tn: 0
               complexity: 0
               alpha: 0.
               node_risk: 2.4920453866147665e+00
               tree_risk: 0.
               tree_error: 0.
               splits:
                  - { var:0, quality:2.9296133518218994e+00,
                      le:-1.7041249573230743e-01 }
            -
               depth: 2
               sample_count: 37
               value: -6.5181873134664586e-02
               Tn: 0
               complexity: 0
               alpha: 0.
               node_risk: 4.1850971036471779e-01
               tree_risk: 0.
               tree_error: 0.
               splits:
                  - { var:1, quality:5.6985110044479370e-01,
                      le:-1.2180416584014893e+00 }
            -
               depth: 3
               sample_count: 2
               value: 1.2079690694808960e+00
               Tn: 0
               complexity: 0
               alpha: 0.
               node_risk: 1.8995442244023053e-03
               tree_risk: 0.
               tree_error: 0.
            -
               depth: 3
               sample_count: 35
               value: -8.2569825649261475e-01
               Tn: 0
               complexity: 0
               alpha: 0.
               node_risk: 3.9601033720311207e-03
               tree_risk: 0.
               tree_error: 0.
            -
               depth: 2
               sample_count: 40
               value: 2.6326850801706314e-01
               Tn: 0
               complexity: 0
               alpha: 0.
               node_risk: 4.6858539639593744e-06
               tree_risk: 0.
               tree_error: 0.
               splits:
                  - { var:3, quality:2.7724168300628662e+00,
                      le:-9.2900770902633667e-01 }
            -
               depth: 3
               sample_count: 33
               value: 1.0182259082794189e+00
               Tn: 0
               complexity: 0
               alpha: 0.
               node_risk: 2.3492489287235685e-08
               tree_risk: 0.
               tree_error: 0.
            -
               depth: 3
               sample_count: 7
               value: 1.0169930458068848e+00
               Tn: 0
               complexity: 0
               alpha: 0.
               node_risk: 5.7411387144323811e-08
               tree_risk: 0.
               tree_error: 0.
            -
               depth: 1
               sample_count: 75
               value: -9.1533113916714981e-02
               Tn: 0
               complexity: 0
               alpha: 0.
               node_risk: 1.7102601973110532e-02
               tree_risk: 0.
               tree_error: 0.
               splits:
                  - { var:3, quality:6.3266932964324951e-01,
                      le:2.8126892447471619e-01 }
            -
               depth: 2
               sample_count: 8
               value: -8.5315227508544922e-01
               Tn: 0
               complexity: 0
               alpha: 0.
               node_risk: 6.7803316738517250e-03
               tree_risk: 0.
               tree_error: 0.
            -
               depth: 2
               sample_count: 67
               value: -8.8917880249557213e-02
               Tn: 0
               complexity: 0
               alpha: 0.
               node_risk: 6.0262425683189624e-03
               tree_risk: 0.
               tree_error: 0.
               splits:
                  - { var:0, quality:5.3061032295227051e-01,
                      le:9.9417313933372498e-02 }
            -
               depth: 3
               sample_count: 35
               value: -8.2777315378189087e-01
               Tn: 0
               complexity: 0
               alpha: 0.
               node_risk: 5.0671396343378028e-03
               tree_risk: 0.
               tree_error: 0.
            -
               depth: 3
               sample_count: 32
               value: -8.1980746984481812e-01
               Tn: 0
               complexity: 0
               alpha: 0.
               node_risk: 7.6853209886040830e-05
               tree_risk: 0.
               tree_error: 0.
      -
         best_tree_idx: -1
         nodes:
            -
               depth: 0
               sample_count: 152
               value: 1.4626303736708667e-02
               Tn: 0
               complexity: 0
               alpha: 0.
               node_risk: 4.1028956424785825e+00
               tree_risk: 0.
               tree_error: 0.
               splits:
                  - { var:3, quality:1.3012528419494629e+00,
                      le:-1.5397888422012329e-01 }
            -
               depth: 1
               sample_count: 86
               value: 9.4662514883418411e-02
               Tn: 0
               complexity: 0
               alpha: 0.
               node_risk: 2.8226854206582126e+00
               tree_risk: 0.
               tree_error: 0.
               splits:
                  - { var:1, quality:3.1394114494323730e+00,
                      le:-4.6542203426361084e-01 }
            -
               depth: 2
               sample_count: 44
               value: -6.7484956573356278e-02
               Tn: 0
               complexity: 0
               alpha: 0.
               node_risk: 4.1388730063324025e-01
               tree_risk: 0.
               tree_error: 0.
               splits:
                  - { var:1, quality:6.0830670595169067e-01,
                      le:-1.2180416584014893e+00 }
            -
               depth: 3
               sample_count: 2
               value: 1.2024143934249878e+00
               Tn: 0
               complexity: 0
               alpha: 0.
               node_risk: 1.8713755906833995e-03
               tree_risk: 0.
               tree_error: 0.
            -
               depth: 3
               sample_count: 42
               value: -8.2381182909011841e-01
               Tn: 0
               complexity: 0
               alpha: 0.
               node_risk: 4.0948522176832980e-03
               tree_risk: 0.
               tree_error: 0.
            -
               depth: 2
               sample_count: 42
               value: 2.6453129450480145e-01
               Tn: 0
               complexity: 0
               alpha: 0.
               node_risk: 4.0031913850211431e-02
               tree_risk: 0.
               tree_error: 0.
               splits:
                  - { var:0, quality:2.9790530204772949e+00,
                      le:-2.3151321709156036e-01 }
            -
               depth: 3
               sample_count: 1
               value: 1.3945783376693726e+00
               Tn: 0
               complexity: 0
               alpha: 0.
               node_risk: 0.
               tree_risk: 0.
               tree_error: 0.
            -
               depth: 3
               sample_count: 41
               value: 1.0131171941757202e+00
               Tn: 0
               complexity: 0
               alpha: 0.
               node_risk: 4.7733347758871503e-06
               tree_risk: 0.
               tree_error: 0.
            -
               depth: 1
               sample_count: 66
               value: -8.9663304727185852e-02
               Tn: 0
               complexity: 0
               alpha: 0.
               node_risk: 1.1474563059933773e-02
               tree_risk: 0.
               tree_error: 0.
               splits:
                  - { var:0, quality:5.3262895345687866e-01,
                      le:5.1204293966293335e-02 }
            -
               depth: 2
               sample_count: 33
               value: -9.5197496992169006e-02
               Tn: 0
               complexity: 0
               alpha: 0.
               node_risk: 9.3650880328024488e-03
               tree_risk: 0.
               tree_error: 0.
               splits:
                  - { var:3, quality:3.0638280510902405e-01,
                      le:8.4215891361236572e-01 }
            -
               depth: 3
               sample_count: 6
               value: -8.6104804277420044e-01
               Tn: 0
               complexity: 0
               alpha: 0.
               node_risk: 1.6590264025087842e-03
               tree_risk: 0.
               tree_error: 0.
            -
               depth: 3
               sample_count: 27
               value: -8.2267546653747559e-01
               Tn: 0
               complexity: 0
               alpha: 0.
               node_risk: 3.8785762624546360e-04
               tree_risk: 0.
               tree_error: 0.
            -
               depth: 2
               sample_count: 33
               value: -8.4129112462202713e-02
               Tn: 0
               complexity: 0
               alpha: 0.
               node_risk: 8.8074281428707213e-05
               tree_risk: 0.
               tree_error: 0.
               splits:
                  - { var:2, quality:2.3363569378852844e-01,
                      le:2.7041554450988770e+00 }
            -
               depth: 3
               sample_count: 22
               value: -8.1797021627426147e-01
               Tn: 0
               complexity: 0
               alpha: 0.
               node_risk: 1.2488724415338215e-05
               tree_risk: 0.
               tree_error: 0.
            -
               depth: 3
               sample_count: 11
               value: -8.2076025009155273e-01
               Tn: 0
               complexity: 0
               alpha: 0.
               node_risk: 4.2377163880502611e-06
               tree_risk: 0.
               tree_error: 0.
      -
         best_tree_idx: -1
         nodes:
            -
               depth: 0
               sample_count: 152
               value: 1.3699973688313836e-03
               Tn: 0
               complexity: 0
               alpha: 0.
               node_risk: 3.7351748001382670e+00
               tree_risk: 0.
               tree_error: 0.
               splits:
                  - { var:3, quality:1.2255830764770508e+00,
                      le:-2.1775263547897339e-01 }
            -
               depth: 1
               sample_count: 78
               value: 8.8821564156275526e-02
               Tn: 0
               complexity: 0
               alpha: 0.
               node_risk: 2.4873569142619778e+00
               tree_risk: 0.
               tree_error: 0.
               splits:
                  - { var:1, quality:2.8268420696258545e+00,
                      le:-4.7052299976348877e-01 }
            -
               depth: 2
               sample_count: 40
               value: -7.5296322628855702e-02
               Tn: 0
               complexity: 0
               alpha: 0.
               node_risk: 2.3673194698024122e-01
               tree_risk: 0.
               tree_error: 0.
               splits:
                  - { var:1, quality:4.5940664410591125e-01,
                      le:-1.2180416584014893e+00 }
            -
               depth: 3
               sample_count: 1
               value: 1.2519800662994385e+00
               Tn: 0
               complexity: 0
               alpha: 0.
               node_risk: 0.
               tree_risk: 0.
               tree_error: 0.
            -
               depth: 3
               sample_count: 39
               value: -8.2301014661788940e-01
               Tn: 0
               complexity: 0
               alpha: 0.
               node_risk: 4.1067656439220945e-03
               tree_risk: 0.
               tree_error: 0.
            -
               depth: 2
               sample_count: 38
               value: 2.6157723445641368e-01
               Tn: 0
               complexity: 0
               alpha: 0.
               node_risk: 3.9145915176749480e-02
               tree_risk: 0.
               tree_error: 0.
               splits:
                  - { var:0, quality:2.6392033100128174e+00,
                      le:-2.3151321709156036e-01 }
            -
               depth: 3
               sample_count: 1
               value: 1.3807109594345093e+00
               Tn: 0
               complexity: 0
               alpha: 0.
               node_risk: 0.
               tree_risk: 0.
               tree_error: 0.
            -
               depth: 3
               sample_count: 37
               value: 1.0084728002548218e+00
               Tn: 0
               complexity: 0
               alpha: 0.
               node_risk: 3.2959627387363355e-06
               tree_risk: 0.
               tree_error: 0.
            -
               depth: 1
               sample_count: 74
               value: -9.0808681136852989e-02
               Tn: 0
               complexity: 0
               alpha: 0.
               node_risk: 2.2520067199127469e-02
               tree_risk: 0.
               tree_error: 0.
               splits:
                  - { var:0, quality:6.1443513631820679e-01,
                      le:3.8670465350151062e-02 }
            -
               depth: 2
               sample_count: 38
               value: -9.8154647569907341e-02
               Tn: 0
               complexity: 0
               alpha: 0.
               node_risk: 1.8211201242380182e-02
               tree_risk: 0.
               tree_error: 0.
               splits:
                  - { var:3, quality:3.8134935498237610e-01,
                      le:7.6475036144256592e-01 }
            -
               depth: 3
               sample_count: 8
               value: -8.7092024087905884e-01
               Tn: 0
               complexity: 0
               alpha: 0.
               node_risk: 2.0821705087494258e-03
               tree_risk: 0.
               tree_error: 0.
            -
               depth: 3
               sample_count: 30
               value: -8.2250124216079712e-01
               Tn: 0
               complexity: 0
               alpha: 0.
               node_risk: 8.8440544664239451e-04
               tree_risk: 0.
               tree_error: 0.
            -
               depth: 2
               sample_count: 36
               value: -8.3054605457517833e-02
               Tn: 0
               complexity: 0
               alpha: 0.
               node_risk: 9.3738661925912847e-05
               tree_risk: 0.
               tree_error: 0.
               splits:
                  - { var:3, quality:2.4837429821491241e-01,
                      le:8.2776057720184326e-01 }
            -
               depth: 3
               sample_count: 25
               value: -8.1729924678802490e-01
               Tn: 0
               complexity: 0
               alpha: 0.
               node_risk: 4.3414427780885667e-05
               tree_risk: 0.
               tree_error: 0.
            -
               depth: 3
               sample_count: 11
               value: -8.1942647695541382e-01
               Tn: 0
               complexity: 0
               alpha: 0.
               node_risk: 6.4554655258841631e-06
               tree_risk: 0.
               tree_error: 0.
      -
         best_tree_idx: -1
         nodes:
            -
               depth: 0
               sample_count: 152
               value: 4.8083604656552013e-03
               Tn: 0
               complexity: 0
               alpha: 0.
               node_risk: 3.7166219637145694e+00
               tree_risk: 0.
               tree_error: 0.
               splits:
                  - { var:3, quality:1.1429194211959839e+00,
                      le:-2.1775263547897339e-01 }
            -
               depth: 1
               sample_count: 82
               value: 8.4802724511885058e-02
               Tn: 0
               complexity: 0
               alpha: 0.
               node_risk: 2.5585377593421530e+00
               tree_risk: 0.
               tree_error: 0.
               splits:
                  - { var:1, quality:2.7145154476165771e+00,
                      le:-4.6542203426361084e-01 }
            -
               depth: 2
               sample_count: 44
               value: -6.4792872321876610e-02
               Tn: 0
               complexity: 0
               alpha: 0.
               node_risk: 3.9536097139634463e-01
               tree_risk: 0.
               tree_error: 0.
               splits:
                  - { var:1, quality:5.7546097040176392e-01,
                      le:-1.2180416584014893e+00 }
            -
               depth: 3
               sample_count: 2
               value: 1.1892119646072388e+00
               Tn: 0
               complexity: 0
               alpha: 0.
               node_risk: 1.6713362429516820e-03
               tree_risk: 0.
               tree_error: 0.
            -
               depth: 3
               sample_count: 42
               value: -8.2072937488555908e-01
               Tn: 0
               complexity: 0
               alpha: 0.
               node_risk: 2.9458037635708978e-03
               tree_risk: 0.
               tree_error: 0.
            -
               depth: 2
               sample_count: 38
               value: 2.5801867874045120e-01
               Tn: 0
               complexity: 0
               alpha: 0.
               node_risk: 3.8364575521752986e-02
               tree_risk: 0.
               tree_error: 0.
               splits:
                  - { var:0, quality:2.5681586265563965e+00,
                      le:-2.3036833107471466e-01 }
            -
               depth: 3
               sample_count: 1
               value: 1.3668236732482910e+00
               Tn: 0
               complexity: 0
               alpha: 0.
               node_risk: 0.
               tree_risk: 0.
               tree_error: 0.
            -
               depth: 3
               sample_count: 37
               value: 1.0037416219711304e+00
               Tn: 0
               complexity: 0
               alpha: 0.
               node_risk: 4.1628594837916921e-06
               tree_risk: 0.
               tree_error: 0.
            -
               depth: 1
               sample_count: 70
               value: -8.8899323131356914e-02
               Tn: 0
               complexity: 0
               alpha: 0.
               node_risk: 1.8679047922994130e-02
               tree_risk: 0.
               tree_error: 0.
               splits:
                  - { var:3, quality:5.5644935369491577e-01,
                      le:2.1105712652206421e-01 }
            -
               depth: 2
               sample_count: 4
               value: -8.5728573799133301e-01
               Tn: 0
               complexity: 0
               alpha: 0.
               node_risk: 4.0267277206144508e-03
               tree_risk: 0.
               tree_error: 0.
            -
               depth: 2
               sample_count: 66
               value: -8.7226241714123520e-02
               Tn: 0
               complexity: 0
               alpha: 0.
               node_risk: 1.1419242552240805e-02
               tree_risk: 0.
               tree_error: 0.
               splits:
                  - { var:0, quality:5.0384044647216797e-01,
                      le:9.5785871148109436e-02 }
            -
               depth: 3
               sample_count: 35
               value: -8.2871121168136597e-01
               Tn: 0
               complexity: 0
               alpha: 0.
               node_risk: 9.6544808199362508e-03
               tree_risk: 0.
               tree_error: 0.
            -
               depth: 3
               sample_count: 31
               value: -8.1689471006393433e-01
               Tn: 0
               complexity: 0
               alpha: 0.
               node_risk: 7.9853320891831725e-05
               tree_risk: 0.
               tree_error: 0.
      -
         best_tree_idx: -1
         nodes:
            -
               depth: 0
               sample_count: 152
               value: 6.4024486039814194e-04
               Tn: 0
               complexity: 0
               alpha: 0.
               node_risk: 3.4408873132522864e+00
               tree_risk: 0.
               tree_error: 0.
               splits:
                  - { var:0, quality:1.2090920209884644e+00,
                      le:-7.5619511306285858e-02 }
            -
               depth: 1
               sample_count: 81
               value: -8.2859155756455874e-02
               Tn: 0
               complexity: 0
               alpha: 0.
               node_risk: 3.0625261675204130e-01
               tree_risk: 0.
               tree_error: 0.
               splits:
                  - { var:2, quality:5.7164621353149414e-01,
                      le:-3.7672281265258789e-01 }
            -
               depth: 2
               sample_count: 70
               value: -7.7370298228093562e-02
               Tn: 0
               complexity: 0
               alpha: 0.
               node_risk: 2.8230331858758950e-01
               tree_risk: 0.
               tree_error: 0.
               splits:
                  - { var:1, quality:4.8403927683830261e-01,
                      le:-3.8243472576141357e-01 }
            -
               depth: 3
               sample_count: 66
               value: -8.2029557228088379e-01
               Tn: 0
               complexity: 0
               alpha: 0.
               node_risk: 4.6093230697016319e-03
               tree_risk: 0.
               tree_error: 0.
            -
               depth: 3
               sample_count: 4
               value: 2.8732463717460632e-01
               Tn: 0
               complexity: 0
               alpha: 0.
               node_risk: 2.1268611779947755e-01
               tree_risk: 0.
               tree_error: 0.
            -
               depth: 2
               sample_count: 11
               value: -1.1778824911876158e-01
               Tn: 0
               complexity: 0
               alpha: 0.
               node_risk: 8.4199119825464075e-03
               tree_risk: 0.
               tree_error: 0.
               splits:
                  - { var:3, quality:1.6018164157867432e-01,
                      le:6.2503910064697266e-01 }
            -
               depth: 3
               sample_count: 5
               value: -8.7877041101455688e-01
               Tn: 0
               complexity: 0
               alpha: 0.
               node_risk: 1.1301389794035610e-05
               tree_risk: 0.
               tree_error: 0.
            -
               depth: 3
               sample_count: 6
               value: -8.2904130220413208e-01
               Tn: 0
               complexity: 0
               alpha: 0.
               node_risk: 8.4175156200898965e-04
               tree_risk: 0.
               tree_error: 0.
            -
               depth: 1
               sample_count: 71
               value: 9.5900124437372447e-02
               Tn: 0
               complexity: 0
               alpha: 0.
               node_risk: 1.9256049836785674e+00
               tree_risk: 0.
               tree_error: 0.
               splits:
                  - { var:1, quality:2.5784857273101807e+00,
                      le:4.6546563506126404e-01 }
            -
               depth: 2
               sample_count: 38
               value: 2.4936498152582268e-01
               Tn: 0
               complexity: 0
               alpha: 0.
               node_risk: 4.1719835306430753e-06
               tree_risk: 0.
               tree_error: 0.
               splits:
                  - { var:3, quality:2.3629541397094727e+00,
                      le:-9.2900770902633667e-01 }
            -
               depth: 3
               sample_count: 32
               value: 9.9934309720993042e-01
               Tn: 0
               complexity: 0
               alpha: 0.
               node_risk: 2.1860499188619542e-08
               tree_risk: 0.
               tree_error: 0.
            -
               depth: 3
               sample_count: 6
               value: 9.9814689159393311e-01
               Tn: 0
               complexity: 0
               alpha: 0.
               node_risk: 6.2664855804417385e-08
               tree_risk: 0.
               tree_error: 0.
            -
               depth: 2
               sample_count: 33
               value: -8.0816983725085403e-02
               Tn: 0
               complexity: 0
               alpha: 0.
               node_risk: 9.0343499296485774e-05
               tree_risk: 0.
               tree_error: 0.
               splits:
                  - { var:3, quality:2.1560102701187134e-01,
                      le:8.5149610042572021e-01 }
            -
               depth: 3
               sample_count: 23
               value: -8.1513053178787231e-01
               Tn: 0
               complexity: 0
               alpha: 0.
               node_risk: 2.3391751792195548e-05
               tree_risk: 0.
               tree_error: 0.
            -
               depth: 3
               sample_count: 10
               value: -8.1784224510192871e-01
               Tn: 0
               complexity: 0
               alpha: 0.
               node_risk: 1.6264628458634300e-06
               tree_risk: 0.
               tree_error: 0.
      -
         best_tree_idx: -1
         nodes:
            -
               depth: 0
               sample_count: 152
               value: 6.4828909051261449e-03
               Tn: 0
               complexity: 0
               alpha: 0.
               node_risk: 3.6022399727696461e+00
               tree_risk: 0.
               tree_error: 0.
               splits:
                  - { var:3, quality:1.1405180692672729e+00,
                      le:-2.1775263547897339e-01 }
            -
               depth: 1
               sample_count: 82
               value: 8.6291855973441425e-02
               Tn: 0
               complexity: 0
               alpha: 0.
               node_risk: 2.4489795626286526e+00
               tree_risk: 0.
               tree_error: 0.
               splits:
                  - { var:1, quality:2.6288287639617920e+00,
                      le:-4.6542203426361084e-01 }
            -
               depth: 2
               sample_count: 43
               value: -6.3117171789324564e-02
               Tn: 0
               complexity: 0
               alpha: 0.
               node_risk: 3.9290626822527286e-01
               tree_risk: 0.
               tree_error: 0.
               splits:
                  - { var:1, quality:5.5871790647506714e-01,
                      le:-1.2180416584014893e+00 }
            -
               depth: 3
               sample_count: 2
               value: 1.1881892681121826e+00
               Tn: 0
               complexity: 0
               alpha: 0.
               node_risk: 1.5688609656265839e-03
               tree_risk: 0.
               tree_error: 0.
            -
               depth: 3
               sample_count: 41
               value: -8.1986838579177856e-01
               Tn: 0
               complexity: 0
               alpha: 0.
               node_risk: 3.9219487433154732e-03
               tree_risk: 0.
               tree_error: 0.
            -
               depth: 2
               sample_count: 39
               value: 2.5102488658367061e-01
               Tn: 0
               complexity: 0
               alpha: 0.
               node_risk: 3.7839935004539083e-02
               tree_risk: 0.
               tree_error: 0.
               splits:
                  - { var:0, quality:2.4953620433807373e+00,
                      le:-2.3151321709156036e-01 }
            -
               depth: 3
               sample_count: 1
               value: 1.3465690612792969e+00
               Tn: 0
               complexity: 0
               alpha: 0.
               node_risk: 0.
               tree_risk: 0.
               tree_error: 0.
            -
               depth: 3
               sample_count: 38
               value: 9.9465882778167725e-01
               Tn: 0
               complexity: 0
               alpha: 0.
               node_risk: 4.2374346533868845e-06
               tree_risk: 0.
               tree_error: 0.
            -
               depth: 1
               sample_count: 70
               value: -8.7007611032043186e-02
               Tn: 0
               complexity: 0
               alpha: 0.
               node_risk: 1.9130619235928736e-02
               tree_risk: 0.
               tree_error: 0.
               splits:
                  - { var:0, quality:5.3368610143661499e-01,
                      le:3.8670465350151062e-02 }
            -
               depth: 2
               sample_count: 35
               value: -9.4339917174407414e-02
               Tn: 0
               complexity: 0
               alpha: 0.
               node_risk: 1.5267886458997459e-02
               tree_risk: 0.
               tree_error: 0.
               splits:
                  - { var:3, quality:3.2393640279769897e-01,
                      le:7.6475036144256592e-01 }
            -
               depth: 3
               sample_count: 7
               value: -8.6628228425979614e-01
               Tn: 0
               complexity: 0
               alpha: 0.
               node_risk: 2.0263630752279105e-03
               tree_risk: 0.
               tree_error: 0.
            -
               depth: 3
               sample_count: 28
               value: -8.1989979743957520e-01
               Tn: 0
               complexity: 0
               alpha: 0.
               node_risk: 8.0581859027642477e-04
               tree_risk: 0.
               tree_error: 0.
            -
               depth: 2
               sample_count: 35
               value: -7.9675304889678958e-02
               Tn: 0
               complexity: 0
               alpha: 0.
               node_risk: 9.9342841356958589e-05
               tree_risk: 0.
               tree_error: 0.
               splits:
                  - { var:3, quality:2.2223955392837524e-01,
                      le:8.7453448772430420e-01 }
            -
               depth: 3
               sample_count: 26
               value: -8.1430089473724365e-01
               Tn: 0
               complexity: 0
               alpha: 0.
               node_risk: 4.3391745131959869e-05
               tree_risk: 0.
               tree_error: 0.
            -
               depth: 3
               sample_count: 9
               value: -8.1680846214294434e-01
               Tn: 0
               complexity: 0
               alpha: 0.
               node_risk: 1.7897255175439164e-06
               tree_risk: 0.
               tree_error: 0.
      -
         best_tree_idx: -1
         nodes:
            -
               depth: 0
               sample_count: 152
               value: 4.3078411468549776e-03
               Tn: 0
               complexity: 0
               alpha: 0.
               node_risk: 3.4603118827454806e+00
               tree_risk: 0.
               tree_error: 0.
               splits:
                  - { var:3, quality:1.1685091257095337e+00,
                      le:-2.1775263547897339e-01 }
            -
               depth: 1
               sample_count: 78
               value: 8.9605674816247746e-02
               Tn: 0
               complexity: 0
               alpha: 0.
               node_risk: 2.2755036465063867e+00
               tree_risk: 0.
               tree_error: 0.
               splits:
                  - { var:1, quality:2.4801902770996094e+00,
                      le:-4.6542203426361084e-01 }
            -
               depth: 2
               sample_count: 40
               value: -6.0659844614565375e-02
               Tn: 0
               complexity: 0
               alpha: 0.
               node_risk: 3.8456092569128303e-01
               tree_risk: 0.
               tree_error: 0.
               splits:
                  - { var:1, quality:5.2623480558395386e-01,
                      le:-1.2180416584014893e+00 }
            -
               depth: 3
               sample_count: 2
               value: 1.1825630664825439e+00
               Tn: 0
               complexity: 0
               alpha: 0.
               node_risk: 1.5438372607849971e-03
               tree_risk: 0.
               tree_error: 0.
            -
               depth: 3
               sample_count: 38
               value: -8.1900119781494141e-01
               Tn: 0
               complexity: 0
               alpha: 0.
               node_risk: 3.9669747729420002e-03
               tree_risk: 0.
               tree_error: 0.
            -
               depth: 2
               sample_count: 38
               value: 2.4777990579605103e-01
               Tn: 0
               complexity: 0
               alpha: 0.
               node_risk: 3.7028348472638584e-02
               tree_risk: 0.
               tree_error: 0.
               splits:
                  - { var:0, quality:2.3700306415557861e+00,
                      le:-2.3151321709156036e-01 }
            -
               depth: 3
               sample_count: 1
               value: 1.3336893320083618e+00
               Tn: 0
               complexity: 0
               alpha: 0.
               node_risk: 0.
               tree_risk: 0.
               tree_error: 0.
            -
               depth: 3
               sample_count: 37
               value: 9.9029332399368286e-01
               Tn: 0
               complexity: 0
               alpha: 0.
               node_risk: 3.2976358963487939e-06
               tree_risk: 0.
               tree_error: 0.
            -
               depth: 1
               sample_count: 74
               value: -8.5600686234396858e-02
               Tn: 0
               complexity: 0
               alpha: 0.
               node_risk: 1.9119838907139641e-02
               tree_risk: 0.
               tree_error: 0.
               splits:
                  - { var:3, quality:5.4578727483749390e-01,
                      le:2.8126892447471619e-01 }
            -
               depth: 2
               sample_count: 9
               value: -8.4540385007858276e-01
               Tn: 0
               complexity: 0
               alpha: 0.
               node_risk: 8.0907406033518398e-03
               tree_risk: 0.
               tree_error: 0.
            -
               depth: 2
               sample_count: 65
               value: -8.3021971812615031e-02
               Tn: 0
               complexity: 0
               alpha: 0.
               node_risk: 7.4751667024102186e-03
               tree_risk: 0.
               tree_error: 0.
               splits:
                  - { var:0, quality:4.4909217953681946e-01,
                      le:1.2941838800907135e-01 }
            -
               depth: 3
               sample_count: 36
               value: -8.2299488782882690e-01
               Tn: 0
               complexity: 0
               alpha: 0.
               node_risk: 6.3352671362265633e-03
               tree_risk: 0.
               tree_error: 0.
            -
               depth: 3
               sample_count: 29
               value: -8.1391865015029907e-01
               Tn: 0
               complexity: 0
               alpha: 0.
               node_risk: 6.9838570335239991e-05
               tree_risk: 0.
               tree_error: 0.
      -
         best_tree_idx: -1
         nodes:
            -
               depth: 0
               sample_count: 152
               value: 4.4749008099499504e-03
               Tn: 0
               complexity: 0
               alpha: 0.
               node_risk: 3.3624480712821860e+00
               tree_risk: 0.
               tree_error: 0.
               splits:
                  - { var:3, quality:1.0482807159423828e+00,
                      le:-2.1775263547897339e-01 }
            -
               depth: 1
               sample_count: 81
               value: 8.2112528199766888e-02
               Tn: 0
               complexity: 0
               alpha: 0.
               node_risk: 2.2991430008788578e+00
               tree_risk: 0.
               tree_error: 0.
               splits:
                  - { var:1, quality:2.4320569038391113e+00,
                      le:-4.6542203426361084e-01 }
            -
               depth: 2
               sample_count: 43
               value: -6.1329483466092932e-02
               Tn: 0
               complexity: 0
               alpha: 0.
               node_risk: 3.7605796538882208e-01
               tree_risk: 0.
               tree_error: 0.
               splits:
                  - { var:1, quality:5.3240299224853516e-01,
                      le:-1.2180416584014893e+00 }
            -
               depth: 3
               sample_count: 2
               value: 1.1740196943283081e+00
               Tn: 0
               complexity: 0
               alpha: 0.
               node_risk: 1.5265539882420853e-03
               tree_risk: 0.
               tree_error: 0.
            -
               depth: 3
               sample_count: 41
               value: -8.1787306070327759e-01
               Tn: 0
               complexity: 0
               alpha: 0.
               node_risk: 3.8645372597457261e-03
               tree_risk: 0.
               tree_error: 0.
            -
               depth: 2
               sample_count: 38
               value: 2.4442848876902931e-01
               Tn: 0
               complexity: 0
               alpha: 0.
               node_risk: 3.7167874817993773e-02
               tree_risk: 0.
               tree_error: 0.
               splits:
                  - { var:0, quality:2.3074839115142822e+00,
                      le:-2.3151321709156036e-01 }
            -
               depth: 3
               sample_count: 1
               value: 1.3266170024871826e+00
               Tn: 0
               complexity: 0
               alpha: 0.
               node_risk: 0.
               tree_risk: 0.
               tree_error: 0.
            -
               depth: 3
               sample_count: 37
               value: 9.8591828346252441e-01
               Tn: 0
               complexity: 0
               alpha: 0.
               node_risk: 4.8362736926321759e-06
               tree_risk: 0.
               tree_error: 0.
            -
               depth: 1
               sample_count: 71
               value: -8.4097603677024305e-02
               Tn: 0
               complexity: 0
               alpha: 0.
               node_risk: 1.8068087151255741e-02
               tree_risk: 0.
               tree_error: 0.
               splits:
                  - { var:3, quality:5.0658875703811646e-01,
                      le:2.8126892447471619e-01 }
            -
               depth: 2
               sample_count: 8
               value: -8.4719854593276978e-01
               Tn: 0
               complexity: 0
               alpha: 0.
               node_risk: 7.1614003322364450e-03
               tree_risk: 0.
               tree_error: 0.
            -
               depth: 2
               sample_count: 63
               value: -8.1277126948984840e-02
               Tn: 0
               complexity: 0
               alpha: 0.
               node_risk: 6.4587976967603877e-03
               tree_risk: 0.
               tree_error: 0.
               splits:
                  - { var:0, quality:4.1709676384925842e-01,
                      le:1.2941838800907135e-01 }
            -
               depth: 3
               sample_count: 32
               value: -8.2151305675506592e-01
               Tn: 0
               complexity: 0
               alpha: 0.
               node_risk: 5.4721727691606215e-03
               tree_risk: 0.
               tree_error: 0.
            -
               depth: 3
               sample_count: 31
               value: -8.1293845176696777e-01
               Tn: 0
               complexity: 0
               alpha: 0.
               node_risk: 6.6058331917168145e-05
               tree_risk: 0.
               tree_error: 0.
      -
         best_tree_idx: -1
         nodes:
            -
               depth: 0
               sample_count: 152
               value: -3.6678450966351910e-03
               Tn: 0
               complexity: 0
               alpha: 0.
               node_risk: 2.9966227305857327e+00
               tree_risk: 0.
               tree_error: 0.
               splits:
                  - { var:3, quality:9.7705405950546265e-01,
                      le:-2.1775263547897339e-01 }
            -
               depth: 1
               sample_count: 76
               value: 7.6422941821970444e-02
               Tn: 0
               complexity: 0
               alpha: 0.
               node_risk: 1.9991150189514912e+00
               tree_risk: 0.
               tree_error: 0.
               splits:
                  - { var:1, quality:2.4038343429565430e+00,
                      le:-4.6542203426361084e-01 }
            -
               depth: 2
               sample_count: 39
               value: -7.9994523563446149e-02
               Tn: 0
               complexity: 0
               alpha: 0.
               node_risk: 2.8089451380504116e-03
               tree_risk: 0.
               tree_error: 0.
               splits:
                  - { var:0, quality:2.5234571099281311e-01,
                      le:-8.8406801223754883e-01 }
            -
               depth: 3
               sample_count: 1
               value: -8.6409389972686768e-01
               Tn: 0
               complexity: 0
               alpha: 0.
               node_risk: 0.
               tree_risk: 0.
               tree_error: 0.
            -
               depth: 3
               sample_count: 38
               value: -8.1400936841964722e-01
               Tn: 0
               complexity: 0
               alpha: 0.
               node_risk: 2.9060692280785672e-05
               tree_risk: 0.
               tree_error: 0.
            -
               depth: 2
               sample_count: 37
               value: 2.4129540533632846e-01
               Tn: 0
               complexity: 0
               alpha: 0.
               node_risk: 3.6347176851266649e-02
               tree_risk: 0.
               tree_error: 0.
               splits:
                  - { var:0, quality:2.1906123161315918e+00,
                      le:-2.3151321709156036e-01 }
            -
               depth: 3
               sample_count: 1
               value: 1.3142728805541992e+00
               Tn: 0
               complexity: 0
               alpha: 0.
               node_risk: 0.
               tree_risk: 0.
               tree_error: 0.
            -
               depth: 3
               sample_count: 36
               value: 9.8176825046539307e-01
               Tn: 0
               complexity: 0
               alpha: 0.
               node_risk: 3.2862669026023639e-06
               tree_risk: 0.
               tree_error: 0.
            -
               depth: 1
               sample_count: 76
               value: -8.3758632015240822e-02
               Tn: 0
               complexity: 0
               alpha: 0.
               node_risk: 2.2498520949537526e-02
               tree_risk: 0.
               tree_error: 0.
               splits:
                  - { var:3, quality:5.3718447685241699e-01,
                      le:2.8126892447471619e-01 }
            -
               depth: 2
               sample_count: 8
               value: -8.4633886814117432e-01
               Tn: 0
               complexity: 0
               alpha: 0.
               node_risk: 7.4748517277261617e-03
               tree_risk: 0.
               tree_error: 0.
            -
               depth: 2
               sample_count: 68
               value: -8.1268450245261192e-02
               Tn: 0
               complexity: 0
               alpha: 0.
               node_risk: 1.1017819831901476e-02
               tree_risk: 0.
               tree_error: 0.
               splits:
                  - { var:0, quality:4.5061638951301575e-01,
                      le:1.2941838800907135e-01 }
            -
               depth: 3
               sample_count: 35
               value: -8.2325178384780884e-01
               Tn: 0
               complexity: 0
               alpha: 0.
               node_risk: 9.4339898030367242e-03
               tree_risk: 0.
               tree_error: 0.
            -
               depth: 3
               sample_count: 33
               value: -8.1208574771881104e-01
               Tn: 0
               complexity: 0
               alpha: 0.
               node_risk: 7.7581213523303383e-05
               tree_risk: 0.
               tree_error: 0.
      -
         best_tree_idx: -1
         nodes:
            -
               depth: 0
               sample_count: 152
               value: 1.1326696821733526e-02
               Tn: 0
               complexity: 0
               alpha: 0.
               node_risk: 3.3011013897673238e+00
               tree_risk: 0.
               tree_error: 0.
               splits:
                  - { var:3, quality:1.0852880477905273e+00,
                      le:-2.1775263547897339e-01 }
            -
               depth: 1
               sample_count: 84
               value: 8.6667164007113093e-02
               Tn: 0
               complexity: 0
               alpha: 0.
               node_risk: 2.2203936818925141e+00
               tree_risk: 0.
               tree_error: 0.
               splits:
                  - { var:1, quality:2.4535806179046631e+00,
                      le:-4.6542203426361084e-01 }
            -
               depth: 2
               sample_count: 43
               value: -5.7169141637724498e-02
               Tn: 0
               complexity: 0
               alpha: 0.
               node_risk: 3.6200860635771859e-01
               tree_risk: 0.
               tree_error: 0.
               splits:
                  - { var:0, quality:5.0098210573196411e-01,
                      le:-8.2366353273391724e-01 }
            -
               depth: 3
               sample_count: 2
               value: 1.1709367036819458e+00
               Tn: 0
               complexity: 0
               alpha: 0.
               node_risk: 1.5155769603314440e-03
               tree_risk: 0.
               tree_error: 0.
            -
               depth: 3
               sample_count: 41
               value: -8.1292498111724854e-01
               Tn: 0
               complexity: 0
               alpha: 0.
               node_risk: 4.8311552548557790e-05
               tree_risk: 0.
               tree_error: 0.
            -
               depth: 2
               sample_count: 41
               value: 2.3751987480535741e-01
               Tn: 0
               complexity: 0
               alpha: 0.
               node_risk: 3.5744959645596097e-02
               tree_risk: 0.
               tree_error: 0.
               splits:
                  - { var:0, quality:2.3487844467163086e+00,
                      le:-2.3151321709156036e-01 }
            -
               depth: 3
               sample_count: 1
               value: 1.3026555776596069e+00
               Tn: 0
               complexity: 0
               alpha: 0.
               node_risk: 0.
               tree_risk: 0.
               tree_error: 0.
            -
               depth: 3
               sample_count: 40
               value: 9.7764706611633301e-01
               Tn: 0
               complexity: 0
               alpha: 0.
               node_risk: 3.9502943520730582e-06
               tree_risk: 0.
               tree_error: 0.
            -
               depth: 1
               sample_count: 68
               value: -8.1740939113147115e-02
               Tn: 0
               complexity: 0
               alpha: 0.
               node_risk: 1.4920313856558232e-02
               tree_risk: 0.
               tree_error: 0.
               splits:
                  - { var:3, quality:4.5674073696136475e-01,
                      le:5.4469513893127441e-01 }
            -
               depth: 2
               sample_count: 15
               value: -9.2892365157604212e-02
               Tn: 0
               complexity: 0
               alpha: 0.
               node_risk: 1.0938855524593422e-02
               tree_risk: 0.
               tree_error: 0.
               splits:
                  - { var:0, quality:1.3877563178539276e-01,
                      le:2.1513871848583221e-02 }
            -
               depth: 3
               sample_count: 5
               value: -8.6269253492355347e-01
               Tn: 0
               complexity: 0
               alpha: 0.
               node_risk: 1.5675516243834203e-03
               tree_risk: 0.
               tree_error: 0.
            -
               depth: 3
               sample_count: 10
               value: -8.1106299161911011e-01
               Tn: 0
               complexity: 0
               alpha: 0.
               node_risk: 3.0546975473451365e-05
               tree_risk: 0.
               tree_error: 0.
            -
               depth: 2
               sample_count: 53
               value: -7.8584875138300772e-02
               Tn: 0
               complexity: 0
               alpha: 0.
               node_risk: 1.5882245794837657e-03
               tree_risk: 0.
               tree_error: 0.
               splits:
                  - { var:0, quality:3.2753422856330872e-01,
                      le:1.2941838800907135e-01 }
            -
               depth: 3
               sample_count: 32
               value: -8.1590676307678223e-01
               Tn: 0
               complexity: 0
               alpha: 0.
               node_risk: 1.3122918063794564e-03
               tree_risk: 0.
               tree_error: 0.
            -
               depth: 3
               sample_count: 21
               value: -8.1173425912857056e-01
               Tn: 0
               complexity: 0
               alpha: 0.
               node_risk: 4.7568808144771157e-05
               tree_risk: 0.
               tree_error: 0.
      -
         best_tree_idx: -1
         nodes:
            -
               depth: 0
               sample_count: 152
               value: -6.5176414914037053e-03
               Tn: 0
               complexity: 0
               alpha: 0.
               node_risk: 2.7772811833589817e+00
               tree_risk: 0.
               tree_error: 0.
               splits:
                  - { var:3, quality:9.3971413373947144e-01,
                      le:-2.1775263547897339e-01 }
            -
               depth: 1
               sample_count: 71
               value: 7.7175953963273008e-02
               Tn: 0
               complexity: 0
               alpha: 0.
               node_risk: 1.8286212875096641e+00
               tree_risk: 0.
               tree_error: 0.
               splits:
                  - { var:1, quality:2.0530145168304443e+00,
                      le:-4.6542203426361084e-01 }
            -
               depth: 2
               sample_count: 37
               value: -6.8075490763058535e-02
               Tn: 0
               complexity: 0
               alpha: 0.
               node_risk: 1.6368495840188510e-01
               tree_risk: 0.
               tree_error: 0.
               splits:
                  - { var:0, quality:3.3052042126655579e-01,
                      le:-1.1072268486022949e+00 }
            -
               depth: 3
               sample_count: 1
               value: 1.1116247177124023e+00
               Tn: 0
               complexity: 0
               alpha: 0.
               node_risk: 0.
               tree_risk: 0.
               tree_error: 0.
            -
               depth: 3
               sample_count: 36
               value: -8.1577759981155396e-01
               Tn: 0
               complexity: 0
               alpha: 0.
               node_risk: 4.6326076490891266e-03
               tree_risk: 0.
               tree_error: 0.
            -
               depth: 2
               sample_count: 34
               value: 2.3524370263604558e-01
               Tn: 0
               complexity: 0
               alpha: 0.
               node_risk: 3.4806940093297767e-02
               tree_risk: 0.
               tree_error: 0.
               splits:
                  - { var:0, quality:1.9163506031036377e+00,
                      le:-2.3151321709156036e-01 }
            -
               depth: 3
               sample_count: 1
               value: 1.2909636497497559e+00
               Tn: 0
               complexity: 0
               alpha: 0.
               node_risk: 0.
               tree_risk: 0.
               tree_error: 0.
            -
               depth: 3
               sample_count: 33
               value: 9.7361439466476440e-01
               Tn: 0
               complexity: 0
               alpha: 0.
               node_risk: 2.7021185535769376e-06
               tree_risk: 0.
               tree_error: 0.
            -
               depth: 1
               sample_count: 81
               value: -7.9878694297354905e-02
               Tn: 0
               complexity: 0
               alpha: 0.
               node_risk: 1.5402653947413358e-02
               tree_risk: 0.
               tree_error: 0.
               splits:
                  - { var:0, quality:5.1935613155364990e-01,
                      le:3.8670465350151062e-02 }
            -
               depth: 2
               sample_count: 41
               value: -8.5395716130733490e-02
               Tn: 0
               complexity: 0
               alpha: 0.
               node_risk: 1.2785924562397355e-02
               tree_risk: 0.
               tree_error: 0.
               splits:
                  - { var:3, quality:3.0916827917098999e-01,
                      le:7.6475036144256592e-01 }
            -
               depth: 3
               sample_count: 6
               value: -8.5801815986633301e-01
               Tn: 0
               complexity: 0
               alpha: 0.
               node_risk: 1.8086391919234224e-03
               tree_risk: 0.
               tree_error: 0.
            -
               depth: 3
               sample_count: 35
               value: -8.1447488069534302e-01
               Tn: 0
               complexity: 0
               alpha: 0.
               node_risk: 7.9857029980992533e-04
               tree_risk: 0.
               tree_error: 0.
            -
               depth: 2
               sample_count: 40
               value: -7.4223746918141847e-02
               Tn: 0
               complexity: 0
               alpha: 0.
               node_risk: 8.9653464240307956e-05
               tree_risk: 0.
               tree_error: 0.
               splits:
                  - { var:3, quality:2.2041459381580353e-01,
                      le:8.2776057720184326e-01 }
            -
               depth: 3
               sample_count: 30
               value: -8.0959260463714600e-01
               Tn: 0
               complexity: 0
               alpha: 0.
               node_risk: 3.7423979454553891e-05
               tree_risk: 0.
               tree_error: 0.
            -
               depth: 3
               sample_count: 10
               value: -8.1179976463317871e-01
               Tn: 0
               complexity: 0
               alpha: 0.
               node_risk: 4.2178389017821782e-06
               tree_risk: 0.
               tree_error: 0.
      -
         best_tree_idx: -1
         nodes:
            -
               depth: 0
               sample_count: 152
               value: 1.9774734973907471e-03
               Tn: 0
               complexity: 0
               alpha: 0.
               node_risk: 2.9314558104966260e+00
               tree_risk: 0.
               tree_error: 0.
               splits:
                  - { var:3, quality:9.2075562477111816e-01,
                      le:-2.1775263547897339e-01 }
            -
               depth: 1
               sample_count: 79
               value: 7.6769974224175072e-02
               Tn: 0
               complexity: 0
               alpha: 0.
               node_risk: 1.9961069116392824e+00
               tree_risk: 0.
               tree_error: 0.
               splits:
                  - { var:1, quality:2.2164664268493652e+00,
                      le:-4.6542203426361084e-01 }
            -
               depth: 2
               sample_count: 41
               value: -6.6552155264993987e-02
               Tn: 0
               complexity: 0
               alpha: 0.
               node_risk: 2.1075151007271947e-01
               tree_risk: 0.
               tree_error: 0.
               splits:
                  - { var:1, quality:3.8776874542236328e-01,
                      le:-1.2180416584014893e+00 }
            -
               depth: 3
               sample_count: 1
               value: 1.2134704589843750e+00
               Tn: 0
               complexity: 0
               alpha: 0.
               node_risk: 0.
               tree_risk: 0.
               tree_error: 0.
            -
               depth: 3
               sample_count: 40
               value: -8.1454151868820190e-01
               Tn: 0
               complexity: 0
               alpha: 0.
               node_risk: 4.5795230076375038e-03
               tree_risk: 0.
               tree_error: 0.
            -
               depth: 2
               sample_count: 38
               value: 2.3140700867301539e-01
               Tn: 0
               complexity: 0
               alpha: 0.
               node_risk: 3.4485584633837885e-02
               tree_risk: 0.
               tree_error: 0.
               splits:
                  - { var:0, quality:2.0693504810333252e+00,
                      le:-2.3151321709156036e-01 }
            -
               depth: 3
               sample_count: 1
               value: 1.2812567949295044e+00
               Tn: 0
               complexity: 0
               alpha: 0.
               node_risk: 0.
               tree_risk: 0.
               tree_error: 0.
            -
               depth: 3
               sample_count: 37
               value: 9.6956270933151245e-01
               Tn: 0
               complexity: 0
               alpha: 0.
               node_risk: 4.8696138421622237e-06
               tree_risk: 0.
               tree_error: 0.
            -
               depth: 1
               sample_count: 73
               value: -7.8962356056252569e-02
               Tn: 0
               complexity: 0
               alpha: 0.
               node_risk: 1.5187675228414577e-02
               tree_risk: 0.
               tree_error: 0.
               splits:
                  - { var:2, quality:4.5750981569290161e-01,
                      le:-1.2140106409788132e-03 }
            -
               depth: 2
               sample_count: 35
               value: -8.4875439107418058e-02
               Tn: 0
               complexity: 0
               alpha: 0.
               node_risk: 1.2727787674759961e-02
               tree_risk: 0.
               tree_error: 0.
               splits:
                  - { var:3, quality:2.6256978511810303e-01,
                      le:7.6475036144256592e-01 }
            -
               depth: 3
               sample_count: 6
               value: -8.5746109485626221e-01
               Tn: 0
               complexity: 0
               alpha: 0.
               node_risk: 1.8335409144996651e-03
               tree_risk: 0.
               tree_error: 0.
            -
               depth: 3
               sample_count: 29
               value: -8.1276738643646240e-01
               Tn: 0
               complexity: 0
               alpha: 0.
               node_risk: 4.5886731399097380e-04
               tree_risk: 0.
               tree_error: 0.
            -
               depth: 2
               sample_count: 38
               value: -7.3516095351231728e-02
               Tn: 0
               complexity: 0
               alpha: 0.
               node_risk: 1.0898154735725085e-04
               tree_risk: 0.
               tree_error: 0.
               splits:
                  - { var:3, quality:2.0543649792671204e-01,
                      le:8.6461186408996582e-01 }
            -
               depth: 3
               sample_count: 27
               value: -8.0882215499877930e-01
               Tn: 0
               complexity: 0
               alpha: 0.
               node_risk: 3.6955980292130430e-05
               tree_risk: 0.
               tree_error: 0.
            -
               depth: 3
               sample_count: 11
               value: -8.1126302480697632e-01
               Tn: 0
               complexity: 0
               alpha: 0.
               node_risk: 1.0941895859706285e-05
               tree_risk: 0.
               tree_error: 0.
      -
         best_tree_idx: -1
         nodes:
            -
               depth: 0
               sample_count: 152
               value: 2.9051862657070160e-04
               Tn: 0
               complexity: 0
               alpha: 0.
               node_risk: 2.7810346895463991e+00
               tree_risk: 0.
               tree_error: 0.
               splits:
                  - { var:3, quality:9.8241674900054932e-01,
                      le:-2.1775263547897339e-01 }
            -
               depth: 1
               sample_count: 75
               value: 8.1749313374360408e-02
               Tn: 0
               complexity: 0
               alpha: 0.
               node_risk: 1.7796124013912238e+00
               tree_risk: 0.
               tree_error: 0.
               splits:
                  - { var:1, quality:2.2425680160522461e+00,
                      le:-4.7052299976348877e-01 }
            -
               depth: 2
               sample_count: 36
               value: -7.6846989285614759e-02
               Tn: 0
               complexity: 0
               alpha: 0.
               node_risk: 4.4958141603784474e-03
               tree_risk: 0.
               tree_error: 0.
               splits:
                  - { var:0, quality:2.1686367690563202e-01,
                      le:-8.7578988075256348e-01 }
            -
               depth: 3
               sample_count: 2
               value: -8.5469120740890503e-01
               Tn: 0
               complexity: 0
               alpha: 0.
               node_risk: 1.8357311883143712e-04
               tree_risk: 0.
               tree_error: 0.
            -
               depth: 3
               sample_count: 34
               value: -8.1013149023056030e-01
               Tn: 0
               complexity: 0
               alpha: 0.
               node_risk: 4.5116390783139781e-05
               tree_risk: 0.
               tree_error: 0.
            -
               depth: 2
               sample_count: 39
               value: 2.2814590044510671e-01
               Tn: 0
               complexity: 0
               alpha: 0.
               node_risk: 3.3769779871384298e-02
               tree_risk: 0.
               tree_error: 0.
               splits:
                  - { var:0, quality:2.0637369155883789e+00,
                      le:-2.3151321709156036e-01 }
            -
               depth: 3
               sample_count: 1
               value: 1.2701715230941772e+00
               Tn: 0
               complexity: 0
               alpha: 0.
               node_risk: 0.
               tree_risk: 0.
               tree_error: 0.
            -
               depth: 3
               sample_count: 38
               value: 9.6571481227874756e-01
               Tn: 0
               complexity: 0
               alpha: 0.
               node_risk: 4.3323413807527800e-06
               tree_risk: 0.
               tree_error: 0.
            -
               depth: 1
               sample_count: 77
               value: -7.9052463270627066e-02
               Tn: 0
               complexity: 0
               alpha: 0.
               node_risk: 1.9018369244881927e-02
               tree_risk: 0.
               tree_error: 0.
               splits:
                  - { var:3, quality:4.8474881052970886e-01,
                      le:2.8126892447471619e-01 }
            -
               depth: 2
               sample_count: 9
               value: -8.3973288536071777e-01
               Tn: 0
               complexity: 0
               alpha: 0.
               node_risk: 8.0333527998450033e-03
               tree_risk: 0.
               tree_error: 0.
            -
               depth: 2
               sample_count: 68
               value: -7.6581085648606800e-02
               Tn: 0
               complexity: 0
               alpha: 0.
               node_risk: 7.4316880352747750e-03
               tree_risk: 0.
               tree_error: 0.
               splits:
                  - { var:0, quality:3.9986094832420349e-01,
                      le:1.2941838800907135e-01 }
            -
               depth: 3
               sample_count: 36
               value: -8.1742811203002930e-01
               Tn: 0
               complexity: 0
               alpha: 0.
               node_risk: 6.2963918439510880e-03
               tree_risk: 0.
               tree_error: 0.
            -
               depth: 3
               sample_count: 32
               value: -8.0855256319046021e-01
               Tn: 0
               complexity: 0
               alpha: 0.
               node_risk: 7.1402936728914845e-05
               tree_risk: 0.
               tree_error: 0.
      -
         best_tree_idx: -1
         nodes:
            -
               depth: 0
               sample_count: 152
               value: -2.4858330327429271e-03
               Tn: 0
               complexity: 0
               alpha: 0.
               node_risk: 2.7148793407101657e+00
               tree_risk: 0.
               tree_error: 0.
               splits:
                  - { var:3, quality:8.4170335531234741e-01,
                      le:-2.1775263547897339e-01 }
            -
               depth: 1
               sample_count: 78
               value: 6.9955066801645815e-02
               Tn: 0
               complexity: 0
               alpha: 0.
               node_risk: 1.8519812085543723e+00
               tree_risk: 0.
               tree_error: 0.
               splits:
                  - { var:1, quality:1.9986978769302368e+00,
                      le:-4.6542203426361084e-01 }
            -
               depth: 2
               sample_count: 42
               value: -6.3345732078665784e-02
               Tn: 0
               complexity: 0
               alpha: 0.
               node_risk: 2.0121731351262859e-01
               tree_risk: 0.
               tree_error: 0.
               splits:
                  - { var:1, quality:3.6833122372627258e-01,
                      le:-1.1974571943283081e+00 }
            -
               depth: 3
               sample_count: 1
               value: 1.2063487768173218e+00
               Tn: 0
               complexity: 0
               alpha: 0.
               node_risk: 0.
               tree_risk: 0.
               tree_error: 0.
            -
               depth: 3
               sample_count: 41
               value: -8.1044650077819824e-01
               Tn: 0
               complexity: 0
               alpha: 0.
               node_risk: 1.4187181547309358e-03
               tree_risk: 0.
               tree_error: 0.
            -
               depth: 2
               sample_count: 36
               value: 2.2547266549534267e-01
               Tn: 0
               complexity: 0
               alpha: 0.
               node_risk: 3.3775523667978868e-02
               tree_risk: 0.
               tree_error: 0.
               splits:
                  - { var:0, quality:1.8639364242553711e+00,
                      le:-2.3036833107471466e-01 }
            -
               depth: 3
               sample_count: 1
               value: 1.2640557289123535e+00
               Tn: 0
               complexity: 0
               alpha: 0.
               node_risk: 0.
               tree_risk: 0.
               tree_error: 0.
            -
               depth: 3
               sample_count: 35
               value: 9.6190363168716431e-01
               Tn: 0
               complexity: 0
               alpha: 0.
               node_risk: 4.3442070951638101e-06
               tree_risk: 0.
               tree_error: 0.
            -
               depth: 1
               sample_count: 74
               value: -7.8842457182504030e-02
               Tn: 0
               complexity: 0
               alpha: 0.
               node_risk: 2.2134062773611574e-02
               tree_risk: 0.
               tree_error: 0.
               splits:
                  - { var:0, quality:4.6399039030075073e-01,
                      le:3.8670465350151062e-02 }
            -
               depth: 2
               sample_count: 38
               value: -8.5995413559047801e-02
               Tn: 0
               complexity: 0
               alpha: 0.
               node_risk: 1.8057998560972177e-02
               tree_risk: 0.
               tree_error: 0.
               splits:
                  - { var:3, quality:2.9613324999809265e-01,
                      le:7.6475036144256592e-01 }
            -
               depth: 3
               sample_count: 8
               value: -8.5888785123825073e-01
               Tn: 0
               complexity: 0
               alpha: 0.
               node_risk: 2.1540061114475595e-03
               tree_risk: 0.
               tree_error: 0.
            -
               depth: 3
               sample_count: 30
               value: -8.1172662973403931e-01
               Tn: 0
               complexity: 0
               alpha: 0.
               node_risk: 7.8876356553622684e-04
               tree_risk: 0.
               tree_error: 0.
            -
               depth: 2
               sample_count: 36
               value: -7.1292114340596735e-02
               Tn: 0
               complexity: 0
               alpha: 0.
               node_risk: 7.9526012407044044e-05
               tree_risk: 0.
               tree_error: 0.
               splits:
                  - { var:3, quality:1.8302217125892639e-01,
                      le:8.4673655033111572e-01 }
            -
               depth: 3
               sample_count: 25
               value: -8.0690872669219971e-01
               Tn: 0
               complexity: 0
               alpha: 0.
               node_risk: 2.6343582283039346e-05
               tree_risk: 0.
               tree_error: 0.
            -
               depth: 3
               sample_count: 11
               value: -8.0912220478057861e-01
               Tn: 0
               complexity: 0
               alpha: 0.
               node_risk: 3.3753126355909324e-06
               tree_risk: 0.
               tree_error: 0.
      -
         best_tree_idx: -1
         nodes:
            -
               depth: 0
               sample_count: 152
               value: 2.9164161533117294e-03
               Tn: 0
               complexity: 0
               alpha: 0.
               node_risk: 2.7770120708215762e+00
               tree_risk: 0.
               tree_error: 0.
               splits:
                  - { var:0, quality:9.9618178606033325e-01,
                      le:-7.5619511306285858e-02 }
            -
               depth: 1
               sample_count: 86
               value: -6.7957797455926269e-02
               Tn: 0
               complexity: 0
               alpha: 0.
               node_risk: 4.4918979295813133e-01
               tree_risk: 0.
               tree_error: 0.
               splits:
                  - { var:1, quality:5.9449440240859985e-01,
                      le:-1.2180416584014893e+00 }
            -
               depth: 2
               sample_count: 1
               value: 1.1974394321441650e+00
               Tn: 0
               complexity: 0
               alpha: 0.
               node_risk: 0.
               tree_risk: 0.
               tree_error: 0.
            -
               depth: 2
               sample_count: 85
               value: -7.3153342657229475e-02
               Tn: 0
               complexity: 0
               alpha: 0.
               node_risk: 2.5186591950561532e-01
               tree_risk: 0.
               tree_error: 0.
               splits:
                  - { var:2, quality:4.6952778100967407e-01,
                      le:-3.7672281265258789e-01 }
            -
               depth: 3
               sample_count: 73
               value: -7.1546798944473267e-01
               Tn: 0
               complexity: 0
               alpha: 0.
               node_risk: 2.2867554345486441e-01
               tree_risk: 0.
               tree_error: 0.
            -
               depth: 3
               sample_count: 12
               value: -8.4486031532287598e-01
               Tn: 0
               complexity: 0
               alpha: 0.
               node_risk: 8.5325828605966048e-03
               tree_risk: 0.
               tree_error: 0.
            -
               depth: 1
               sample_count: 66
               value: 9.5267664189591553e-02
               Tn: 0
               complexity: 0
               alpha: 0.
               node_risk: 1.3329333216421855e+00
               tree_risk: 0.
               tree_error: 0.
               splits:
                  - { var:1, quality:1.9318856000900269e+00,
                      le:4.1874265670776367e-01 }
            -
               depth: 2
               sample_count: 38
               value: 2.1725362696145711e-01
               Tn: 0
               complexity: 0
               alpha: 0.
               node_risk: 4.8198498097118403e-06
               tree_risk: 0.
               tree_error: 0.
               splits:
                  - { var:3, quality:1.7935719490051270e+00,
                      le:-9.2900770902633667e-01 }
            -
               depth: 3
               sample_count: 31
               value: 9.5836997032165527e-01
               Tn: 0
               complexity: 0
               alpha: 0.
               node_risk: 1.8034779003528456e-08
               tree_risk: 0.
               tree_error: 0.
            -
               depth: 3
               sample_count: 7
               value: 9.5725709199905396e-01
               Tn: 0
               complexity: 0
               alpha: 0.
               node_risk: 7.4223709345400124e-08
               tree_risk: 0.
               tree_error: 0.
            -
               depth: 2
               sample_count: 28
               value: -7.0284713857940259e-02
               Tn: 0
               complexity: 0
               alpha: 0.
               node_risk: 5.4130922574724405e-05
               tree_risk: 0.
               tree_error: 0.
               splits:
                  - { var:2, quality:1.3834467530250549e-01,
                      le:2.7041554450988770e+00 }
            -
               depth: 3
               sample_count: 19
               value: -8.0613559484481812e-01
               Tn: 0
               complexity: 0
               alpha: 0.
               node_risk: 2.3870115719193397e-05
               tree_risk: 0.
               tree_error: 0.
            -
               depth: 3
               sample_count: 9
               value: -8.0792808532714844e-01
               Tn: 0
               complexity: 0
               alpha: 0.
               node_risk: 3.9385745281908524e-06
               tree_risk: 0.
               tree_error: 0.
      -
         best_tree_idx: -1
         nodes:
            -
               depth: 0
               sample_count: 152
               value: 1.5026763277618510e-03
               Tn: 0
               complexity: 0
               alpha: 0.
               node_risk: 2.7262532356408133e+00
               tree_risk: 0.
               tree_error: 0.
               splits:
                  - { var:3, quality:8.2633948326110840e-01,
                      le:-2.1775263547897339e-01 }
            -
               depth: 1
               sample_count: 81
               value: 7.0519332532529483e-02
               Tn: 0
               complexity: 0
               alpha: 0.
               node_risk: 1.8787988819991772e+00
               tree_risk: 0.
               tree_error: 0.
               splits:
                  - { var:1, quality:1.9112107753753662e+00,
                      le:-4.6542203426361084e-01 }
            -
               depth: 2
               sample_count: 44
               value: -5.4618961431763390e-02
               Tn: 0
               complexity: 0
               alpha: 0.
               node_risk: 3.3629639682438017e-01
               tree_risk: 0.
               tree_error: 0.
               splits:
                  - { var:1, quality:4.6164256334304810e-01,
                      le:-1.2180416584014893e+00 }
            -
               depth: 3
               sample_count: 2
               value: 1.1442008018493652e+00
               Tn: 0
               complexity: 0
               alpha: 0.
               node_risk: 1.4029226638161418e-03
               tree_risk: 0.
               tree_error: 0.
            -
               depth: 3
               sample_count: 42
               value: -8.1080156564712524e-01
               Tn: 0
               complexity: 0
               alpha: 0.
               node_risk: 4.5130780433502993e-03
               tree_risk: 0.
               tree_error: 0.
            -
               depth: 2
               sample_count: 37
               value: 2.1933243886844531e-01
               Tn: 0
               complexity: 0
               alpha: 0.
               node_risk: 3.4102807216121356e-02
               tree_risk: 0.
               tree_error: 0.
               splits:
                  - { var:0, quality:1.8140470981597900e+00,
                      le:-2.3151321709156036e-01 }
            -
               depth: 3
               sample_count: 1
               value: 1.2530866861343384e+00
               Tn: 0
               complexity: 0
               alpha: 0.
               node_risk: 0.
               tree_risk: 0.
               tree_error: 0.
            -
               depth: 3
               sample_count: 36
               value: 9.5453047752380371e-01
               Tn: 0
               complexity: 0
               alpha: 0.
               node_risk: 4.2434034481786398e-06
               tree_risk: 0.
               tree_error: 0.
            -
               depth: 1
               sample_count: 71
               value: -7.7234635680494171e-02
               Tn: 0
               complexity: 0
               alpha: 0.
               node_risk: 2.1458082650717913e-02
               tree_risk: 0.
               tree_error: 0.
               splits:
                  - { var:3, quality:4.2823475599288940e-01,
                      le:2.8126892447471619e-01 }
            -
               depth: 2
               sample_count: 7
               value: -8.4297394752502441e-01
               Tn: 0
               complexity: 0
               alpha: 0.
               node_risk: 6.0175709435977276e-03
               tree_risk: 0.
               tree_error: 0.
            -
               depth: 2
               sample_count: 64
               value: -7.4542041518725455e-02
               Tn: 0
               complexity: 0
               alpha: 0.
               node_risk: 1.0734184889114595e-02
               tree_risk: 0.
               tree_error: 0.
               splits:
                  - { var:0, quality:3.5722681879997253e-01,
                      le:1.5481616556644440e-01 }
            -
               depth: 3
               sample_count: 33
               value: -8.1776058673858643e-01
               Tn: 0
               complexity: 0
               alpha: 0.
               node_risk: 9.0614349802073946e-03
               tree_risk: 0.
               tree_error: 0.
            -
               depth: 3
               sample_count: 31
               value: -8.0592888593673706e-01
               Tn: 0
               complexity: 0
               alpha: 0.
               node_risk: 6.2948163642828625e-05
               tree_risk: 0.
               tree_error: 0.
      -
         best_tree_idx: -1
         nodes:
            -
               depth: 0
               sample_count: 152
               value: -3.3030500145334947e-03
               Tn: 0
               complexity: 0
               alpha: 0.
               node_risk: 2.5093769577355580e+00
               tree_risk: 0.
               tree_error: 0.
               splits:
                  - { var:3, quality:7.1057575941085815e-01,
                      le:-2.1775263547897339e-01 }
            -
               depth: 1
               sample_count: 79
               value: 6.2345314063603365e-02
               Tn: 0
               complexity: 0
               alpha: 0.
               node_risk: 1.7858955502967317e+00
               tree_risk: 0.
               tree_error: 0.
               splits:
                  - { var:1, quality:1.7302663326263428e+00,
                      le:-4.6542203426361084e-01 }
            -
               depth: 2
               sample_count: 45
               value: -5.4322849048508537e-02
               Tn: 0
               complexity: 0
               alpha: 0.
               node_risk: 3.2941437604315404e-01
               tree_risk: 0.
               tree_error: 0.
               splits:
                  - { var:1, quality:4.5646986365318298e-01,
                      le:-1.2180416584014893e+00 }
            -
               depth: 3
               sample_count: 2
               value: 1.1377804279327393e+00
               Tn: 0
               complexity: 0
               alpha: 0.
               node_risk: 1.2845867476745099e-03
               tree_risk: 0.
               tree_error: 0.
            -
               depth: 3
               sample_count: 43
               value: -8.0997008085250854e-01
               Tn: 0
               complexity: 0
               alpha: 0.
               node_risk: 4.4536702879724721e-03
               tree_risk: 0.
               tree_error: 0.
            -
               depth: 2
               sample_count: 34
               value: 2.1675905935904560e-01
               Tn: 0
               complexity: 0
               alpha: 0.
               node_risk: 3.3282900445998020e-02
               tree_risk: 0.
               tree_error: 0.
               splits:
                  - { var:0, quality:1.6307519674301147e+00,
                      le:-2.1894747018814087e-01 }
            -
               depth: 3
               sample_count: 1
               value: 1.2427147626876831e+00
               Tn: 0
               complexity: 0
               alpha: 0.
               node_risk: 0.
               tree_risk: 0.
               tree_error: 0.
            -
               depth: 3
               sample_count: 33
               value: 9.5094805955886841e-01
               Tn: 0
               complexity: 0
               alpha: 0.
               node_risk: 3.5496739023699320e-06
               tree_risk: 0.
               tree_error: 0.
            -
               depth: 1
               sample_count: 73
               value: -7.4347170044298042e-02
               Tn: 0
               complexity: 0
               alpha: 0.
               node_risk: 1.4564008325457345e-02
               tree_risk: 0.
               tree_error: 0.
               splits:
                  - { var:3, quality:4.0709415078163147e-01,
                      le:2.3868733644485474e-01 }
            -
               depth: 2
               sample_count: 5
               value: -8.4092146158218384e-01
               Tn: 0
               complexity: 0
               alpha: 0.
               node_risk: 3.9702557919891052e-03
               tree_risk: 0.
               tree_error: 0.
            -
               depth: 2
               sample_count: 68
               value: -7.2446501430343174e-02
               Tn: 0
               complexity: 0
               alpha: 0.
               node_risk: 7.0072216498916484e-03
               tree_risk: 0.
               tree_error: 0.
               splits:
                  - { var:0, quality:3.5794222354888916e-01,
                      le:9.5785871148109436e-02 }
            -
               depth: 3
               sample_count: 36
               value: -8.1370931863784790e-01
               Tn: 0
               complexity: 0
               alpha: 0.
               node_risk: 5.9024527251107517e-03
               tree_risk: 0.
               tree_error: 0.
            -
               depth: 3
               sample_count: 32
               value: -8.0499488115310669e-01
               Tn: 0
               complexity: 0
               alpha: 0.
               node_risk: 6.0244746588916653e-05
               tree_risk: 0.
               tree_error: 0.
      -
         best_tree_idx: -1
         nodes:
            -
               depth: 0
               sample_count: 152
               value: 5.1062702152289844e-03
               Tn: 0
               complexity: 0
               alpha: 0.
               node_risk: 2.6599945937106035e+00
               tree_risk: 0.
               tree_error: 0.
               splits:
                  - { var:3, quality:8.8309693336486816e-01,
                      le:-2.1775263547897339e-01 }
            -
               depth: 1
               sample_count: 80
               value: 7.7254705969244247e-02
               Tn: 0
               complexity: 0
               alpha: 0.
               node_risk: 1.7594215253271597e+00
               tree_risk: 0.
               tree_error: 0.
               splits:
                  - { var:1, quality:1.8817824125289917e+00,
                      le:-4.6542203426361084e-01 }
            -
               depth: 2
               sample_count: 41
               value: -5.1964870131597285e-02
               Tn: 0
               complexity: 0
               alpha: 0.
               node_risk: 3.2241698211314840e-01
               tree_risk: 0.
               tree_error: 0.
               splits:
                  - { var:1, quality:4.2744737863540649e-01,
                      le:-1.2180416584014893e+00 }
            -
               depth: 3
               sample_count: 2
               value: 1.1329913139343262e+00
               Tn: 0
               complexity: 0
               alpha: 0.
               node_risk: 1.2605788669066698e-03
               tree_risk: 0.
               tree_error: 0.
            -
               depth: 3
               sample_count: 39
               value: -8.0945169925689697e-01
               Tn: 0
               complexity: 0
               alpha: 0.
               node_risk: 4.4232924481419356e-03
               tree_risk: 0.
               tree_error: 0.
            -
               depth: 2
               sample_count: 39
               value: 2.1310092699833405e-01
               Tn: 0
               complexity: 0
               alpha: 0.
               node_risk: 3.2685255511594402e-02
               tree_risk: 0.
               tree_error: 0.
               splits:
                  - { var:0, quality:1.8037492036819458e+00,
                      le:-2.3151321709156036e-01 }
            -
               depth: 3
               sample_count: 1
               value: 1.2326343059539795e+00
               Tn: 0
               complexity: 0
               alpha: 0.
               node_risk: 0.
               tree_risk: 0.
               tree_error: 0.
            -
               depth: 3
               sample_count: 38
               value: 9.4745481014251709e-01
               Tn: 0
               complexity: 0
               alpha: 0.
               node_risk: 4.2719497492793579e-06
               tree_risk: 0.
               tree_error: 0.
            -
               depth: 1
               sample_count: 72
               value: -7.5058658400343523e-02
               Tn: 0
               complexity: 0
               alpha: 0.
               node_risk: 2.1439389687679500e-02
               tree_risk: 0.
               tree_error: 0.
               splits:
                  - { var:3, quality:4.1020944714546204e-01,
                      le:2.8126892447471619e-01 }
            -
               depth: 2
               sample_count: 7
               value: -8.4102988243103027e-01
               Tn: 0
               complexity: 0
               alpha: 0.
               node_risk: 6.1792549313628153e-03
               tree_risk: 0.
               tree_error: 0.
            -
               depth: 2
               sample_count: 65
               value: -7.2442559439402365e-02
               Tn: 0
               complexity: 0
               alpha: 0.
               node_risk: 1.0684449433504217e-02
               tree_risk: 0.
               tree_error: 0.
               splits:
                  - { var:0, quality:3.4274807572364807e-01,
                      le:1.2941838800907135e-01 }
            -
               depth: 3
               sample_count: 34
               value: -8.1579875946044922e-01
               Tn: 0
               complexity: 0
               alpha: 0.
               node_risk: 8.9987027772005512e-03
               tree_risk: 0.
               tree_error: 0.
            -
               depth: 3
               sample_count: 31
               value: -8.0404698848724365e-01
               Tn: 0
               complexity: 0
               alpha: 0.
               node_risk: 5.2767377217571854e-05
               tree_risk: 0.
               tree_error: 0.
      -
         best_tree_idx: -1
         nodes:
            -
               depth: 0
               sample_count: 152
               value: 7.1736139882551996e-03
               Tn: 0
               complexity: 0
               alpha: 0.
               node_risk: 2.6127902661797178e+00
               tree_risk: 0.
               tree_error: 0.
               splits:
                  - { var:3, quality:8.1263554096221924e-01,
                      le:-2.1775263547897339e-01 }
            -
               depth: 1
               sample_count: 84
               value: 7.2643358615182702e-02
               Tn: 0
               complexity: 0
               alpha: 0.
               node_risk: 1.7905258665267709e+00
               tree_risk: 0.
               tree_error: 0.
               splits:
                  - { var:1, quality:1.8863703012466431e+00,
                      le:-4.6542203426361084e-01 }
            -
               depth: 2
               sample_count: 44
               value: -5.2328389137983322e-02
               Tn: 0
               complexity: 0
               alpha: 0.
               node_risk: 3.1463525247119933e-01
               tree_risk: 0.
               tree_error: 0.
               splits:
                  - { var:1, quality:4.2948514223098755e-01,
                      le:-1.2180416584014893e+00 }
            -
               depth: 3
               sample_count: 2
               value: 1.1254112720489502e+00
               Tn: 0
               complexity: 0
               alpha: 0.
               node_risk: 1.2449631273643291e-03
               tree_risk: 0.
               tree_error: 0.
            -
               depth: 3
               sample_count: 42
               value: -8.0827254056930542e-01
               Tn: 0
               complexity: 0
               alpha: 0.
               node_risk: 4.3886059154177592e-03
               tree_risk: 0.
               tree_error: 0.
            -
               depth: 2
               sample_count: 40
               value: 2.1011228114366531e-01
               Tn: 0
               complexity: 0
               alpha: 0.
               node_risk: 3.2793167204731244e-02
               tree_risk: 0.
               tree_error: 0.
               splits:
                  - { var:0, quality:1.7986756563186646e+00,
                      le:-2.3151321709156036e-01 }
            -
               depth: 3
               sample_count: 1
               value: 1.2273179292678833e+00
               Tn: 0
               complexity: 0
               alpha: 0.
               node_risk: 0.
               tree_risk: 0.
               tree_error: 0.
            -
               depth: 3
               sample_count: 39
               value: 9.4402348995208740e-01
               Tn: 0
               complexity: 0
               alpha: 0.
               node_risk: 4.3334499351121991e-06
               tree_risk: 0.
               tree_error: 0.
            -
               depth: 1
               sample_count: 68
               value: -7.3700776433243465e-02
               Tn: 0
               complexity: 0
               alpha: 0.
               node_risk: 1.7450895114350329e-02
               tree_risk: 0.
               tree_error: 0.
               splits:
                  - { var:3, quality:3.7401625514030457e-01,
                      le:2.8126892447471619e-01 }
            -
               depth: 2
               sample_count: 7
               value: -8.3983933925628662e-01
               Tn: 0
               complexity: 0
               alpha: 0.
               node_risk: 6.0792191952894759e-03
               tree_risk: 0.
               tree_error: 0.
            -
               depth: 2
               sample_count: 61
               value: -7.0898433322789237e-02
               Tn: 0
               complexity: 0
               alpha: 0.
               node_risk: 6.7181372880136259e-03
               tree_risk: 0.
               tree_error: 0.
               splits:
                  - { var:0, quality:3.0754157900810242e-01,
                      le:1.5481616556644440e-01 }
            -
               depth: 3
               sample_count: 33
               value: -8.1240320205688477e-01
               Tn: 0
               complexity: 0
               alpha: 0.
               node_risk: 5.7459534697613390e-03
               tree_risk: 0.
               tree_error: 0.
            -
               depth: 3
               sample_count: 28
               value: -8.0360972881317139e-01
               Tn: 0
               complexity: 0
               alpha: 0.
               node_risk: 5.2477260652605828e-05
               tree_risk: 0.
               tree_error: 0.
      -
         best_tree_idx: -1
         nodes:
            -
               depth: 0
               sample_count: 152
               value: 8.0555731332615805e-03
               Tn: 0
               complexity: 0
               alpha: 0.
               node_risk: 2.5133377215583570e+00
               tree_risk: 0.
               tree_error: 0.
               splits:
                  - { var:3, quality:7.6850581169128418e-01,
                      le:-2.1775263547897339e-01 }
            -
               depth: 1
               sample_count: 84
               value: 7.1619615224855285e-02
               Tn: 0
               complexity: 0
               alpha: 0.
               node_risk: 1.7444729877864542e+00
               tree_risk: 0.
               tree_error: 0.
               splits:
                  - { var:1, quality:1.8353607654571533e+00,
                      le:-4.7052299976348877e-01 }
            -
               depth: 2
               sample_count: 44
               value: -5.1669269292192024e-02
               Tn: 0
               complexity: 0
               alpha: 0.
               node_risk: 3.0791176675903081e-01
               tree_risk: 0.
               tree_error: 0.
               splits:
                  - { var:1, quality:4.1991803050041199e-01,
                      le:-1.2180416584014893e+00 }
            -
               depth: 3
               sample_count: 2
               value: 1.1193964481353760e+00
               Tn: 0
               complexity: 0
               alpha: 0.
               node_risk: 1.1353142412122708e-03
               tree_risk: 0.
               tree_error: 0.
            -
               depth: 3
               sample_count: 42
               value: -8.0752646923065186e-01
               Tn: 0
               complexity: 0
               alpha: 0.
               node_risk: 4.3258184704217106e-03
               tree_risk: 0.
               tree_error: 0.
            -
               depth: 2
               sample_count: 40
               value: 2.0723738819360732e-01
               Tn: 0
               complexity: 0
               alpha: 0.
               node_risk: 3.2067449227120237e-02
               tree_risk: 0.
               tree_error: 0.
               splits:
                  - { var:0, quality:1.7499570846557617e+00,
                      le:-2.3151321709156036e-01 }
            -
               depth: 3
               sample_count: 1
               value: 1.2176276445388794e+00
               Tn: 0
               complexity: 0
               alpha: 0.
               node_risk: 0.
               tree_risk: 0.
               tree_error: 0.
            -
               depth: 3
               sample_count: 39
               value: 9.4067978858947754e-01
               Tn: 0
               complexity: 0
               alpha: 0.
               node_risk: 3.8077884978449106e-06
               tree_risk: 0.
               tree_error: 0.
            -
               depth: 1
               sample_count: 68
               value: -7.0464714156354177e-02
               Tn: 0
               complexity: 0
               alpha: 0.
               node_risk: 1.0222573131090928e-02
               tree_risk: 0.
               tree_error: 0.
               splits:
                  - { var:0, quality:3.3909523487091064e-01,
                      le:3.8670465350151062e-02 }
            -
               depth: 2
               sample_count: 35
               value: -7.4958566682679306e-02
               Tn: 0
               complexity: 0
               alpha: 0.
               node_risk: 8.7037698324594071e-03
               tree_risk: 0.
               tree_error: 0.
               splits:
                  - { var:3, quality:2.0382449030876160e-01,
                      le:7.6475036144256592e-01 }
            -
               depth: 3
               sample_count: 4
               value: -8.4905678033828735e-01
               Tn: 0
               complexity: 0
               alpha: 0.
               node_risk: 8.5935707414012963e-04
               tree_risk: 0.
               tree_error: 0.
            -
               depth: 3
               sample_count: 31
               value: -8.0656552314758301e-01
               Tn: 0
               complexity: 0
               alpha: 0.
               node_risk: 6.7745410229289038e-04
               tree_risk: 0.
               tree_error: 0.
            -
               depth: 2
               sample_count: 33
               value: -6.5698506931463882e-02
               Tn: 0
               complexity: 0
               alpha: 0.
               node_risk: 6.2336296889287102e-05
               tree_risk: 0.
               tree_error: 0.
               splits:
                  - { var:3, quality:1.4247052371501923e-01,
                      le:8.4673655033111572e-01 }
            -
               depth: 3
               sample_count: 23
               value: -8.0218940973281860e-01
               Tn: 0
               complexity: 0
               alpha: 0.
               node_risk: 2.6862293344462329e-05
               tree_risk: 0.
               tree_error: 0.
            -
               depth: 3
               sample_count: 10
               value: -8.0404400825500488e-01
               Tn: 0
               complexity: 0
               alpha: 0.
               node_risk: 2.6394499573825780e-06
               tree_risk: 0.
               tree_error: 0.
      -
         best_tree_idx: -1
         nodes:
            -
               depth: 0
               sample_count: 152
               value: -9.8091952110591690e-04
               Tn: 0
               complexity: 0
               alpha: 0.
               node_risk: 2.2327790237678542e+00
               tree_risk: 0.
               tree_error: 0.
               splits:
                  - { var:3, quality:7.2146320343017578e-01,
                      le:-3.1305208802223206e-01 }
            -
               depth: 1
               sample_count: 77
               value: 6.7006184102652910e-02
               Tn: 0
               complexity: 0
               alpha: 0.
               node_risk: 1.4936200158248012e+00
               tree_risk: 0.
               tree_error: 0.
               splits:
                  - { var:0, quality:1.5389785766601562e+00,
                      le:-1.8143142759799957e-01 }
            -
               depth: 2
               sample_count: 41
               value: -4.9643032071067066e-02
               Tn: 0
               complexity: 0
               alpha: 0.
               node_risk: 3.0035390920074895e-01
               tree_risk: 0.
               tree_error: 0.
               splits:
                  - { var:1, quality:3.9603284001350403e-01,
                      le:-1.2180416584014893e+00 }
            -
               depth: 3
               sample_count: 2
               value: 1.1136187314987183e+00
               Tn: 0
               complexity: 0
               alpha: 0.
               node_risk: 1.0369555266791508e-03
               tree_risk: 0.
               tree_error: 0.
            -
               depth: 3
               sample_count: 39
               value: -8.0685293674468994e-01
               Tn: 0
               complexity: 0
               alpha: 0.
               node_risk: 4.3257826567333901e-03
               tree_risk: 0.
               tree_error: 0.
            -
               depth: 2
               sample_count: 36
               value: 1.9985668030050066e-01
               Tn: 0
               complexity: 0
               alpha: 0.
               node_risk: 4.3253918620145271e-06
               tree_risk: 0.
               tree_error: 0.
               splits:
                  - { var:3, quality:1.4379411935806274e+00,
                      le:-9.2900770902633667e-01 }
            -
               depth: 3
               sample_count: 30
               value: 9.3751138448715210e-01
               Tn: 0
               complexity: 0
               alpha: 0.
               node_risk: 1.5912419826236146e-08
               tree_risk: 0.
               tree_error: 0.
            -
               depth: 3
               sample_count: 6
               value: 9.3643671274185181e-01
               Tn: 0
               complexity: 0
               alpha: 0.
               node_risk: 9.4574015591097904e-08
               tree_risk: 0.
               tree_error: 0.
            -
               depth: 1
               sample_count: 75
               value: -7.0781012574831645e-02
               Tn: 0
               complexity: 0
               alpha: 0.
               node_risk: 1.7842071715522656e-02
               tree_risk: 0.
               tree_error: 0.
               splits:
                  - { var:2, quality:3.7890034914016724e-01,
                      le:-1.2140106409788132e-03 }
            -
               depth: 2
               sample_count: 35
               value: -7.7713594266346525e-02
               Tn: 0
               complexity: 0
               alpha: 0.
               node_risk: 1.4605123789658947e-02
               tree_risk: 0.
               tree_error: 0.
               splits:
                  - { var:3, quality:2.2356967628002167e-01,
                      le:7.6475036144256592e-01 }
            -
               depth: 3
               sample_count: 7
               value: -8.4987378120422363e-01
               Tn: 0
               complexity: 0
               alpha: 0.
               node_risk: 1.9944286245289211e-03
               tree_risk: 0.
               tree_error: 0.
            -
               depth: 3
               sample_count: 28
               value: -8.0524080991744995e-01
               Tn: 0
               complexity: 0
               alpha: 0.
               node_risk: 4.2011018547888357e-04
               tree_risk: 0.
               tree_error: 0.
            -
               depth: 2
               sample_count: 40
               value: -6.4715003594756126e-02
               Tn: 0
               complexity: 0
               alpha: 0.
               node_risk: 8.2965216175984180e-05
               tree_risk: 0.
               tree_error: 0.
               splits:
                  - { var:3, quality:1.6756561398506165e-01,
                      le:8.2776057720184326e-01 }
            -
               depth: 3
               sample_count: 28
               value: -8.0131739377975464e-01
               Tn: 0
               complexity: 0
               alpha: 0.
               node_risk: 2.7862200304554219e-05
               tree_risk: 0.
               tree_error: 0.
            -
               depth: 3
               sample_count: 12
               value: -8.0328756570816040e-01
               Tn: 0
               complexity: 0
               alpha: 0.
               node_risk: 1.0759692379715136e-05
               tree_risk: 0.
               tree_error: 0.
      -
         best_tree_idx: -1
         nodes:
            -
               depth: 0
               sample_count: 152
               value: 1.9293196107211866e-03
               Tn: 0
               complexity: 0
               alpha: 0.
               node_risk: 2.3151092431467521e+00
               tree_risk: 0.
               tree_error: 0.
               splits:
                  - { var:3, quality:7.7450340986251831e-01,
                      le:-2.1775263547897339e-01 }
            -
               depth: 1
               sample_count: 77
               value: 7.2352633654297172e-02
               Tn: 0
               complexity: 0
               alpha: 0.
               node_risk: 1.5213579684751770e+00
               tree_risk: 0.
               tree_error: 0.
               splits:
                  - { var:1, quality:1.6016504764556885e+00,
                      le:-4.6542203426361084e-01 }
            -
               depth: 2
               sample_count: 40
               value: -4.7640365734696391e-02
               Tn: 0
               complexity: 0
               alpha: 0.
               node_risk: 2.8967314517744464e-01
               tree_risk: 0.
               tree_error: 0.
               splits:
                  - { var:1, quality:3.7644582986831665e-01,
                      le:-1.2180416584014893e+00 }
            -
               depth: 3
               sample_count: 2
               value: 1.1067079305648804e+00
               Tn: 0
               complexity: 0
               alpha: 0.
               node_risk: 1.0228131516853978e-03
               tree_risk: 0.
               tree_error: 0.
            -
               depth: 3
               sample_count: 38
               value: -8.0489474534988403e-01
               Tn: 0
               complexity: 0
               alpha: 0.
               node_risk: 2.9886821050558732e-03
               tree_risk: 0.
               tree_error: 0.
            -
               depth: 2
               sample_count: 37
               value: 2.0207479515591184e-01
               Tn: 0
               complexity: 0
               alpha: 0.
               node_risk: 3.3121977370965006e-02
               tree_risk: 0.
               tree_error: 0.
               splits:
                  - { var:0, quality:1.5439838171005249e+00,
                      le:-2.3151321709156036e-01 }
            -
               depth: 3
               sample_count: 1
               value: 1.2127703428268433e+00
               Tn: 0
               complexity: 0
               alpha: 0.
               node_risk: 0.
               tree_risk: 0.
               tree_error: 0.
            -
               depth: 3
               sample_count: 36
               value: 9.3410116434097290e-01
               Tn: 0
               complexity: 0
               alpha: 0.
               node_risk: 4.3618800193989671e-06
               tree_risk: 0.
               tree_error: 0.
            -
               depth: 1
               sample_count: 75
               value: -7.0371949474016829e-02
               Tn: 0
               complexity: 0
               alpha: 0.
               node_risk: 1.9813637939030682e-02
               tree_risk: 0.
               tree_error: 0.
               splits:
                  - { var:3, quality:3.7736582756042480e-01,
                      le:2.8126892447471619e-01 }
            -
               depth: 2
               sample_count: 6
               value: -8.4126234054565430e-01
               Tn: 0
               complexity: 0
               alpha: 0.
               node_risk: 4.7708521941898646e-03
               tree_risk: 0.
               tree_error: 0.
            -
               depth: 2
               sample_count: 69
               value: -6.7745443163574601e-02
               Tn: 0
               complexity: 0
               alpha: 0.
               node_risk: 9.0927989633821094e-03
               tree_risk: 0.
               tree_error: 0.
               splits:
                  - { var:0, quality:3.1779155135154724e-01,
                      le:1.2941838800907135e-01 }
            -
               depth: 3
               sample_count: 34
               value: -8.1087541580200195e-01
               Tn: 0
               complexity: 0
               alpha: 0.
               node_risk: 7.9150893266637101e-03
               tree_risk: 0.
               tree_error: 0.
            -
               depth: 3
               sample_count: 35
               value: -8.0111145973205566e-01
               Tn: 0
               complexity: 0
               alpha: 0.
               node_risk: 5.7853229817383944e-05
               tree_risk: 0.
               tree_error: 0.
      -
         best_tree_idx: -1
         nodes:
            -
               depth: 0
               sample_count: 152
               value: 1.6794868156706031e-03
               Tn: 0
               complexity: 0
               alpha: 0.
               node_risk: 2.1343954834215815e+00
               tree_risk: 0.
               tree_error: 0.
               splits:
                  - { var:3, quality:7.4019515514373779e-01,
                      le:-3.1305208802223206e-01 }
            -
               depth: 1
               sample_count: 77
               value: 7.0530569205036406e-02
               Tn: 0
               complexity: 0
               alpha: 0.
               node_risk: 1.3774220596872349e+00
               tree_risk: 0.
               tree_error: 0.
               splits:
                  - { var:0, quality:1.5952957868576050e+00,
                      le:-1.7155738174915314e-01 }
            -
               depth: 2
               sample_count: 38
               value: -5.6583042599652945e-02
               Tn: 0
               complexity: 0
               alpha: 0.
               node_risk: 1.6516365655103821e-01
               tree_risk: 0.
               tree_error: 0.
               splits:
                  - { var:1, quality:2.8250846266746521e-01,
                      le:-1.2180416584014893e+00 }
            -
               depth: 3
               sample_count: 1
               value: 1.1349208354949951e+00
               Tn: 0
               complexity: 0
               alpha: 0.
               node_risk: 0.
               tree_risk: 0.
               tree_error: 0.
            -
               depth: 3
               sample_count: 37
               value: -8.0559688806533813e-01
               Tn: 0
               complexity: 0
               alpha: 0.
               node_risk: 4.3175333667651028e-03
               tree_risk: 0.
               tree_error: 0.
            -
               depth: 2
               sample_count: 39
               value: 1.9438485763011834e-01
               Tn: 0
               complexity: 0
               alpha: 0.
               node_risk: 3.8258168808535942e-06
               tree_risk: 0.
               tree_error: 0.
               splits:
                  - { var:3, quality:1.4736372232437134e+00,
                      le:-9.2900770902633667e-01 }
            -
               depth: 3
               sample_count: 34
               value: 9.3110257387161255e-01
               Tn: 0
               complexity: 0
               alpha: 0.
               node_risk: 1.5326992786057758e-08
               tree_risk: 0.
               tree_error: 0.
            -
               depth: 3
               sample_count: 5
               value: 9.3003541231155396e-01
               Tn: 0
               complexity: 0
               alpha: 0.
               node_risk: 8.5789370996014469e-08
               tree_risk: 0.
               tree_error: 0.
            -
               depth: 1
               sample_count: 75
               value: -6.9007624437411624e-02
               Tn: 0
               complexity: 0
               alpha: 0.
               node_risk: 1.7207037380009005e-02
               tree_risk: 0.
               tree_error: 0.
               splits:
                  - { var:0, quality:3.6002147197723389e-01,
                      le:3.8670465350151062e-02 }
            -
               depth: 2
               sample_count: 37
               value: -7.5273990631103516e-02
               Tn: 0
               complexity: 0
               alpha: 0.
               node_risk: 1.4277289738153676e-02
               tree_risk: 0.
               tree_error: 0.
               splits:
                  - { var:3, quality:2.2138585150241852e-01,
                      le:7.6475036144256592e-01 }
            -
               depth: 3
               sample_count: 7
               value: -8.4708994626998901e-01
               Tn: 0
               complexity: 0
               alpha: 0.
               node_risk: 1.9388649182193463e-03
               tree_risk: 0.
               tree_error: 0.
            -
               depth: 3
               sample_count: 30
               value: -8.0383354425430298e-01
               Tn: 0
               complexity: 0
               alpha: 0.
               node_risk: 6.0099547228212313e-04
               tree_risk: 0.
               tree_error: 0.
            -
               depth: 2
               sample_count: 38
               value: -6.2906162617237943e-02
               Tn: 0
               complexity: 0
               alpha: 0.
               node_risk: 6.2198085702680483e-05
               tree_risk: 0.
               tree_error: 0.
               splits:
                  - { var:3, quality:1.5040670335292816e-01,
                      le:8.2776057720184326e-01 }
            -
               depth: 3
               sample_count: 27
               value: -7.9984676837921143e-01
               Tn: 0
               complexity: 0
               alpha: 0.
               node_risk: 2.5171401585907804e-05
               tree_risk: 0.
               tree_error: 0.
            -
               depth: 3
               sample_count: 11
               value: -8.0161207914352417e-01
               Tn: 0
               complexity: 0
               alpha: 0.
               node_risk: 3.3706755150422762e-06
               tree_risk: 0.
               tree_error: 0.
      -
         best_tree_idx: -1
         nodes:
            -
               depth: 0
               sample_count: 152
               value: 2.9181471878760739e-03
               Tn: 0
               complexity: 0
               alpha: 0.
               node_risk: 2.1801927071546787e+00
               tree_risk: 0.
               tree_error: 0.
               splits:
                  - { var:3, quality:6.7610013484954834e-01,
                      le:-2.1775263547897339e-01 }
            -
               depth: 1
               sample_count: 81
               value: 6.5299425228142444e-02
               Tn: 0
               complexity: 0
               alpha: 0.
               node_risk: 1.4890132603742849e+00
               tree_risk: 0.
               tree_error: 0.
               splits:
                  - { var:1, quality:1.6390585899353027e+00,
                      le:-4.7052299976348877e-01 }
            -
               depth: 2
               sample_count: 42
               value: -5.6480993117604940e-02
               Tn: 0
               complexity: 0
               alpha: 0.
               node_risk: 1.6101706798227167e-01
               tree_risk: 0.
               tree_error: 0.
               splits:
                  - { var:1, quality:2.9073393344879150e-01,
                      le:-1.2180416584014893e+00 }
            -
               depth: 3
               sample_count: 1
               value: 1.1272999048233032e+00
               Tn: 0
               complexity: 0
               alpha: 0.
               node_risk: 0.
               tree_risk: 0.
               tree_error: 0.
            -
               depth: 3
               sample_count: 41
               value: -8.0437439680099487e-01
               Tn: 0
               complexity: 0
               alpha: 0.
               node_risk: 4.2674570038588877e-03
               tree_risk: 0.
               tree_error: 0.
            -
               depth: 2
               sample_count: 39
               value: 1.9644756806202424e-01
               Tn: 0
               complexity: 0
               alpha: 0.
               node_risk: 3.4322860726198723e-02
               tree_risk: 0.
               tree_error: 0.
               splits:
                  - { var:0, quality:1.5393923521041870e+00,
                      le:-2.3151321709156036e-01 }
            -
               depth: 3
               sample_count: 1
               value: 1.2083297967910767e+00
               Tn: 0
               complexity: 0
               alpha: 0.
               node_risk: 0.
               tree_risk: 0.
               tree_error: 0.
            -
               depth: 3
               sample_count: 38
               value: 9.2779994010925293e-01
               Tn: 0
               complexity: 0
               alpha: 0.
               node_risk: 4.7815964887565343e-06
               tree_risk: 0.
               tree_error: 0.
            -
               depth: 1
               sample_count: 71
               value: -6.8249226351019363e-02
               Tn: 0
               complexity: 0
               alpha: 0.
               node_risk: 1.6373665929342973e-02
               tree_risk: 0.
               tree_error: 0.
               splits:
                  - { var:3, quality:3.3449700474739075e-01,
                      le:2.8126892447471619e-01 }
            -
               depth: 2
               sample_count: 8
               value: -8.3157837390899658e-01
               Tn: 0
               complexity: 0
               alpha: 0.
               node_risk: 6.6512098940963160e-03
               tree_risk: 0.
               tree_error: 0.
            -
               depth: 2
               sample_count: 63
               value: -6.5648403787423690e-02
               Tn: 0
               complexity: 0
               alpha: 0.
               node_risk: 5.9403790944104196e-03
               tree_risk: 0.
               tree_error: 0.
               splits:
                  - { var:0, quality:2.7225592732429504e-01,
                      le:1.2941838800907135e-01 }
            -
               depth: 3
               sample_count: 34
               value: -8.0734109878540039e-01
               Tn: 0
               complexity: 0
               alpha: 0.
               node_risk: 5.1536117716473318e-03
               tree_risk: 0.
               tree_error: 0.
            -
               depth: 3
               sample_count: 29
               value: -7.9953199625015259e-01
               Tn: 0
               complexity: 0
               alpha: 0.
               node_risk: 4.2757633506779191e-05
               tree_risk: 0.
               tree_error: 0.
      -
         best_tree_idx: -1
         nodes:
            -
               depth: 0
               sample_count: 152
               value: 5.5116637560882068e-03
               Tn: 0
               complexity: 0
               alpha: 0.
               node_risk: 2.1661710491107931e+00
               tree_risk: 0.
               tree_error: 0.
               splits:
                  - { var:0, quality:7.1877241134643555e-01,
                      le:-7.5619511306285858e-02 }
            -
               depth: 1
               sample_count: 80
               value: -5.9515627846121785e-02
               Tn: 0
               complexity: 0
               alpha: 0.
               node_risk: 3.3889284530882924e-01
               tree_risk: 0.
               tree_error: 0.
               splits:
                  - { var:0, quality:4.0603253245353699e-01,
                      le:-1.1072268486022949e+00 }
            -
               depth: 2
               sample_count: 1
               value: 1.0541441440582275e+00
               Tn: 0
               complexity: 0
               alpha: 0.
               node_risk: 0.
               tree_risk: 0.
               tree_error: 0.
            -
               depth: 2
               sample_count: 79
               value: -6.3921172030364418e-02
               Tn: 0
               complexity: 0
               alpha: 0.
               node_risk: 2.1622910569396508e-01
               tree_risk: 0.
               tree_error: 0.
               splits:
                  - { var:2, quality:3.3596551418304443e-01,
                      le:-3.7672281265258789e-01 }
            -
               depth: 3
               sample_count: 67
               value: -6.9250059127807617e-01
               Tn: 0
               complexity: 0
               alpha: 0.
               node_risk: 1.9495471152614599e-01
               tree_risk: 0.
               tree_error: 0.
            -
               depth: 3
               sample_count: 12
               value: -8.3480221033096313e-01
               Tn: 0
               complexity: 0
               alpha: 0.
               node_risk: 8.0962606816720739e-03
               tree_risk: 0.
               tree_error: 0.
            -
               depth: 1
               sample_count: 72
               value: 7.7764209980765983e-02
               Tn: 0
               complexity: 0
               alpha: 0.
               node_risk: 1.1131233201641146e+00
               tree_risk: 0.
               tree_error: 0.
               splits:
                  - { var:1, quality:1.5484656095504761e+00,
                      le:4.1874265670776367e-01 }
            -
               depth: 2
               sample_count: 40
               value: 1.8897282183170319e-01
               Tn: 0
               complexity: 0
               alpha: 0.
               node_risk: 4.8669318568617115e-06
               tree_risk: 0.
               tree_error: 0.
               splits:
                  - { var:3, quality:1.4284338951110840e+00,
                      le:-9.2900770902633667e-01 }
            -
               depth: 3
               sample_count: 33
               value: 9.2493444681167603e-01
               Tn: 0
               complexity: 0
               alpha: 0.
               node_risk: 1.4651664770326533e-08
               tree_risk: 0.
               tree_error: 0.
            -
               depth: 3
               sample_count: 7
               value: 9.2389988899230957e-01
               Tn: 0
               complexity: 0
               alpha: 0.
               node_risk: 8.9997951951970023e-08
               tree_risk: 0.
               tree_error: 0.
            -
               depth: 2
               sample_count: 32
               value: -6.1246554832905531e-02
               Tn: 0
               complexity: 0
               alpha: 0.
               node_risk: 5.6471749141306926e-05
               tree_risk: 0.
               tree_error: 0.
               splits:
                  - { var:1, quality:1.2007182091474533e-01,
                      le:1.5726417303085327e+00 }
            -
               depth: 3
               sample_count: 21
               value: -7.9829746484756470e-01
               Tn: 0
               complexity: 0
               alpha: 0.
               node_risk: 1.8400828372691636e-05
               tree_risk: 0.
               tree_error: 0.
            -
               depth: 3
               sample_count: 11
               value: -8.0017262697219849e-01
               Tn: 0
               complexity: 0
               alpha: 0.
               node_risk: 2.7458021704465652e-06
               tree_risk: 0.
               tree_error: 0.
      -
         best_tree_idx: -1
         nodes:
            -
               depth: 0
               sample_count: 152
               value: -4.5290856720193434e-03
               Tn: 0
               complexity: 0
               alpha: 0.
               node_risk: 1.8956303745840317e+00
               tree_risk: 0.
               tree_error: 0.
               splits:
                  - { var:0, quality:5.7965153455734253e-01,
                      le:-7.5619511306285858e-02 }
            -
               depth: 1
               sample_count: 85
               value: -5.9207821725045934e-02
               Tn: 0
               complexity: 0
               alpha: 0.
               node_risk: 3.0046988674334285e-01
               tree_risk: 0.
               tree_error: 0.
               splits:
                  - { var:1, quality:5.7597219944000244e-01,
                      le:-1.2180416584014893e+00 }
            -
               depth: 2
               sample_count: 2
               value: 1.0883134603500366e+00
               Tn: 0
               complexity: 0
               alpha: 0.
               node_risk: 1.0228508937188963e-03
               tree_risk: 0.
               tree_error: 0.
            -
               depth: 2
               sample_count: 83
               value: -6.8085270608405038e-02
               Tn: 0
               complexity: 0
               alpha: 0.
               node_risk: 2.1447940267727894e-02
               tree_risk: 0.
               tree_error: 0.
               splits:
                  - { var:0, quality:3.9400333166122437e-01,
                      le:-3.2409077882766724e-01 }
            -
               depth: 3
               sample_count: 77
               value: -8.0371266603469849e-01
               Tn: 0
               complexity: 0
               alpha: 0.
               node_risk: 8.4866418184480485e-03
               tree_risk: 0.
               tree_error: 0.
            -
               depth: 3
               sample_count: 6
               value: -8.4435075521469116e-01
               Tn: 0
               complexity: 0
               alpha: 0.
               node_risk: 3.7131162052766731e-03
               tree_risk: 0.
               tree_error: 0.
            -
               depth: 1
               sample_count: 67
               value: 6.4839460066894991e-02
               Tn: 0
               complexity: 0
               alpha: 0.
               node_risk: 1.0186268586089484e+00
               tree_risk: 0.
               tree_error: 0.
               splits:
                  - { var:1, quality:1.3002476692199707e+00,
                      le:4.1874265670776367e-01 }
            -
               depth: 2
               sample_count: 34
               value: 1.8631123795228846e-01
               Tn: 0
               complexity: 0
               alpha: 0.
               node_risk: 4.6037162402257081e-06
               tree_risk: 0.
               tree_error: 0.
               splits:
                  - { var:3, quality:1.1802083253860474e+00,
                      le:-9.2900770902633667e-01 }
            -
               depth: 3
               sample_count: 27
               value: 9.2193800210952759e-01
               Tn: 0
               complexity: 0
               alpha: 0.
               node_risk: 1.4279261328908888e-08
               tree_risk: 0.
               tree_error: 0.
            -
               depth: 3
               sample_count: 7
               value: 9.2092061042785645e-01
               Tn: 0
               complexity: 0
               alpha: 0.
               node_risk: 9.8717656271674059e-08
               tree_risk: 0.
               tree_error: 0.
            -
               depth: 2
               sample_count: 33
               value: -6.0313280784722534e-02
               Tn: 0
               complexity: 0
               alpha: 0.
               node_risk: 5.3017014823519837e-05
               tree_risk: 0.
               tree_error: 0.
               splits:
                  - { var:3, quality:1.2007047981023788e-01,
                      le:8.2776057720184326e-01 }
            -
               depth: 3
               sample_count: 23
               value: -7.9764980077743530e-01
               Tn: 0
               complexity: 0
               alpha: 0.
               node_risk: 2.3358384998090065e-05
               tree_risk: 0.
               tree_error: 0.
            -
               depth: 3
               sample_count: 10
               value: -7.9930180311203003e-01
               Tn: 0
               complexity: 0
               alpha: 0.
               node_risk: 3.0074651888936654e-06
               tree_risk: 0.
               tree_error: 0.
      -
         best_tree_idx: -1
         nodes:
            -
               depth: 0
               sample_count: 152
               value: 2.5639591591530724e-03
               Tn: 0
               complexity: 0
               alpha: 0.
               node_risk: 1.9926340778370286e+00
               tree_risk: 0.
               tree_error: 0.
               splits:
                  - { var:3, quality:6.8251305818557739e-01,
                      le:-2.1775263547897339e-01 }
            -
               depth: 1
               sample_count: 77
               value: 6.8648643356252023e-02
               Tn: 0
               complexity: 0
               alpha: 0.
               node_risk: 1.2951816551911053e+00
               tree_risk: 0.
               tree_error: 0.
               splits:
                  - { var:1, quality:1.5008305311203003e+00,
                      le:-4.6542203426361084e-01 }
            -
               depth: 2
               sample_count: 38
               value: -5.4508093058278688e-02
               Tn: 0
               complexity: 0
               alpha: 0.
               node_risk: 1.2187595540389254e-01
               tree_risk: 0.
               tree_error: 0.
               splits:
                  - { var:0, quality:2.3066148161888123e-01,
                      le:-1.1072268486022949e+00 }
            -
               depth: 3
               sample_count: 1
               value: 1.0476412773132324e+00
               Tn: 0
               complexity: 0
               alpha: 0.
               node_risk: 0.
               tree_risk: 0.
               tree_error: 0.
            -
               depth: 3
               sample_count: 37
               value: -8.0248916149139404e-01
               Tn: 0
               complexity: 0
               alpha: 0.
               node_risk: 4.1174931761616962e-03
               tree_risk: 0.
               tree_error: 0.
            -
               depth: 2
               sample_count: 39
               value: 1.8864751473451272e-01
               Tn: 0
               complexity: 0
               alpha: 0.
               node_risk: 3.5348158114443695e-02
               tree_risk: 0.
               tree_error: 0.
               splits:
                  - { var:0, quality:1.4232721328735352e+00,
                      le:-2.3036833107471466e-01 }
            -
               depth: 3
               sample_count: 1
               value: 1.1985101699829102e+00
               Tn: 0
               complexity: 0
               alpha: 0.
               node_risk: 0.
               tree_risk: 0.
               tree_error: 0.
            -
               depth: 3
               sample_count: 38
               value: 9.1885238885879517e-01
               Tn: 0
               complexity: 0
               alpha: 0.
               node_risk: 3.5842970591559720e-06
               tree_risk: 0.
               tree_error: 0.
            -
               depth: 1
               sample_count: 75
               value: -6.5282983283201854e-02
               Tn: 0
               complexity: 0
               alpha: 0.
               node_risk: 1.5938570359574022e-02
               tree_risk: 0.
               tree_error: 0.
               splits:
                  - { var:0, quality:3.2185563445091248e-01,
                      le:3.8670465350151062e-02 }
            -
               depth: 2
               sample_count: 40
               value: -7.0367070287466055e-02
               Tn: 0
               complexity: 0
               alpha: 0.
               node_risk: 1.3667075261199702e-02
               tree_risk: 0.
               tree_error: 0.
               splits:
                  - { var:3, quality:2.0966583490371704e-01,
                      le:6.7546951770782471e-01 }
            -
               depth: 3
               sample_count: 6
               value: -8.4568446874618530e-01
               Tn: 0
               complexity: 0
               alpha: 0.
               node_risk: 1.4845463602417286e-03
               tree_risk: 0.
               tree_error: 0.
            -
               depth: 3
               sample_count: 34
               value: -8.0083763599395752e-01
               Tn: 0
               complexity: 0
               alpha: 0.
               node_risk: 5.7767312390966108e-04
               tree_risk: 0.
               tree_error: 0.
            -
               depth: 2
               sample_count: 35
               value: -5.9472598135471344e-02
               Tn: 0
               complexity: 0
               alpha: 0.
               node_risk: 5.5957326923622430e-05
               tree_risk: 0.
               tree_error: 0.
               splits:
                  - { var:3, quality:1.2382478266954422e-01,
                      le:8.2776057720184326e-01 }
            -
               depth: 3
               sample_count: 25
               value: -7.9694098234176636e-01
               Tn: 0
               complexity: 0
               alpha: 0.
               node_risk: 2.3141654605970952e-05
               tree_risk: 0.
               tree_error: 0.
            -
               depth: 3
               sample_count: 10
               value: -7.9867458343505859e-01
               Tn: 0
               complexity: 0
               alpha: 0.
               node_risk: 2.6771088128541010e-06
               tree_risk: 0.
               tree_error: 0.
      -
         best_tree_idx: -1
         nodes:
            -
               depth: 0
               sample_count: 152
               value: -4.3186251270143608e-04
               Tn: 0
               complexity: 0
               alpha: 0.
               node_risk: 1.9128499028325214e+00
               tree_risk: 0.
               tree_error: 0.
               splits:
                  - { var:3, quality:5.9347647428512573e-01,
                      le:-1.8568448722362518e-01 }
            -
               depth: 1
               sample_count: 78
               value: 6.0429005716473631e-02
               Tn: 0
               complexity: 0
               alpha: 0.
               node_risk: 1.3031852450481951e+00
               tree_risk: 0.
               tree_error: 0.
               splits:
                  - { var:1, quality:1.3995128870010376e+00,
                      le:-4.6542203426361084e-01 }
            -
               depth: 2
               sample_count: 41
               value: -5.3134117820640890e-02
               Tn: 0
               complexity: 0
               alpha: 0.
               node_risk: 1.5398621823222666e-01
               tree_risk: 0.
               tree_error: 0.
               splits:
                  - { var:1, quality:2.6567938923835754e-01,
                      le:-1.2180416584014893e+00 }
            -
               depth: 3
               sample_count: 1
               value: 1.1182655096054077e+00
               Tn: 0
               complexity: 0
               alpha: 0.
               node_risk: 0.
               tree_risk: 0.
               tree_error: 0.
            -
               depth: 3
               sample_count: 40
               value: -8.0155110359191895e-01
               Tn: 0
               complexity: 0
               alpha: 0.
               node_risk: 4.0594448806918759e-03
               tree_risk: 0.
               tree_error: 0.
            -
               depth: 2
               sample_count: 37
               value: 1.8626922369003296e-01
               Tn: 0
               complexity: 0
               alpha: 0.
               node_risk: 3.4515985681807138e-02
               tree_risk: 0.
               tree_error: 0.
               splits:
                  - { var:0, quality:1.3182721138000488e+00,
                      le:-2.3036833107471466e-01 }
            -
               depth: 3
               sample_count: 1
               value: 1.1895607709884644e+00
               Tn: 0
               complexity: 0
               alpha: 0.
               node_risk: 0.
               tree_risk: 0.
               tree_error: 0.
            -
               depth: 3
               sample_count: 36
               value: 9.1595190763473511e-01
               Tn: 0
               complexity: 0
               alpha: 0.
               node_risk: 4.1527202356839155e-06
               tree_risk: 0.
               tree_error: 0.
            -
               depth: 1
               sample_count: 74
               value: -6.4582507402912992e-02
               Tn: 0
               complexity: 0
               alpha: 0.
               node_risk: 1.6216538071401720e-02
               tree_risk: 0.
               tree_error: 0.
               splits:
                  - { var:2, quality:3.1122735142707825e-01,
                      le:-1.7586896196007729e-02 }
            -
               depth: 2
               sample_count: 37
               value: -7.0487992284265721e-02
               Tn: 0
               complexity: 0
               alpha: 0.
               node_risk: 1.3566053520605581e-02
               tree_risk: 0.
               tree_error: 0.
               splits:
                  - { var:3, quality:1.9522340595722198e-01,
                      le:7.6475036144256592e-01 }
            -
               depth: 3
               sample_count: 7
               value: -8.4197050333023071e-01
               Tn: 0
               complexity: 0
               alpha: 0.
               node_risk: 1.8147497784359728e-03
               tree_risk: 0.
               tree_error: 0.
            -
               depth: 3
               sample_count: 30
               value: -7.9975253343582153e-01
               Tn: 0
               complexity: 0
               alpha: 0.
               node_risk: 3.6451344922215634e-04
               tree_risk: 0.
               tree_error: 0.
            -
               depth: 2
               sample_count: 37
               value: -5.8677022521560256e-02
               Tn: 0
               complexity: 0
               alpha: 0.
               node_risk: 6.9752926188854092e-05
               tree_risk: 0.
               tree_error: 0.
               splits:
                  - { var:3, quality:1.2744198739528656e-01,
                      le:8.6461186408996582e-01 }
            -
               depth: 3
               sample_count: 26
               value: -7.9611152410507202e-01
               Tn: 0
               complexity: 0
               alpha: 0.
               node_risk: 1.4153116491957829e-05
               tree_risk: 0.
               tree_error: 0.
            -
               depth: 3
               sample_count: 11
               value: -7.9829096794128418e-01
               Tn: 0
               complexity: 0
               alpha: 0.
               node_risk: 4.3534718711518705e-06
               tree_risk: 0.
               tree_error: 0.
      -
         best_tree_idx: -1
         nodes:
            -
               depth: 0
               sample_count: 152
               value: 3.1352163488535503e-03
               Tn: 0
               complexity: 0
               alpha: 0.
               node_risk: 1.9677557793719449e+00
               tree_risk: 0.
               tree_error: 0.
               splits:
                  - { var:0, quality:5.9906083345413208e-01,
                      le:-7.5619511306285858e-02 }
            -
               depth: 1
               sample_count: 86
               value: -5.1792829925584240e-02
               Tn: 0
               complexity: 0
               alpha: 0.
               node_risk: 4.6076007802189167e-01
               tree_risk: 0.
               tree_error: 0.
               splits:
                  - { var:1, quality:4.8828908801078796e-01,
                      le:-1.2180416584014893e+00 }
            -
               depth: 2
               sample_count: 2
               value: 1.0783870220184326e+00
               Tn: 0
               complexity: 0
               alpha: 0.
               node_risk: 9.8386169760722453e-04
               tree_risk: 0.
               tree_error: 0.
            -
               depth: 2
               sample_count: 84
               value: -6.0237725265324116e-02
               Tn: 0
               complexity: 0
               alpha: 0.
               node_risk: 2.0218189495971844e-01
               tree_risk: 0.
               tree_error: 0.
               splits:
                  - { var:2, quality:3.1394952535629272e-01,
                      le:-2.3803058266639709e-01 }
            -
               depth: 3
               sample_count: 77
               value: -7.0365631580352783e-01
               Tn: 0
               complexity: 0
               alpha: 0.
               node_risk: 1.8920177325587084e-01
               tree_risk: 0.
               tree_error: 0.
            -
               depth: 3
               sample_count: 7
               value: -8.3390879631042480e-01
               Tn: 0
               complexity: 0
               alpha: 0.
               node_risk: 3.8316256896299000e-03
               tree_risk: 0.
               tree_error: 0.
            -
               depth: 1
               sample_count: 66
               value: 7.4708125130696731e-02
               Tn: 0
               complexity: 0
               alpha: 0.
               node_risk: 9.0942897442414328e-01
               tree_risk: 0.
               tree_error: 0.
               splits:
                  - { var:1, quality:1.2777413129806519e+00,
                      le:4.1874265670776367e-01 }
            -
               depth: 2
               sample_count: 37
               value: 1.7862779063147469e-01
               Tn: 0
               complexity: 0
               alpha: 0.
               node_risk: 4.6634883508200886e-06
               tree_risk: 0.
               tree_error: 0.
               splits:
                  - { var:3, quality:1.1805964708328247e+00,
                      le:-9.4335150718688965e-01 }
            -
               depth: 3
               sample_count: 30
               value: 9.1329491138458252e-01
               Tn: 0
               complexity: 0
               alpha: 0.
               node_risk: 3.5916047913531202e-11
               tree_risk: 0.
               tree_error: 0.
            -
               depth: 3
               sample_count: 7
               value: 9.1229802370071411e-01
               Tn: 0
               complexity: 0
               alpha: 0.
               node_risk: 9.2365115944570420e-08
               tree_risk: 0.
               tree_error: 0.
            -
               depth: 2
               sample_count: 29
               value: -5.7879034301330304e-02
               Tn: 0
               complexity: 0
               alpha: 0.
               node_risk: 4.9035916071707430e-05
               tree_risk: 0.
               tree_error: 0.
               splits:
                  - { var:3, quality:9.7184009850025177e-02,
                      le:7.8716313838958740e-01 }
            -
               depth: 3
               sample_count: 18
               value: -7.9536592960357666e-01
               Tn: 0
               complexity: 0
               alpha: 0.
               node_risk: 1.1951296576877268e-05
               tree_risk: 0.
               tree_error: 0.
            -
               depth: 3
               sample_count: 11
               value: -7.9726046323776245e-01
               Tn: 0
               complexity: 0
               alpha: 0.
               node_risk: 2.5682541720528640e-06
               tree_risk: 0.
               tree_error: 0.
      -
         best_tree_idx: -1
         nodes:
            -
               depth: 0
               sample_count: 152
               value: 7.3291382164155181e-03
               Tn: 0
               complexity: 0
               alpha: 0.
               node_risk: 2.0065031165820923e+00
               tree_risk: 0.
               tree_error: 0.
               splits:
                  - { var:0, quality:6.7932140827178955e-01,
                      le:-7.5619511306285858e-02 }
            -
               depth: 1
               sample_count: 85
               value: -5.1666248326792438e-02
               Tn: 0
               complexity: 0
               alpha: 0.
               node_risk: 4.5808186283803698e-01
               tree_risk: 0.
               tree_error: 0.
               splits:
                  - { var:1, quality:4.7981241345405579e-01,
                      le:-1.2180416584014893e+00 }
            -
               depth: 2
               sample_count: 2
               value: 1.0732969045639038e+00
               Tn: 0
               complexity: 0
               alpha: 0.
               node_risk: 8.9070044158034989e-04
               tree_risk: 0.
               tree_error: 0.
            -
               depth: 2
               sample_count: 83
               value: -6.0133692505488910e-02
               Tn: 0
               complexity: 0
               alpha: 0.
               node_risk: 2.0427783987848191e-01
               tree_risk: 0.
               tree_error: 0.
               splits:
                  - { var:2, quality:3.1196463108062744e-01,
                      le:-2.3803058266639709e-01 }
            -
               depth: 3
               sample_count: 75
               value: -6.9959926605224609e-01
               Tn: 0
               complexity: 0
               alpha: 0.
               node_risk: 1.8815954468405241e-01
               tree_risk: 0.
               tree_error: 0.
            -
               depth: 3
               sample_count: 8
               value: -8.3540540933609009e-01
               Tn: 0
               complexity: 0
               alpha: 0.
               node_risk: 4.2867226975440709e-03
               tree_risk: 0.
               tree_error: 0.
            -
               depth: 1
               sample_count: 67
               value: 8.2174031592127106e-02
               Tn: 0
               complexity: 0
               alpha: 0.
               node_risk: 8.7726473459028986e-01
               tree_risk: 0.
               tree_error: 0.
               splits:
                  - { var:1, quality:1.3296422958374023e+00,
                      le:3.8550674915313721e-01 }
            -
               depth: 2
               sample_count: 40
               value: 1.7618288546800615e-01
               Tn: 0
               complexity: 0
               alpha: 0.
               node_risk: 3.7104889782924033e-06
               tree_risk: 0.
               tree_error: 0.
               splits:
                  - { var:3, quality:1.2416199445724487e+00,
                      le:-9.1040503978729248e-01 }
            -
               depth: 3
               sample_count: 35
               value: 9.1052186489105225e-01
               Tn: 0
               complexity: 0
               alpha: 0.
               node_risk: 4.0460745864834280e-11
               tree_risk: 0.
               tree_error: 0.
            -
               depth: 3
               sample_count: 5
               value: 9.0951788425445557e-01
               Tn: 0
               complexity: 0
               alpha: 0.
               node_risk: 9.2354807190719868e-08
               tree_risk: 0.
               tree_error: 0.
            -
               depth: 2
               sample_count: 27
               value: -5.7098344520286275e-02
               Tn: 0
               complexity: 0
               alpha: 0.
               node_risk: 4.0981623122771094e-05
               tree_risk: 0.
               tree_error: 0.
               splits:
                  - { var:3, quality:8.8044643402099609e-02,
                      le:8.4673655033111572e-01 }
            -
               depth: 3
               sample_count: 19
               value: -7.9497802257537842e-01
               Tn: 0
               complexity: 0
               alpha: 0.
               node_risk: 2.0383977458710012e-05
               tree_risk: 0.
               tree_error: 0.
            -
               depth: 3
               sample_count: 8
               value: -7.9650312662124634e-01
               Tn: 0
               complexity: 0
               alpha: 0.
               node_risk: 1.9230388368929319e-06
               tree_risk: 0.
               tree_error: 0.
      -
         best_tree_idx: -1
         nodes:
            -
               depth: 0
               sample_count: 152
               value: 1.8591863397312792e-03
               Tn: 0
               complexity: 0
               alpha: 0.
               node_risk: 1.8384540141469321e+00
               tree_risk: 0.
               tree_error: 0.
               splits:
                  - { var:3, quality:5.7095301151275635e-01,
                      le:-2.1775263547897339e-01 }
            -
               depth: 1
               sample_count: 79
               value: 6.0747125292126135e-02
               Tn: 0
               complexity: 0
               alpha: 0.
               node_risk: 1.2530526147021561e+00
               tree_risk: 0.
               tree_error: 0.
               splits:
                  - { var:1, quality:1.2618831396102905e+00,
                      le:-4.6542203426361084e-01 }
            -
               depth: 2
               sample_count: 42
               value: -4.3275613515149983e-02
               Tn: 0
               complexity: 0
               alpha: 0.
               node_risk: 2.4732883020264368e-01
               tree_risk: 0.
               tree_error: 0.
               splits:
                  - { var:1, quality:3.2125917077064514e-01,
                      le:-1.2180416584014893e+00 }
            -
               depth: 3
               sample_count: 2
               value: 1.0683267116546631e+00
               Tn: 0
               complexity: 0
               alpha: 0.
               node_risk: 8.0296714739347408e-04
               tree_risk: 0.
               tree_error: 0.
            -
               depth: 3
               sample_count: 40
               value: -7.9948621988296509e-01
               Tn: 0
               complexity: 0
               alpha: 0.
               node_risk: 3.9233967548557014e-03
               tree_risk: 0.
               tree_error: 0.
            -
               depth: 2
               sample_count: 37
               value: 1.7882699096525037e-01
               Tn: 0
               complexity: 0
               alpha: 0.
               node_risk: 3.5367493499733893e-02
               tree_risk: 0.
               tree_error: 0.
               splits:
                  - { var:0, quality:1.2185897827148438e+00,
                      le:-2.3036833107471466e-01 }
            -
               depth: 3
               sample_count: 1
               value: 1.1798386573791504e+00
               Tn: 0
               complexity: 0
               alpha: 0.
               node_risk: 0.
               tree_risk: 0.
               tree_error: 0.
            -
               depth: 3
               sample_count: 36
               value: 9.0763324499130249e-01
               Tn: 0
               complexity: 0
               alpha: 0.
               node_risk: 4.1218897719463854e-06
               tree_risk: 0.
               tree_error: 0.
            -
               depth: 1
               sample_count: 73
               value: -6.1868857184093295e-02
               Tn: 0
               complexity: 0
               alpha: 0.
               node_risk: 1.4973802683621584e-02
               tree_risk: 0.
               tree_error: 0.
               splits:
                  - { var:3, quality:2.8401356935501099e-01,
                      le:2.8212577104568481e-01 }
            -
               depth: 2
               sample_count: 7
               value: -8.2907521724700928e-01
               Tn: 0
               complexity: 0
               alpha: 0.
               node_risk: 5.5322376003100401e-03
               tree_risk: 0.
               tree_error: 0.
            -
               depth: 2
               sample_count: 66
               value: -5.9287189985766556e-02
               Tn: 0
               complexity: 0
               alpha: 0.
               node_risk: 4.8541369962530057e-03
               tree_risk: 0.
               tree_error: 0.
               splits:
                  - { var:0, quality:2.3259069025516510e-01,
                      le:1.2941838800907135e-01 }
            -
               depth: 3
               sample_count: 34
               value: -8.0146068334579468e-01
               Tn: 0
               complexity: 0
               alpha: 0.
               node_risk: 4.2096148125786159e-03
               tree_risk: 0.
               tree_error: 0.
            -
               depth: 3
               sample_count: 32
               value: -7.9465639591217041e-01
               Tn: 0
               complexity: 0
               alpha: 0.
               node_risk: 4.1913129109769076e-05
               tree_risk: 0.
               tree_error: 0.
      -
         best_tree_idx: -1
         nodes:
            -
               depth: 0
               sample_count: 152
               value: 1.1058225247420762e-03
               Tn: 0
               complexity: 0
               alpha: 0.
               node_risk: 1.7167193585101244e+00
               tree_risk: 0.
               tree_error: 0.
               splits:
                  - { var:3, quality:5.3654479980468750e-01,
                      le:-1.8568448722362518e-01 }
            -
               depth: 1
               sample_count: 79
               value: 5.8208156377077103e-02
               Tn: 0
               complexity: 0
               alpha: 0.
               node_risk: 1.1676949886071055e+00
               tree_risk: 0.
               tree_error: 0.
               splits:
                  - { var:1, quality:1.2884726524353027e+00,
                      le:-4.6542203426361084e-01 }
            -
               depth: 2
               sample_count: 41
               value: -5.1227253839010146e-02
               Tn: 0
               complexity: 0
               alpha: 0.
               node_risk: 1.1151998073073038e-01
               tree_risk: 0.
               tree_error: 0.
               splits:
                  - { var:0, quality:2.1524009108543396e-01,
                      le:-1.1072268486022949e+00 }
            -
               depth: 3
               sample_count: 1
               value: 1.0314130783081055e+00
               Tn: 0
               complexity: 0
               alpha: 0.
               node_risk: 0.
               tree_risk: 0.
               tree_error: 0.
            -
               depth: 3
               sample_count: 40
               value: -7.9868900775909424e-01
               Tn: 0
               complexity: 0
               alpha: 0.
               node_risk: 3.8733860728156488e-03
               tree_risk: 0.
               tree_error: 0.
            -
               depth: 2
               sample_count: 38
               value: 1.7628320424180283e-01
               Tn: 0
               complexity: 0
               alpha: 0.
               node_risk: 3.5369295226903796e-02
               tree_risk: 0.
               tree_error: 0.
               splits:
                  - { var:0, quality:1.2162448167800903e+00,
                      le:-2.3151321709156036e-01 }
            -
               depth: 3
               sample_count: 1
               value: 1.1752717494964600e+00
               Tn: 0
               complexity: 0
               alpha: 0.
               node_risk: 0.
               tree_risk: 0.
               tree_error: 0.
            -
               depth: 3
               sample_count: 37
               value: 9.0499752759933472e-01
               Tn: 0
               complexity: 0
               alpha: 0.
               node_risk: 3.6876248794559530e-06
               tree_risk: 0.
               tree_error: 0.
            -
               depth: 1
               sample_count: 73
               value: -6.0689853836004046e-02
               Tn: 0
               complexity: 0
               alpha: 0.
               node_risk: 1.2665413891329858e-02
               tree_risk: 0.
               tree_error: 0.
               splits:
                  - { var:0, quality:2.7088761329650879e-01,
                      le:5.0820067524909973e-02 }
            -
               depth: 2
               sample_count: 37
               value: -6.5865434303477008e-02
               Tn: 0
               complexity: 0
               alpha: 0.
               node_risk: 1.0608273958999437e-02
               tree_risk: 0.
               tree_error: 0.
               splits:
                  - { var:3, quality:1.6902287304401398e-01,
                      le:7.6475036144256592e-01 }
            -
               depth: 3
               sample_count: 6
               value: -8.3611547946929932e-01
               Tn: 0
               complexity: 0
               alpha: 0.
               node_risk: 1.6026983593956795e-03
               tree_risk: 0.
               tree_error: 0.
            -
               depth: 3
               sample_count: 31
               value: -7.9741925001144409e-01
               Tn: 0
               complexity: 0
               alpha: 0.
               node_risk: 4.9814657387817207e-04
               tree_risk: 0.
               tree_error: 0.
            -
               depth: 2
               sample_count: 36
               value: -5.5370507244434625e-02
               Tn: 0
               complexity: 0
               alpha: 0.
               node_risk: 4.7398371040147103e-05
               tree_risk: 0.
               tree_error: 0.
               splits:
                  - { var:3, quality:1.1040572822093964e-01,
                      le:8.2776057720184326e-01 }
            -
               depth: 3
               sample_count: 25
               value: -7.9343110322952271e-01
               Tn: 0
               complexity: 0
               alpha: 0.
               node_risk: 1.1505447921833500e-05
               tree_risk: 0.
               tree_error: 0.
            -
               depth: 3
               sample_count: 11
               value: -7.9519075155258179e-01
               Tn: 0
               complexity: 0
               alpha: 0.
               node_risk: 2.3186858489204765e-06
               tree_risk: 0.
               tree_error: 0.
      -
         best_tree_idx: -1
         nodes:
            -
               depth: 0
               sample_count: 152
               value: 1.2165888849841920e-03
               Tn: 0
               complexity: 0
               alpha: 0.
               node_risk: 1.7619570200056274e+00
               tree_risk: 0.
               tree_error: 0.
               splits:
                  - { var:3, quality:5.6646585464477539e-01,
                      le:-2.1775263547897339e-01 }
            -
               depth: 1
               sample_count: 78
               value: 6.0665973963645786e-02
               Tn: 0
               complexity: 0
               alpha: 0.
               node_risk: 1.1771051478208452e+00
               tree_risk: 0.
               tree_error: 0.
               splits:
                  - { var:1, quality:1.1900725364685059e+00,
                      le:-4.6542203426361084e-01 }
            -
               depth: 2
               sample_count: 41
               value: -4.1547131792801180e-02
               Tn: 0
               complexity: 0
               alpha: 0.
               node_risk: 2.3954770588273358e-01
               tree_risk: 0.
               tree_error: 0.
               splits:
                  - { var:1, quality:3.0559295415878296e-01,
                      le:-1.2180416584014893e+00 }
            -
               depth: 3
               sample_count: 2
               value: 1.0626777410507202e+00
               Tn: 0
               complexity: 0
               alpha: 0.
               node_risk: 9.3241787092956940e-04
               tree_risk: 0.
               tree_error: 0.
            -
               depth: 3
               sample_count: 39
               value: -7.9816377162933350e-01
               Tn: 0
               complexity: 0
               alpha: 0.
               node_risk: 3.7950579785993033e-03
               tree_risk: 0.
               tree_error: 0.
            -
               depth: 2
               sample_count: 37
               value: 1.7392914520727620e-01
               Tn: 0
               complexity: 0
               alpha: 0.
               node_risk: 3.4552962888522609e-02
               tree_risk: 0.
               tree_error: 0.
               splits:
                  - { var:0, quality:1.1538486480712891e+00,
                      le:-2.3151321709156036e-01 }
            -
               depth: 3
               sample_count: 1
               value: 1.1669033765792847e+00
               Tn: 0
               complexity: 0
               alpha: 0.
               node_risk: 0.
               tree_risk: 0.
               tree_error: 0.
            -
               depth: 3
               sample_count: 36
               value: 9.0235000848770142e-01
               Tn: 0
               complexity: 0
               alpha: 0.
               node_risk: 4.1388983376133837e-06
               tree_risk: 0.
               tree_error: 0.
            -
               depth: 1
               sample_count: 74
               value: -6.1446276468199654e-02
               Tn: 0
               complexity: 0
               alpha: 0.
               node_risk: 1.8611012682693939e-02
               tree_risk: 0.
               tree_error: 0.
               splits:
                  - { var:3, quality:2.8280949592590332e-01,
                      le:2.8126892447471619e-01 }
            -
               depth: 2
               sample_count: 8
               value: -8.2466912269592285e-01
               Tn: 0
               complexity: 0
               alpha: 0.
               node_risk: 6.2137028223913857e-03
               tree_risk: 0.
               tree_error: 0.
            -
               depth: 2
               sample_count: 66
               value: -5.9082272490768722e-02
               Tn: 0
               complexity: 0
               alpha: 0.
               node_risk: 8.9855215716613535e-03
               tree_risk: 0.
               tree_error: 0.
               splits:
                  - { var:0, quality:2.3152637481689453e-01,
                      le:1.2941838800907135e-01 }
            -
               depth: 3
               sample_count: 36
               value: -8.0327743291854858e-01
               Tn: 0
               complexity: 0
               alpha: 0.
               node_risk: 7.8095922403326468e-03
               tree_risk: 0.
               tree_error: 0.
            -
               depth: 3
               sample_count: 30
               value: -7.9327607154846191e-01
               Tn: 0
               complexity: 0
               alpha: 0.
               node_risk: 3.6735768271317637e-05
               tree_risk: 0.
               tree_error: 0.
      -
         best_tree_idx: -1
         nodes:
            -
               depth: 0
               sample_count: 152
               value: 4.4461157859156004e-03
               Tn: 0
               complexity: 0
               alpha: 0.
               node_risk: 1.7546745681366136e+00
               tree_risk: 0.
               tree_error: 0.
               splits:
                  - { var:3, quality:5.4162108898162842e-01,
                      le:-2.1775263547897339e-01 }
            -
               depth: 1
               sample_count: 83
               value: 5.8721571263060511e-02
               Tn: 0
               complexity: 0
               alpha: 0.
               node_risk: 1.1979188326699177e+00
               tree_risk: 0.
               tree_error: 0.
               splits:
                  - { var:1, quality:1.2177771329879761e+00,
                      le:-4.6542203426361084e-01 }
            -
               depth: 2
               sample_count: 44
               value: -4.1019894521344795e-02
               Tn: 0
               complexity: 0
               alpha: 0.
               node_risk: 2.3253461488734517e-01
               tree_risk: 0.
               tree_error: 0.
               splits:
                  - { var:1, quality:3.0305239558219910e-01,
                      le:-1.2180416584014893e+00 }
            -
               depth: 3
               sample_count: 2
               value: 1.0578973293304443e+00
               Tn: 0
               complexity: 0
               alpha: 0.
               node_risk: 8.4318088057244722e-04
               tree_risk: 0.
               tree_error: 0.
            -
               depth: 3
               sample_count: 42
               value: -7.9608136415481567e-01
               Tn: 0
               complexity: 0
               alpha: 0.
               node_risk: 2.6748366133938495e-03
               tree_risk: 0.
               tree_error: 0.
            -
               depth: 2
               sample_count: 39
               value: 1.7125040445572290e-01
               Tn: 0
               complexity: 0
               alpha: 0.
               node_risk: 3.3809584234038681e-02
               tree_risk: 0.
               tree_error: 0.
               splits:
                  - { var:0, quality:1.1775467395782471e+00,
                      le:-2.3151321709156036e-01 }
            -
               depth: 3
               sample_count: 1
               value: 1.1587311029434204e+00
               Tn: 0
               complexity: 0
               alpha: 0.
               node_risk: 0.
               tree_risk: 0.
               tree_error: 0.
            -
               depth: 3
               sample_count: 38
               value: 8.9979308843612671e-01
               Tn: 0
               complexity: 0
               alpha: 0.
               node_risk: 4.2240117141822964e-06
               tree_risk: 0.
               tree_error: 0.
            -
               depth: 1
               sample_count: 69
               value: -6.0841750947461609e-02
               Tn: 0
               complexity: 0
               alpha: 0.
               node_risk: 1.8139372445746538e-02
               tree_risk: 0.
               tree_error: 0.
               splits:
                  - { var:0, quality:2.5875130295753479e-01,
                      le:3.8670465350151062e-02 }
            -
               depth: 2
               sample_count: 35
               value: -6.7691599684102197e-02
               Tn: 0
               complexity: 0
               alpha: 0.
               node_risk: 1.4763886406751969e-02
               tree_risk: 0.
               tree_error: 0.
               splits:
                  - { var:3, quality:1.7274576425552368e-01,
                      le:7.6475036144256592e-01 }
            -
               depth: 3
               sample_count: 8
               value: -8.3761137723922729e-01
               Tn: 0
               complexity: 0
               alpha: 0.
               node_risk: 1.9360112927296891e-03
               tree_risk: 0.
               tree_error: 0.
            -
               depth: 3
               sample_count: 27
               value: -7.9596966505050659e-01
               Tn: 0
               complexity: 0
               alpha: 0.
               node_risk: 4.5745900431319597e-04
               tree_risk: 0.
               tree_error: 0.
            -
               depth: 2
               sample_count: 34
               value: -5.3790436071508074e-02
               Tn: 0
               complexity: 0
               alpha: 0.
               node_risk: 4.2755658660159623e-05
               tree_risk: 0.
               tree_error: 0.
               splits:
                  - { var:3, quality:9.8401099443435669e-02,
                      le:8.2776057720184326e-01 }
            -
               depth: 3
               sample_count: 24
               value: -7.9218173027038574e-01
               Tn: 0
               complexity: 0
               alpha: 0.
               node_risk: 1.5284129864359675e-05
               tree_risk: 0.
               tree_error: 0.
            -
               depth: 3
               sample_count: 10
               value: -7.9375690221786499e-01
               Tn: 0
               complexity: 0
               alpha: 0.
               node_risk: 2.3500380601226833e-06
               tree_risk: 0.
               tree_error: 0.
      -
         best_tree_idx: -1
         nodes:
            -
               depth: 0
               sample_count: 152
               value: -6.4100646168777813e-04
               Tn: 0
               complexity: 0
               alpha: 0.
               node_risk: 1.5315190105083551e+00
               tree_risk: 0.
               tree_error: 0.
               splits:
                  - { var:3, quality:4.7611242532730103e-01,
                      le:-3.1305208802223206e-01 }
            -
               depth: 1
               sample_count: 78
               value: 5.3868597898727812e-02
               Tn: 0
               complexity: 0
               alpha: 0.
               node_risk: 1.0415214288808021e+00
               tree_risk: 0.
               tree_error: 0.
               splits:
                  - { var:0, quality:1.0387216806411743e+00,
                      le:-1.8143142759799957e-01 }
            -
               depth: 2
               sample_count: 42
               value: -4.0615496181306388e-02
               Tn: 0
               complexity: 0
               alpha: 0.
               node_risk: 2.2913773527490972e-01
               tree_risk: 0.
               tree_error: 0.
               splits:
                  - { var:1, quality:2.9384738206863403e-01,
                      le:-1.2180416584014893e+00 }
            -
               depth: 3
               sample_count: 2
               value: 1.0529899597167969e+00
               Tn: 0
               complexity: 0
               alpha: 0.
               node_risk: 7.7262548900769445e-04
               tree_risk: 0.
               tree_error: 0.
            -
               depth: 3
               sample_count: 40
               value: -7.9671484231948853e-01
               Tn: 0
               complexity: 0
               alpha: 0.
               node_risk: 3.8016995795350783e-03
               tree_risk: 0.
               tree_error: 0.
            -
               depth: 2
               sample_count: 36
               value: 1.6410004099210104e-01
               Tn: 0
               complexity: 0
               alpha: 0.
               node_risk: 4.4865005399685742e-06
               tree_risk: 0.
               tree_error: 0.
               splits:
                  - { var:3, quality:9.6944200992584229e-01,
                      le:-9.2900770902633667e-01 }
            -
               depth: 3
               sample_count: 29
               value: 8.9742058515548706e-01
               Tn: 0
               complexity: 0
               alpha: 0.
               node_risk: 1.4655048508060986e-08
               tree_risk: 0.
               tree_error: 0.
            -
               depth: 3
               sample_count: 7
               value: 8.9647495746612549e-01
               Tn: 0
               complexity: 0
               alpha: 0.
               node_risk: 8.9071167691523456e-08
               tree_risk: 0.
               tree_error: 0.
            -
               depth: 1
               sample_count: 74
               value: -5.8097075922666372e-02
               Tn: 0
               complexity: 0
               alpha: 0.
               node_risk: 1.3947624235334161e-02
               tree_risk: 0.
               tree_error: 0.
               splits:
                  - { var:0, quality:2.5185629725456238e-01,
                      le:3.8670465350151062e-02 }
            -
               depth: 2
               sample_count: 35
               value: -6.3701999187469480e-02
               Tn: 0
               complexity: 0
               alpha: 0.
               node_risk: 1.1812983547065309e-02
               tree_risk: 0.
               tree_error: 0.
               splits:
                  - { var:3, quality:1.5280313789844513e-01,
                      le:6.2503910064697266e-01 }
            -
               depth: 3
               sample_count: 4
               value: -8.4512329101562500e-01
               Tn: 0
               complexity: 0
               alpha: 0.
               node_risk: 3.5001137492080003e-06
               tree_risk: 0.
               tree_error: 0.
            -
               depth: 3
               sample_count: 31
               value: -7.9616200923919678e-01
               Tn: 0
               complexity: 0
               alpha: 0.
               node_risk: 1.0344114590458697e-03
               tree_risk: 0.
               tree_error: 0.
            -
               depth: 2
               sample_count: 39
               value: -5.3067016582458444e-02
               Tn: 0
               complexity: 0
               alpha: 0.
               node_risk: 4.8351538443000552e-05
               tree_risk: 0.
               tree_error: 0.
               splits:
                  - { var:3, quality:1.0985565185546875e-01,
                      le:8.4673655033111572e-01 }
            -
               depth: 3
               sample_count: 28
               value: -7.9160207509994507e-01
               Tn: 0
               complexity: 0
               alpha: 0.
               node_risk: 1.8940400490413678e-05
               tree_risk: 0.
               tree_error: 0.
            -
               depth: 3
               sample_count: 11
               value: -7.9315418004989624e-01
               Tn: 0
               complexity: 0
               alpha: 0.
               node_risk: 1.9815672962081310e-06
               tree_risk: 0.
               tree_error: 0.
      -
         best_tree_idx: -1
         nodes:
            -
               depth: 0
               sample_count: 152
               value: -5.2992286356656174e-04
               Tn: 0
               complexity: 0
               alpha: 0.
               node_risk: 1.5251142881079767e+00
               tree_risk: 0.
               tree_error: 0.
               splits:
                  - { var:3, quality:4.7205415368080139e-01,
                      le:-2.1775263547897339e-01 }
            -
               depth: 1
               sample_count: 78
               value: 5.3747977201755233e-02
               Tn: 0
               complexity: 0
               alpha: 0.
               node_risk: 1.0392986138896450e+00
               tree_risk: 0.
               tree_error: 0.
               splits:
                  - { var:1, quality:1.1268336772918701e+00,
                      le:-4.6542203426361084e-01 }
            -
               depth: 2
               sample_count: 41
               value: -4.8380161203989171e-02
               Tn: 0
               complexity: 0
               alpha: 0.
               node_risk: 1.0316977309674448e-01
               tree_risk: 0.
               tree_error: 0.
               splits:
                  - { var:0, quality:1.9542416930198669e-01,
                      le:-1.1072268486022949e+00 }
            -
               depth: 3
               sample_count: 1
               value: 1.0178042650222778e+00
               Tn: 0
               complexity: 0
               alpha: 0.
               node_risk: 0.
               tree_risk: 0.
               tree_error: 0.
            -
               depth: 3
               sample_count: 40
               value: -7.9602605104446411e-01
               Tn: 0
               complexity: 0
               alpha: 0.
               node_risk: 3.7118450916276968e-03
               tree_risk: 0.
               tree_error: 0.
            -
               depth: 2
               sample_count: 37
               value: 1.6691699543514768e-01
               Tn: 0
               complexity: 0
               alpha: 0.
               node_risk: 3.4625030517095645e-02
               tree_risk: 0.
               tree_error: 0.
               splits:
                  - { var:0, quality:1.0654884576797485e+00,
                      le:-2.3151321709156036e-01 }
            -
               depth: 3
               sample_count: 1
               value: 1.1546498537063599e+00
               Tn: 0
               complexity: 0
               alpha: 0.
               node_risk: 0.
               tree_risk: 0.
               tree_error: 0.
            -
               depth: 3
               sample_count: 36
               value: 8.9479529857635498e-01
               Tn: 0
               complexity: 0
               alpha: 0.
               node_risk: 4.0758325929868278e-06
               tree_risk: 0.
               tree_error: 0.
            -
               depth: 1
               sample_count: 74
               value: -5.7741763472959805e-02
               Tn: 0
               complexity: 0
               alpha: 0.
               node_risk: 1.3804212011565065e-02
               tree_risk: 0.
               tree_error: 0.
               splits:
                  - { var:0, quality:2.4869297444820404e-01,
                      le:3.8670465350151062e-02 }
            -
               depth: 2
               sample_count: 38
               value: -6.2762164265701650e-02
               Tn: 0
               complexity: 0
               alpha: 0.
               node_risk: 1.1787246919397226e-02
               tree_risk: 0.
               tree_error: 0.
               splits:
                  - { var:3, quality:1.5944197773933411e-01,
                      le:7.6475036144256592e-01 }
            -
               depth: 3
               sample_count: 6
               value: -8.3555841445922852e-01
               Tn: 0
               complexity: 0
               alpha: 0.
               node_risk: 1.5742259052597546e-03
               tree_risk: 0.
               tree_error: 0.
            -
               depth: 3
               sample_count: 32
               value: -7.9455828666687012e-01
               Tn: 0
               complexity: 0
               alpha: 0.
               node_risk: 4.5643553250369895e-04
               tree_risk: 0.
               tree_error: 0.
            -
               depth: 2
               sample_count: 36
               value: -5.2442451525065631e-02
               Tn: 0
               complexity: 0
               alpha: 0.
               node_risk: 4.8219519257666765e-05
               tree_risk: 0.
               tree_error: 0.
               splits:
                  - { var:3, quality:9.9036440253257751e-02,
                      le:8.4673655033111572e-01 }
            -
               depth: 3
               sample_count: 25
               value: -7.9102450609207153e-01
               Tn: 0
               complexity: 0
               alpha: 0.
               node_risk: 1.7976512752787555e-05
               tree_risk: 0.
               tree_error: 0.
            -
               depth: 3
               sample_count: 11
               value: -7.9263961315155029e-01
               Tn: 0
               complexity: 0
               alpha: 0.
               node_risk: 1.3891146723385428e-06
               tree_risk: 0.
               tree_error: 0.
      -
         best_tree_idx: -1
         nodes:
            -
               depth: 0
               sample_count: 152
               value: 1.9656940559415440e-03
               Tn: 0
               complexity: 0
               alpha: 0.
               node_risk: 1.5688642559374406e+00
               tree_risk: 0.
               tree_error: 0.
               splits:
                  - { var:3, quality:5.0698423385620117e-01,
                      le:-1.8568448722362518e-01 }
            -
               depth: 1
               sample_count: 78
               value: 5.8185883105183259e-02
               Tn: 0
               complexity: 0
               alpha: 0.
               node_risk: 1.0480674352107049e+00
               tree_risk: 0.
               tree_error: 0.
               splits:
                  - { var:1, quality:1.0604456663131714e+00,
                      le:-4.6542203426361084e-01 }
            -
               depth: 2
               sample_count: 41
               value: -3.7802537676037813e-02
               Tn: 0
               complexity: 0
               alpha: 0.
               node_risk: 2.1785772139009990e-01
               tree_risk: 0.
               tree_error: 0.
               splits:
                  - { var:1, quality:2.7436679601669312e-01,
                      le:-1.1974571943283081e+00 }
            -
               depth: 3
               sample_count: 2
               value: 1.0476797819137573e+00
               Tn: 0
               complexity: 0
               alpha: 0.
               node_risk: 8.9449565388299845e-04
               tree_risk: 0.
               tree_error: 0.
            -
               depth: 3
               sample_count: 39
               value: -7.9347610473632812e-01
               Tn: 0
               complexity: 0
               alpha: 0.
               node_risk: 1.1867242427343327e-03
               tree_risk: 0.
               tree_error: 0.
            -
               depth: 2
               sample_count: 37
               value: 1.6455143045734716e-01
               Tn: 0
               complexity: 0
               alpha: 0.
               node_risk: 3.3840562383181672e-02
               tree_risk: 0.
               tree_error: 0.
               splits:
                  - { var:0, quality:1.0356914997100830e+00,
                      le:-2.3151321709156036e-01 }
            -
               depth: 3
               sample_count: 1
               value: 1.1467794179916382e+00
               Tn: 0
               complexity: 0
               alpha: 0.
               node_risk: 0.
               tree_risk: 0.
               tree_error: 0.
            -
               depth: 3
               sample_count: 36
               value: 8.9233887195587158e-01
               Tn: 0
               complexity: 0
               alpha: 0.
               node_risk: 4.4743815521552932e-06
               tree_risk: 0.
               tree_error: 0.
            -
               depth: 1
               sample_count: 74
               value: -5.7293424131097018e-02
               Tn: 0
               complexity: 0
               alpha: 0.
               node_risk: 1.4399878967002039e-02
               tree_risk: 0.
               tree_error: 0.
               splits:
                  - { var:2, quality:2.4488164484500885e-01,
                      le:-1.7586896196007729e-02 }
            -
               depth: 2
               sample_count: 40
               value: -6.2055119033902886e-02
               Tn: 0
               complexity: 0
               alpha: 0.
               node_risk: 1.2381128060552665e-02
               tree_risk: 0.
               tree_error: 0.
               splits:
                  - { var:3, quality:1.6444431245326996e-01,
                      le:7.6475036144256592e-01 }
            -
               depth: 3
               sample_count: 7
               value: -8.3291941881179810e-01
               Tn: 0
               complexity: 0
               alpha: 0.
               node_risk: 1.6780776347434245e-03
               tree_risk: 0.
               tree_error: 0.
            -
               depth: 3
               sample_count: 33
               value: -7.9347193241119385e-01
               Tn: 0
               complexity: 0
               alpha: 0.
               node_risk: 2.9224735418457992e-04
               tree_risk: 0.
               tree_error: 0.
            -
               depth: 2
               sample_count: 34
               value: -5.1691430127796006e-02
               Tn: 0
               complexity: 0
               alpha: 0.
               node_risk: 4.4801920910636506e-05
               tree_risk: 0.
               tree_error: 0.
               splits:
                  - { var:3, quality:9.0877473354339600e-02,
                      le:8.2776057720184326e-01 }
            -
               depth: 3
               sample_count: 22
               value: -7.9031735658645630e-01
               Tn: 0
               complexity: 0
               alpha: 0.
               node_risk: 9.8509077243319476e-06
               tree_risk: 0.
               tree_error: 0.
            -
               depth: 3
               sample_count: 12
               value: -7.9193955659866333e-01
               Tn: 0
               complexity: 0
               alpha: 0.
               node_risk: 5.6135944056651121e-06
               tree_risk: 0.
               tree_error: 0.
      -
         best_tree_idx: -1
         nodes:
            -
               depth: 0
               sample_count: 152
               value: -2.9568264113837167e-03
               Tn: 0
               complexity: 0
               alpha: 0.
               node_risk: 1.4792670650537003e+00
               tree_risk: 0.
               tree_error: 0.
               splits:
                  - { var:3, quality:4.7252526879310608e-01,
                      le:-2.1775263547897339e-01 }
            -
               depth: 1
               sample_count: 74
               value: 5.4205593929902929e-02
               Tn: 0
               complexity: 0
               alpha: 0.
               node_risk: 9.9087195737781553e-01
               tree_risk: 0.
               tree_error: 0.
               splits:
                  - { var:1, quality:9.5872282981872559e-01,
                      le:-4.6542203426361084e-01 }
            -
               depth: 2
               sample_count: 40
               value: -3.8070336170494559e-02
               Tn: 0
               complexity: 0
               alpha: 0.
               node_risk: 2.1586396816728398e-01
               tree_risk: 0.
               tree_error: 0.
               splits:
                  - { var:1, quality:2.6923564076423645e-01,
                      le:-1.2180416584014893e+00 }
            -
               depth: 3
               sample_count: 2
               value: 1.0420846939086914e+00
               Tn: 0
               complexity: 0
               alpha: 0.
               node_risk: 8.8049842234916298e-04
               tree_risk: 0.
               tree_error: 0.
            -
               depth: 3
               sample_count: 38
               value: -7.9493957757949829e-01
               Tn: 0
               complexity: 0
               alpha: 0.
               node_risk: 3.7218351341233302e-03
               tree_risk: 0.
               tree_error: 0.
            -
               depth: 2
               sample_count: 34
               value: 1.6276551169507644e-01
               Tn: 0
               complexity: 0
               alpha: 0.
               node_risk: 3.3715402838631725e-02
               tree_risk: 0.
               tree_error: 0.
               splits:
                  - { var:0, quality:9.3446081876754761e-01,
                      le:-2.3151321709156036e-01 }
            -
               depth: 3
               sample_count: 1
               value: 1.1426893472671509e+00
               Tn: 0
               complexity: 0
               alpha: 0.
               node_risk: 0.
               tree_risk: 0.
               tree_error: 0.
            -
               depth: 3
               sample_count: 33
               value: 8.8998025655746460e-01
               Tn: 0
               complexity: 0
               alpha: 0.
               node_risk: 3.3648402115726839e-06
               tree_risk: 0.
               tree_error: 0.
            -
               depth: 1
               sample_count: 78
               value: -5.7187840581322327e-02
               Tn: 0
               complexity: 0
               alpha: 0.
               node_risk: 1.7198751493408160e-02
               tree_risk: 0.
               tree_error: 0.
               splits:
                  - { var:3, quality:2.5890499353408813e-01,
                      le:2.8126892447471619e-01 }
            -
               depth: 2
               sample_count: 7
               value: -8.2292634248733521e-01
               Tn: 0
               complexity: 0
               alpha: 0.
               node_risk: 5.1008299905528562e-03
               tree_risk: 0.
               tree_error: 0.
            -
               depth: 2
               sample_count: 71
               value: -5.4993352682237893e-02
               Tn: 0
               complexity: 0
               alpha: 0.
               node_risk: 8.2879538175632261e-03
               tree_risk: 0.
               tree_error: 0.
               splits:
                  - { var:0, quality:2.1574574708938599e-01,
                      le:1.5481616556644440e-01 }
            -
               depth: 3
               sample_count: 38
               value: -7.9938477277755737e-01
               Tn: 0
               complexity: 0
               alpha: 0.
               node_risk: 7.2249313798832260e-03
               tree_risk: 0.
               tree_error: 0.
            -
               depth: 3
               sample_count: 33
               value: -7.9025959968566895e-01
               Tn: 0
               complexity: 0
               alpha: 0.
               node_risk: 4.0368771774670908e-05
               tree_risk: 0.
               tree_error: 0.
      -
         best_tree_idx: -1
         nodes:
            -
               depth: 0
               sample_count: 152
               value: 5.1819165972502605e-03
               Tn: 0
               complexity: 0
               alpha: 0.
               node_risk: 1.5137311376597029e+00
               tree_risk: 0.
               tree_error: 0.
               splits:
                  - { var:3, quality:4.4522905349731445e-01,
                      le:-2.1775263547897339e-01 }
            -
               depth: 1
               sample_count: 84
               value: 5.3653246856161525e-02
               Tn: 0
               complexity: 0
               alpha: 0.
               node_risk: 1.0639595712284939e+00
               tree_risk: 0.
               tree_error: 0.
               splits:
                  - { var:1, quality:1.0630388259887695e+00,
                      le:-4.6542203426361084e-01 }
            -
               depth: 2
               sample_count: 45
               value: -3.8395719561311936e-02
               Tn: 0
               complexity: 0
               alpha: 0.
               node_risk: 2.0893230641837274e-01
               tree_risk: 0.
               tree_error: 0.
               splits:
                  - { var:1, quality:2.7179571986198425e-01,
                      le:-1.2180416584014893e+00 }
            -
               depth: 3
               sample_count: 2
               value: 1.0366111993789673e+00
               Tn: 0
               complexity: 0
               alpha: 0.
               node_risk: 8.6663886804672075e-04
               tree_risk: 0.
               tree_error: 0.
            -
               depth: 3
               sample_count: 43
               value: -7.9290759563446045e-01
               Tn: 0
               complexity: 0
               alpha: 0.
               node_risk: 2.6103430031309688e-03
               tree_risk: 0.
               tree_error: 0.
            -
               depth: 2
               sample_count: 39
               value: 1.5986359272247705e-01
               Tn: 0
               complexity: 0
               alpha: 0.
               node_risk: 3.3796849783836791e-02
               tree_risk: 0.
               tree_error: 0.
               splits:
                  - { var:0, quality:1.0304918289184570e+00,
                      le:-2.3151321709156036e-01 }
            -
               depth: 3
               sample_count: 1
               value: 1.1386435031890869e+00
               Tn: 0
               complexity: 0
               alpha: 0.
               node_risk: 0.
               tree_risk: 0.
               tree_error: 0.
            -
               depth: 3
               sample_count: 38
               value: 8.8766741752624512e-01
               Tn: 0
               complexity: 0
               alpha: 0.
               node_risk: 3.3901914894274299e-06
               tree_risk: 0.
               tree_error: 0.
            -
               depth: 1
               sample_count: 68
               value: -5.4694432546110713e-02
               Tn: 0
               complexity: 0
               alpha: 0.
               node_risk: 8.6240497392959248e-03
               tree_risk: 0.
               tree_error: 0.
               splits:
                  - { var:3, quality:2.0648206770420074e-01,
                      le:2.3868733644485474e-01 }
            -
               depth: 2
               sample_count: 5
               value: -8.2138770818710327e-01
               Tn: 0
               complexity: 0
               alpha: 0.
               node_risk: 3.2973373585410276e-03
               tree_risk: 0.
               tree_error: 0.
            -
               depth: 2
               sample_count: 63
               value: -5.2804189423720040e-02
               Tn: 0
               complexity: 0
               alpha: 0.
               node_risk: 2.2653496486517155e-03
               tree_risk: 0.
               tree_error: 0.
               splits:
                  - { var:0, quality:1.7605073750019073e-01,
                      le:9.5785871148109436e-02 }
            -
               depth: 3
               sample_count: 33
               value: -7.9464769363403320e-01
               Tn: 0
               complexity: 0
               alpha: 0.
               node_risk: 1.8430438212935357e-03
               tree_risk: 0.
               tree_error: 0.
            -
               depth: 3
               sample_count: 30
               value: -7.8965681791305542e-01
               Tn: 0
               complexity: 0
               alpha: 0.
               node_risk: 3.3355034531570849e-05
               tree_risk: 0.
               tree_error: 0.
      -
         best_tree_idx: -1
         nodes:
            -
               depth: 0
               sample_count: 152
               value: 1.0012039473574412e-03
               Tn: 0
               complexity: 0
               alpha: 0.
               node_risk: 1.4153050747719493e+00
               tree_risk: 0.
               tree_error: 0.
               splits:
                  - { var:3, quality:4.5064574480056763e-01,
                      le:-2.1775263547897339e-01 }
            -
               depth: 1
               sample_count: 78
               value: 5.4027460849820040e-02
               Tn: 0
               complexity: 0
               alpha: 0.
               node_risk: 9.5061995221967632e-01
               tree_risk: 0.
               tree_error: 0.
               splits:
                  - { var:1, quality:1.0256310701370239e+00,
                      le:-4.6542203426361084e-01 }
            -
               depth: 2
               sample_count: 40
               value: -4.4555713701993224e-02
               Tn: 0
               complexity: 0
               alpha: 0.
               node_risk: 1.1965130373967323e-01
               tree_risk: 0.
               tree_error: 0.
               splits:
                  - { var:1, quality:1.9549961388111115e-01,
                      le:-1.2180416584014893e+00 }
            -
               depth: 3
               sample_count: 1
               value: 1.0591422319412231e+00
               Tn: 0
               complexity: 0
               alpha: 0.
               node_risk: 0.
               tree_risk: 0.
               tree_error: 0.
            -
               depth: 3
               sample_count: 39
               value: -7.9356575012207031e-01
               Tn: 0
               complexity: 0
               alpha: 0.
               node_risk: 3.5601479316560991e-03
               tree_risk: 0.
               tree_error: 0.
            -
               depth: 2
               sample_count: 38
               value: 1.5779922353593925e-01
               Tn: 0
               complexity: 0
               alpha: 0.
               node_risk: 3.3016964514070546e-02
               tree_risk: 0.
               tree_error: 0.
               splits:
                  - { var:0, quality:9.7923606634140015e-01,
                      le:-2.3151321709156036e-01 }
            -
               depth: 3
               sample_count: 1
               value: 1.1313729286193848e+00
               Tn: 0
               complexity: 0
               alpha: 0.
               node_risk: 0.
               tree_risk: 0.
               tree_error: 0.
            -
               depth: 3
               sample_count: 37
               value: 8.8543027639389038e-01
               Tn: 0
               complexity: 0
               alpha: 0.
               node_risk: 3.5144131160791403e-06
               tree_risk: 0.
               tree_error: 0.
            -
               depth: 1
               sample_count: 74
               value: -5.4891337111995030e-02
               Tn: 0
               complexity: 0
               alpha: 0.
               node_risk: 1.4191741898284260e-02
               tree_risk: 0.
               tree_error: 0.
               splits:
                  - { var:3, quality:2.2579286992549896e-01,
                      le:2.8126892447471619e-01 }
            -
               depth: 2
               sample_count: 9
               value: -8.1632256507873535e-01
               Tn: 0
               complexity: 0
               alpha: 0.
               node_risk: 6.2710371170864587e-03
               tree_risk: 0.
               tree_error: 0.
            -
               depth: 2
               sample_count: 65
               value: -5.2591619755213079e-02
               Tn: 0
               complexity: 0
               alpha: 0.
               node_risk: 5.0941884900407020e-03
               tree_risk: 0.
               tree_error: 0.
               splits:
                  - { var:1, quality:1.8038688600063324e-01,
                      le:-8.9616060256958008e-02 }
            -
               depth: 3
               sample_count: 33
               value: -7.9619568586349487e-01
               Tn: 0
               complexity: 0
               alpha: 0.
               node_risk: 4.4492561709126438e-03
               tree_risk: 0.
               tree_error: 0.
            -
               depth: 3
               sample_count: 32
               value: -7.8907448053359985e-01
               Tn: 0
               complexity: 0
               alpha: 0.
               node_risk: 4.0145707676020326e-05
               tree_risk: 0.
               tree_error: 0.
      -
         best_tree_idx: -1
         nodes:
            -
               depth: 0
               sample_count: 152
               value: 9.2160147859861980e-04
               Tn: 0
               complexity: 0
               alpha: 0.
               node_risk: 1.3162688463562628e+00
               tree_risk: 0.
               tree_error: 0.
               splits:
                  - { var:0, quality:4.1625449061393738e-01,
                      le:-7.5619511306285858e-02 }
            -
               depth: 1
               sample_count: 83
               value: -4.6784706413745880e-02
               Tn: 0
               complexity: 0
               alpha: 0.
               node_risk: 2.1806947494041912e-01
               tree_risk: 0.
               tree_error: 0.
               splits:
                  - { var:1, quality:3.8562652468681335e-01,
                      le:-1.2180416584014893e+00 }
            -
               depth: 2
               sample_count: 2
               value: 1.0275088548660278e+00
               Tn: 0
               complexity: 0
               alpha: 0.
               node_risk: 7.4986431002344034e-04
               tree_risk: 0.
               tree_error: 0.
            -
               depth: 2
               sample_count: 81
               value: -5.4574053504584746e-02
               Tn: 0
               complexity: 0
               alpha: 0.
               node_risk: 1.3364201317001972e-02
               tree_risk: 0.
               tree_error: 0.
               splits:
                  - { var:0, quality:2.4688357114791870e-01,
                      le:-3.2409077882766724e-01 }
            -
               depth: 3
               sample_count: 76
               value: -7.9250639677047729e-01
               Tn: 0
               complexity: 0
               alpha: 0.
               node_risk: 4.7879346605981532e-03
               tree_risk: 0.
               tree_error: 0.
            -
               depth: 3
               sample_count: 5
               value: -8.2767581939697266e-01
               Tn: 0
               complexity: 0
               alpha: 0.
               node_risk: 2.9372060763030589e-03
               tree_risk: 0.
               tree_error: 0.
            -
               depth: 1
               sample_count: 69
               value: 5.8307450102723160e-02
               Tn: 0
               complexity: 0
               alpha: 0.
               node_risk: 6.8207399302069660e-01
               tree_risk: 0.
               tree_error: 0.
               splits:
                  - { var:1, quality:9.1662377119064331e-01,
                      le:5.3833818435668945e-01 }
            -
               depth: 2
               sample_count: 37
               value: 1.5076761149071358e-01
               Tn: 0
               complexity: 0
               alpha: 0.
               node_risk: 3.9661009846314599e-06
               tree_risk: 0.
               tree_error: 0.
               splits:
                  - { var:3, quality:8.4104615449905396e-01,
                      le:-9.4335150718688965e-01 }
            -
               depth: 3
               sample_count: 31
               value: 8.8329851627349854e-01
               Tn: 0
               complexity: 0
               alpha: 0.
               node_risk: 2.3827384509900185e-11
               tree_risk: 0.
               tree_error: 0.
            -
               depth: 3
               sample_count: 6
               value: 8.8238650560379028e-01
               Tn: 0
               complexity: 0
               alpha: 0.
               node_risk: 9.3061385569859212e-08
               tree_risk: 0.
               tree_error: 0.
            -
               depth: 2
               sample_count: 32
               value: -4.8599611502140760e-02
               Tn: 0
               complexity: 0
               alpha: 0.
               node_risk: 2.9579224105263924e-05
               tree_risk: 0.
               tree_error: 0.
               splits:
                  - { var:2, quality:7.5605064630508423e-02,
                      le:2.8202819824218750e+00 }
            -
               depth: 3
               sample_count: 23
               value: -7.8787046670913696e-01
               Tn: 0
               complexity: 0
               alpha: 0.
               node_risk: 4.3472112737780177e-06
               tree_risk: 0.
               tree_error: 0.
            -
               depth: 3
               sample_count: 9
               value: -7.8945279121398926e-01
               Tn: 0
               complexity: 0
               alpha: 0.
               node_risk: 1.6777277957041870e-06
               tree_risk: 0.
               tree_error: 0.
      -
         best_tree_idx: -1
         nodes:
            -
               depth: 0
               sample_count: 152
               value: 5.7018270078850420e-03
               Tn: 0
               complexity: 0
               alpha: 0.
               node_risk: 1.4318842886213048e+00
               tree_risk: 0.
               tree_error: 0.
               splits:
                  - { var:3, quality:4.5155003666877747e-01,
                      le:-2.1775263547897339e-01 }
            -
               depth: 1
               sample_count: 83
               value: 5.5124604109540044e-02
               Tn: 0
               complexity: 0
               alpha: 0.
               node_risk: 9.7162559354253419e-01
               tree_risk: 0.
               tree_error: 0.
               splits:
                  - { var:1, quality:9.9538272619247437e-01,
                      le:-4.6542203426361084e-01 }
            -
               depth: 2
               sample_count: 43
               value: -3.6139598592769266e-02
               Tn: 0
               complexity: 0
               alpha: 0.
               node_risk: 1.9519289708750556e-01
               tree_risk: 0.
               tree_error: 0.
               splits:
                  - { var:1, quality:2.4816493690013885e-01,
                      le:-1.2180416584014893e+00 }
            -
               depth: 3
               sample_count: 2
               value: 1.0242861509323120e+00
               Tn: 0
               complexity: 0
               alpha: 0.
               node_risk: 7.3099896806816389e-04
               tree_risk: 0.
               tree_error: 0.
            -
               depth: 3
               sample_count: 41
               value: -7.9120266437530518e-01
               Tn: 0
               complexity: 0
               alpha: 0.
               node_risk: 2.4579994724077264e-03
               tree_risk: 0.
               tree_error: 0.
            -
               depth: 2
               sample_count: 40
               value: 1.5323362201452256e-01
               Tn: 0
               complexity: 0
               alpha: 0.
               node_risk: 3.3263868803628860e-02
               tree_risk: 0.
               tree_error: 0.
               splits:
                  - { var:0, quality:9.7248119115829468e-01,
                      le:-2.3151321709156036e-01 }
            -
               depth: 3
               sample_count: 1
               value: 1.1249629259109497e+00
               Tn: 0
               complexity: 0
               alpha: 0.
               node_risk: 0.
               tree_risk: 0.
               tree_error: 0.
            -
               depth: 3
               sample_count: 39
               value: 8.8091963529586792e-01
               Tn: 0
               complexity: 0
               alpha: 0.
               node_risk: 4.3831164324714678e-06
               tree_risk: 0.
               tree_error: 0.
            -
               depth: 1
               sample_count: 69
               value: -5.3748759940482567e-02
               Tn: 0
               complexity: 0
               alpha: 0.
               node_risk: 1.3650302767387074e-02
               tree_risk: 0.
               tree_error: 0.
               splits:
                  - { var:3, quality:2.0149794220924377e-01,
                      le:2.8126892447471619e-01 }
            -
               depth: 2
               sample_count: 6
               value: -8.1575083732604980e-01
               Tn: 0
               complexity: 0
               alpha: 0.
               node_risk: 3.7590394906760680e-03
               tree_risk: 0.
               tree_error: 0.
            -
               depth: 2
               sample_count: 63
               value: -5.2021365317087322e-02
               Tn: 0
               complexity: 0
               alpha: 0.
               node_risk: 7.7294333887258371e-03
               tree_risk: 0.
               tree_error: 0.
               splits:
                  - { var:0, quality:1.7137061059474945e-01,
                      le:1.2941838800907135e-01 }
            -
               depth: 3
               sample_count: 34
               value: -7.9709875583648682e-01
               Tn: 0
               complexity: 0
               alpha: 0.
               node_risk: 6.8224310911186581e-03
               tree_risk: 0.
               tree_error: 0.
            -
               depth: 3
               sample_count: 29
               value: -7.8781366348266602e-01
               Tn: 0
               complexity: 0
               alpha: 0.
               node_risk: 2.8402285157186347e-05
               tree_risk: 0.
               tree_error: 0.
      -
         best_tree_idx: -1
         nodes:
            -
               depth: 0
               sample_count: 152
               value: -1.3255421072244644e-04
               Tn: 0
               complexity: 0
               alpha: 0.
               node_risk: 1.3358532528661358e+00
               tree_risk: 0.
               tree_error: 0.
               splits:
                  - { var:3, quality:3.8347551226615906e-01,
                      le:-2.1775263547897339e-01 }
            -
               depth: 1
               sample_count: 81
               value: 4.6892811670715427e-02
               Tn: 0
               complexity: 0
               alpha: 0.
               node_risk: 9.3592343778772535e-01
               tree_risk: 0.
               tree_error: 0.
               splits:
                  - { var:1, quality:8.8936239480972290e-01,
                      le:-4.6542203426361084e-01 }
            -
               depth: 2
               sample_count: 45
               value: -3.6920536557833353e-02
               Tn: 0
               complexity: 0
               alpha: 0.
               node_risk: 1.9227692403410196e-01
               tree_risk: 0.
               tree_error: 0.
               splits:
                  - { var:1, quality:2.4931505322456360e-01,
                      le:-1.2180416584014893e+00 }
            -
               depth: 3
               sample_count: 2
               value: 1.0192028284072876e+00
               Tn: 0
               complexity: 0
               alpha: 0.
               node_risk: 7.1902189717576448e-04
               tree_risk: 0.
               tree_error: 0.
            -
               depth: 3
               sample_count: 43
               value: -7.9155492782592773e-01
               Tn: 0
               complexity: 0
               alpha: 0.
               node_risk: 3.5835127935391065e-03
               tree_risk: 0.
               tree_error: 0.
            -
               depth: 2
               sample_count: 36
               value: 1.5165949695640141e-01
               Tn: 0
               complexity: 0
               alpha: 0.
               node_risk: 3.2397932949025265e-02
               tree_risk: 0.
               tree_error: 0.
               splits:
                  - { var:0, quality:8.6041682958602905e-01,
                      le:-2.3151321709156036e-01 }
            -
               depth: 3
               sample_count: 1
               value: 1.1179487705230713e+00
               Tn: 0
               complexity: 0
               alpha: 0.
               node_risk: 0.
               tree_risk: 0.
               tree_error: 0.
            -
               depth: 3
               sample_count: 35
               value: 8.7882679700851440e-01
               Tn: 0
               complexity: 0
               alpha: 0.
               node_risk: 2.8203194614162541e-06
               tree_risk: 0.
               tree_error: 0.
            -
               depth: 1
               sample_count: 71
               value: -5.3781211061376920e-02
               Tn: 0
               complexity: 0
               alpha: 0.
               node_risk: 1.6456962026050570e-02
               tree_risk: 0.
               tree_error: 0.
               splits:
                  - { var:3, quality:2.0878897607326508e-01,
                      le:2.8126892447471619e-01 }
            -
               depth: 2
               sample_count: 6
               value: -8.2188701629638672e-01
               Tn: 0
               complexity: 0
               alpha: 0.
               node_risk: 4.9745754628017294e-03
               tree_risk: 0.
               tree_error: 0.
            -
               depth: 2
               sample_count: 65
               value: -5.1670333112661657e-02
               Tn: 0
               complexity: 0
               alpha: 0.
               node_risk: 8.0551293346107500e-03
               tree_risk: 0.
               tree_error: 0.
               splits:
                  - { var:0, quality:1.7451742291450500e-01,
                      le:1.2941838800907135e-01 }
            -
               depth: 3
               sample_count: 35
               value: -7.9694461822509766e-01
               Tn: 0
               complexity: 0
               alpha: 0.
               node_risk: 7.0454568523614786e-03
               tree_risk: 0.
               tree_error: 0.
            -
               depth: 3
               sample_count: 30
               value: -7.8740179538726807e-01
               Tn: 0
               complexity: 0
               alpha: 0.
               node_risk: 3.0770159977919209e-05
               tree_risk: 0.
               tree_error: 0.
      -
         best_tree_idx: -1
         nodes:
            -
               depth: 0
               sample_count: 152
               value: -2.8433744599552532e-03
               Tn: 0
               complexity: 0
               alpha: 0.
               node_risk: 1.1894666921764141e+00
               tree_risk: 0.
               tree_error: 0.
               splits:
                  - { var:3, quality:3.2451787590980530e-01,
                      le:-1.8568448722362518e-01 }
            -
               depth: 1
               sample_count: 80
               value: 4.0908323414623735e-02
               Tn: 0
               complexity: 0
               alpha: 0.
               node_risk: 8.5491133855898960e-01
               tree_risk: 0.
               tree_error: 0.
               splits:
                  - { var:1, quality:8.7042009830474854e-01,
                      le:-4.6542203426361084e-01 }
            -
               depth: 2
               sample_count: 45
               value: -4.3713267313109504e-02
               Tn: 0
               complexity: 0
               alpha: 0.
               node_risk: 8.6027175954667495e-02
               tree_risk: 0.
               tree_error: 0.
               splits:
                  - { var:0, quality:1.6852205991744995e-01,
                      le:-1.1072268486022949e+00 }
            -
               depth: 3
               sample_count: 1
               value: 9.8731458187103271e-01
               Tn: 0
               complexity: 0
               alpha: 0.
               node_risk: 0.
               tree_risk: 0.
               tree_error: 0.
            -
               depth: 3
               sample_count: 44
               value: -7.9093241691589355e-01
               Tn: 0
               complexity: 0
               alpha: 0.
               node_risk: 3.4933580509555751e-03
               tree_risk: 0.
               tree_error: 0.
            -
               depth: 2
               sample_count: 35
               value: 1.4970751149313791e-01
               Tn: 0
               complexity: 0
               alpha: 0.
               node_risk: 3.2343333397146123e-02
               tree_risk: 0.
               tree_error: 0.
               splits:
                  - { var:0, quality:8.1677180528640747e-01,
                      le:-2.3151321709156036e-01 }
            -
               depth: 3
               sample_count: 1
               value: 1.1143351793289185e+00
               Tn: 0
               complexity: 0
               alpha: 0.
               node_risk: 0.
               tree_risk: 0.
               tree_error: 0.
            -
               depth: 3
               sample_count: 34
               value: 8.7667530775070190e-01
               Tn: 0
               complexity: 0
               alpha: 0.
               node_risk: 3.3952713561768988e-06
               tree_risk: 0.
               tree_error: 0.
            -
               depth: 1
               sample_count: 72
               value: -5.1456372098376356e-02
               Tn: 0
               complexity: 0
               alpha: 0.
               node_risk: 1.1266373428443444e-02
               tree_risk: 0.
               tree_error: 0.
               splits:
                  - { var:3, quality:1.9281274080276489e-01,
                      le:2.8126892447471619e-01 }
            -
               depth: 2
               sample_count: 6
               value: -8.1449550390243530e-01
               Tn: 0
               complexity: 0
               alpha: 0.
               node_risk: 3.9730625665305649e-03
               tree_risk: 0.
               tree_error: 0.
            -
               depth: 2
               sample_count: 66
               value: -4.9799524247646332e-02
               Tn: 0
               complexity: 0
               alpha: 0.
               node_risk: 5.1191561799417973e-03
               tree_risk: 0.
               tree_error: 0.
               splits:
                  - { var:0, quality:1.6435915231704712e-01,
                      le:1.2941838800907135e-01 }
            -
               depth: 3
               sample_count: 32
               value: -7.9424095153808594e-01
               Tn: 0
               complexity: 0
               alpha: 0.
               node_risk: 4.4099083000575523e-03
               tree_risk: 0.
               tree_error: 0.
            -
               depth: 3
               sample_count: 34
               value: -7.8674489259719849e-01
               Tn: 0
               complexity: 0
               alpha: 0.
               node_risk: 2.9605470484500573e-05
               tree_risk: 0.
               tree_error: 0.
      -
         best_tree_idx: -1
         nodes:
            -
               depth: 0
               sample_count: 152
               value: -5.8364569160499066e-04
               Tn: 0
               complexity: 0
               alpha: 0.
               node_risk: 1.1383644464067426e+00
               tree_risk: 0.
               tree_error: 0.
               splits:
                  - { var:0, quality:3.8946712017059326e-01,
                      le:-9.2776104807853699e-02 }
            -
               depth: 1
               sample_count: 79
               value: -4.9239221630217156e-02
               Tn: 0
               complexity: 0
               alpha: 0.
               node_risk: 1.0016843060788946e-01
               tree_risk: 0.
               tree_error: 0.
               splits:
                  - { var:0, quality:2.7554789185523987e-01,
                      le:-1.1072268486022949e+00 }
            -
               depth: 2
               sample_count: 1
               value: 9.8524653911590576e-01
               Tn: 0
               complexity: 0
               alpha: 0.
               node_risk: 0.
               tree_risk: 0.
               tree_error: 0.
            -
               depth: 2
               sample_count: 78
               value: -5.2931637718127325e-02
               Tn: 0
               complexity: 0
               alpha: 0.
               node_risk: 1.6156113486608670e-02
               tree_risk: 0.
               tree_error: 0.
               splits:
                  - { var:0, quality:2.2429914772510529e-01,
                      le:-3.0883741378784180e-01 }
            -
               depth: 3
               sample_count: 74
               value: -7.9205709695816040e-01
               Tn: 0
               complexity: 0
               alpha: 0.
               node_risk: 8.1608607043192338e-03
               tree_risk: 0.
               tree_error: 0.
            -
               depth: 3
               sample_count: 4
               value: -8.2974696159362793e-01
               Tn: 0
               complexity: 0
               alpha: 0.
               node_risk: 2.2332466849308563e-03
               tree_risk: 0.
               tree_error: 0.
            -
               depth: 1
               sample_count: 73
               value: 5.2071018680317764e-02
               Tn: 0
               complexity: 0
               alpha: 0.
               node_risk: 6.4878067662657912e-01
               tree_risk: 0.
               tree_error: 0.
               splits:
                  - { var:1, quality:8.4666734933853149e-01,
                      le:4.1874265670776367e-01 }
            -
               depth: 2
               sample_count: 38
               value: 1.4254313079934372e-01
               Tn: 0
               complexity: 0
               alpha: 0.
               node_risk: 3.3973113302554481e-06
               tree_risk: 0.
               tree_error: 0.
               splits:
                  - { var:3, quality:7.7210795879364014e-01,
                      le:-8.9606118202209473e-01 }
            -
               depth: 3
               sample_count: 33
               value: 8.7479639053344727e-01
               Tn: 0
               complexity: 0
               alpha: 0.
               node_risk: 2.3218895917054283e-08
               tree_risk: 0.
               tree_error: 0.
            -
               depth: 3
               sample_count: 5
               value: 8.7390923500061035e-01
               Tn: 0
               complexity: 0
               alpha: 0.
               node_risk: 8.4095046301579934e-08
               tree_risk: 0.
               tree_error: 0.
            -
               depth: 2
               sample_count: 35
               value: -4.6155845906053268e-02
               Tn: 0
               complexity: 0
               alpha: 0.
               node_risk: 4.1470180276240165e-05
               tree_risk: 0.
               tree_error: 0.
               splits:
                  - { var:3, quality:7.4582658708095551e-02,
                      le:8.2776057720184326e-01 }
            -
               depth: 3
               sample_count: 23
               value: -7.8585767745971680e-01
               Tn: 0
               complexity: 0
               alpha: 0.
               node_risk: 1.9599874925987915e-05
               tree_risk: 0.
               tree_error: 0.
            -
               depth: 3
               sample_count: 12
               value: -7.8715801239013672e-01
               Tn: 0
               complexity: 0
               alpha: 0.
               node_risk: 1.8855815630096362e-06
               tree_risk: 0.
               tree_error: 0.
      -
         best_tree_idx: -1
         nodes:
            -
               depth: 0
               sample_count: 152
               value: 6.7496994559309983e-03
               Tn: 0
               complexity: 0
               alpha: 0.
               node_risk: 1.3096601952813431e+00
               tree_risk: 0.
               tree_error: 0.
               splits:
                  - { var:3, quality:4.9293199181556702e-01,
                      le:-2.1775263547897339e-01 }
            -
               depth: 1
               sample_count: 78
               value: 6.1826420947909355e-02
               Tn: 0
               complexity: 0
               alpha: 0.
               node_risk: 8.0772491514809874e-01
               tree_risk: 0.
               tree_error: 0.
               splits:
                  - { var:1, quality:8.9654123783111572e-01,
                      le:-4.6542203426361084e-01 }
            -
               depth: 2
               sample_count: 37
               value: -3.0374315844194311e-02
               Tn: 0
               complexity: 0
               alpha: 0.
               node_risk: 1.7606087183596680e-01
               tree_risk: 0.
               tree_error: 0.
               splits:
                  - { var:0, quality:2.0921699702739716e-01,
                      le:-8.2366353273391724e-01 }
            -
               depth: 3
               sample_count: 2
               value: 1.0125036239624023e+00
               Tn: 0
               complexity: 0
               alpha: 0.
               node_risk: 9.6345119352925224e-04
               tree_risk: 0.
               tree_error: 0.
            -
               depth: 3
               sample_count: 35
               value: -7.8684657812118530e-01
               Tn: 0
               complexity: 0
               alpha: 0.
               node_risk: 1.6585795982237972e-05
               tree_risk: 0.
               tree_error: 0.
            -
               depth: 2
               sample_count: 41
               value: 1.4503196390663706e-01
               Tn: 0
               complexity: 0
               alpha: 0.
               node_risk: 3.3278278765557223e-02
               tree_risk: 0.
               tree_error: 0.
               splits:
                  - { var:0, quality:8.9567989110946655e-01,
                      le:-2.3151321709156036e-01 }
            -
               depth: 3
               sample_count: 1
               value: 1.1114528179168701e+00
               Tn: 0
               complexity: 0
               alpha: 0.
               node_risk: 0.
               tree_risk: 0.
               tree_error: 0.
            -
               depth: 3
               sample_count: 40
               value: 8.7262898683547974e-01
               Tn: 0
               complexity: 0
               alpha: 0.
               node_risk: 3.4627466901637760e-06
               tree_risk: 0.
               tree_error: 0.
            -
               depth: 1
               sample_count: 74
               value: -5.1304142116694838e-02
               Tn: 0
               complexity: 0
               alpha: 0.
               node_risk: 1.5928160030332622e-02
               tree_risk: 0.
               tree_error: 0.
               splits:
                  - { var:3, quality:1.9790396094322205e-01,
                      le:2.8126892447471619e-01 }
            -
               depth: 2
               sample_count: 8
               value: -8.1492632627487183e-01
               Tn: 0
               complexity: 0
               alpha: 0.
               node_risk: 5.4271851425081175e-03
               tree_risk: 0.
               tree_error: 0.
            -
               depth: 2
               sample_count: 66
               value: -4.9040790421493126e-02
               Tn: 0
               complexity: 0
               alpha: 0.
               node_risk: 7.3735293607113672e-03
               tree_risk: 0.
               tree_error: 0.
               splits:
                  - { var:0, quality:1.5953378379344940e-01,
                      le:1.2941838800907135e-01 }
            -
               depth: 3
               sample_count: 36
               value: -7.9424661397933960e-01
               Tn: 0
               complexity: 0
               alpha: 0.
               node_risk: 6.5472779316952529e-03
               tree_risk: 0.
               tree_error: 0.
            -
               depth: 3
               sample_count: 30
               value: -7.8553307056427002e-01
               Tn: 0
               complexity: 0
               alpha: 0.
               node_risk: 2.2409862325302454e-05
               tree_risk: 0.
               tree_error: 0.
      -
         best_tree_idx: -1
         nodes:
            -
               depth: 0
               sample_count: 152
               value: 2.7520131613863142e-03
               Tn: 0
               complexity: 0
               alpha: 0.
               node_risk: 1.2320482043109968e+00
               tree_risk: 0.
               tree_error: 0.
               splits:
                  - { var:3, quality:4.2080071568489075e-01,
                      le:-1.8568448722362518e-01 }
            -
               depth: 1
               sample_count: 76
               value: 5.5295825004577637e-02
               Tn: 0
               complexity: 0
               alpha: 0.
               node_risk: 7.9910116947517729e-01
               tree_risk: 0.
               tree_error: 0.
               splits:
                  - { var:1, quality:8.2103979587554932e-01,
                      le:-4.6542203426361084e-01 }
            -
               depth: 2
               sample_count: 38
               value: -3.2712851700029875e-02
               Tn: 0
               complexity: 0
               alpha: 0.
               node_risk: 1.7800419006316576e-01
               tree_risk: 0.
               tree_error: 0.
               splits:
                  - { var:1, quality:2.1403622627258301e-01,
                      le:-1.2180416584014893e+00 }
            -
               depth: 3
               sample_count: 2
               value: 1.0076903104782104e+00
               Tn: 0
               complexity: 0
               alpha: 0.
               node_risk: 9.4693958475211559e-04
               tree_risk: 0.
               tree_error: 0.
            -
               depth: 3
               sample_count: 36
               value: -7.9008811712265015e-01
               Tn: 0
               complexity: 0
               alpha: 0.
               node_risk: 3.6859895761276462e-03
               tree_risk: 0.
               tree_error: 0.
            -
               depth: 2
               sample_count: 38
               value: 1.4330450170918516e-01
               Tn: 0
               complexity: 0
               alpha: 0.
               node_risk: 3.2436914089505997e-02
               tree_risk: 0.
               tree_error: 0.
               splits:
                  - { var:0, quality:8.1280797719955444e-01,
                      le:-2.3151321709156036e-01 }
            -
               depth: 3
               sample_count: 1
               value: 1.1045836210250854e+00
               Tn: 0
               complexity: 0
               alpha: 0.
               node_risk: 0.
               tree_risk: 0.
               tree_error: 0.
            -
               depth: 3
               sample_count: 37
               value: 8.7057697772979736e-01
               Tn: 0
               complexity: 0
               alpha: 0.
               node_risk: 3.7658570979370865e-06
               tree_risk: 0.
               tree_error: 0.
            -
               depth: 1
               sample_count: 76
               value: -4.9791798681805007e-02
               Tn: 0
               complexity: 0
               alpha: 0.
               node_risk: 1.3297506057887903e-02
               tree_risk: 0.
               tree_error: 0.
               splits:
                  - { var:3, quality:1.9074431061744690e-01,
                      le:2.1105712652206421e-01 }
            -
               depth: 2
               sample_count: 4
               value: -8.1900358200073242e-01
               Tn: 0
               complexity: 0
               alpha: 0.
               node_risk: 3.2240196312260209e-03
               tree_risk: 0.
               tree_error: 0.
            -
               depth: 2
               sample_count: 72
               value: -4.8488589779784284e-02
               Tn: 0
               complexity: 0
               alpha: 0.
               node_risk: 7.7501389175873014e-03
               tree_risk: 0.
               tree_error: 0.
               splits:
                  - { var:0, quality:1.7027552425861359e-01,
                      le:9.5785871148109436e-02 }
            -
               depth: 3
               sample_count: 37
               value: -7.9414802789688110e-01
               Tn: 0
               complexity: 0
               alpha: 0.
               node_risk: 6.7293112030987617e-03
               tree_risk: 0.
               tree_error: 0.
            -
               depth: 3
               sample_count: 35
               value: -7.8508341312408447e-01
               Tn: 0
               complexity: 0
               alpha: 0.
               node_risk: 2.7624017570823667e-05
               tree_risk: 0.
               tree_error: 0.
      -
         best_tree_idx: -1
         nodes:
            -
               depth: 0
               sample_count: 152
               value: -3.7501531800157145e-04
               Tn: 0
               complexity: 0
               alpha: 0.
               node_risk: 1.1057418528678593e+00
               tree_risk: 0.
               tree_error: 0.
               splits:
                  - { var:3, quality:3.1448152661323547e-01,
                      le:-2.1775263547897339e-01 }
            -
               depth: 1
               sample_count: 81
               value: 4.2209105129227223e-02
               Tn: 0
               complexity: 0
               alpha: 0.
               node_risk: 7.8059126522780531e-01
               tree_risk: 0.
               tree_error: 0.
               splits:
                  - { var:1, quality:8.1474196910858154e-01,
                      le:-4.6542203426361084e-01 }
            -
               depth: 2
               sample_count: 44
               value: -4.1218402456830845e-02
               Tn: 0
               complexity: 0
               alpha: 0.
               node_risk: 7.8277243335969651e-02
               tree_risk: 0.
               tree_error: 0.
               splits:
                  - { var:0, quality:1.4938896894454956e-01,
                      le:-1.1072268486022949e+00 }
            -
               depth: 3
               sample_count: 1
               value: 9.7257733345031738e-01
               Tn: 0
               complexity: 0
               alpha: 0.
               node_risk: 0.
               tree_risk: 0.
               tree_error: 0.
            -
               depth: 3
               sample_count: 43
               value: -7.8887784481048584e-01
               Tn: 0
               complexity: 0
               alpha: 0.
               node_risk: 3.6423764108720197e-03
               tree_risk: 0.
               tree_error: 0.
            -
               depth: 2
               sample_count: 37
               value: 1.4142019523156657e-01
               Tn: 0
               complexity: 0
               alpha: 0.
               node_risk: 3.1882370148981209e-02
               tree_risk: 0.
               tree_error: 0.
               splits:
                  - { var:0, quality:7.7186650037765503e-01,
                      le:-2.3151321709156036e-01 }
            -
               depth: 3
               sample_count: 1
               value: 1.0989602804183960e+00
               Tn: 0
               complexity: 0
               alpha: 0.
               node_risk: 0.
               tree_risk: 0.
               tree_error: 0.
            -
               depth: 3
               sample_count: 36
               value: 8.6858719587326050e-01
               Tn: 0
               complexity: 0
               alpha: 0.
               node_risk: 3.7371069991909422e-06
               tree_risk: 0.
               tree_error: 0.
            -
               depth: 1
               sample_count: 71
               value: -4.8956899208502033e-02
               Tn: 0
               complexity: 0
               alpha: 0.
               node_risk: 1.0690434777808039e-02
               tree_risk: 0.
               tree_error: 0.
               splits:
                  - { var:3, quality:1.7345936596393585e-01,
                      le:2.8126892447471619e-01 }
            -
               depth: 2
               sample_count: 8
               value: -8.1342762708663940e-01
               Tn: 0
               complexity: 0
               alpha: 0.
               node_risk: 5.4016482539091179e-03
               tree_risk: 0.
               tree_error: 0.
            -
               depth: 2
               sample_count: 63
               value: -4.6531851743421858e-02
               Tn: 0
               complexity: 0
               alpha: 0.
               node_risk: 2.0006533557865858e-03
               tree_risk: 0.
               tree_error: 0.
               splits:
                  - { var:0, quality:1.3678018748760223e-01,
                      le:1.2941838800907135e-01 }
            -
               depth: 3
               sample_count: 31
               value: -7.8952038288116455e-01
               Tn: 0
               complexity: 0
               alpha: 0.
               node_risk: 1.6044504795669906e-03
               tree_risk: 0.
               tree_error: 0.
            -
               depth: 3
               sample_count: 32
               value: -7.8464871644973755e-01
               Tn: 0
               complexity: 0
               alpha: 0.
               node_risk: 2.4443811177207730e-05
               tree_risk: 0.
               tree_error: 0.
      -
         best_tree_idx: -1
         nodes:
            -
               depth: 0
               sample_count: 152
               value: 2.6489518778888802e-03
               Tn: 0
               complexity: 0
               alpha: 0.
               node_risk: 1.1690245113581186e+00
               tree_risk: 0.
               tree_error: 0.
               splits:
                  - { var:3, quality:3.2937926054000854e-01,
                      le:-2.1775263547897339e-01 }
            -
               depth: 1
               sample_count: 84
               value: 4.4464409972230591e-02
               Tn: 0
               complexity: 0
               alpha: 0.
               node_risk: 8.2788699893975992e-01
               tree_risk: 0.
               tree_error: 0.
               splits:
                  - { var:1, quality:7.9093635082244873e-01,
                      le:-4.7052299976348877e-01 }
            -
               depth: 2
               sample_count: 46
               value: -3.3926383470711502e-02
               Tn: 0
               complexity: 0
               alpha: 0.
               node_risk: 1.7181144825225256e-01
               tree_risk: 0.
               tree_error: 0.
               splits:
                  - { var:1, quality:2.2013294696807861e-01,
                      le:-1.2180416584014893e+00 }
            -
               depth: 3
               sample_count: 2
               value: 1.0013235807418823e+00
               Tn: 0
               complexity: 0
               alpha: 0.
               node_risk: 1.0688167186305719e-03
               tree_risk: 0.
               tree_error: 0.
            -
               depth: 3
               sample_count: 44
               value: -7.8823494911193848e-01
               Tn: 0
               complexity: 0
               alpha: 0.
               node_risk: 3.5556579826759999e-03
               tree_risk: 0.
               tree_error: 0.
            -
               depth: 2
               sample_count: 38
               value: 1.3935852835052892e-01
               Tn: 0
               complexity: 0
               alpha: 0.
               node_risk: 3.1214231137071891e-02
               tree_risk: 0.
               tree_error: 0.
               splits:
                  - { var:0, quality:7.6920050382614136e-01,
                      le:-2.3151321709156036e-01 }
            -
               depth: 3
               sample_count: 1
               value: 1.0927883386611938e+00
               Tn: 0
               complexity: 0
               alpha: 0.
               node_risk: 0.
               tree_risk: 0.
               tree_error: 0.
            -
               depth: 3
               sample_count: 37
               value: 8.6669921875000000e-01
               Tn: 0
               complexity: 0
               alpha: 0.
               node_risk: 4.1291179538882616e-06
               tree_risk: 0.
               tree_error: 0.
            -
               depth: 1
               sample_count: 68
               value: -4.9005437532768530e-02
               Tn: 0
               complexity: 0
               alpha: 0.
               node_risk: 1.2824815138254952e-02
               tree_risk: 0.
               tree_error: 0.
               splits:
                  - { var:3, quality:1.6656965017318726e-01,
                      le:4.3389421701431274e-01 }
            -
               depth: 2
               sample_count: 15
               value: -6.2031317005554837e-02
               Tn: 0
               complexity: 0
               alpha: 0.
               node_risk: 9.0608335743815258e-03
               tree_risk: 0.
               tree_error: 0.
               splits:
                  - { var:0, quality:6.5348513424396515e-02,
                      le:2.1513871848583221e-02 }
            -
               depth: 3
               sample_count: 6
               value: -8.2625091075897217e-01
               Tn: 0
               complexity: 0
               alpha: 0.
               node_risk: 1.4154045307906357e-03
               tree_risk: 0.
               tree_error: 0.
            -
               depth: 3
               sample_count: 9
               value: -7.8423559665679932e-01
               Tn: 0
               complexity: 0
               alpha: 0.
               node_risk: 1.5183598132465642e-05
               tree_risk: 0.
               tree_error: 0.
            -
               depth: 2
               sample_count: 53
               value: -4.5318867870659196e-02
               Tn: 0
               complexity: 0
               alpha: 0.
               node_risk: 4.9856634198022776e-04
               tree_risk: 0.
               tree_error: 0.
               splits:
                  - { var:0, quality:1.0894825309514999e-01,
                      le:1.2941838800907135e-01 }
            -
               depth: 3
               sample_count: 32
               value: -7.8671789169311523e-01
               Tn: 0
               complexity: 0
               alpha: 0.
               node_risk: 3.8349898741629751e-04
               tree_risk: 0.
               tree_error: 0.
            -
               depth: 3
               sample_count: 21
               value: -7.8424805402755737e-01
               Tn: 0
               complexity: 0
               alpha: 0.
               node_risk: 1.8204922538574142e-05
               tree_risk: 0.
               tree_error: 0.
      -
         best_tree_idx: -1
         nodes:
            -
               depth: 0
               sample_count: 152
               value: -9.4231553865890751e-04
               Tn: 0
               complexity: 0
               alpha: 0.
               node_risk: 1.0293903925309729e+00
               tree_risk: 0.
               tree_error: 0.
               splits:
                  - { var:0, quality:3.0347102880477905e-01,
                      le:-9.2776104807853699e-02 }
            -
               depth: 1
               sample_count: 82
               value: -4.2216862302000932e-02
               Tn: 0
               complexity: 0
               alpha: 0.
               node_risk: 1.8621443272196966e-01
               tree_risk: 0.
               tree_error: 0.
               splits:
                  - { var:1, quality:3.1575194001197815e-01,
                      le:-1.2180416584014893e+00 }
            -
               depth: 2
               sample_count: 2
               value: 9.9675542116165161e-01
               Tn: 0
               complexity: 0
               alpha: 0.
               node_risk: 1.0498808511005819e-03
               tree_risk: 0.
               tree_error: 0.
            -
               depth: 2
               sample_count: 80
               value: -4.9407776631414893e-02
               Tn: 0
               complexity: 0
               alpha: 0.
               node_risk: 1.5558215501924266e-02
               tree_risk: 0.
               tree_error: 0.
               splits:
                  - { var:0, quality:2.0322087407112122e-01,
                      le:-3.0371868610382080e-01 }
            -
               depth: 3
               sample_count: 77
               value: -7.8908318281173706e-01
               Tn: 0
               complexity: 0
               alpha: 0.
               node_risk: 7.6253857032888839e-03
               tree_risk: 0.
               tree_error: 0.
            -
               depth: 3
               sample_count: 3
               value: -8.3320122957229614e-01
               Tn: 0
               complexity: 0
               alpha: 0.
               node_risk: 2.2331658403595966e-06
               tree_risk: 0.
               tree_error: 0.
            -
               depth: 1
               sample_count: 70
               value: 4.7407867812684606e-02
               Tn: 0
               complexity: 0
               alpha: 0.
               node_risk: 5.3983991043882240e-01
               tree_risk: 0.
               tree_error: 0.
               splits:
                  - { var:1, quality:6.9712835550308228e-01,
                      le:4.1874265670776367e-01 }
            -
               depth: 2
               sample_count: 36
               value: 1.3274868991639879e-01
               Tn: 0
               complexity: 0
               alpha: 0.
               node_risk: 3.7205712888344067e-06
               tree_risk: 0.
               tree_error: 0.
               splits:
                  - { var:3, quality:6.3440334796905518e-01,
                      le:-8.9606118202209473e-01 }
            -
               depth: 3
               sample_count: 30
               value: 8.6494278907775879e-01
               Tn: 0
               complexity: 0
               alpha: 0.
               node_risk: 2.0523148624995713e-08
               tree_risk: 0.
               tree_error: 0.
            -
               depth: 3
               sample_count: 6
               value: 8.6409437656402588e-01
               Tn: 0
               complexity: 0
               alpha: 0.
               node_risk: 7.5429445217656266e-08
               tree_risk: 0.
               tree_error: 0.
            -
               depth: 2
               sample_count: 34
               value: -4.2953002650071591e-02
               Tn: 0
               complexity: 0
               alpha: 0.
               node_risk: 3.3221876615446844e-05
               tree_risk: 0.
               tree_error: 0.
               splits:
                  - { var:3, quality:6.2743991613388062e-02,
                      le:8.2776057720184326e-01 }
            -
               depth: 3
               sample_count: 23
               value: -7.8329414129257202e-01
               Tn: 0
               complexity: 0
               alpha: 0.
               node_risk: 1.6388371740186369e-05
               tree_risk: 0.
               tree_error: 0.
            -
               depth: 3
               sample_count: 11
               value: -7.8445917367935181e-01
               Tn: 0
               complexity: 0
               alpha: 0.
               node_risk: 1.4958386523808431e-06
               tree_risk: 0.
               tree_error: 0.
      -
         best_tree_idx: -1
         nodes:
            -
               depth: 0
               sample_count: 152
               value: 7.7564357534835209e-04
               Tn: 0
               complexity: 0
               alpha: 0.
               node_risk: 1.0024765745466269e+00
               tree_risk: 0.
               tree_error: 0.
               splits:
                  - { var:0, quality:3.4355506300926208e-01,
                      le:-9.2776104807853699e-02 }
            -
               depth: 1
               sample_count: 79
               value: -4.4919122529180747e-02
               Tn: 0
               complexity: 0
               alpha: 0.
               node_risk: 1.1403282463027492e-01
               tree_risk: 0.
               tree_error: 0.
               splits:
                  - { var:1, quality:2.5652113556861877e-01,
                      le:-1.2180416584014893e+00 }
            -
               depth: 2
               sample_count: 1
               value: 1.0200529098510742e+00
               Tn: 0
               complexity: 0
               alpha: 0.
               node_risk: 0.
               tree_risk: 0.
               tree_error: 0.
            -
               depth: 2
               sample_count: 78
               value: -4.8889163117378183e-02
               Tn: 0
               complexity: 0
               alpha: 0.
               node_risk: 1.6912172990610930e-02
               tree_risk: 0.
               tree_error: 0.
               splits:
                  - { var:0, quality:1.9676086306571960e-01,
                      le:-3.0883741378784180e-01 }
            -
               depth: 3
               sample_count: 74
               value: -7.8792923688888550e-01
               Tn: 0
               complexity: 0
               alpha: 0.
               node_risk: 6.5803796188373676e-03
               tree_risk: 0.
               tree_error: 0.
            -
               depth: 3
               sample_count: 4
               value: -8.3184707164764404e-01
               Tn: 0
               complexity: 0
               alpha: 0.
               node_risk: 2.6490173603982425e-06
               tree_risk: 0.
               tree_error: 0.
            -
               depth: 1
               sample_count: 73
               value: 5.0226143880249700e-02
               Tn: 0
               complexity: 0
               alpha: 0.
               node_risk: 5.4498013504832243e-01
               tree_risk: 0.
               tree_error: 0.
               splits:
                  - { var:1, quality:7.2909951210021973e-01,
                      le:4.1874265670776367e-01 }
            -
               depth: 2
               sample_count: 39
               value: 1.3089799575316599e-01
               Tn: 0
               complexity: 0
               alpha: 0.
               node_risk: 2.8473903693759794e-06
               tree_risk: 0.
               tree_error: 0.
               splits:
                  - { var:3, quality:6.6823995113372803e-01,
                      le:-9.2900770902633667e-01 }
            -
               depth: 3
               sample_count: 34
               value: 8.6306220293045044e-01
               Tn: 0
               complexity: 0
               alpha: 0.
               node_risk: 2.0152249202709527e-08
               tree_risk: 0.
               tree_error: 0.
            -
               depth: 3
               sample_count: 5
               value: 8.6226320266723633e-01
               Tn: 0
               complexity: 0
               alpha: 0.
               node_risk: 5.0557673325624108e-10
               tree_risk: 0.
               tree_error: 0.
            -
               depth: 2
               sample_count: 34
               value: -4.2309215621036643e-02
               Tn: 0
               complexity: 0
               alpha: 0.
               node_risk: 3.2374185230832353e-05
               tree_risk: 0.
               tree_error: 0.
               splits:
                  - { var:3, quality:6.0877453535795212e-02,
                      le:8.2776057720184326e-01 }
            -
               depth: 3
               sample_count: 24
               value: -7.8279536962509155e-01
               Tn: 0
               complexity: 0
               alpha: 0.
               node_risk: 1.5985010054973825e-05
               tree_risk: 0.
               tree_error: 0.
            -
               depth: 3
               sample_count: 10
               value: -7.8398090600967407e-01
               Tn: 0
               complexity: 0
               alpha: 0.
               node_risk: 1.3057876753069797e-06
               tree_risk: 0.
               tree_error: 0.
      -
         best_tree_idx: -1
         nodes:
            -
               depth: 0
               sample_count: 152
               value: 3.6342934166130269e-03
               Tn: 0
               complexity: 0
               alpha: 0.
               node_risk: 1.1006908527270023e+00
               tree_risk: 0.
               tree_error: 0.
               splits:
                  - { var:3, quality:3.6774238944053650e-01,
                      le:-2.1775263547897339e-01 }
            -
               depth: 1
               sample_count: 79
               value: 5.0787280254726168e-02
               Tn: 0
               complexity: 0
               alpha: 0.
               node_risk: 7.2002235794722236e-01
               tree_risk: 0.
               tree_error: 0.
               splits:
                  - { var:1, quality:7.3401945829391479e-01,
                      le:-4.6542203426361084e-01 }
            -
               depth: 2
               sample_count: 40
               value: -3.0109178274869919e-02
               Tn: 0
               complexity: 0
               alpha: 0.
               node_risk: 1.5652808791252304e-01
               tree_risk: 0.
               tree_error: 0.
               splits:
                  - { var:1, quality:1.8955473601818085e-01,
                      le:-1.2180416584014893e+00 }
            -
               depth: 3
               sample_count: 2
               value: 9.8900079727172852e-01
               Tn: 0
               complexity: 0
               alpha: 0.
               node_risk: 9.2425579301114169e-04
               tree_risk: 0.
               tree_error: 0.
            -
               depth: 3
               sample_count: 38
               value: -7.8590333461761475e-01
               Tn: 0
               complexity: 0
               alpha: 0.
               node_risk: 2.3116012477062686e-03
               tree_risk: 0.
               tree_error: 0.
            -
               depth: 2
               sample_count: 39
               value: 1.3375800695174780e-01
               Tn: 0
               complexity: 0
               alpha: 0.
               node_risk: 3.3243271872830493e-02
               tree_risk: 0.
               tree_error: 0.
               splits:
                  - { var:0, quality:7.3099690675735474e-01,
                      le:-2.3036833107471466e-01 }
            -
               depth: 3
               sample_count: 1
               value: 1.0928542613983154e+00
               Tn: 0
               complexity: 0
               alpha: 0.
               node_risk: 0.
               tree_risk: 0.
               tree_error: 0.
            -
               depth: 3
               sample_count: 38
               value: 8.6110168695449829e-01
               Tn: 0
               complexity: 0
               alpha: 0.
               node_risk: 3.3207496897835753e-06
               tree_risk: 0.
               tree_error: 0.
            -
               depth: 1
               sample_count: 73
               value: -4.7394281380797085e-02
               Tn: 0
               complexity: 0
               alpha: 0.
               node_risk: 1.4933737979706818e-02
               tree_risk: 0.
               tree_error: 0.
               splits:
                  - { var:3, quality:1.6742864251136780e-01,
                      le:2.8126892447471619e-01 }
            -
               depth: 2
               sample_count: 7
               value: -8.1340140104293823e-01
               Tn: 0
               complexity: 0
               alpha: 0.
               node_risk: 4.5219520535991695e-03
               tree_risk: 0.
               tree_error: 0.
            -
               depth: 2
               sample_count: 66
               value: -4.5153895336570160e-02
               Tn: 0
               complexity: 0
               alpha: 0.
               node_risk: 6.9570530484379112e-03
               tree_risk: 0.
               tree_error: 0.
               splits:
                  - { var:0, quality:1.3535740971565247e-01,
                      le:1.2941838800907135e-01 }
            -
               depth: 3
               sample_count: 33
               value: -7.9151082038879395e-01
               Tn: 0
               complexity: 0
               alpha: 0.
               node_risk: 6.1410586732777994e-03
               tree_risk: 0.
               tree_error: 0.
            -
               depth: 3
               sample_count: 33
               value: -7.8264254331588745e-01
               Tn: 0
               complexity: 0
               alpha: 0.
               node_risk: 2.4291982661822642e-05
               tree_risk: 0.
               tree_error: 0.
      -
         best_tree_idx: -1
         nodes:
            -
               depth: 0
               sample_count: 152
               value: 1.8146315491513203e-04
               Tn: 0
               complexity: 0
               alpha: 0.
               node_risk: 9.8748307989030515e-01
               tree_risk: 0.
               tree_error: 0.
               splits:
                  - { var:3, quality:2.9063451290130615e-01,
                      le:-1.8568448722362518e-01 }
            -
               depth: 1
               sample_count: 80
               value: 4.1664381651207803e-02
               Tn: 0
               complexity: 0
               alpha: 0.
               node_risk: 6.8466014562820821e-01
               tree_risk: 0.
               tree_error: 0.
               splits:
                  - { var:1, quality:7.0167672634124756e-01,
                      le:-4.7164160013198853e-01 }
            -
               depth: 2
               sample_count: 43
               value: -3.6139249195193138e-02
               Tn: 0
               complexity: 0
               alpha: 0.
               node_risk: 8.9444335262331892e-02
               tree_risk: 0.
               tree_error: 0.
               splits:
                  - { var:1, quality:1.4457020163536072e-01,
                      le:-1.1974571943283081e+00 }
            -
               depth: 3
               sample_count: 1
               value: 1.0104025602340698e+00
               Tn: 0
               complexity: 0
               alpha: 0.
               node_risk: 0.
               tree_risk: 0.
               tree_error: 0.
            -
               depth: 3
               sample_count: 42
               value: -7.8427821397781372e-01
               Tn: 0
               complexity: 0
               alpha: 0.
               node_risk: 1.0340824678237298e-03
               tree_risk: 0.
               tree_error: 0.
            -
               depth: 2
               sample_count: 37
               value: 1.3208481749972781e-01
               Tn: 0
               complexity: 0
               alpha: 0.
               node_risk: 3.2412753427562002e-02
               tree_risk: 0.
               tree_error: 0.
               splits:
                  - { var:0, quality:6.7792582511901855e-01,
                      le:-2.3151321709156036e-01 }
            -
               depth: 3
               sample_count: 1
               value: 1.0864219665527344e+00
               Tn: 0
               complexity: 0
               alpha: 0.
               node_risk: 0.
               tree_risk: 0.
               tree_error: 0.
            -
               depth: 3
               sample_count: 36
               value: 8.5925710201263428e-01
               Tn: 0
               complexity: 0
               alpha: 0.
               node_risk: 3.7123989029552718e-06
               tree_risk: 0.
               tree_error: 0.
            -
               depth: 1
               sample_count: 72
               value: -4.5910668507632285e-02
               Tn: 0
               complexity: 0
               alpha: 0.
               node_risk: 1.2193440818265205e-02
               tree_risk: 0.
               tree_error: 0.
               splits:
                  - { var:3, quality:1.5445078909397125e-01,
                      le:2.8126892447471619e-01 }
            -
               depth: 2
               sample_count: 7
               value: -8.1160032749176025e-01
               Tn: 0
               complexity: 0
               alpha: 0.
               node_risk: 5.1334748702588848e-03
               tree_risk: 0.
               tree_error: 0.
            -
               depth: 2
               sample_count: 65
               value: -4.3904818594455719e-02
               Tn: 0
               complexity: 0
               alpha: 0.
               node_risk: 4.3700130149763594e-03
               tree_risk: 0.
               tree_error: 0.
               splits:
                  - { var:0, quality:1.2578631937503815e-01,
                      le:1.2941838800907135e-01 }
            -
               depth: 3
               sample_count: 33
               value: -7.8874111175537109e-01
               Tn: 0
               complexity: 0
               alpha: 0.
               node_risk: 3.8585172061997991e-03
               tree_risk: 0.
               tree_error: 0.
            -
               depth: 3
               sample_count: 32
               value: -7.8217262029647827e-01
               Tn: 0
               complexity: 0
               alpha: 0.
               node_risk: 2.1326255967644980e-05
               tree_risk: 0.
               tree_error: 0.
      -
         best_tree_idx: -1
         nodes:
            -
               depth: 0
               sample_count: 152
               value: -7.9240929335355759e-04
               Tn: 0
               complexity: 0
               alpha: 0.
               node_risk: 9.1906245685050381e-01
               tree_risk: 0.
               tree_error: 0.
               splits:
                  - { var:0, quality:2.8502023220062256e-01,
                      le:-7.5619511306285858e-02 }
            -
               depth: 1
               sample_count: 84
               value: -3.9746954682327452e-02
               Tn: 0
               complexity: 0
               alpha: 0.
               node_risk: 1.6822191859011942e-01
               tree_risk: 0.
               tree_error: 0.
               splits:
                  - { var:1, quality:2.8641059994697571e-01,
                      le:-1.2180416584014893e+00 }
            -
               depth: 2
               sample_count: 2
               value: 9.8152917623519897e-01
               Tn: 0
               complexity: 0
               alpha: 0.
               node_risk: 8.1010815695670146e-04
               tree_risk: 0.
               tree_error: 0.
            -
               depth: 2
               sample_count: 82
               value: -4.6427522854107180e-02
               Tn: 0
               complexity: 0
               alpha: 0.
               node_risk: 1.3706121092352253e-02
               tree_risk: 0.
               tree_error: 0.
               splits:
                  - { var:0, quality:1.8159846961498260e-01,
                      le:-3.0883741378784180e-01 }
            -
               depth: 3
               sample_count: 77
               value: -7.8638660907745361e-01
               Tn: 0
               complexity: 0
               alpha: 0.
               node_risk: 6.1706769318419508e-03
               tree_risk: 0.
               tree_error: 0.
            -
               depth: 3
               sample_count: 5
               value: -8.1843590736389160e-01
               Tn: 0
               complexity: 0
               alpha: 0.
               node_risk: 2.6891908713907731e-03
               tree_risk: 0.
               tree_error: 0.
            -
               depth: 1
               sample_count: 68
               value: 4.7327911481261253e-02
               Tn: 0
               complexity: 0
               alpha: 0.
               node_risk: 4.6591574485888376e-01
               tree_risk: 0.
               tree_error: 0.
               splits:
                  - { var:1, quality:6.1820632219314575e-01,
                      le:4.9870157241821289e-01 }
            -
               depth: 2
               sample_count: 36
               value: 1.2536686658859253e-01
               Tn: 0
               complexity: 0
               alpha: 0.
               node_risk: 2.7411230192342373e-06
               tree_risk: 0.
               tree_error: 0.
               splits:
                  - { var:3, quality:5.6580936908721924e-01,
                      le:-9.2900770902633667e-01 }
            -
               depth: 3
               sample_count: 31
               value: 8.5761070251464844e-01
               Tn: 0
               complexity: 0
               alpha: 0.
               node_risk: 1.8680360203138235e-08
               tree_risk: 0.
               tree_error: 0.
            -
               depth: 3
               sample_count: 5
               value: 8.5683166980743408e-01
               Tn: 0
               complexity: 0
               alpha: 0.
               node_risk: 4.6684789367645863e-10
               tree_risk: 0.
               tree_error: 0.
            -
               depth: 2
               sample_count: 32
               value: -4.0465913014486432e-02
               Tn: 0
               complexity: 0
               alpha: 0.
               node_risk: 2.1997396193809693e-05
               tree_risk: 0.
               tree_error: 0.
               splits:
                  - { var:2, quality:5.2418332546949387e-02,
                      le:2.8202819824218750e+00 }
            -
               depth: 3
               sample_count: 22
               value: -7.8121268749237061e-01
               Tn: 0
               complexity: 0
               alpha: 0.
               node_risk: 2.5768647278073820e-06
               tree_risk: 0.
               tree_error: 0.
            -
               depth: 3
               sample_count: 10
               value: -7.8255432844161987e-01
               Tn: 0
               complexity: 0
               alpha: 0.
               node_risk: 7.7132431568899262e-07
               tree_risk: 0.
               tree_error: 0.
      -
         best_tree_idx: -1
         nodes:
            -
               depth: 0
               sample_count: 152
               value: -2.6467256247997284e-05
               Tn: 0
               complexity: 0
               alpha: 0.
               node_risk: 9.1415824716601812e-01
               tree_risk: 0.
               tree_error: 0.
               splits:
                  - { var:0, quality:2.8017204999923706e-01,
                      le:-7.5619511306285858e-02 }
            -
               depth: 1
               sample_count: 82
               value: -3.9693765932830367e-02
               Tn: 0
               complexity: 0
               alpha: 0.
               node_risk: 1.6702057969986664e-01
               tree_risk: 0.
               tree_error: 0.
               splits:
                  - { var:1, quality:2.7931889891624451e-01,
                      le:-1.2180416584014893e+00 }
            -
               depth: 2
               sample_count: 2
               value: 9.7737342119216919e-01
               Tn: 0
               complexity: 0
               alpha: 0.
               node_risk: 7.9518729465810623e-04
               tree_risk: 0.
               tree_error: 0.
            -
               depth: 2
               sample_count: 80
               value: -4.6458995016291735e-02
               Tn: 0
               complexity: 0
               alpha: 0.
               node_risk: 1.6105287875594815e-02
               tree_risk: 0.
               tree_error: 0.
               splits:
                  - { var:0, quality:1.8091475963592529e-01,
                      le:-3.2409077882766724e-01 }
            -
               depth: 3
               sample_count: 75
               value: -7.8601735830307007e-01
               Tn: 0
               complexity: 0
               alpha: 0.
               node_risk: 6.5230961066262416e-03
               tree_risk: 0.
               tree_error: 0.
            -
               depth: 3
               sample_count: 5
               value: -8.2317662239074707e-01
               Tn: 0
               complexity: 0
               alpha: 0.
               node_risk: 1.3424834453635917e-03
               tree_risk: 0.
               tree_error: 0.
            -
               depth: 1
               sample_count: 70
               value: 4.6440939764891352e-02
               Tn: 0
               complexity: 0
               alpha: 0.
               node_risk: 4.6696571748500548e-01
               tree_risk: 0.
               tree_error: 0.
               splits:
                  - { var:1, quality:6.1790633201599121e-01,
                      le:4.1874265670776367e-01 }
            -
               depth: 2
               sample_count: 37
               value: 1.2357290693231530e-01
               Tn: 0
               complexity: 0
               alpha: 0.
               node_risk: 3.2267747742675823e-06
               tree_risk: 0.
               tree_error: 0.
               splits:
                  - { var:3, quality:5.6500285863876343e-01,
                      le:-9.2900770902633667e-01 }
            -
               depth: 3
               sample_count: 32
               value: 8.5585957765579224e-01
               Tn: 0
               complexity: 0
               alpha: 0.
               node_risk: 1.8256128941906979e-08
               tree_risk: 0.
               tree_error: 0.
            -
               depth: 3
               sample_count: 5
               value: 8.5502851009368896e-01
               Tn: 0
               complexity: 0
               alpha: 0.
               node_risk: 7.0179989111740504e-08
               tree_risk: 0.
               tree_error: 0.
            -
               depth: 2
               sample_count: 33
               value: -4.0040356756159752e-02
               Tn: 0
               complexity: 0
               alpha: 0.
               node_risk: 2.9414040173897371e-05
               tree_risk: 0.
               tree_error: 0.
               splits:
                  - { var:3, quality:5.2919793874025345e-02,
                      le:8.6461186408996582e-01 }
            -
               depth: 3
               sample_count: 24
               value: -7.8098130226135254e-01
               Tn: 0
               complexity: 0
               alpha: 0.
               node_risk: 1.5849361921810301e-05
               tree_risk: 0.
               tree_error: 0.
            -
               depth: 3
               sample_count: 9
               value: -7.8212511539459229e-01
               Tn: 0
               complexity: 0
               alpha: 0.
               node_risk: 3.6477707049398234e-07
               tree_risk: 0.
               tree_error: 0.
      -
         best_tree_idx: -1
         nodes:
            -
               depth: 0
               sample_count: 152
               value: -2.0366615468734190e-04
               Tn: 0
               complexity: 0
               alpha: 0.
               node_risk: 9.2246407748500814e-01
               tree_risk: 0.
               tree_error: 0.
               splits:
                  - { var:3, quality:2.7938833832740784e-01,
                      le:-2.1775263547897339e-01 }
            -
               depth: 1
               sample_count: 78
               value: 4.1554940768923514e-02
               Tn: 0
               complexity: 0
               alpha: 0.
               node_risk: 6.3180512652368881e-01
               tree_risk: 0.
               tree_error: 0.
               splits:
                  - { var:1, quality:6.4701926708221436e-01,
                      le:-4.7052299976348877e-01 }
            -
               depth: 2
               sample_count: 41
               value: -3.5435289962262639e-02
               Tn: 0
               complexity: 0
               alpha: 0.
               node_risk: 8.5004042538035368e-02
               tree_risk: 0.
               tree_error: 0.
               splits:
                  - { var:1, quality:1.3351780176162720e-01,
                      le:-1.2180416584014893e+00 }
            -
               depth: 3
               sample_count: 1
               value: 9.9663674831390381e-01
               Tn: 0
               complexity: 0
               alpha: 0.
               node_risk: 0.
               tree_risk: 0.
               tree_error: 0.
            -
               depth: 3
               sample_count: 40
               value: -7.8472703695297241e-01
               Tn: 0
               complexity: 0
               alpha: 0.
               node_risk: 2.9682951374672001e-03
               tree_risk: 0.
               tree_error: 0.
            -
               depth: 2
               sample_count: 37
               value: 1.2686843968726494e-01
               Tn: 0
               complexity: 0
               alpha: 0.
               node_risk: 3.4473218621436708e-02
               tree_risk: 0.
               tree_error: 0.
               splits:
                  - { var:0, quality:6.3000679016113281e-01,
                      le:-2.3151321709156036e-01 }
            -
               depth: 3
               sample_count: 1
               value: 1.0869598388671875e+00
               Tn: 0
               complexity: 0
               alpha: 0.
               node_risk: 0.
               tree_risk: 0.
               tree_error: 0.
            -
               depth: 3
               sample_count: 36
               value: 8.5400229692459106e-01
               Tn: 0
               complexity: 0
               alpha: 0.
               node_risk: 3.6760172745786690e-06
               tree_risk: 0.
               tree_error: 0.
            -
               depth: 1
               sample_count: 74
               value: -4.4219495074169057e-02
               Tn: 0
               complexity: 0
               alpha: 0.
               node_risk: 1.1276916824957683e-02
               tree_risk: 0.
               tree_error: 0.
               splits:
                  - { var:3, quality:1.4636772871017456e-01,
                      le:5.4469513893127441e-01 }
            -
               depth: 2
               sample_count: 20
               value: -5.2027318812906745e-02
               Tn: 0
               complexity: 0
               alpha: 0.
               node_risk: 8.9046398241181338e-03
               tree_risk: 0.
               tree_error: 0.
               splits:
                  - { var:0, quality:6.1823230236768723e-02,
                      le:2.1513871848583221e-02 }
            -
               depth: 3
               sample_count: 6
               value: -8.1915420293807983e-01
               Tn: 0
               complexity: 0
               alpha: 0.
               node_risk: 1.2042494294585773e-03
               tree_risk: 0.
               tree_error: 0.
            -
               depth: 3
               sample_count: 14
               value: -7.8061491250991821e-01
               Tn: 0
               complexity: 0
               alpha: 0.
               node_risk: 1.3998463062981498e-05
               tree_risk: 0.
               tree_error: 0.
            -
               depth: 2
               sample_count: 54
               value: -4.1327708504266210e-02
               Tn: 0
               complexity: 0
               alpha: 0.
               node_risk: 7.0146357357879496e-04
               tree_risk: 0.
               tree_error: 0.
               splits:
                  - { var:0, quality:9.2326030135154724e-02,
                      le:1.6354668140411377e-01 }
            -
               depth: 3
               sample_count: 33
               value: -7.8354352712631226e-01
               Tn: 0
               complexity: 0
               alpha: 0.
               node_risk: 5.9231349400416800e-04
               tree_risk: 0.
               tree_error: 0.
            -
               depth: 3
               sample_count: 21
               value: -7.8099018335342407e-01
               Tn: 0
               complexity: 0
               alpha: 0.
               node_risk: 1.4011267843797026e-05
               tree_risk: 0.
               tree_error: 0.
      -
         best_tree_idx: -1
         nodes:
            -
               depth: 0
               sample_count: 152
               value: -7.8097605881722351e-04
               Tn: 0
               complexity: 0
               alpha: 0.
               node_risk: 9.1405237754245383e-01
               tree_risk: 0.
               tree_error: 0.
               splits:
                  - { var:3, quality:2.6654449105262756e-01,
                      le:-1.8568448722362518e-01 }
            -
               depth: 1
               sample_count: 78
               value: 3.9999856494176082e-02
               Tn: 0
               complexity: 0
               alpha: 0.
               node_risk: 6.3598653095084201e-01
               tree_risk: 0.
               tree_error: 0.
               splits:
                  - { var:1, quality:5.8720672130584717e-01,
                      le:-4.6542203426361084e-01 }
            -
               depth: 2
               sample_count: 43
               value: -2.9464976558851642e-02
               Tn: 0
               complexity: 0
               alpha: 0.
               node_risk: 1.3998421250483734e-01
               tree_risk: 0.
               tree_error: 0.
               splits:
                  - { var:1, quality:1.7373925447463989e-01,
                      le:-1.2180416584014893e+00 }
            -
               depth: 3
               sample_count: 2
               value: 9.7034847736358643e-01
               Tn: 0
               complexity: 0
               alpha: 0.
               node_risk: 6.9208312431356944e-04
               tree_risk: 0.
               tree_error: 0.
            -
               depth: 3
               sample_count: 41
               value: -7.8417736291885376e-01
               Tn: 0
               complexity: 0
               alpha: 0.
               node_risk: 2.8848239936736103e-03
               tree_risk: 0.
               tree_error: 0.
            -
               depth: 2
               sample_count: 35
               value: 1.2534236567361015e-01
               Tn: 0
               complexity: 0
               alpha: 0.
               node_risk: 3.3594672552886617e-02
               tree_risk: 0.
               tree_error: 0.
               splits:
                  - { var:0, quality:5.8346587419509888e-01,
                      le:-2.3151321709156036e-01 }
            -
               depth: 3
               sample_count: 1
               value: 1.0806664228439331e+00
               Tn: 0
               complexity: 0
               alpha: 0.
               node_risk: 0.
               tree_risk: 0.
               tree_error: 0.
            -
               depth: 3
               sample_count: 34
               value: 8.5230201482772827e-01
               Tn: 0
               complexity: 0
               alpha: 0.
               node_risk: 3.6065855494316068e-06
               tree_risk: 0.
               tree_error: 0.
            -
               depth: 1
               sample_count: 74
               value: -4.3766177938999354e-02
               Tn: 0
               complexity: 0
               alpha: 0.
               node_risk: 1.1614053931499446e-02
               tree_risk: 0.
               tree_error: 0.
               splits:
                  - { var:0, quality:1.4340984821319580e-01,
                      le:5.0820067524909973e-02 }
            -
               depth: 2
               sample_count: 39
               value: -4.8259016986076646e-02
               Tn: 0
               complexity: 0
               alpha: 0.
               node_risk: 9.9291257175701392e-03
               tree_risk: 0.
               tree_error: 0.
               splits:
                  - { var:3, quality:9.8881065845489502e-02,
                      le:7.6475036144256592e-01 }
            -
               depth: 3
               sample_count: 7
               value: -8.1679880619049072e-01
               Tn: 0
               complexity: 0
               alpha: 0.
               node_risk: 1.5475915099127519e-03
               tree_risk: 0.
               tree_error: 0.
            -
               depth: 3
               sample_count: 32
               value: -7.8270596265792847e-01
               Tn: 0
               complexity: 0
               alpha: 0.
               node_risk: 3.2884374641684033e-04
               tree_risk: 0.
               tree_error: 0.
            -
               depth: 2
               sample_count: 35
               value: -3.8759871572256091e-02
               Tn: 0
               complexity: 0
               alpha: 0.
               node_risk: 2.0481088195321850e-05
               tree_risk: 0.
               tree_error: 0.
               splits:
                  - { var:2, quality:5.2596360445022583e-02,
                      le:2.8202819824218750e+00 }
            -
               depth: 3
               sample_count: 24
               value: -7.7988761663436890e-01
               Tn: 0
               complexity: 0
               alpha: 0.
               node_risk: 4.3372540374717050e-06
               tree_risk: 0.
               tree_error: 0.
            -
               depth: 3
               sample_count: 11
               value: -7.8102731704711914e-01
               Tn: 0
               complexity: 0
               alpha: 0.
               node_risk: 1.2509580467057191e-06
               tree_risk: 0.
               tree_error: 0.
      -
         best_tree_idx: -1
         nodes:
            -
               depth: 0
               sample_count: 152
               value: -2.4227904597003210e-03
               Tn: 0
               complexity: 0
               alpha: 0.
               node_risk: 8.5594230738661670e-01
               tree_risk: 0.
               tree_error: 0.
               splits:
                  - { var:3, quality:2.1451781690120697e-01,
                      le:-2.1775263547897339e-01 }
            -
               depth: 1
               sample_count: 81
               value: 3.2675947580072612e-02
               Tn: 0
               complexity: 0
               alpha: 0.
               node_risk: 6.3330775282282992e-01
               tree_risk: 0.
               tree_error: 0.
               splits:
                  - { var:1, quality:5.5026340484619141e-01,
                      le:-4.6542203426361084e-01 }
            -
               depth: 2
               sample_count: 48
               value: -3.0064707156270742e-02
               Tn: 0
               complexity: 0
               alpha: 0.
               node_risk: 1.3659613313769498e-01
               tree_risk: 0.
               tree_error: 0.
               splits:
                  - { var:1, quality:1.7646421492099762e-01,
                      le:-1.2180416584014893e+00 }
            -
               depth: 3
               sample_count: 2
               value: 9.6647149324417114e-01
               Tn: 0
               complexity: 0
               alpha: 0.
               node_risk: 6.7887908487485049e-04
               tree_risk: 0.
               tree_error: 0.
            -
               depth: 3
               sample_count: 46
               value: -7.8332895040512085e-01
               Tn: 0
               complexity: 0
               alpha: 0.
               node_risk: 2.8395902933254780e-03
               tree_risk: 0.
               tree_error: 0.
            -
               depth: 2
               sample_count: 33
               value: 1.2393508174202660e-01
               Tn: 0
               complexity: 0
               alpha: 0.
               node_risk: 3.2933335617718829e-02
               tree_risk: 0.
               tree_error: 0.
               splits:
                  - { var:0, quality:5.3980749845504761e-01,
                      le:-2.3151321709156036e-01 }
            -
               depth: 3
               sample_count: 1
               value: 1.0754729509353638e+00
               Tn: 0
               complexity: 0
               alpha: 0.
               node_risk: 0.
               tree_risk: 0.
               tree_error: 0.
            -
               depth: 3
               sample_count: 32
               value: 8.5067915916442871e-01
               Tn: 0
               complexity: 0
               alpha: 0.
               node_risk: 2.7093542963596562e-06
               tree_risk: 0.
               tree_error: 0.
            -
               depth: 1
               sample_count: 71
               value: -4.2465012730427194e-02
               Tn: 0
               complexity: 0
               alpha: 0.
               node_risk: 9.0089711221759683e-03
               tree_risk: 0.
               tree_error: 0.
               splits:
                  - { var:3, quality:1.3117291033267975e-01,
                      le:2.1105712652206421e-01 }
            -
               depth: 2
               sample_count: 3
               value: -8.1660968065261841e-01
               Tn: 0
               complexity: 0
               alpha: 0.
               node_risk: 1.6547756312999366e-03
               tree_risk: 0.
               tree_error: 0.
            -
               depth: 2
               sample_count: 68
               value: -4.1068139924284291e-02
               Tn: 0
               complexity: 0
               alpha: 0.
               node_risk: 4.2139779718018827e-03
               tree_risk: 0.
               tree_error: 0.
               splits:
                  - { var:0, quality:1.1519887298345566e-01,
                      le:9.5785871148109436e-02 }
            -
               depth: 3
               sample_count: 36
               value: -7.8616106510162354e-01
               Tn: 0
               complexity: 0
               alpha: 0.
               node_risk: 3.6856426133757281e-03
               tree_risk: 0.
               tree_error: 0.
            -
               depth: 3
               sample_count: 32
               value: -7.7976858615875244e-01
               Tn: 0
               complexity: 0
               alpha: 0.
               node_risk: 1.7722780238885183e-05
               tree_risk: 0.
               tree_error: 0.
      -
         best_tree_idx: -1
         nodes:
            -
               depth: 0
               sample_count: 152
               value: -8.6550380250341018e-04
               Tn: 0
               complexity: 0
               alpha: 0.
               node_risk: 8.4159577385438045e-01
               tree_risk: 0.
               tree_error: 0.
               splits:
                  - { var:3, quality:2.6557633280754089e-01,
                      le:-2.1775263547897339e-01 }
            -
               depth: 1
               sample_count: 77
               value: 4.0378901043108532e-02
               Tn: 0
               complexity: 0
               alpha: 0.
               node_risk: 5.6223479610100402e-01
               tree_risk: 0.
               tree_error: 0.
               splits:
                  - { var:1, quality:5.9500879049301147e-01,
                      le:-4.7164160013198853e-01 }
            -
               depth: 2
               sample_count: 40
               value: -3.4718778822571038e-02
               Tn: 0
               complexity: 0
               alpha: 0.
               node_risk: 6.0521814331423632e-02
               tree_risk: 0.
               tree_error: 0.
               splits:
                  - { var:0, quality:1.0595969110727310e-01,
                      le:-1.1072268486022949e+00 }
            -
               depth: 3
               sample_count: 1
               value: 9.4050747156143188e-01
               Tn: 0
               complexity: 0
               alpha: 0.
               node_risk: 0.
               tree_risk: 0.
               tree_error: 0.
            -
               depth: 3
               sample_count: 39
               value: -7.8332942724227905e-01
               Tn: 0
               complexity: 0
               alpha: 0.
               node_risk: 2.7778701104234915e-03
               tree_risk: 0.
               tree_error: 0.
            -
               depth: 2
               sample_count: 37
               value: 1.2156558197897833e-01
               Tn: 0
               complexity: 0
               alpha: 0.
               node_risk: 3.2249265950095807e-02
               tree_risk: 0.
               tree_error: 0.
               splits:
                  - { var:0, quality:5.7903915643692017e-01,
                      le:-2.3151321709156036e-01 }
            -
               depth: 3
               sample_count: 1
               value: 1.0694336891174316e+00
               Tn: 0
               complexity: 0
               alpha: 0.
               node_risk: 0.
               tree_risk: 0.
               tree_error: 0.
            -
               depth: 3
               sample_count: 36
               value: 8.4903681278228760e-01
               Tn: 0
               complexity: 0
               alpha: 0.
               node_risk: 3.1841391985309997e-06
               tree_risk: 0.
               tree_error: 0.
            -
               depth: 1
               sample_count: 75
               value: -4.3209759443998338e-02
               Tn: 0
               complexity: 0
               alpha: 0.
               node_risk: 1.3898507123663639e-02
               tree_risk: 0.
               tree_error: 0.
               splits:
                  - { var:0, quality:1.4225246012210846e-01,
                      le:3.8670465350151062e-02 }
            -
               depth: 2
               sample_count: 38
               value: -4.8579756758714975e-02
               Tn: 0
               complexity: 0
               alpha: 0.
               node_risk: 1.1649797852323687e-02
               tree_risk: 0.
               tree_error: 0.
               splits:
                  - { var:3, quality:9.9300622940063477e-02,
                      le:7.6475036144256592e-01 }
            -
               depth: 3
               sample_count: 8
               value: -8.1709867715835571e-01
               Tn: 0
               complexity: 0
               alpha: 0.
               node_risk: 1.7311541508460426e-03
               tree_risk: 0.
               tree_error: 0.
            -
               depth: 3
               sample_count: 30
               value: -7.8174585103988647e-01
               Tn: 0
               complexity: 0
               alpha: 0.
               node_risk: 2.9774479684823579e-04
               tree_risk: 0.
               tree_error: 0.
            -
               depth: 2
               sample_count: 37
               value: -3.7694627066721789e-02
               Tn: 0
               complexity: 0
               alpha: 0.
               node_risk: 2.7490817118953903e-05
               tree_risk: 0.
               tree_error: 0.
               splits:
                  - { var:3, quality:5.2585147321224213e-02,
                      le:8.4673655033111572e-01 }
            -
               depth: 3
               sample_count: 27
               value: -7.7910453081130981e-01
               Tn: 0
               complexity: 0
               alpha: 0.
               node_risk: 1.4296000227564942e-05
               tree_risk: 0.
               tree_error: 0.
            -
               depth: 3
               sample_count: 10
               value: -7.8015136718750000e-01
               Tn: 0
               complexity: 0
               alpha: 0.
               node_risk: 7.8987115552202336e-07
               tree_risk: 0.
               tree_error: 0.
      -
         best_tree_idx: -1
         nodes:
            -
               depth: 0
               sample_count: 152
               value: 3.4426222310254447e-03
               Tn: 0
               complexity: 0
               alpha: 0.
               node_risk: 8.8783142415588090e-01
               tree_risk: 0.
               tree_error: 0.
               splits:
                  - { var:3, quality:2.6274806261062622e-01,
                      le:-2.1775263547897339e-01 }
            -
               depth: 1
               sample_count: 83
               value: 4.1220672383724927e-02
               Tn: 0
               complexity: 0
               alpha: 0.
               node_risk: 6.1599762487203014e-01
               tree_risk: 0.
               tree_error: 0.
               splits:
                  - { var:1, quality:5.9359824657440186e-01,
                      le:-4.6542203426361084e-01 }
            -
               depth: 2
               sample_count: 44
               value: -2.8299282474273987e-02
               Tn: 0
               complexity: 0
               alpha: 0.
               node_risk: 1.3123515803006364e-01
               tree_risk: 0.
               tree_error: 0.
               splits:
                  - { var:1, quality:1.6301630437374115e-01,
                      le:-1.2180416584014893e+00 }
            -
               depth: 3
               sample_count: 2
               value: 9.6190333366394043e-01
               Tn: 0
               complexity: 0
               alpha: 0.
               node_risk: 7.1846371135286802e-04
               tree_risk: 0.
               tree_error: 0.
            -
               depth: 3
               sample_count: 42
               value: -7.8262460231781006e-01
               Tn: 0
               complexity: 0
               alpha: 0.
               node_risk: 2.7377669766099899e-03
               tree_risk: 0.
               tree_error: 0.
            -
               depth: 2
               sample_count: 39
               value: 1.1965344196710831e-01
               Tn: 0
               complexity: 0
               alpha: 0.
               node_risk: 3.2193130973521167e-02
               tree_risk: 0.
               tree_error: 0.
               splits:
                  - { var:0, quality:5.9055125713348389e-01,
                      le:-2.3151321709156036e-01 }
            -
               depth: 3
               sample_count: 1
               value: 1.0664848089218140e+00
               Tn: 0
               complexity: 0
               alpha: 0.
               node_risk: 0.
               tree_risk: 0.
               tree_error: 0.
            -
               depth: 3
               sample_count: 38
               value: 8.4745138883590698e-01
               Tn: 0
               complexity: 0
               alpha: 0.
               node_risk: 2.7479531232721399e-06
               tree_risk: 0.
               tree_error: 0.
            -
               depth: 1
               sample_count: 69
               value: -4.2000539546859436e-02
               Tn: 0
               complexity: 0
               alpha: 0.
               node_risk: 1.0887184483042378e-02
               tree_risk: 0.
               tree_error: 0.
               splits:
                  - { var:3, quality:1.2337503582239151e-01,
                      le:5.4469513893127441e-01 }
            -
               depth: 2
               sample_count: 20
               value: -4.9668441526591778e-02
               Tn: 0
               complexity: 0
               alpha: 0.
               node_risk: 8.6909593069684488e-03
               tree_risk: 0.
               tree_error: 0.
               splits:
                  - { var:0, quality:5.6837979704141617e-02,
                      le:2.1513871848583221e-02 }
            -
               depth: 3
               sample_count: 6
               value: -8.1675112247467041e-01
               Tn: 0
               complexity: 0
               alpha: 0.
               node_risk: 1.1796555356798633e-03
               tree_risk: 0.
               tree_error: 0.
            -
               depth: 3
               sample_count: 14
               value: -7.7882915735244751e-01
               Tn: 0
               complexity: 0
               alpha: 0.
               node_risk: 1.2406230951295810e-05
               tree_risk: 0.
               tree_error: 0.
            -
               depth: 2
               sample_count: 49
               value: -3.8870783636764605e-02
               Tn: 0
               complexity: 0
               alpha: 0.
               node_risk: 5.4031752987640513e-04
               tree_risk: 0.
               tree_error: 0.
               splits:
                  - { var:0, quality:7.4106797575950623e-02,
                      le:8.8859111070632935e-02 }
            -
               depth: 3
               sample_count: 32
               value: -7.8133851289749146e-01
               Tn: 0
               complexity: 0
               alpha: 0.
               node_risk: 4.5987492529157847e-04
               tree_risk: 0.
               tree_error: 0.
            -
               depth: 3
               sample_count: 17
               value: -7.7900731563568115e-01
               Tn: 0
               complexity: 0
               alpha: 0.
               node_risk: 9.5982103521206896e-06
               tree_risk: 0.
               tree_error: 0.
      -
         best_tree_idx: -1
         nodes:
            -
               depth: 0
               sample_count: 152
               value: 3.1882227937641895e-03
               Tn: 0
               complexity: 0
               alpha: 0.
               node_risk: 8.6844263372058750e-01
               tree_risk: 0.
               tree_error: 0.
               splits:
                  - { var:3, quality:2.7723562717437744e-01,
                      le:-2.1775263547897339e-01 }
            -
               depth: 1
               sample_count: 80
               value: 4.3590926472097634e-02
               Tn: 0
               complexity: 0
               alpha: 0.
               node_risk: 5.8013125733388593e-01
               tree_risk: 0.
               tree_error: 0.
               splits:
                  - { var:1, quality:5.7275080680847168e-01,
                      le:-4.6542203426361084e-01 }
            -
               depth: 2
               sample_count: 41
               value: -2.7138622613941749e-02
               Tn: 0
               complexity: 0
               alpha: 0.
               node_risk: 1.2727520835006892e-01
               tree_risk: 0.
               tree_error: 0.
               splits:
                  - { var:1, quality:1.5409353375434875e-01,
                      le:-1.2180416584014893e+00 }
            -
               depth: 3
               sample_count: 2
               value: 9.5815217494964600e-01
               Tn: 0
               complexity: 0
               alpha: 0.
               node_risk: 7.0463544695265057e-04
               tree_risk: 0.
               tree_error: 0.
            -
               depth: 3
               sample_count: 39
               value: -7.8232491016387939e-01
               Tn: 0
               complexity: 0
               alpha: 0.
               node_risk: 2.6737340286480255e-03
               tree_risk: 0.
               tree_error: 0.
            -
               depth: 2
               sample_count: 39
               value: 1.1794763192152366e-01
               Tn: 0
               complexity: 0
               alpha: 0.
               node_risk: 3.2118749146908931e-02
               tree_risk: 0.
               tree_error: 0.
               splits:
                  - { var:0, quality:5.7466882467269897e-01,
                      le:-2.3036833107471466e-01 }
            -
               depth: 3
               sample_count: 1
               value: 1.0635900497436523e+00
               Tn: 0
               complexity: 0
               alpha: 0.
               node_risk: 0.
               tree_risk: 0.
               tree_error: 0.
            -
               depth: 3
               sample_count: 38
               value: 8.4582662582397461e-01
               Tn: 0
               complexity: 0
               alpha: 0.
               node_risk: 4.0126147858310368e-06
               tree_risk: 0.
               tree_error: 0.
            -
               depth: 1
               sample_count: 72
               value: -4.1703670182161860e-02
               Tn: 0
               complexity: 0
               alpha: 0.
               node_risk: 1.2620791267901194e-02
               tree_risk: 0.
               tree_error: 0.
               splits:
                  - { var:3, quality:1.2827286124229431e-01,
                      le:3.0305111408233643e-01 }
            -
               depth: 2
               sample_count: 7
               value: -8.0702096223831177e-01
               Tn: 0
               complexity: 0
               alpha: 0.
               node_risk: 3.9273432842028694e-03
               tree_risk: 0.
               tree_error: 0.
            -
               depth: 2
               sample_count: 65
               value: -3.9567537147265214e-02
               Tn: 0
               complexity: 0
               alpha: 0.
               node_risk: 5.6427135373847831e-03
               tree_risk: 0.
               tree_error: 0.
               splits:
                  - { var:0, quality:1.0237023234367371e-01,
                      le:1.2941838800907135e-01 }
            -
               depth: 3
               sample_count: 31
               value: -7.8661870956420898e-01
               Tn: 0
               complexity: 0
               alpha: 0.
               node_risk: 5.0174753440370354e-03
               tree_risk: 0.
               tree_error: 0.
            -
               depth: 3
               sample_count: 34
               value: -7.7854502201080322e-01
               Tn: 0
               complexity: 0
               alpha: 0.
               node_risk: 1.8359009592967823e-05
               tree_risk: 0.
               tree_error: 0.
      -
         best_tree_idx: -1
         nodes:
            -
               depth: 0
               sample_count: 152
               value: -2.6946351863443851e-03
               Tn: 0
               complexity: 0
               alpha: 0.
               node_risk: 6.8480513113979324e-01
               tree_risk: 0.
               tree_error: 0.
               splits:
                  - { var:0, quality:2.2474715113639832e-01,
                      le:-7.4474617838859558e-02 }
            -
               depth: 1
               sample_count: 80
               value: -3.9084259746596219e-02
               Tn: 0
               complexity: 0
               alpha: 0.
               node_risk: 6.7681138622415718e-02
               tree_risk: 0.
               tree_error: 0.
               splits:
                  - { var:0, quality:1.7722921073436737e-01,
                      le:-1.1072268486022949e+00 }
            -
               depth: 2
               sample_count: 1
               value: 9.3053793907165527e-01
               Tn: 0
               complexity: 0
               alpha: 0.
               node_risk: 0.
               tree_risk: 0.
               tree_error: 0.
            -
               depth: 2
               sample_count: 79
               value: -4.2034878336553332e-02
               Tn: 0
               complexity: 0
               alpha: 0.
               node_risk: 1.2658270221724638e-02
               tree_risk: 0.
               tree_error: 0.
               splits:
                  - { var:2, quality:1.4388546347618103e-01,
                      le:-2.3803058266639709e-01 }
            -
               depth: 3
               sample_count: 72
               value: -7.8261327743530273e-01
               Tn: 0
               complexity: 0
               alpha: 0.
               node_risk: 5.5423924666427454e-03
               tree_risk: 0.
               tree_error: 0.
            -
               depth: 3
               sample_count: 7
               value: -8.0803173780441284e-01
               Tn: 0
               complexity: 0
               alpha: 0.
               node_risk: 2.8179590596180276e-03
               tree_risk: 0.
               tree_error: 0.
            -
               depth: 1
               sample_count: 72
               value: 3.7738280991713204e-02
               Tn: 0
               complexity: 0
               alpha: 0.
               node_risk: 3.9348051929883948e-01
               tree_risk: 0.
               tree_error: 0.
               splits:
                  - { var:1, quality:4.9599236249923706e-01,
                      le:4.1874265670776367e-01 }
            -
               depth: 2
               sample_count: 36
               value: 1.1166124873691136e-01
               Tn: 0
               complexity: 0
               alpha: 0.
               node_risk: 3.8799027192726321e-06
               tree_risk: 0.
               tree_error: 0.
               splits:
                  - { var:3, quality:4.4886022806167603e-01,
                      le:-9.2900770902633667e-01 }
            -
               depth: 3
               sample_count: 29
               value: 8.4442418813705444e-01
               Tn: 0
               complexity: 0
               alpha: 0.
               node_risk: 1.8041631466569896e-08
               tree_risk: 0.
               tree_error: 0.
            -
               depth: 3
               sample_count: 7
               value: 8.4364497661590576e-01
               Tn: 0
               complexity: 0
               alpha: 0.
               node_risk: 6.6435497103611851e-08
               tree_risk: 0.
               tree_error: 0.
            -
               depth: 2
               sample_count: 36
               value: -3.6184686753484935e-02
               Tn: 0
               complexity: 0
               alpha: 0.
               node_risk: 2.5067857572835806e-05
               tree_risk: 0.
               tree_error: 0.
               splits:
                  - { var:3, quality:4.7147251665592194e-02,
                      le:7.8716313838958740e-01 }
            -
               depth: 3
               sample_count: 24
               value: -7.7784919738769531e-01
               Tn: 0
               complexity: 0
               alpha: 0.
               node_risk: 1.2561462952982716e-05
               tree_risk: 0.
               tree_error: 0.
            -
               depth: 3
               sample_count: 12
               value: -7.7880024909973145e-01
               Tn: 0
               complexity: 0
               alpha: 0.
               node_risk: 1.1889512051416196e-06
               tree_risk: 0.
               tree_error: 0.
      -
         best_tree_idx: -1
         nodes:
            -
               depth: 0
               sample_count: 152
               value: -5.0481333348311877e-03
               Tn: 0
               complexity: 0
               alpha: 0.
               node_risk: 6.1614207290729417e-01
               tree_risk: 0.
               tree_error: 0.
               splits:
                  - { var:0, quality:2.1610334515571594e-01,
                      le:-7.5619511306285858e-02 }
            -
               depth: 1
               sample_count: 78
               value: -4.1443825006867066e-02
               Tn: 0
               complexity: 0
               alpha: 0.
               node_risk: 1.2330161732985512e-02
               tree_risk: 0.
               tree_error: 0.
               splits:
                  - { var:0, quality:1.3804823160171509e-01,
                      le:-3.0883741378784180e-01 }
            -
               depth: 2
               sample_count: 73
               value: -3.9551907206234867e-02
               Tn: 0
               complexity: 0
               alpha: 0.
               node_risk: 5.8597136204915634e-03
               tree_risk: 0.
               tree_error: 0.
               splits:
                  - { var:0, quality:1.1642692983150482e-01,
                      le:-1.0222089290618896e+00 }
            -
               depth: 3
               sample_count: 2
               value: -8.0921232700347900e-01
               Tn: 0
               complexity: 0
               alpha: 0.
               node_risk: 1.0092606548373073e-04
               tree_risk: 0.
               tree_error: 0.
            -
               depth: 3
               sample_count: 71
               value: -7.8117799758911133e-01
               Tn: 0
               complexity: 0
               alpha: 0.
               node_risk: 3.5296499819452015e-03
               tree_risk: 0.
               tree_error: 0.
            -
               depth: 2
               sample_count: 5
               value: -8.1168758869171143e-01
               Tn: 0
               complexity: 0
               alpha: 0.
               node_risk: 2.3942809566933169e-03
               tree_risk: 0.
               tree_error: 0.
            -
               depth: 1
               sample_count: 74
               value: 3.3314893022179604e-02
               Tn: 0
               complexity: 0
               alpha: 0.
               node_risk: 3.9158208158212449e-01
               tree_risk: 0.
               tree_error: 0.
               splits:
                  - { var:1, quality:4.7368511557579041e-01,
                      le:3.7543404102325439e-01 }
            -
               depth: 2
               sample_count: 35
               value: 1.1010020800999233e-01
               Tn: 0
               complexity: 0
               alpha: 0.
               node_risk: 3.0254324733247628e-06
               tree_risk: 0.
               tree_error: 0.
               splits:
                  - { var:3, quality:4.2427489161491394e-01,
                      le:-9.2900770902633667e-01 }
            -
               depth: 3
               sample_count: 30
               value: 8.4290367364883423e-01
               Tn: 0
               complexity: 0
               alpha: 0.
               node_risk: 1.7567214127822695e-08
               tree_risk: 0.
               tree_error: 0.
            -
               depth: 3
               sample_count: 5
               value: 8.4211927652359009e-01
               Tn: 0
               complexity: 0
               alpha: 0.
               node_risk: 6.3356455373697607e-08
               tree_risk: 0.
               tree_error: 0.
            -
               depth: 2
               sample_count: 39
               value: -3.5595005043806173e-02
               Tn: 0
               complexity: 0
               alpha: 0.
               node_risk: 2.5207220317423340e-05
               tree_risk: 0.
               tree_error: 0.
               splits:
                  - { var:3, quality:4.9426008015871048e-02,
                      le:8.2776057720184326e-01 }
            -
               depth: 3
               sample_count: 27
               value: -7.7738285064697266e-01
               Tn: 0
               complexity: 0
               alpha: 0.
               node_risk: 1.1285250530207458e-05
               tree_risk: 0.
               tree_error: 0.
            -
               depth: 3
               sample_count: 12
               value: -7.7837818861007690e-01
               Tn: 0
               complexity: 0
               alpha: 0.
               node_risk: 1.0845882439970700e-06
               tree_risk: 0.
               tree_error: 0.
      -
         best_tree_idx: -1
         nodes:
            -
               depth: 0
               sample_count: 152
               value: 2.0876344244338966e-03
               Tn: 0
               complexity: 0
               alpha: 0.
               node_risk: 8.0292955782887732e-01
               tree_risk: 0.
               tree_error: 0.
               splits:
                  - { var:3, quality:2.4074897170066833e-01,
                      le:-1.8568448722362518e-01 }
            -
               depth: 1
               sample_count: 81
               value: 3.9296700078764082e-02
               Tn: 0
               complexity: 0
               alpha: 0.
               node_risk: 5.5068063887796015e-01
               tree_risk: 0.
               tree_error: 0.
               splits:
                  - { var:1, quality:5.1894026994705200e-01,
                      le:-4.7164160013198853e-01 }
            -
               depth: 2
               sample_count: 43
               value: -2.6255108242811159e-02
               Tn: 0
               complexity: 0
               alpha: 0.
               node_risk: 1.2213095711989105e-01
               tree_risk: 0.
               tree_error: 0.
               splits:
                  - { var:1, quality:1.4848937094211578e-01,
                      le:-1.2180416584014893e+00 }
            -
               depth: 3
               sample_count: 2
               value: 9.5380598306655884e-01
               Tn: 0
               complexity: 0
               alpha: 0.
               node_risk: 8.0378186760476922e-04
               tree_risk: 0.
               tree_error: 0.
            -
               depth: 3
               sample_count: 41
               value: -7.8081345558166504e-01
               Tn: 0
               complexity: 0
               alpha: 0.
               node_risk: 2.4790243319665686e-03
               tree_risk: 0.
               tree_error: 0.
            -
               depth: 2
               sample_count: 38
               value: 1.1347374633738869e-01
               Tn: 0
               complexity: 0
               alpha: 0.
               node_risk: 3.4692080783384704e-02
               tree_risk: 0.
               tree_error: 0.
               splits:
                  - { var:0, quality:5.2398771047592163e-01,
                      le:-2.3151321709156036e-01 }
            -
               depth: 3
               sample_count: 1
               value: 1.0672445297241211e+00
               Tn: 0
               complexity: 0
               alpha: 0.
               node_risk: 0.
               tree_risk: 0.
               tree_error: 0.
            -
               depth: 3
               sample_count: 37
               value: 8.4128582477569580e-01
               Tn: 0
               complexity: 0
               alpha: 0.
               node_risk: 3.4165944252650959e-06
               tree_risk: 0.
               tree_error: 0.
            -
               depth: 1
               sample_count: 71
               value: -4.0362144702337156e-02
               Tn: 0
               complexity: 0
               alpha: 0.
               node_risk: 1.2162392932863086e-02
               tree_risk: 0.
               tree_error: 0.
               splits:
                  - { var:3, quality:1.1825016885995865e-01,
                      le:2.8126892447471619e-01 }
            -
               depth: 2
               sample_count: 7
               value: -8.0462676286697388e-01
               Tn: 0
               complexity: 0
               alpha: 0.
               node_risk: 3.8100263777306465e-03
               tree_risk: 0.
               tree_error: 0.
            -
               depth: 2
               sample_count: 64
               value: -3.8367038941942155e-02
               Tn: 0
               complexity: 0
               alpha: 0.
               node_risk: 5.7684878199877193e-03
               tree_risk: 0.
               tree_error: 0.
               splits:
                  - { var:0, quality:9.4781160354614258e-02,
                      le:1.2941838800907135e-01 }
            -
               depth: 3
               sample_count: 35
               value: -7.8508567810058594e-01
               Tn: 0
               complexity: 0
               alpha: 0.
               node_risk: 5.1822386575911331e-03
               tree_risk: 0.
               tree_error: 0.
            -
               depth: 3
               sample_count: 29
               value: -7.7728229761123657e-01
               Tn: 0
               complexity: 0
               alpha: 0.
               node_risk: 1.4988774513946534e-05
               tree_risk: 0.
               tree_error: 0.
      -
         best_tree_idx: -1
         nodes:
            -
               depth: 0
               sample_count: 152
               value: -2.3963522950285359e-03
               Tn: 0
               complexity: 0
               alpha: 0.
               node_risk: 7.2586290248560215e-01
               tree_risk: 0.
               tree_error: 0.
               splits:
                  - { var:3, quality:2.0018087327480316e-01,
                      le:-2.1775263547897339e-01 }
            -
               depth: 1
               sample_count: 77
               value: 3.3341286147569683e-02
               Tn: 0
               complexity: 0
               alpha: 0.
               node_risk: 5.1626971066095195e-01
               tree_risk: 0.
               tree_error: 0.
               splits:
                  - { var:1, quality:4.4867232441902161e-01,
                      le:-4.6542203426361084e-01 }
            -
               depth: 2
               sample_count: 44
               value: -2.6126806200905281e-02
               Tn: 0
               complexity: 0
               alpha: 0.
               node_risk: 1.1954723072147717e-01
               tree_risk: 0.
               tree_error: 0.
               splits:
                  - { var:1, quality:1.4640085399150848e-01,
                      le:-1.2180416584014893e+00 }
            -
               depth: 3
               sample_count: 2
               value: 9.5093101263046265e-01
               Tn: 0
               complexity: 0
               alpha: 0.
               node_risk: 7.3772388148718449e-04
               tree_risk: 0.
               tree_error: 0.
            -
               depth: 3
               sample_count: 42
               value: -7.8036123514175415e-01
               Tn: 0
               complexity: 0
               alpha: 0.
               node_risk: 2.4434856605321034e-03
               tree_risk: 0.
               tree_error: 0.
            -
               depth: 2
               sample_count: 33
               value: 1.1263207594553630e-01
               Tn: 0
               complexity: 0
               alpha: 0.
               node_risk: 3.3646535162622115e-02
               tree_risk: 0.
               tree_error: 0.
               splits:
                  - { var:0, quality:4.5228198170661926e-01,
                      le:-2.3151321709156036e-01 }
            -
               depth: 3
               sample_count: 1
               value: 1.0612044334411621e+00
               Tn: 0
               complexity: 0
               alpha: 0.
               node_risk: 0.
               tree_risk: 0.
               tree_error: 0.
            -
               depth: 3
               sample_count: 32
               value: 8.3985447883605957e-01
               Tn: 0
               complexity: 0
               alpha: 0.
               node_risk: 2.0519898010773474e-06
               tree_risk: 0.
               tree_error: 0.
            -
               depth: 1
               sample_count: 75
               value: -3.9086994429429374e-02
               Tn: 0
               complexity: 0
               alpha: 0.
               node_risk: 1.0285182595102610e-02
               tree_risk: 0.
               tree_error: 0.
               splits:
                  - { var:0, quality:1.1612290889024734e-01,
                      le:3.8670465350151062e-02 }
            -
               depth: 2
               sample_count: 37
               value: -4.3676839587656224e-02
               Tn: 0
               complexity: 0
               alpha: 0.
               node_risk: 8.7231445759928944e-03
               tree_risk: 0.
               tree_error: 0.
               splits:
                  - { var:3, quality:7.7602051198482513e-02,
                      le:7.6475036144256592e-01 }
            -
               depth: 3
               sample_count: 7
               value: -8.1084281206130981e-01
               Tn: 0
               complexity: 0
               alpha: 0.
               node_risk: 1.4389270830909781e-03
               tree_risk: 0.
               tree_error: 0.
            -
               depth: 3
               sample_count: 30
               value: -7.7902925014495850e-01
               Tn: 0
               complexity: 0
               alpha: 0.
               node_risk: 2.6581753956955029e-04
               tree_risk: 0.
               tree_error: 0.
            -
               depth: 2
               sample_count: 38
               value: -3.4617934670103226e-02
               Tn: 0
               complexity: 0
               alpha: 0.
               node_risk: 2.3616096747010318e-05
               tree_risk: 0.
               tree_error: 0.
               splits:
                  - { var:3, quality:4.5550193637609482e-02,
                      le:7.8716313838958740e-01 }
            -
               depth: 3
               sample_count: 26
               value: -7.7661174535751343e-01
               Tn: 0
               complexity: 0
               alpha: 0.
               node_risk: 1.1620787080918182e-05
               tree_risk: 0.
               tree_error: 0.
            -
               depth: 3
               sample_count: 12
               value: -7.7753257751464844e-01
               Tn: 0
               complexity: 0
               alpha: 0.
               node_risk: 1.0566265821864568e-06
               tree_risk: 0.
               tree_error: 0.
      -
         best_tree_idx: -1
         nodes:
            -
               depth: 0
               sample_count: 152
               value: 3.1756140095622917e-03
               Tn: 0
               complexity: 0
               alpha: 0.
               node_risk: 7.3820060313953872e-01
               tree_risk: 0.
               tree_error: 0.
               splits:
                  - { var:3, quality:2.4488340318202972e-01,
                      le:-1.1355226486921310e-01 }
            -
               depth: 1
               sample_count: 80
               value: 4.1134690074250101e-02
               Tn: 0
               complexity: 0
               alpha: 0.
               node_risk: 4.8291300425776823e-01
               tree_risk: 0.
               tree_error: 0.
               splits:
                  - { var:1, quality:5.3313618898391724e-01,
                      le:-4.7052299976348877e-01 }
            -
               depth: 2
               sample_count: 39
               value: -3.1164141133045539e-02
               Tn: 0
               complexity: 0
               alpha: 0.
               node_risk: 5.2104574476735881e-02
               tree_risk: 0.
               tree_error: 0.
               splits:
                  - { var:0, quality:8.7558194994926453e-02,
                      le:-1.1072268486022949e+00 }
            -
               depth: 3
               sample_count: 1
               value: 9.2461615800857544e-01
               Tn: 0
               complexity: 0
               alpha: 0.
               node_risk: 0.
               tree_risk: 0.
               tree_error: 0.
            -
               depth: 3
               sample_count: 38
               value: -7.8017705678939819e-01
               Tn: 0
               complexity: 0
               alpha: 0.
               node_risk: 2.4233263303451019e-03
               tree_risk: 0.
               tree_error: 0.
            -
               depth: 2
               sample_count: 41
               value: 1.0990674902753132e-01
               Tn: 0
               complexity: 0
               alpha: 0.
               node_risk: 3.3037271217715325e-02
               tree_risk: 0.
               tree_error: 0.
               splits:
                  - { var:0, quality:5.2829307317733765e-01,
                      le:-2.3151321709156036e-01 }
            -
               depth: 3
               sample_count: 1
               value: 1.0554888248443604e+00
               Tn: 0
               complexity: 0
               alpha: 0.
               node_risk: 0.
               tree_risk: 0.
               tree_error: 0.
            -
               depth: 3
               sample_count: 40
               value: 8.3838176727294922e-01
               Tn: 0
               complexity: 0
               alpha: 0.
               node_risk: 3.4111038046957809e-06
               tree_risk: 0.
               tree_error: 0.
            -
               depth: 1
               sample_count: 72
               value: -3.9001137173424162e-02
               Tn: 0
               complexity: 0
               alpha: 0.
               node_risk: 1.1937041921679478e-02
               tree_risk: 0.
               tree_error: 0.
               splits:
                  - { var:3, quality:1.1502050608396530e-01,
                      le:2.8212577104568481e-01 }
            -
               depth: 2
               sample_count: 4
               value: -8.1325978040695190e-01
               Tn: 0
               complexity: 0
               alpha: 0.
               node_risk: 8.2283167829245649e-04
               tree_risk: 0.
               tree_error: 0.
            -
               depth: 2
               sample_count: 68
               value: -3.6880949950393510e-02
               Tn: 0
               complexity: 0
               alpha: 0.
               node_risk: 5.6120929578872270e-03
               tree_risk: 0.
               tree_error: 0.
               splits:
                  - { var:2, quality:9.3116059899330139e-02,
                      le:-3.0838971957564354e-02 }
            -
               depth: 3
               sample_count: 31
               value: -7.8466254472732544e-01
               Tn: 0
               complexity: 0
               alpha: 0.
               node_risk: 4.9700092487996936e-03
               tree_risk: 0.
               tree_error: 0.
            -
               depth: 3
               sample_count: 37
               value: -7.7650046348571777e-01
               Tn: 0
               complexity: 0
               alpha: 0.
               node_risk: 1.9926729997413184e-05
               tree_risk: 0.
               tree_error: 0.
      -
         best_tree_idx: -1
         nodes:
            -
               depth: 0
               sample_count: 152
               value: -2.1187461128360346e-04
               Tn: 0
               complexity: 0
               alpha: 0.
               node_risk: 7.0416675959091624e-01
               tree_risk: 0.
               tree_error: 0.
               splits:
                  - { var:3, quality:1.9581943750381470e-01,
                      le:-2.1775263547897339e-01 }
            -
               depth: 1
               sample_count: 79
               value: 3.4290297027630139e-02
               Tn: 0
               complexity: 0
               alpha: 0.
               node_risk: 5.0070600847765512e-01
               tree_risk: 0.
               tree_error: 0.
               splits:
                  - { var:1, quality:4.4514465332031250e-01,
                      le:-4.6542203426361084e-01 }
            -
               depth: 2
               sample_count: 44
               value: -2.5265277956019749e-02
               Tn: 0
               complexity: 0
               alpha: 0.
               node_risk: 1.1567199652081120e-01
               tree_risk: 0.
               tree_error: 0.
               splits:
                  - { var:1, quality:1.4056587219238281e-01,
                      le:-1.2180416584014893e+00 }
            -
               depth: 3
               sample_count: 2
               value: 9.4747048616409302e-01
               Tn: 0
               complexity: 0
               alpha: 0.
               node_risk: 8.2054690349764314e-04
               tree_risk: 0.
               tree_error: 0.
            -
               depth: 3
               sample_count: 42
               value: -7.7950787544250488e-01
               Tn: 0
               complexity: 0
               alpha: 0.
               node_risk: 2.3722907167711693e-03
               tree_risk: 0.
               tree_error: 0.
            -
               depth: 2
               sample_count: 35
               value: 1.0916016272136143e-01
               Tn: 0
               complexity: 0
               alpha: 0.
               node_risk: 3.2779497830077886e-02
               tree_risk: 0.
               tree_error: 0.
               splits:
                  - { var:0, quality:4.4983497262001038e-01,
                      le:-2.3151321709156036e-01 }
            -
               depth: 3
               sample_count: 1
               value: 1.0527783632278442e+00
               Tn: 0
               complexity: 0
               alpha: 0.
               node_risk: 0.
               tree_risk: 0.
               tree_error: 0.
            -
               depth: 3
               sample_count: 34
               value: 8.3697199821472168e-01
               Tn: 0
               complexity: 0
               alpha: 0.
               node_risk: 2.4768164429977979e-06
               tree_risk: 0.
               tree_error: 0.
            -
               depth: 1
               sample_count: 73
               value: -3.7549841179423137e-02
               Tn: 0
               complexity: 0
               alpha: 0.
               node_risk: 7.6481295736026134e-03
               tree_risk: 0.
               tree_error: 0.
               splits:
                  - { var:3, quality:1.0387152433395386e-01,
                      le:5.4469513893127441e-01 }
            -
               depth: 2
               sample_count: 18
               value: -4.3829830984274544e-02
               Tn: 0
               complexity: 0
               alpha: 0.
               node_risk: 6.0246961393738141e-03
               tree_risk: 0.
               tree_error: 0.
               splits:
                  - { var:0, quality:3.9655920118093491e-02,
                      le:2.1513871848583221e-02 }
            -
               depth: 3
               sample_count: 5
               value: -8.0954104661941528e-01
               Tn: 0
               complexity: 0
               alpha: 0.
               node_risk: 9.3570279209159724e-04
               tree_risk: 0.
               tree_error: 0.
            -
               depth: 3
               sample_count: 13
               value: -7.7594935894012451e-01
               Tn: 0
               complexity: 0
               alpha: 0.
               node_risk: 1.2045377672034729e-05
               tree_risk: 0.
               tree_error: 0.
            -
               depth: 2
               sample_count: 55
               value: -3.5494571788744496e-02
               Tn: 0
               complexity: 0
               alpha: 0.
               node_risk: 6.8121726439178409e-04
               tree_risk: 0.
               tree_error: 0.
               splits:
                  - { var:0, quality:6.9375924766063690e-02,
                      le:1.2941838800907135e-01 }
            -
               depth: 3
               sample_count: 34
               value: -7.7876508235931396e-01
               Tn: 0
               complexity: 0
               alpha: 0.
               node_risk: 5.8841665887881395e-04
               tree_risk: 0.
               tree_error: 0.
            -
               depth: 3
               sample_count: 21
               value: -7.7635031938552856e-01
               Tn: 0
               complexity: 0
               alpha: 0.
               node_risk: 9.4320435942603364e-06
               tree_risk: 0.
               tree_error: 0.
      -
         best_tree_idx: -1
         nodes:
            -
               depth: 0
               sample_count: 152
               value: 2.9002323158477481e-03
               Tn: 0
               complexity: 0
               alpha: 0.
               node_risk: 7.2929147253981497e-01
               tree_risk: 0.
               tree_error: 0.
               splits:
                  - { var:3, quality:2.4665080010890961e-01,
                      le:-2.1775263547897339e-01 }
            -
               depth: 1
               sample_count: 78
               value: 4.2034707008264005e-02
               Tn: 0
               complexity: 0
               alpha: 0.
               node_risk: 4.7225552556862826e-01
               tree_risk: 0.
               tree_error: 0.
               splits:
                  - { var:1, quality:4.6735584735870361e-01,
                      le:-4.7052299976348877e-01 }
            -
               depth: 2
               sample_count: 39
               value: -2.2963947210556421e-02
               Tn: 0
               complexity: 0
               alpha: 0.
               node_risk: 1.1063345968065590e-01
               tree_risk: 0.
               tree_error: 0.
               splits:
                  - { var:1, quality:1.2875868380069733e-01,
                      le:-1.2180416584014893e+00 }
            -
               depth: 3
               sample_count: 2
               value: 9.4405442476272583e-01
               Tn: 0
               complexity: 0
               alpha: 0.
               node_risk: 8.0400174558015181e-04
               tree_risk: 0.
               tree_error: 0.
            -
               depth: 3
               sample_count: 37
               value: -7.7838474512100220e-01
               Tn: 0
               complexity: 0
               alpha: 0.
               node_risk: 1.6371454548695236e-03
               tree_risk: 0.
               tree_error: 0.
            -
               depth: 2
               sample_count: 39
               value: 1.0703336122708443e-01
               Tn: 0
               complexity: 0
               alpha: 0.
               node_risk: 3.2085711967865471e-02
               tree_risk: 0.
               tree_error: 0.
               splits:
                  - { var:0, quality:4.7887152433395386e-01,
                      le:-2.3151321709156036e-01 }
            -
               depth: 3
               sample_count: 1
               value: 1.0472471714019775e+00
               Tn: 0
               complexity: 0
               alpha: 0.
               node_risk: 0.
               tree_risk: 0.
               tree_error: 0.
            -
               depth: 3
               sample_count: 38
               value: 8.3554434776306152e-01
               Tn: 0
               complexity: 0
               alpha: 0.
               node_risk: 3.6669152206902922e-06
               tree_risk: 0.
               tree_error: 0.
            -
               depth: 1
               sample_count: 74
               value: -3.8349619386969389e-02
               Tn: 0
               complexity: 0
               alpha: 0.
               node_risk: 1.1663672786654755e-02
               tree_risk: 0.
               tree_error: 0.
               splits:
                  - { var:3, quality:1.1148246377706528e-01,
                      le:2.8126892447471619e-01 }
            -
               depth: 2
               sample_count: 7
               value: -8.0258333683013916e-01
               Tn: 0
               complexity: 0
               alpha: 0.
               node_risk: 3.4433937050370733e-03
               tree_risk: 0.
               tree_error: 0.
            -
               depth: 2
               sample_count: 67
               value: -3.6414920227296317e-02
               Tn: 0
               complexity: 0
               alpha: 0.
               node_risk: 5.5691225620485563e-03
               tree_risk: 0.
               tree_error: 0.
               splits:
                  - { var:0, quality:8.9493103325366974e-02,
                      le:1.5481616556644440e-01 }
            -
               depth: 3
               sample_count: 35
               value: -7.8365641832351685e-01
               Tn: 0
               complexity: 0
               alpha: 0.
               node_risk: 4.9069715447971063e-03
               tree_risk: 0.
               tree_error: 0.
            -
               depth: 3
               sample_count: 32
               value: -7.7573567628860474e-01
               Tn: 0
               complexity: 0
               alpha: 0.
               node_risk: 1.4154436599238263e-05
               tree_risk: 0.
               tree_error: 0.
      -
         best_tree_idx: -1
         nodes:
            -
               depth: 0
               sample_count: 152
               value: 1.0423258829273675e-03
               Tn: 0
               complexity: 0
               alpha: 0.
               node_risk: 6.6826394561421409e-01
               tree_risk: 0.
               tree_error: 0.
               splits:
                  - { var:3, quality:1.9976572692394257e-01,
                      le:-2.1775263547897339e-01 }
            -
               depth: 1
               sample_count: 77
               value: 3.6806185524184985e-02
               Tn: 0
               complexity: 0
               alpha: 0.
               node_risk: 4.6319956735343781e-01
               tree_risk: 0.
               tree_error: 0.
               splits:
                  - { var:1, quality:4.2720097303390503e-01,
                      le:-4.6542203426361084e-01 }
            -
               depth: 2
               sample_count: 41
               value: -2.3873157617522449e-02
               Tn: 0
               complexity: 0
               alpha: 0.
               node_risk: 1.0909591113769462e-01
               tree_risk: 0.
               tree_error: 0.
               splits:
                  - { var:1, quality:1.2943331897258759e-01,
                      le:-1.2180416584014893e+00 }
            -
               depth: 3
               sample_count: 2
               value: 9.4066470861434937e-01
               Tn: 0
               complexity: 0
               alpha: 0.
               node_risk: 7.8781436088348755e-04
               tree_risk: 0.
               tree_error: 0.
            -
               depth: 3
               sample_count: 39
               value: -7.7882868051528931e-01
               Tn: 0
               complexity: 0
               alpha: 0.
               node_risk: 2.2418083026461630e-03
               tree_risk: 0.
               tree_error: 0.
            -
               depth: 2
               sample_count: 36
               value: 1.0591321521335179e-01
               Tn: 0
               complexity: 0
               alpha: 0.
               node_risk: 3.1214230278733435e-02
               tree_risk: 0.
               tree_error: 0.
               splits:
                  - { var:0, quality:4.3504536151885986e-01,
                      le:-2.3151321709156036e-01 }
            -
               depth: 3
               sample_count: 1
               value: 1.0418255329132080e+00
               Tn: 0
               complexity: 0
               alpha: 0.
               node_risk: 0.
               tree_risk: 0.
               tree_error: 0.
            -
               depth: 3
               sample_count: 35
               value: 8.3420181274414062e-01
               Tn: 0
               complexity: 0
               alpha: 0.
               node_risk: 2.8090440902794889e-06
               tree_risk: 0.
               tree_error: 0.
            -
               depth: 1
               sample_count: 75
               value: -3.5675236682097114e-02
               Tn: 0
               complexity: 0
               alpha: 0.
               node_risk: 5.4637916611931375e-03
               tree_risk: 0.
               tree_error: 0.
               splits:
                  - { var:3, quality:9.6783883869647980e-02,
                      le:3.0305111408233643e-01 }
            -
               depth: 2
               sample_count: 7
               value: -7.9546946287155151e-01
               Tn: 0
               complexity: 0
               alpha: 0.
               node_risk: 2.8563016856916687e-03
               tree_risk: 0.
               tree_error: 0.
            -
               depth: 2
               sample_count: 68
               value: -3.4324284642934799e-02
               Tn: 0
               complexity: 0
               alpha: 0.
               node_risk: 1.2777950895306311e-03
               tree_risk: 0.
               tree_error: 0.
               splits:
                  - { var:0, quality:8.0336831510066986e-02,
                      le:1.5851593017578125e-01 }
            -
               depth: 3
               sample_count: 33
               value: -7.7886372804641724e-01
               Tn: 0
               complexity: 0
               alpha: 0.
               node_risk: 1.0423332821721393e-03
               tree_risk: 0.
               tree_error: 0.
            -
               depth: 3
               sample_count: 35
               value: -7.7525848150253296e-01
               Tn: 0
               complexity: 0
               alpha: 0.
               node_risk: 1.3277034254244313e-05
               tree_risk: 0.
               tree_error: 0.
      -
         best_tree_idx: -1
         nodes:
            -
               depth: 0
               sample_count: 152
               value: -1.1437991021299048e-03
               Tn: 0
               complexity: 0
               alpha: 0.
               node_risk: 5.7085673326149822e-01
               tree_risk: 0.
               tree_error: 0.
               splits:
                  - { var:0, quality:1.9328749179840088e-01,
                      le:-7.5619511306285858e-02 }
            -
               depth: 1
               sample_count: 82
               value: -3.4074324046874917e-02
               Tn: 0
               complexity: 0
               alpha: 0.
               node_risk: 7.4763057011153863e-02
               tree_risk: 0.
               tree_error: 0.
               splits:
                  - { var:1, quality:1.5932431817054749e-01,
                      le:-1.2180416584014893e+00 }
            -
               depth: 2
               sample_count: 1
               value: 9.5857810974121094e-01
               Tn: 0
               complexity: 0
               alpha: 0.
               node_risk: 0.
               tree_risk: 0.
               tree_error: 0.
            -
               depth: 2
               sample_count: 81
               value: -3.7181305411605185e-02
               Tn: 0
               complexity: 0
               alpha: 0.
               node_risk: 1.0645617891565443e-02
               tree_risk: 0.
               tree_error: 0.
               splits:
                  - { var:0, quality:1.1588078737258911e-01,
                      le:-3.0371868610382080e-01 }
            -
               depth: 3
               sample_count: 76
               value: -7.7886927127838135e-01
               Tn: 0
               complexity: 0
               alpha: 0.
               node_risk: 4.4787690549750736e-03
               tree_risk: 0.
               tree_error: 0.
            -
               depth: 3
               sample_count: 5
               value: -8.0757361650466919e-01
               Tn: 0
               complexity: 0
               alpha: 0.
               node_risk: 2.2644661056996189e-03
               tree_risk: 0.
               tree_error: 0.
            -
               depth: 1
               sample_count: 70
               value: 3.7431958690285684e-02
               Tn: 0
               complexity: 0
               alpha: 0.
               node_risk: 3.0300504320501653e-01
               tree_risk: 0.
               tree_error: 0.
               splits:
                  - { var:1, quality:4.0106257796287537e-01,
                      le:4.1874265670776367e-01 }
            -
               depth: 2
               sample_count: 37
               value: 9.9563980424726334e-02
               Tn: 0
               complexity: 0
               alpha: 0.
               node_risk: 1.9430049992830156e-06
               tree_risk: 0.
               tree_error: 0.
               splits:
                  - { var:3, quality:3.6678236722946167e-01,
                      le:-9.2900770902633667e-01 }
            -
               depth: 3
               sample_count: 34
               value: 8.3299177885055542e-01
               Tn: 0
               complexity: 0
               alpha: 0.
               node_risk: 1.6450412809732029e-08
               tree_risk: 0.
               tree_error: 0.
            -
               depth: 3
               sample_count: 3
               value: 8.3222830295562744e-01
               Tn: 0
               complexity: 0
               alpha: 0.
               node_risk: 4.5081463895257912e-08
               tree_risk: 0.
               tree_error: 0.
            -
               depth: 2
               sample_count: 33
               value: -3.2231217193784134e-02
               Tn: 0
               complexity: 0
               alpha: 0.
               node_risk: 2.1123131674218032e-05
               tree_risk: 0.
               tree_error: 0.
               splits:
                  - { var:3, quality:3.4289933741092682e-02,
                      le:8.4673655033111572e-01 }
            -
               depth: 3
               sample_count: 23
               value: -7.7473503351211548e-01
               Tn: 0
               complexity: 0
               alpha: 0.
               node_risk: 1.2664745068051431e-05
               tree_risk: 0.
               tree_error: 0.
            -
               depth: 3
               sample_count: 10
               value: -7.7557229995727539e-01
               Tn: 0
               complexity: 0
               alpha: 0.
               node_risk: 6.2058751987975613e-07
               tree_risk: 0.
               tree_error: 0.
      -
         best_tree_idx: -1
         nodes:
            -
               depth: 0
               sample_count: 152
               value: 2.1767175976971261e-03
               Tn: 0
               complexity: 0
               alpha: 0.
               node_risk: 6.6183326962749045e-01
               tree_risk: 0.
               tree_error: 0.
               splits:
                  - { var:3, quality:2.1053457260131836e-01,
                      le:-2.1775263547897339e-01 }
            -
               depth: 1
               sample_count: 78
               value: 3.8364702286437534e-02
               Tn: 0
               complexity: 0
               alpha: 0.
               node_risk: 4.4278369025219716e-01
               tree_risk: 0.
               tree_error: 0.
               splits:
                  - { var:1, quality:4.2286580801010132e-01,
                      le:-4.6542203426361084e-01 }
            -
               depth: 2
               sample_count: 40
               value: -2.2889120923355221e-02
               Tn: 0
               complexity: 0
               alpha: 0.
               node_risk: 1.0296334145280288e-01
               tree_risk: 0.
               tree_error: 0.
               splits:
                  - { var:1, quality:1.2103313207626343e-01,
                      le:-1.2180416584014893e+00 }
            -
               depth: 3
               sample_count: 2
               value: 9.3408519029617310e-01
               Tn: 0
               complexity: 0
               alpha: 0.
               node_risk: 7.5559974277439323e-04
               tree_risk: 0.
               tree_error: 0.
            -
               depth: 3
               sample_count: 38
               value: -7.7800530195236206e-01
               Tn: 0
               complexity: 0
               alpha: 0.
               node_risk: 2.1310817476880156e-03
               tree_risk: 0.
               tree_error: 0.
            -
               depth: 2
               sample_count: 38
               value: 1.0284241092832465e-01
               Tn: 0
               complexity: 0
               alpha: 0.
               node_risk: 3.1758867841825189e-02
               tree_risk: 0.
               tree_error: 0.
               splits:
                  - { var:0, quality:4.3366545438766479e-01,
                      le:-2.3151321709156036e-01 }
            -
               depth: 3
               sample_count: 1
               value: 1.0397667884826660e+00
               Tn: 0
               complexity: 0
               alpha: 0.
               node_risk: 0.
               tree_risk: 0.
               tree_error: 0.
            -
               depth: 3
               sample_count: 37
               value: 8.3156919479370117e-01
               Tn: 0
               complexity: 0
               alpha: 0.
               node_risk: 2.7626329633934077e-06
               tree_risk: 0.
               tree_error: 0.
            -
               depth: 1
               sample_count: 74
               value: -3.5967374371515738e-02
               Tn: 0
               complexity: 0
               alpha: 0.
               node_risk: 9.2351913208309211e-03
               tree_risk: 0.
               tree_error: 0.
               splits:
                  - { var:3, quality:9.8420940339565277e-02,
                      le:2.8126892447471619e-01 }
            -
               depth: 2
               sample_count: 7
               value: -8.0079108476638794e-01
               Tn: 0
               complexity: 0
               alpha: 0.
               node_risk: 3.3660651955580850e-03
               tree_risk: 0.
               tree_error: 0.
            -
               depth: 2
               sample_count: 67
               value: -3.4018304087777639e-02
               Tn: 0
               complexity: 0
               alpha: 0.
               node_risk: 3.1784372529907456e-03
               tree_risk: 0.
               tree_error: 0.
               splits:
                  - { var:0, quality:7.7834218740463257e-02,
                      le:1.2941838800907135e-01 }
            -
               depth: 3
               sample_count: 37
               value: -7.7968913316726685e-01
               Tn: 0
               complexity: 0
               alpha: 0.
               node_risk: 2.8683842842349774e-03
               tree_risk: 0.
               tree_error: 0.
            -
               depth: 3
               sample_count: 30
               value: -7.7454119920730591e-01
               Tn: 0
               complexity: 0
               alpha: 0.
               node_risk: 1.1247172060725730e-05
               tree_risk: 0.
               tree_error: 0.
      -
         best_tree_idx: -1
         nodes:
            -
               depth: 0
               sample_count: 152
               value: 2.7838187096150299e-03
               Tn: 0
               complexity: 0
               alpha: 0.
               node_risk: 6.2777603610878119e-01
               tree_risk: 0.
               tree_error: 0.
               splits:
                  - { var:3, quality:2.0658032596111298e-01,
                      le:-2.1775263547897339e-01 }
            -
               depth: 1
               sample_count: 79
               value: 3.8120749441883234e-02
               Tn: 0
               complexity: 0
               alpha: 0.
               node_risk: 4.1304959530569441e-01
               tree_risk: 0.
               tree_error: 0.
               splits:
                  - { var:1, quality:4.3726912140846252e-01,
                      le:-4.6542203426361084e-01 }
            -
               depth: 2
               sample_count: 39
               value: -2.6582602124947768e-02
               Tn: 0
               complexity: 0
               alpha: 0.
               node_risk: 5.8905748261954036e-02
               tree_risk: 0.
               tree_error: 0.
               splits:
                  - { var:1, quality:8.5800930857658386e-02,
                      le:-1.1974571943283081e+00 }
            -
               depth: 3
               sample_count: 1
               value: 9.5133894681930542e-01
               Tn: 0
               complexity: 0
               alpha: 0.
               node_risk: 0.
               tree_risk: 0.
               tree_error: 0.
            -
               depth: 3
               sample_count: 38
               value: -7.7590203285217285e-01
               Tn: 0
               complexity: 0
               alpha: 0.
               node_risk: 6.6357192060104153e-04
               tree_risk: 0.
               tree_error: 0.
            -
               depth: 2
               sample_count: 40
               value: 1.0120651721954346e-01
               Tn: 0
               complexity: 0
               alpha: 0.
               node_risk: 3.1676858744609127e-02
               tree_risk: 0.
               tree_error: 0.
               splits:
                  - { var:0, quality:4.4138485193252563e-01,
                      le:-2.3151321709156036e-01 }
            -
               depth: 3
               sample_count: 1
               value: 1.0372598171234131e+00
               Tn: 0
               complexity: 0
               alpha: 0.
               node_risk: 0.
               tree_risk: 0.
               tree_error: 0.
            -
               depth: 3
               sample_count: 39
               value: 8.3028995990753174e-01
               Tn: 0
               complexity: 0
               alpha: 0.
               node_risk: 2.3665551542317864e-06
               tree_risk: 0.
               tree_error: 0.
            -
               depth: 1
               sample_count: 73
               value: -3.5457517288319050e-02
               Tn: 0
               complexity: 0
               alpha: 0.
               node_risk: 9.3240617302914747e-03
               tree_risk: 0.
               tree_error: 0.
               splits:
                  - { var:3, quality:9.3072131276130676e-02,
                      le:5.4469513893127441e-01 }
            -
               depth: 2
               sample_count: 19
               value: -4.2555182878124084e-02
               Tn: 0
               complexity: 0
               alpha: 0.
               node_risk: 7.4184775370542827e-03
               tree_risk: 0.
               tree_error: 0.
               splits:
                  - { var:0, quality:4.1362967342138290e-02,
                      le:2.1513871848583221e-02 }
            -
               depth: 3
               sample_count: 5
               value: -8.1149780750274658e-01
               Tn: 0
               complexity: 0
               alpha: 0.
               node_risk: 4.5228085811215013e-04
               tree_risk: 0.
               tree_error: 0.
            -
               depth: 3
               sample_count: 14
               value: -7.7411115169525146e-01
               Tn: 0
               complexity: 0
               alpha: 0.
               node_risk: 1.1158715847701256e-05
               tree_risk: 0.
               tree_error: 0.
            -
               depth: 2
               sample_count: 54
               value: -3.2960190506720985e-02
               Tn: 0
               complexity: 0
               alpha: 0.
               node_risk: 6.1164529664714529e-04
               tree_risk: 0.
               tree_error: 0.
               splits:
                  - { var:0, quality:5.8755770325660706e-02,
                      le:1.2941838800907135e-01 }
            -
               depth: 3
               sample_count: 32
               value: -7.7680778503417969e-01
               Tn: 0
               complexity: 0
               alpha: 0.
               node_risk: 5.1229196155495871e-04
               tree_risk: 0.
               tree_error: 0.
            -
               depth: 3
               sample_count: 22
               value: -7.7431422472000122e-01
               Tn: 0
               complexity: 0
               alpha: 0.
               node_risk: 7.7861805874469836e-06
               tree_risk: 0.
               tree_error: 0.
      -
         best_tree_idx: -1
         nodes:
            -
               depth: 0
               sample_count: 152
               value: 3.4656324423849583e-03
               Tn: 0
               complexity: 0
               alpha: 0.
               node_risk: 6.2597288783297433e-01
               tree_risk: 0.
               tree_error: 0.
               splits:
                  - { var:3, quality:1.8399886786937714e-01,
                      le:-2.1775263547897339e-01 }
            -
               depth: 1
               sample_count: 82
               value: 3.5451829751453751e-02
               Tn: 0
               complexity: 0
               alpha: 0.
               node_risk: 4.3718871773115509e-01
               tree_risk: 0.
               tree_error: 0.
               splits:
                  - { var:1, quality:4.1109895706176758e-01,
                      le:-4.7052299976348877e-01 }
            -
               depth: 2
               sample_count: 43
               value: -2.2918722743904867e-02
               Tn: 0
               complexity: 0
               alpha: 0.
               node_risk: 9.8257921667226147e-02
               tree_risk: 0.
               tree_error: 0.
               splits:
                  - { var:1, quality:1.1815297603607178e-01,
                      le:-1.2180416584014893e+00 }
            -
               depth: 3
               sample_count: 2
               value: 9.2853194475173950e-01
               Tn: 0
               complexity: 0
               alpha: 0.
               node_risk: 6.6397426515329983e-04
               tree_risk: 0.
               tree_error: 0.
            -
               depth: 3
               sample_count: 41
               value: -7.7705276012420654e-01
               Tn: 0
               complexity: 0
               alpha: 0.
               node_risk: 2.0274908458098040e-03
               tree_risk: 0.
               tree_error: 0.
            -
               depth: 2
               sample_count: 39
               value: 9.9809105579669655e-02
               Tn: 0
               complexity: 0
               alpha: 0.
               node_risk: 3.0892076794418633e-02
               tree_risk: 0.
               tree_error: 0.
               splits:
                  - { var:0, quality:4.1940107941627502e-01,
                      le:-2.3151321709156036e-01 }
            -
               depth: 3
               sample_count: 1
               value: 1.0320526361465454e+00
               Tn: 0
               complexity: 0
               alpha: 0.
               node_risk: 0.
               tree_risk: 0.
               tree_error: 0.
            -
               depth: 3
               sample_count: 38
               value: 8.2895338535308838e-01
               Tn: 0
               complexity: 0
               alpha: 0.
               node_risk: 3.4336790514788440e-06
               tree_risk: 0.
               tree_error: 0.
            -
               depth: 1
               sample_count: 70
               value: -3.4003912976809908e-02
               Tn: 0
               complexity: 0
               alpha: 0.
               node_risk: 6.6109126271781810e-03
               tree_risk: 0.
               tree_error: 0.
               splits:
                  - { var:3, quality:8.2880154252052307e-02,
                      le:2.8126892447471619e-01 }
            -
               depth: 2
               sample_count: 8
               value: -7.9706352949142456e-01
               Tn: 0
               complexity: 0
               alpha: 0.
               node_risk: 4.0415144882171086e-03
               tree_risk: 0.
               tree_error: 0.
            -
               depth: 2
               sample_count: 62
               value: -3.2112126058388139e-02
               Tn: 0
               complexity: 0
               alpha: 0.
               node_risk: 6.2786781245496859e-04
               tree_risk: 0.
               tree_error: 0.
               splits:
                  - { var:0, quality:6.4055494964122772e-02,
                      le:1.2941838800907135e-01 }
            -
               depth: 3
               sample_count: 29
               value: -7.7648890018463135e-01
               Tn: 0
               complexity: 0
               alpha: 0.
               node_risk: 4.9354821235898794e-04
               tree_risk: 0.
               tree_error: 0.
            -
               depth: 3
               sample_count: 33
               value: -7.7384251356124878e-01
               Tn: 0
               complexity: 0
               alpha: 0.
               node_risk: 1.2521644371786544e-05
               tree_risk: 0.
               tree_error: 0.
      -
         best_tree_idx: -1
         nodes:
            -
               depth: 0
               sample_count: 152
               value: 2.2053530341700502e-03
               Tn: 0
               complexity: 0
               alpha: 0.
               node_risk: 5.8388802023918573e-01
               tree_risk: 0.
               tree_error: 0.
               splits:
                  - { var:3, quality:1.7655189335346222e-01,
                      le:-2.1775263547897339e-01 }
            -
               depth: 1
               sample_count: 82
               value: 3.3628186006553290e-02
               Tn: 0
               complexity: 0
               alpha: 0.
               node_risk: 3.9922553391356402e-01
               tree_risk: 0.
               tree_error: 0.
               splits:
                  - { var:1, quality:4.1923403739929199e-01,
                      le:-4.6542203426361084e-01 }
            -
               depth: 2
               sample_count: 42
               value: -2.7952232664184912e-02
               Tn: 0
               complexity: 0
               alpha: 0.
               node_risk: 4.2586189514216242e-02
               tree_risk: 0.
               tree_error: 0.
               splits:
                  - { var:0, quality:7.3387116193771362e-02,
                      le:-1.1072268486022949e+00 }
            -
               depth: 3
               sample_count: 1
               value: 9.0476858615875244e-01
               Tn: 0
               complexity: 0
               alpha: 0.
               node_risk: 0.
               tree_risk: 0.
               tree_error: 0.
            -
               depth: 3
               sample_count: 41
               value: -7.7664202451705933e-01
               Tn: 0
               complexity: 0
               alpha: 0.
               node_risk: 2.0148238460741541e-03
               tree_risk: 0.
               tree_error: 0.
            -
               depth: 2
               sample_count: 40
               value: 9.8287625610828405e-02
               Tn: 0
               complexity: 0
               alpha: 0.
               node_risk: 3.0135404727928861e-02
               tree_risk: 0.
               tree_error: 0.
               splits:
                  - { var:0, quality:4.1655060648918152e-01,
                      le:-2.3151321709156036e-01 }
            -
               depth: 3
               sample_count: 1
               value: 1.0269621610641479e+00
               Tn: 0
               complexity: 0
               alpha: 0.
               node_risk: 0.
               tree_risk: 0.
               tree_error: 0.
            -
               depth: 3
               sample_count: 39
               value: 8.2771730422973633e-01
               Tn: 0
               complexity: 0
               alpha: 0.
               node_risk: 3.0854323125328875e-06
               tree_risk: 0.
               tree_error: 0.
            -
               depth: 1
               sample_count: 70
               value: -3.4604251304907456e-02
               Tn: 0
               complexity: 0
               alpha: 0.
               node_risk: 8.8498548888180650e-03
               tree_risk: 0.
               tree_error: 0.
               splits:
                  - { var:3, quality:8.5507646203041077e-02,
                      le:2.1105712652206421e-01 }
            -
               depth: 2
               sample_count: 4
               value: -8.0121123790740967e-01
               Tn: 0
               complexity: 0
               alpha: 0.
               node_risk: 2.0459923795495029e-03
               tree_risk: 0.
               tree_error: 0.
            -
               depth: 2
               sample_count: 66
               value: -3.3396106947100525e-02
               Tn: 0
               complexity: 0
               alpha: 0.
               node_risk: 5.1180097376262168e-03
               tree_risk: 0.
               tree_error: 0.
               splits:
                  - { var:0, quality:7.4163272976875305e-02,
                      le:9.5785871148109436e-02 }
            -
               depth: 3
               sample_count: 36
               value: -7.8088498115539551e-01
               Tn: 0
               complexity: 0
               alpha: 0.
               node_risk: 4.5560934830907035e-03
               tree_risk: 0.
               tree_error: 0.
            -
               depth: 3
               sample_count: 30
               value: -7.7338176965713501e-01
               Tn: 0
               complexity: 0
               alpha: 0.
               node_risk: 8.4399663569691141e-06
               tree_risk: 0.
               tree_error: 0.
      -
         best_tree_idx: -1
         nodes:
            -
               depth: 0
               sample_count: 152
               value: 1.1469388723765548e-03
               Tn: 0
               complexity: 0
               alpha: 0.
               node_risk: 5.2826502515412099e-01
               tree_risk: 0.
               tree_error: 0.
               splits:
                  - { var:3, quality:1.6500076651573181e-01,
                      le:-6.7773401737213135e-01 }
            -
               depth: 1
               sample_count: 81
               value: 3.1974881657479720e-02
               Tn: 0
               complexity: 0
               alpha: 0.
               node_risk: 3.5610687017888842e-01
               tree_risk: 0.
               tree_error: 0.
               splits:
                  - { var:0, quality:3.4535375237464905e-01,
                      le:-1.7155738174915314e-01 }
            -
               depth: 2
               sample_count: 43
               value: -2.1544701571381369e-02
               Tn: 0
               complexity: 0
               alpha: 0.
               node_risk: 9.3564314798056686e-02
               tree_risk: 0.
               tree_error: 0.
               splits:
                  - { var:1, quality:1.1143988370895386e-01,
                      le:-1.2180416584014893e+00 }
            -
               depth: 3
               sample_count: 2
               value: 9.2494899034500122e-01
               Tn: 0
               complexity: 0
               alpha: 0.
               node_risk: 6.9392269748114188e-04
               tree_risk: 0.
               tree_error: 0.
            -
               depth: 3
               sample_count: 41
               value: -7.7543443441390991e-01
               Tn: 0
               complexity: 0
               alpha: 0.
               node_risk: 1.3899958823115205e-03
               tree_risk: 0.
               tree_error: 0.
            -
               depth: 2
               sample_count: 38
               value: 9.2536515311190962e-02
               Tn: 0
               complexity: 0
               alpha: 0.
               node_risk: 2.6505635786766568e-06
               tree_risk: 0.
               tree_error: 0.
               splits:
                  - { var:3, quality:3.2539689540863037e-01,
                      le:-9.2900770902633667e-01 }
            -
               depth: 3
               sample_count: 32
               value: 8.2658338546752930e-01
               Tn: 0
               complexity: 0
               alpha: 0.
               node_risk: 1.5769040184743233e-08
               tree_risk: 0.
               tree_error: 0.
            -
               depth: 3
               sample_count: 6
               value: 8.2592612504959106e-01
               Tn: 0
               complexity: 0
               alpha: 0.
               node_risk: 5.6433021450308374e-10
               tree_risk: 0.
               tree_error: 0.
            -
               depth: 1
               sample_count: 71
               value: -3.4022967685276351e-02
               Tn: 0
               complexity: 0
               alpha: 0.
               node_risk: 7.3573431734867828e-03
               tree_risk: 0.
               tree_error: 0.
               splits:
                  - { var:3, quality:8.3162344992160797e-02,
                      le:2.3868733644485474e-01 }
            -
               depth: 2
               sample_count: 5
               value: -7.9191792011260986e-01
               Tn: 0
               complexity: 0
               alpha: 0.
               node_risk: 1.2923625388264748e-03
               tree_risk: 0.
               tree_error: 0.
            -
               depth: 2
               sample_count: 66
               value: -3.3002782217932472e-02
               Tn: 0
               complexity: 0
               alpha: 0.
               node_risk: 5.0895631296331983e-03
               tree_risk: 0.
               tree_error: 0.
               splits:
                  - { var:0, quality:7.2404541075229645e-02,
                      le:9.5785871148109436e-02 }
            -
               depth: 3
               sample_count: 36
               value: -7.8053766489028931e-01
               Tn: 0
               complexity: 0
               alpha: 0.
               node_risk: 4.5609160645298796e-03
               tree_risk: 0.
               tree_error: 0.
            -
               depth: 3
               sample_count: 30
               value: -7.7315127849578857e-01
               Tn: 0
               complexity: 0
               alpha: 0.
               node_risk: 1.0227648580531101e-05
               tree_risk: 0.
               tree_error: 0.
      -
         best_tree_idx: -1
         nodes:
            -
               depth: 0
               sample_count: 152
               value: 1.8198683147171611e-03
               Tn: 0
               complexity: 0
               alpha: 0.
               node_risk: 5.5896444507782872e-01
               tree_risk: 0.
               tree_error: 0.
               splits:
                  - { var:3, quality:1.6859517991542816e-01,
                      le:-2.1775263547897339e-01 }
            -
               depth: 1
               sample_count: 81
               value: 3.2954096242233562e-02
               Tn: 0
               complexity: 0
               alpha: 0.
               node_risk: 3.8191383609162166e-01
               tree_risk: 0.
               tree_error: 0.
               splits:
                  - { var:1, quality:3.8505336642265320e-01,
                      le:-4.6542203426361084e-01 }
            -
               depth: 2
               sample_count: 42
               value: -2.5405043292613255e-02
               Tn: 0
               complexity: 0
               alpha: 0.
               node_risk: 5.4086371953009027e-02
               tree_risk: 0.
               tree_error: 0.
               splits:
                  - { var:1, quality:8.0589547753334045e-02,
                      le:-1.1974571943283081e+00 }
            -
               depth: 3
               sample_count: 1
               value: 9.4113177061080933e-01
               Tn: 0
               complexity: 0
               alpha: 0.
               node_risk: 0.
               tree_risk: 0.
               tree_error: 0.
            -
               depth: 3
               sample_count: 41
               value: -7.7435648441314697e-01
               Tn: 0
               complexity: 0
               alpha: 0.
               node_risk: 6.0430656808216354e-04
               tree_risk: 0.
               tree_error: 0.
            -
               depth: 2
               sample_count: 39
               value: 9.5802400356683970e-02
               Tn: 0
               complexity: 0
               alpha: 0.
               node_risk: 3.0737855241773082e-02
               tree_risk: 0.
               tree_error: 0.
               splits:
                  - { var:0, quality:3.8868173956871033e-01,
                      le:-2.3151321709156036e-01 }
            -
               depth: 3
               sample_count: 1
               value: 1.0257904529571533e+00
               Tn: 0
               complexity: 0
               alpha: 0.
               node_risk: 0.
               tree_risk: 0.
               tree_error: 0.
            -
               depth: 3
               sample_count: 38
               value: 8.2530850172042847e-01
               Tn: 0
               complexity: 0
               alpha: 0.
               node_risk: 2.0268767418896161e-06
               tree_risk: 0.
               tree_error: 0.
            -
               depth: 1
               sample_count: 71
               value: -3.3699462137801547e-02
               Tn: 0
               complexity: 0
               alpha: 0.
               node_risk: 8.9588356046999135e-03
               tree_risk: 0.
               tree_error: 0.
               splits:
                  - { var:2, quality:8.1948474049568176e-02,
                      le:-1.2140106409788132e-03 }
            -
               depth: 2
               sample_count: 34
               value: -3.8192447987111175e-02
               Tn: 0
               complexity: 0
               alpha: 0.
               node_risk: 7.6212332720955317e-03
               tree_risk: 0.
               tree_error: 0.
               splits:
                  - { var:0, quality:5.6264091283082962e-02,
                      le:-3.0883741378784180e-01 }
            -
               depth: 3
               sample_count: 30
               value: -7.7642554044723511e-01
               Tn: 0
               complexity: 0
               alpha: 0.
               node_risk: 9.4932219890389580e-04
               tree_risk: 0.
               tree_error: 0.
            -
               depth: 3
               sample_count: 4
               value: -8.1217765808105469e-01
               Tn: 0
               complexity: 0
               alpha: 0.
               node_risk: 2.3647788541802939e-06
               tree_risk: 0.
               tree_error: 0.
            -
               depth: 2
               sample_count: 37
               value: -2.9570772438435942e-02
               Tn: 0
               complexity: 0
               alpha: 0.
               node_risk: 2.0542080528193618e-05
               tree_risk: 0.
               tree_error: 0.
               splits:
                  - { var:0, quality:3.2363068312406540e-02,
                      le:2.6802664995193481e-01 }
            -
               depth: 3
               sample_count: 2
               value: -7.7451676130294800e-01
               Tn: 0
               complexity: 0
               alpha: 0.
               node_risk: 3.0474461488322335e-07
               tree_risk: 0.
               tree_error: 0.
            -
               depth: 3
               sample_count: 35
               value: -7.7276790142059326e-01
               Tn: 0
               complexity: 0
               alpha: 0.
               node_risk: 1.1101719319006609e-05
               tree_risk: 0.
               tree_error: 0.
      -
         best_tree_idx: -1
         nodes:
            -
               depth: 0
               sample_count: 152
               value: -9.3504700711683221e-05
               Tn: 0
               complexity: 0
               alpha: 0.
               node_risk: 5.3326593084868024e-01
               tree_risk: 0.
               tree_error: 0.
               splits:
                  - { var:3, quality:1.5093930065631866e-01,
                      le:-2.1775263547897339e-01 }
            -
               depth: 1
               sample_count: 80
               value: 2.9801505897194148e-02
               Tn: 0
               complexity: 0
               alpha: 0.
               node_risk: 3.7357540430063152e-01
               tree_risk: 0.
               tree_error: 0.
               splits:
                  - { var:1, quality:3.6039823293685913e-01,
                      le:-4.6542203426361084e-01 }
            -
               depth: 2
               sample_count: 43
               value: -2.5985336407672529e-02
               Tn: 0
               complexity: 0
               alpha: 0.
               node_risk: 5.4288491429235183e-02
               tree_risk: 0.
               tree_error: 0.
               splits:
                  - { var:1, quality:8.1462748348712921e-02,
                      le:-1.2180416584014893e+00 }
            -
               depth: 3
               sample_count: 1
               value: 9.3786007165908813e-01
               Tn: 0
               complexity: 0
               alpha: 0.
               node_risk: 0.
               tree_risk: 0.
               tree_error: 0.
            -
               depth: 3
               sample_count: 42
               value: -7.7542269229888916e-01
               Tn: 0
               complexity: 0
               alpha: 0.
               node_risk: 1.8609659290715272e-03
               tree_risk: 0.
               tree_error: 0.
            -
               depth: 2
               sample_count: 37
               value: 9.4634863170417582e-02
               Tn: 0
               complexity: 0
               alpha: 0.
               node_risk: 2.9939050607684647e-02
               tree_risk: 0.
               tree_error: 0.
               splits:
                  - { var:0, quality:3.6129987239837646e-01,
                      le:-2.3151321709156036e-01 }
            -
               depth: 3
               sample_count: 1
               value: 1.0208295583724976e+00
               Tn: 0
               complexity: 0
               alpha: 0.
               node_risk: 0.
               tree_risk: 0.
               tree_error: 0.
            -
               depth: 3
               sample_count: 36
               value: 8.2408052682876587e-01
               Tn: 0
               complexity: 0
               alpha: 0.
               node_risk: 2.1854358970285759e-06
               tree_risk: 0.
               tree_error: 0.
            -
               depth: 1
               sample_count: 72
               value: -3.3310183142829269e-02
               Tn: 0
               complexity: 0
               alpha: 0.
               node_risk: 8.7525575317894955e-03
               tree_risk: 0.
               tree_error: 0.
               splits:
                  - { var:0, quality:8.1041432917118073e-02,
                      le:3.8670465350151062e-02 }
            -
               depth: 2
               sample_count: 38
               value: -3.7094656378030777e-02
               Tn: 0
               complexity: 0
               alpha: 0.
               node_risk: 7.5828869604633725e-03
               tree_risk: 0.
               tree_error: 0.
               splits:
                  - { var:3, quality:5.8352917432785034e-02,
                      le:6.2503910064697266e-01 }
            -
               depth: 3
               sample_count: 6
               value: -8.0555737018585205e-01
               Tn: 0
               complexity: 0
               alpha: 0.
               node_risk: 1.0729864453473022e-03
               tree_risk: 0.
               tree_error: 0.
            -
               depth: 3
               sample_count: 32
               value: -7.7484518289566040e-01
               Tn: 0
               complexity: 0
               alpha: 0.
               node_risk: 4.4549683478994212e-04
               tree_risk: 0.
               tree_error: 0.
            -
               depth: 2
               sample_count: 34
               value: -2.9080477762309945e-02
               Tn: 0
               complexity: 0
               alpha: 0.
               node_risk: 1.7151681339998281e-05
               tree_risk: 0.
               tree_error: 0.
               splits:
                  - { var:3, quality:2.8760153800249100e-02,
                      le:8.4673655033111572e-01 }
            -
               depth: 3
               sample_count: 24
               value: -7.7223771810531616e-01
               Tn: 0
               complexity: 0
               alpha: 0.
               node_risk: 9.4761192550689433e-06
               tree_risk: 0.
               tree_error: 0.
            -
               depth: 3
               sample_count: 10
               value: -7.7303367853164673e-01
               Tn: 0
               complexity: 0
               alpha: 0.
               node_risk: 4.4381183002782654e-07
               tree_risk: 0.
               tree_error: 0.
      -
         best_tree_idx: -1
         nodes:
            -
               depth: 0
               sample_count: 152
               value: -2.0251138822028510e-03
               Tn: 0
               complexity: 0
               alpha: 0.
               node_risk: 4.6739644040105599e-01
               tree_risk: 0.
               tree_error: 0.
               splits:
                  - { var:3, quality:1.2742443382740021e-01,
                      le:-2.1775263547897339e-01 }
            -
               depth: 1
               sample_count: 79
               value: 2.5739239198686200e-02
               Tn: 0
               complexity: 0
               alpha: 0.
               node_risk: 3.3371684544538999e-01
               tree_risk: 0.
               tree_error: 0.
               splits:
                  - { var:1, quality:3.5507151484489441e-01,
                      le:-4.6542203426361084e-01 }
            -
               depth: 2
               sample_count: 43
               value: -3.0902113635526147e-02
               Tn: 0
               complexity: 0
               alpha: 0.
               node_risk: 1.8125114152677813e-03
               tree_risk: 0.
               tree_error: 0.
               splits:
                  - { var:0, quality:4.2795799672603607e-02,
                      le:-8.7578988075256348e-01 }
            -
               depth: 3
               sample_count: 2
               value: -7.9809570312500000e-01
               Tn: 0
               complexity: 0
               alpha: 0.
               node_risk: 7.3296126169158926e-05
               tree_risk: 0.
               tree_error: 0.
            -
               depth: 3
               sample_count: 41
               value: -7.7280128002166748e-01
               Tn: 0
               complexity: 0
               alpha: 0.
               node_risk: 5.8612821986422925e-06
               tree_risk: 0.
               tree_error: 0.
            -
               depth: 2
               sample_count: 36
               value: 9.3394188417328730e-02
               Tn: 0
               complexity: 0
               alpha: 0.
               node_risk: 2.9170973905887965e-02
               tree_risk: 0.
               tree_error: 0.
               splits:
                  - { var:0, quality:3.4317734837532043e-01,
                      le:-2.3151321709156036e-01 }
            -
               depth: 3
               sample_count: 1
               value: 1.0159747600555420e+00
               Tn: 0
               complexity: 0
               alpha: 0.
               node_risk: 0.
               tree_risk: 0.
               tree_error: 0.
            -
               depth: 3
               sample_count: 35
               value: 8.2289505004882812e-01
               Tn: 0
               complexity: 0
               alpha: 0.
               node_risk: 2.6988940610150891e-06
               tree_risk: 0.
               tree_error: 0.
            -
               depth: 1
               sample_count: 73
               value: -3.2071468586178674e-02
               Tn: 0
               complexity: 0
               alpha: 0.
               node_risk: 6.8785196348539329e-03
               tree_risk: 0.
               tree_error: 0.
               splits:
                  - { var:3, quality:7.7331796288490295e-02,
                      le:2.8126892447471619e-01 }
            -
               depth: 2
               sample_count: 8
               value: -7.9557907581329346e-01
               Tn: 0
               complexity: 0
               alpha: 0.
               node_risk: 3.6043700026638197e-03
               tree_risk: 0.
               tree_error: 0.
            -
               depth: 2
               sample_count: 65
               value: -3.0125724352323090e-02
               Tn: 0
               complexity: 0
               alpha: 0.
               node_risk: 1.0286254623278965e-03
               tree_risk: 0.
               tree_error: 0.
               splits:
                  - { var:0, quality:5.9168685227632523e-02,
                      le:1.5481616556644440e-01 }
            -
               depth: 3
               sample_count: 30
               value: -7.7542525529861450e-01
               Tn: 0
               complexity: 0
               alpha: 0.
               node_risk: 8.4148257296233486e-04
               tree_risk: 0.
               tree_error: 0.
            -
               depth: 3
               sample_count: 35
               value: -7.7208656072616577e-01
               Tn: 0
               complexity: 0
               alpha: 0.
               node_risk: 9.8112205179842760e-06
               tree_risk: 0.
               tree_error: 0.
      -
         best_tree_idx: -1
         nodes:
            -
               depth: 0
               sample_count: 152
               value: 2.9427726556988140e-03
               Tn: 0
               complexity: 0
               alpha: 0.
               node_risk: 5.0262812163424375e-01
               tree_risk: 0.
               tree_error: 0.
               splits:
                  - { var:3, quality:1.9814234972000122e-01,
                      le:-3.1305208802223206e-01 }
            -
               depth: 1
               sample_count: 75
               value: 3.9404245664676034e-02
               Tn: 0
               complexity: 0
               alpha: 0.
               node_risk: 2.9547622525817635e-01
               tree_risk: 0.
               tree_error: 0.
               splits:
                  - { var:0, quality:3.2458192110061646e-01,
                      le:-1.7155738174915314e-01 }
            -
               depth: 2
               sample_count: 34
               value: -1.8443839405389392e-02
               Tn: 0
               complexity: 0
               alpha: 0.
               node_risk: 8.7343732208943620e-02
               tree_risk: 0.
               tree_error: 0.
               splits:
                  - { var:1, quality:9.6628844738006592e-02,
                      le:-1.2180416584014893e+00 }
            -
               depth: 3
               sample_count: 2
               value: 9.1815823316574097e-01
               Tn: 0
               complexity: 0
               alpha: 0.
               node_risk: 5.5113272185991491e-04
               tree_risk: 0.
               tree_error: 0.
            -
               depth: 3
               sample_count: 32
               value: -7.7535009384155273e-01
               Tn: 0
               complexity: 0
               alpha: 0.
               node_risk: 1.7297099690404966e-03
               tree_risk: 0.
               tree_error: 0.
            -
               depth: 2
               sample_count: 41
               value: 8.7375828405705888e-02
               Tn: 0
               complexity: 0
               alpha: 0.
               node_risk: 2.6780980744156579e-06
               tree_risk: 0.
               tree_error: 0.
               splits:
                  - { var:3, quality:3.1301769614219666e-01,
                      le:-9.2900770902633667e-01 }
            -
               depth: 3
               sample_count: 34
               value: 8.2189017534255981e-01
               Tn: 0
               complexity: 0
               alpha: 0.
               node_risk: 1.4223210220709603e-08
               tree_risk: 0.
               tree_error: 0.
            -
               depth: 3
               sample_count: 7
               value: 8.2139873504638672e-01
               Tn: 0
               complexity: 0
               alpha: 0.
               node_risk: 9.2394598587286492e-07
               tree_risk: 0.
               tree_error: 0.
            -
               depth: 1
               sample_count: 77
               value: -3.2571649106291983e-02
               Tn: 0
               complexity: 0
               alpha: 0.
               node_risk: 1.0325860539420112e-02
               tree_risk: 0.
               tree_error: 0.
               splits:
                  - { var:3, quality:8.3605885505676270e-02,
                      le:2.8126892447471619e-01 }
            -
               depth: 2
               sample_count: 7
               value: -7.9683756828308105e-01
               Tn: 0
               complexity: 0
               alpha: 0.
               node_risk: 3.5312601745813160e-03
               tree_risk: 0.
               tree_error: 0.
            -
               depth: 2
               sample_count: 70
               value: -3.0994360920573984e-02
               Tn: 0
               complexity: 0
               alpha: 0.
               node_risk: 4.8789650888185071e-03
               tree_risk: 0.
               tree_error: 0.
               splits:
                  - { var:0, quality:6.7805327475070953e-02,
                      le:1.2941838800907135e-01 }
            -
               depth: 3
               sample_count: 35
               value: -7.7919065952301025e-01
               Tn: 0
               complexity: 0
               alpha: 0.
               node_risk: 4.3095852384528732e-03
               tree_risk: 0.
               tree_error: 0.
            -
               depth: 3
               sample_count: 35
               value: -7.7174478769302368e-01
               Tn: 0
               complexity: 0
               alpha: 0.
               node_risk: 9.5787289427426425e-06
               tree_risk: 0.
               tree_error: 0.
      -
         best_tree_idx: -1
         nodes:
            -
               depth: 0
               sample_count: 152
               value: 2.1751066424736849e-03
               Tn: 0
               complexity: 0
               alpha: 0.
               node_risk: 5.2316923051770947e-01
               tree_risk: 0.
               tree_error: 0.
               splits:
                  - { var:3, quality:1.5325656533241272e-01,
                      le:-2.1775263547897339e-01 }
            -
               depth: 1
               sample_count: 82
               value: 3.1444149773295335e-02
               Tn: 0
               complexity: 0
               alpha: 0.
               node_risk: 3.6232684734310705e-01
               tree_risk: 0.
               tree_error: 0.
               splits:
                  - { var:1, quality:3.2985082268714905e-01,
                      le:-4.6542203426361084e-01 }
            -
               depth: 2
               sample_count: 44
               value: -1.9743070006370544e-02
               Tn: 0
               complexity: 0
               alpha: 0.
               node_risk: 8.3894695500922531e-02
               tree_risk: 0.
               tree_error: 0.
               splits:
                  - { var:1, quality:9.9965937435626984e-02,
                      le:-1.1974571943283081e+00 }
            -
               depth: 3
               sample_count: 2
               value: 9.1527414321899414e-01
               Tn: 0
               complexity: 0
               alpha: 0.
               node_risk: 5.3947207482707427e-04
               tree_risk: 0.
               tree_error: 0.
            -
               depth: 3
               sample_count: 42
               value: -7.7291727066040039e-01
               Tn: 0
               complexity: 0
               alpha: 0.
               node_risk: 5.3999452392580749e-04
               tree_risk: 0.
               tree_error: 0.
            -
               depth: 2
               sample_count: 38
               value: 9.0713562149750557e-02
               Tn: 0
               complexity: 0
               alpha: 0.
               node_risk: 2.9657563965112987e-02
               tree_risk: 0.
               tree_error: 0.
               splits:
                  - { var:0, quality:3.4235545992851257e-01,
                      le:-2.3036833107471466e-01 }
            -
               depth: 3
               sample_count: 1
               value: 1.0143905878067017e+00
               Tn: 0
               complexity: 0
               alpha: 0.
               node_risk: 0.
               tree_risk: 0.
               tree_error: 0.
            -
               depth: 3
               sample_count: 37
               value: 8.2067817449569702e-01
               Tn: 0
               complexity: 0
               alpha: 0.
               node_risk: 2.2180722463738256e-06
               tree_risk: 0.
               tree_error: 0.
            -
               depth: 1
               sample_count: 70
               value: -3.2111486739345961e-02
               Tn: 0
               complexity: 0
               alpha: 0.
               node_risk: 8.3049445383861359e-03
               tree_risk: 0.
               tree_error: 0.
               splits:
                  - { var:3, quality:7.4160352349281311e-02,
                      le:2.8126892447471619e-01 }
            -
               depth: 2
               sample_count: 8
               value: -7.9463756084442139e-01
               Tn: 0
               complexity: 0
               alpha: 0.
               node_risk: 3.4741431573120721e-03
               tree_risk: 0.
               tree_error: 0.
            -
               depth: 2
               sample_count: 62
               value: -3.0201037504499959e-02
               Tn: 0
               complexity: 0
               alpha: 0.
               node_risk: 2.8507760497580026e-03
               tree_risk: 0.
               tree_error: 0.
               splits:
                  - { var:0, quality:5.6843739002943039e-02,
                      le:1.2941838800907135e-01 }
            -
               depth: 3
               sample_count: 34
               value: -7.7680385112762451e-01
               Tn: 0
               complexity: 0
               alpha: 0.
               node_risk: 2.5491305667795158e-03
               tree_risk: 0.
               tree_error: 0.
            -
               depth: 3
               sample_count: 28
               value: -7.7145779132843018e-01
               Tn: 0
               complexity: 0
               alpha: 0.
               node_risk: 8.2713476159054777e-06
               tree_risk: 0.
               tree_error: 0.
      -
         best_tree_idx: -1
         nodes:
            -
               depth: 0
               sample_count: 152
               value: -3.7619523753068948e-03
               Tn: 0
               complexity: 0
               alpha: 0.
               node_risk: 4.2315192778121158e-01
               tree_risk: 0.
               tree_error: 0.
               splits:
                  - { var:0, quality:1.2168211489915848e-01,
                      le:-7.5619511306285858e-02 }
            -
               depth: 1
               sample_count: 85
               value: -2.8658914434559205e-02
               Tn: 0
               complexity: 0
               alpha: 0.
               node_risk: 9.2072174737122009e-02
               tree_risk: 0.
               tree_error: 0.
               splits:
                  - { var:0, quality:7.5018674135208130e-02,
                      le:-3.0883741378784180e-01 }
            -
               depth: 2
               sample_count: 81
               value: -2.6919903440607920e-02
               Tn: 0
               complexity: 0
               alpha: 0.
               node_risk: 8.5860133840435324e-02
               tree_risk: 0.
               tree_error: 0.
               splits:
                  - { var:1, quality:6.4990460872650146e-02,
                      le:-3.7163081765174866e-01 }
            -
               depth: 3
               sample_count: 71
               value: -7.7481013536453247e-01
               Tn: 0
               complexity: 0
               alpha: 0.
               node_risk: 3.8491619765059909e-03
               tree_risk: 0.
               tree_error: 0.
            -
               depth: 3
               sample_count: 10
               value: -5.4505851119756699e-02
               Tn: 0
               complexity: 0
               alpha: 0.
               node_risk: 7.5719690683986457e-02
               tree_risk: 0.
               tree_error: 0.
            -
               depth: 2
               sample_count: 4
               value: -8.0456054210662842e-01
               Tn: 0
               complexity: 0
               alpha: 0.
               node_risk: 1.0067068098568166e-03
               tree_risk: 0.
               tree_error: 0.
            -
               depth: 1
               sample_count: 67
               value: 2.7823745759565439e-02
               Tn: 0
               complexity: 0
               alpha: 0.
               node_risk: 2.1154878797609467e-01
               tree_risk: 0.
               tree_error: 0.
               splits:
                  - { var:1, quality:2.6340040564537048e-01,
                      le:4.1874265670776367e-01 }
            -
               depth: 2
               sample_count: 33
               value: 8.4857602914174393e-02
               Tn: 0
               complexity: 0
               alpha: 0.
               node_risk: 1.9373999412264364e-06
               tree_risk: 0.
               tree_error: 0.
               splits:
                  - { var:3, quality:2.3762875795364380e-01,
                      le:-9.4335150718688965e-01 }
            -
               depth: 3
               sample_count: 28
               value: 8.1963628530502319e-01
               Tn: 0
               complexity: 0
               alpha: 0.
               node_risk: 1.0563716568157133e-11
               tree_risk: 0.
               tree_error: 0.
            -
               depth: 3
               sample_count: 5
               value: 8.1903141736984253e-01
               Tn: 0
               complexity: 0
               alpha: 0.
               node_risk: 2.1086063450859172e-11
               tree_risk: 0.
               tree_error: 0.
            -
               depth: 2
               sample_count: 34
               value: -2.7532645008143258e-02
               Tn: 0
               complexity: 0
               alpha: 0.
               node_risk: 1.5222172259216071e-05
               tree_risk: 0.
               tree_error: 0.
               splits:
                  - { var:2, quality:2.5780308991670609e-02,
                      le:2.7368874549865723e+00 }
            -
               depth: 3
               sample_count: 21
               value: -7.7096760272979736e-01
               Tn: 0
               complexity: 0
               alpha: 0.
               node_risk: 7.8814620727823276e-06
               tree_risk: 0.
               tree_error: 0.
            -
               depth: 3
               sample_count: 13
               value: -7.7168405055999756e-01
               Tn: 0
               complexity: 0
               alpha: 0.
               node_risk: 6.1479256007954119e-07
               tree_risk: 0.
               tree_error: 0.
      -
         best_tree_idx: -1
         nodes:
            -
               depth: 0
               sample_count: 152
               value: 1.2640222710998434e-03
               Tn: 0
               complexity: 0
               alpha: 0.
               node_risk: 4.9632915579921294e-01
               tree_risk: 0.
               tree_error: 0.
               splits:
                  - { var:3, quality:1.4603863656520844e-01,
                      le:-1.8568448722362518e-01 }
            -
               depth: 1
               sample_count: 79
               value: 3.1035375132968154e-02
               Tn: 0
               complexity: 0
               alpha: 0.
               node_risk: 3.4116691278628813e-01
               tree_risk: 0.
               tree_error: 0.
               splits:
                  - { var:1, quality:3.0404177308082581e-01,
                      le:-4.6542203426361084e-01 }
            -
               depth: 2
               sample_count: 42
               value: -1.9382192708906672e-02
               Tn: 0
               complexity: 0
               alpha: 0.
               node_risk: 8.4371313995419819e-02
               tree_risk: 0.
               tree_error: 0.
               splits:
                  - { var:1, quality:9.8003566265106201e-02,
                      le:-1.2180416584014893e+00 }
            -
               depth: 3
               sample_count: 2
               value: 9.1461437940597534e-01
               Tn: 0
               complexity: 0
               alpha: 0.
               node_risk: 5.3130375193433110e-04
               tree_risk: 0.
               tree_error: 0.
            -
               depth: 3
               sample_count: 40
               value: -7.7371811866760254e-01
               Tn: 0
               complexity: 0
               alpha: 0.
               node_risk: 1.6145556505175324e-03
               tree_risk: 0.
               tree_error: 0.
            -
               depth: 2
               sample_count: 37
               value: 8.8266127818339576e-02
               Tn: 0
               complexity: 0
               alpha: 0.
               node_risk: 2.8846205654522727e-02
               tree_risk: 0.
               tree_error: 0.
               splits:
                  - { var:0, quality:3.1710758805274963e-01,
                      le:-2.3151321709156036e-01 }
            -
               depth: 3
               sample_count: 1
               value: 1.0077805519104004e+00
               Tn: 0
               complexity: 0
               alpha: 0.
               node_risk: 0.
               tree_risk: 0.
               tree_error: 0.
            -
               depth: 3
               sample_count: 36
               value: 8.1843191385269165e-01
               Tn: 0
               complexity: 0
               alpha: 0.
               node_risk: 2.2739704728658161e-06
               tree_risk: 0.
               tree_error: 0.
            -
               depth: 1
               sample_count: 73
               value: -3.0954291099963123e-02
               Tn: 0
               complexity: 0
               alpha: 0.
               node_risk: 9.3664610633315548e-03
               tree_risk: 0.
               tree_error: 0.
               splits:
                  - { var:3, quality:7.1731284260749817e-02,
                      le:2.8126892447471619e-01 }
            -
               depth: 2
               sample_count: 7
               value: -7.9518580436706543e-01
               Tn: 0
               complexity: 0
               alpha: 0.
               node_risk: 3.4512590875081153e-03
               tree_risk: 0.
               tree_error: 0.
            -
               depth: 2
               sample_count: 66
               value: -2.9343883845616470e-02
               Tn: 0
               complexity: 0
               alpha: 0.
               node_risk: 4.1301938720036610e-03
               tree_risk: 0.
               tree_error: 0.
               splits:
                  - { var:0, quality:5.7229865342378616e-02,
                      le:1.2941838800907135e-01 }
            -
               depth: 3
               sample_count: 31
               value: -7.7777773141860962e-01
               Tn: 0
               complexity: 0
               alpha: 0.
               node_risk: 3.7207172672921451e-03
               tree_risk: 0.
               tree_error: 0.
            -
               depth: 3
               sample_count: 35
               value: -7.7084225416183472e-01
               Tn: 0
               complexity: 0
               alpha: 0.
               node_risk: 9.8053803125747185e-06
               tree_risk: 0.
               tree_error: 0.
      -
         best_tree_idx: -1
         nodes:
            -
               depth: 0
               sample_count: 152
               value: -2.2154605310214194e-04
               Tn: 0
               complexity: 0
               alpha: 0.
               node_risk: 4.7038703937697390e-01
               tree_risk: 0.
               tree_error: 0.
               splits:
                  - { var:3, quality:1.2047544121742249e-01,
                      le:-2.1775263547897339e-01 }
            -
               depth: 1
               sample_count: 82
               value: 2.5789398291125532e-02
               Tn: 0
               complexity: 0
               alpha: 0.
               node_risk: 3.4187208547800829e-01
               tree_risk: 0.
               tree_error: 0.
               splits:
                  - { var:1, quality:2.8562888503074646e-01,
                      le:-4.6542203426361084e-01 }
            -
               depth: 2
               sample_count: 47
               value: -2.0021616065121713e-02
               Tn: 0
               complexity: 0
               alpha: 0.
               node_risk: 8.2629641427189551e-02
               tree_risk: 0.
               tree_error: 0.
               splits:
                  - { var:1, quality:9.9298141896724701e-02,
                      le:-1.2180416584014893e+00 }
            -
               depth: 3
               sample_count: 2
               value: 9.1208469867706299e-01
               Tn: 0
               complexity: 0
               alpha: 0.
               node_risk: 5.1898373669700959e-04
               tree_risk: 0.
               tree_error: 0.
            -
               depth: 3
               sample_count: 45
               value: -7.7321362495422363e-01
               Tn: 0
               complexity: 0
               alpha: 0.
               node_risk: 1.6531795703341942e-03
               tree_risk: 0.
               tree_error: 0.
            -
               depth: 2
               sample_count: 35
               value: 8.7307046140943256e-02
               Tn: 0
               complexity: 0
               alpha: 0.
               node_risk: 2.8151204448352618e-02
               tree_risk: 0.
               tree_error: 0.
               splits:
                  - { var:0, quality:2.9493770003318787e-01,
                      le:-2.3151321709156036e-01 }
            -
               depth: 3
               sample_count: 1
               value: 1.0035740137100220e+00
               Tn: 0
               complexity: 0
               alpha: 0.
               node_risk: 0.
               tree_risk: 0.
               tree_error: 0.
            -
               depth: 3
               sample_count: 34
               value: 8.1738883256912231e-01
               Tn: 0
               complexity: 0
               alpha: 0.
               node_risk: 1.7146840609327807e-06
               tree_risk: 0.
               tree_error: 0.
            -
               depth: 1
               sample_count: 70
               value: -3.0691509427768843e-02
               Tn: 0
               complexity: 0
               alpha: 0.
               node_risk: 8.0469706295807630e-03
               tree_risk: 0.
               tree_error: 0.
               splits:
                  - { var:2, quality:6.7092821002006531e-02,
                      le:-1.2140106409788132e-03 }
            -
               depth: 2
               sample_count: 34
               value: -3.4871312241782158e-02
               Tn: 0
               complexity: 0
               alpha: 0.
               node_risk: 6.8755110598311131e-03
               tree_risk: 0.
               tree_error: 0.
               splits:
                  - { var:0, quality:4.7391403466463089e-02,
                      le:-3.0883741378784180e-01 }
            -
               depth: 3
               sample_count: 30
               value: -7.7392965555191040e-01
               Tn: 0
               complexity: 0
               alpha: 0.
               node_risk: 8.2632781323644169e-04
               tree_risk: 0.
               tree_error: 0.
            -
               depth: 3
               sample_count: 4
               value: -8.0766874551773071e-01
               Tn: 0
               complexity: 0
               alpha: 0.
               node_risk: 2.0672121432835366e-06
               tree_risk: 0.
               tree_error: 0.
            -
               depth: 2
               sample_count: 36
               value: -2.6743917881200712e-02
               Tn: 0
               complexity: 0
               alpha: 0.
               node_risk: 1.6448771905257231e-05
               tree_risk: 0.
               tree_error: 0.
               splits:
                  - { var:3, quality:2.5755714625120163e-02,
                      le:8.5985231399536133e-01 }
            -
               depth: 3
               sample_count: 25
               value: -7.7038466930389404e-01
               Tn: 0
               complexity: 0
               alpha: 0.
               node_risk: 8.3523810955436761e-06
               tree_risk: 0.
               tree_error: 0.
            -
               depth: 3
               sample_count: 11
               value: -7.7114486694335938e-01
               Tn: 0
               complexity: 0
               alpha: 0.
               node_risk: 9.1923976111227268e-07
               tree_risk: 0.
               tree_error: 0.
      -
         best_tree_idx: -1
         nodes:
            -
               depth: 0
               sample_count: 152
               value: -1.2653000211637270e-03
               Tn: 0
               complexity: 0
               alpha: 0.
               node_risk: 4.1749572365290305e-01
               tree_risk: 0.
               tree_error: 0.
               splits:
                  - { var:3, quality:1.2911935150623322e-01,
                      le:-2.1775263547897339e-01 }
            -
               depth: 1
               sample_count: 75
               value: 2.8238568256298700e-02
               Tn: 0
               complexity: 0
               alpha: 0.
               node_risk: 2.8093356723199625e-01
               tree_risk: 0.
               tree_error: 0.
               splits:
                  - { var:1, quality:2.7958586812019348e-01,
                      le:-4.6542203426361084e-01 }
            -
               depth: 2
               sample_count: 40
               value: -2.2398330364376308e-02
               Tn: 0
               complexity: 0
               alpha: 0.
               node_risk: 3.3735658128525185e-02
               tree_risk: 0.
               tree_error: 0.
               splits:
                  - { var:0, quality:5.3800359368324280e-02,
                      le:-8.8406997919082642e-01 }
            -
               depth: 3
               sample_count: 1
               value: 8.9174950122833252e-01
               Tn: 0
               complexity: 0
               alpha: 0.
               node_risk: 0.
               tree_risk: 0.
               tree_error: 0.
            -
               depth: 3
               sample_count: 39
               value: -7.7085232734680176e-01
               Tn: 0
               complexity: 0
               alpha: 0.
               node_risk: 2.7065536074497021e-06
               tree_risk: 0.
               tree_error: 0.
            -
               depth: 2
               sample_count: 35
               value: 8.6109309537070133e-02
               Tn: 0
               complexity: 0
               alpha: 0.
               node_risk: 2.7418294653140940e-02
               tree_risk: 0.
               tree_error: 0.
               splits:
                  - { var:0, quality:2.8693625330924988e-01,
                      le:-2.3151321709156036e-01 }
            -
               depth: 3
               sample_count: 1
               value: 9.9908065795898438e-01
               Tn: 0
               complexity: 0
               alpha: 0.
               node_risk: 0.
               tree_risk: 0.
               tree_error: 0.
            -
               depth: 3
               sample_count: 34
               value: 8.1637936830520630e-01
               Tn: 0
               complexity: 0
               alpha: 0.
               node_risk: 5.1715041221589431e-07
               tree_risk: 0.
               tree_error: 0.
            -
               depth: 1
               sample_count: 77
               value: -3.0002834057653104e-02
               Tn: 0
               complexity: 0
               alpha: 0.
               node_risk: 7.6861567584921714e-03
               tree_risk: 0.
               tree_error: 0.
               splits:
                  - { var:3, quality:7.0478767156600952e-02,
                      le:5.4469513893127441e-01 }
            -
               depth: 2
               sample_count: 20
               value: -3.6571322940289974e-02
               Tn: 0
               complexity: 0
               alpha: 0.
               node_risk: 6.0682138828098593e-03
               tree_risk: 0.
               tree_error: 0.
               splits:
                  - { var:0, quality:3.1883008778095245e-02,
                      le:2.1513871848583221e-02 }
            -
               depth: 3
               sample_count: 6
               value: -8.0091953277587891e-01
               Tn: 0
               complexity: 0
               alpha: 0.
               node_risk: 9.2729445919164516e-04
               tree_risk: 0.
               tree_error: 0.
            -
               depth: 3
               sample_count: 14
               value: -7.7010142803192139e-01
               Tn: 0
               complexity: 0
               alpha: 0.
               node_risk: 7.1440290217768959e-06
               tree_risk: 0.
               tree_error: 0.
            -
               depth: 2
               sample_count: 57
               value: -2.7698101116377011e-02
               Tn: 0
               complexity: 0
               alpha: 0.
               node_risk: 4.5226969761148067e-04
               tree_risk: 0.
               tree_error: 0.
               splits:
                  - { var:0, quality:4.3788995593786240e-02,
                      le:1.2941838800907135e-01 }
            -
               depth: 3
               sample_count: 35
               value: -7.7231639623641968e-01
               Tn: 0
               complexity: 0
               alpha: 0.
               node_risk: 3.8664516237658930e-04
               tree_risk: 0.
               tree_error: 0.
            -
               depth: 3
               sample_count: 22
               value: -7.7035307884216309e-01
               Tn: 0
               complexity: 0
               alpha: 0.
               node_risk: 6.1625230380925322e-06
               tree_risk: 0.
               tree_error: 0.
      -
         best_tree_idx: -1
         nodes:
            -
               depth: 0
               sample_count: 152
               value: 2.2169788319029306e-04
               Tn: 0
               complexity: 0
               alpha: 0.
               node_risk: 4.5420590738280991e-01
               tree_risk: 0.
               tree_error: 0.
               splits:
                  - { var:3, quality:1.3632299005985260e-01,
                      le:-2.1775263547897339e-01 }
            -
               depth: 1
               sample_count: 77
               value: 2.9777048542708545e-02
               Tn: 0
               complexity: 0
               alpha: 0.
               node_risk: 3.0877110197599034e-01
               tree_risk: 0.
               tree_error: 0.
               splits:
                  - { var:1, quality:2.7189627289772034e-01,
                      le:-4.6542203426361084e-01 }
            -
               depth: 2
               sample_count: 41
               value: -1.8409609658325592e-02
               Tn: 0
               complexity: 0
               alpha: 0.
               node_risk: 7.8376525264764199e-02
               tree_risk: 0.
               tree_error: 0.
               splits:
                  - { var:1, quality:9.0032033622264862e-02,
                      le:-1.2180416584014893e+00 }
            -
               depth: 3
               sample_count: 2
               value: 9.0714198350906372e-01
               Tn: 0
               complexity: 0
               alpha: 0.
               node_risk: 4.6218987347401708e-04
               tree_risk: 0.
               tree_error: 0.
            -
               depth: 3
               sample_count: 39
               value: -7.7302569150924683e-01
               Tn: 0
               complexity: 0
               alpha: 0.
               node_risk: 1.7777663409401893e-03
               tree_risk: 0.
               tree_error: 0.
            -
               depth: 2
               sample_count: 36
               value: 8.4656298160552979e-02
               Tn: 0
               complexity: 0
               alpha: 0.
               node_risk: 2.6772108149074825e-02
               tree_risk: 0.
               tree_error: 0.
               splits:
                  - { var:0, quality:2.8477105498313904e-01,
                      le:-2.3151321709156036e-01 }
            -
               depth: 3
               sample_count: 1
               value: 9.9467396736145020e-01
               Tn: 0
               complexity: 0
               alpha: 0.
               node_risk: 0.
               tree_risk: 0.
               tree_error: 0.
            -
               depth: 3
               sample_count: 35
               value: 8.1525957584381104e-01
               Tn: 0
               complexity: 0
               alpha: 0.
               node_risk: 1.8371382549953186e-06
               tree_risk: 0.
               tree_error: 0.
            -
               depth: 1
               sample_count: 75
               value: -3.0121795460581781e-02
               Tn: 0
               complexity: 0
               alpha: 0.
               node_risk: 9.1192923333082987e-03
               tree_risk: 0.
               tree_error: 0.
               splits:
                  - { var:3, quality:7.0150129497051239e-02,
                      le:2.8126892447471619e-01 }
            -
               depth: 2
               sample_count: 7
               value: -7.9381561279296875e-01
               Tn: 0
               complexity: 0
               alpha: 0.
               node_risk: 2.7993165489536200e-03
               tree_risk: 0.
               tree_error: 0.
            -
               depth: 2
               sample_count: 68
               value: -2.8423666625338441e-02
               Tn: 0
               complexity: 0
               alpha: 0.
               node_risk: 4.2190369472785635e-03
               tree_risk: 0.
               tree_error: 0.
               splits:
                  - { var:2, quality:5.5405564606189728e-02,
                      le:-8.6249083280563354e-02 }
            -
               depth: 3
               sample_count: 33
               value: -7.7701354026794434e-01
               Tn: 0
               complexity: 0
               alpha: 0.
               node_risk: 3.7391655666428325e-03
               tree_risk: 0.
               tree_error: 0.
            -
               depth: 3
               sample_count: 35
               value: -7.6993298530578613e-01
               Tn: 0
               complexity: 0
               alpha: 0.
               node_risk: 1.1834591265781624e-05
               tree_risk: 0.
               tree_error: 0.
      -
         best_tree_idx: -1
         nodes:
            -
               depth: 0
               sample_count: 152
               value: -1.2410781223719056e-03
               Tn: 0
               complexity: 0
               alpha: 0.
               node_risk: 4.3158870004025474e-01
               tree_risk: 0.
               tree_error: 0.
               splits:
                  - { var:3, quality:1.1588784307241440e-01,
                      le:-2.1775263547897339e-01 }
            -
               depth: 1
               sample_count: 79
               value: 2.5274792638949200e-02
               Tn: 0
               complexity: 0
               alpha: 0.
               node_risk: 3.0710067260537610e-01
               tree_risk: 0.
               tree_error: 0.
               splits:
                  - { var:1, quality:2.5450134277343750e-01,
                      le:-4.7052299976348877e-01 }
            -
               depth: 2
               sample_count: 45
               value: -1.8899736429254212e-02
               Tn: 0
               complexity: 0
               alpha: 0.
               node_risk: 7.6441807618368524e-02
               tree_risk: 0.
               tree_error: 0.
               splits:
                  - { var:1, quality:9.0324498713016510e-02,
                      le:-1.2180416584014893e+00 }
            -
               depth: 3
               sample_count: 2
               value: 9.0446799993515015e-01
               Tn: 0
               complexity: 0
               alpha: 0.
               node_risk: 4.5219765343063045e-04
               tree_risk: 0.
               tree_error: 0.
            -
               depth: 3
               sample_count: 43
               value: -7.7249693870544434e-01
               Tn: 0
               complexity: 0
               alpha: 0.
               node_risk: 1.7391162789942224e-03
               tree_risk: 0.
               tree_error: 0.
            -
               depth: 2
               sample_count: 34
               value: 8.3741081111571372e-02
               Tn: 0
               complexity: 0
               alpha: 0.
               node_risk: 2.6623924975146290e-02
               tree_risk: 0.
               tree_error: 0.
               splits:
                  - { var:0, quality:2.6504907011985779e-01,
                      le:-2.3151321709156036e-01 }
            -
               depth: 3
               sample_count: 1
               value: 9.9270093441009521e-01
               Tn: 0
               complexity: 0
               alpha: 0.
               node_risk: 0.
               tree_risk: 0.
               tree_error: 0.
            -
               depth: 3
               sample_count: 33
               value: 8.1421810388565063e-01
               Tn: 0
               complexity: 0
               alpha: 0.
               node_risk: 2.1843748604366553e-06
               tree_risk: 0.
               tree_error: 0.
            -
               depth: 1
               sample_count: 73
               value: -2.9936335521609816e-02
               Tn: 0
               complexity: 0
               alpha: 0.
               node_risk: 8.8343074624012002e-03
               tree_risk: 0.
               tree_error: 0.
               splits:
                  - { var:3, quality:6.7414537072181702e-02,
                      le:2.8212577104568481e-01 }
            -
               depth: 2
               sample_count: 7
               value: -7.9319965839385986e-01
               Tn: 0
               complexity: 0
               alpha: 0.
               node_risk: 2.7299622119317142e-03
               tree_risk: 0.
               tree_error: 0.
            -
               depth: 2
               sample_count: 66
               value: -2.8234648659373775e-02
               Tn: 0
               complexity: 0
               alpha: 0.
               node_risk: 4.1112500308551764e-03
               tree_risk: 0.
               tree_error: 0.
               splits:
                  - { var:0, quality:5.3060788661241531e-02,
                      le:1.5851593017578125e-01 }
            -
               depth: 3
               sample_count: 34
               value: -7.7660137414932251e-01
               Tn: 0
               complexity: 0
               alpha: 0.
               node_risk: 3.6572000392573606e-03
               tree_risk: 0.
               tree_error: 0.
            -
               depth: 3
               sample_count: 32
               value: -7.6967710256576538e-01
               Tn: 0
               complexity: 0
               alpha: 0.
               node_risk: 8.1568685210108016e-06
               tree_risk: 0.
               tree_error: 0.
      -
         best_tree_idx: -1
         nodes:
            -
               depth: 0
               sample_count: 152
               value: 2.2534169624314495e-03
               Tn: 0
               complexity: 0
               alpha: 0.
               node_risk: 4.4573182286144880e-01
               tree_risk: 0.
               tree_error: 0.
               splits:
                  - { var:3, quality:1.4474092423915863e-01,
                      le:-2.1775263547897339e-01 }
            -
               depth: 1
               sample_count: 78
               value: 3.2229949672443747e-02
               Tn: 0
               complexity: 0
               alpha: 0.
               node_risk: 2.9313495151416452e-01
               tree_risk: 0.
               tree_error: 0.
               splits:
                  - { var:1, quality:2.7379456162452698e-01,
                      le:-4.6542203426361084e-01 }
            -
               depth: 2
               sample_count: 39
               value: -1.7483400180935860e-02
               Tn: 0
               complexity: 0
               alpha: 0.
               node_risk: 7.4355175787706576e-02
               tree_risk: 0.
               tree_error: 0.
               splits:
                  - { var:1, quality:8.4159731864929199e-02,
                      le:-1.2180416584014893e+00 }
            -
               depth: 3
               sample_count: 2
               value: 9.0237140655517578e-01
               Tn: 0
               complexity: 0
               alpha: 0.
               node_risk: 4.1118478293356020e-04
               tree_risk: 0.
               tree_error: 0.
            -
               depth: 3
               sample_count: 37
               value: -7.7253180742263794e-01
               Tn: 0
               complexity: 0
               alpha: 0.
               node_risk: 1.7053590788174006e-03
               tree_risk: 0.
               tree_error: 0.
            -
               depth: 2
               sample_count: 39
               value: 8.1943299525823354e-02
               Tn: 0
               complexity: 0
               alpha: 0.
               node_risk: 2.6009237742185498e-02
               tree_risk: 0.
               tree_error: 0.
               splits:
                  - { var:0, quality:2.8788086771965027e-01,
                      le:-2.3036833107471466e-01 }
            -
               depth: 3
               sample_count: 1
               value: 9.8831212520599365e-01
               Tn: 0
               complexity: 0
               alpha: 0.
               node_risk: 0.
               tree_risk: 0.
               tree_error: 0.
            -
               depth: 3
               sample_count: 38
               value: 8.1323271989822388e-01
               Tn: 0
               complexity: 0
               alpha: 0.
               node_risk: 1.8448558849748498e-06
               tree_risk: 0.
               tree_error: 0.
            -
               depth: 1
               sample_count: 74
               value: -2.9343468867040968e-02
               Tn: 0
               complexity: 0
               alpha: 0.
               node_risk: 8.6277789438251040e-03
               tree_risk: 0.
               tree_error: 0.
               splits:
                  - { var:3, quality:6.5066389739513397e-02,
                      le:2.8126892447471619e-01 }
            -
               depth: 2
               sample_count: 9
               value: -7.8931623697280884e-01
               Tn: 0
               complexity: 0
               alpha: 0.
               node_risk: 3.3029772330442145e-03
               tree_risk: 0.
               tree_error: 0.
            -
               depth: 2
               sample_count: 65
               value: -2.7754434656638367e-02
               Tn: 0
               complexity: 0
               alpha: 0.
               node_risk: 3.9753136038918474e-03
               tree_risk: 0.
               tree_error: 0.
               splits:
                  - { var:2, quality:5.0468642264604568e-02,
                      le:-8.6249083280563354e-02 }
            -
               depth: 3
               sample_count: 34
               value: -7.7607774734497070e-01
               Tn: 0
               complexity: 0
               alpha: 0.
               node_risk: 3.5667450058082979e-03
               tree_risk: 0.
               tree_error: 0.
            -
               depth: 3
               sample_count: 31
               value: -7.6936799287796021e-01
               Tn: 0
               complexity: 0
               alpha: 0.
               node_risk: 9.9865769135620841e-06
               tree_risk: 0.
               tree_error: 0.
      -
         best_tree_idx: -1
         nodes:
            -
               depth: 0
               sample_count: 152
               value: 2.5978611512599806e-03
               Tn: 0
               complexity: 0
               alpha: 0.
               node_risk: 3.7676253516552105e-01
               tree_risk: 0.
               tree_error: 0.
               splits:
                  - { var:0, quality:1.2256065011024475e-01,
                      le:-9.2776104807853699e-02 }
            -
               depth: 1
               sample_count: 82
               value: -2.3528002747675268e-02
               Tn: 0
               complexity: 0
               alpha: 0.
               node_risk: 7.9328859461820708e-02
               tree_risk: 0.
               tree_error: 0.
               splits:
                  - { var:1, quality:1.1845071613788605e-01,
                      le:-1.2002644538879395e+00 }
            -
               depth: 2
               sample_count: 2
               value: 8.9978736639022827e-01
               Tn: 0
               complexity: 0
               alpha: 0.
               node_risk: 4.0222451289828598e-04
               tree_risk: 0.
               tree_error: 0.
            -
               depth: 2
               sample_count: 80
               value: -2.8247520700097083e-02
               Tn: 0
               complexity: 0
               alpha: 0.
               node_risk: 5.8684079223220859e-03
               tree_risk: 0.
               tree_error: 0.
               splits:
                  - { var:2, quality:6.6156923770904541e-02,
                      le:-3.7672281265258789e-01 }
            -
               depth: 3
               sample_count: 72
               value: -7.7081155776977539e-01
               Tn: 0
               complexity: 0
               alpha: 0.
               node_risk: 1.0442644147073687e-03
               tree_risk: 0.
               tree_error: 0.
            -
               depth: 3
               sample_count: 8
               value: -7.9068291187286377e-01
               Tn: 0
               complexity: 0
               alpha: 0.
               node_risk: 2.5010111352350983e-03
               tree_risk: 0.
               tree_error: 0.
            -
               depth: 1
               sample_count: 70
               value: 3.3202444575726985e-02
               Tn: 0
               complexity: 0
               alpha: 0.
               node_risk: 1.7589885615655204e-01
               tree_risk: 0.
               tree_error: 0.
               splits:
                  - { var:1, quality:2.5305885076522827e-01,
                      le:4.9870157241821289e-01 }
            -
               depth: 2
               sample_count: 40
               value: 7.6613767445087438e-02
               Tn: 0
               complexity: 0
               alpha: 0.
               node_risk: 2.1265965769456940e-06
               tree_risk: 0.
               tree_error: 0.
               splits:
                  - { var:3, quality:2.3478822410106659e-01,
                      le:-9.2900770902633667e-01 }
            -
               depth: 3
               sample_count: 33
               value: 8.1230479478836060e-01
               Tn: 0
               complexity: 0
               alpha: 0.
               node_risk: 1.2176197716762260e-08
               tree_risk: 0.
               tree_error: 0.
            -
               depth: 3
               sample_count: 7
               value: 8.1186634302139282e-01
               Tn: 0
               complexity: 0
               alpha: 0.
               node_risk: 6.7151283948685414e-07
               tree_risk: 0.
               tree_error: 0.
            -
               depth: 2
               sample_count: 30
               value: -2.4679319250086942e-02
               Tn: 0
               complexity: 0
               alpha: 0.
               node_risk: 6.0539216417236641e-06
               tree_risk: 0.
               tree_error: 0.
               splits:
                  - { var:2, quality:1.8276698887348175e-02,
                      le:2.7368874549865723e+00 }
            -
               depth: 3
               sample_count: 23
               value: -7.6880860328674316e-01
               Tn: 0
               complexity: 0
               alpha: 0.
               node_risk: 1.1902064467432527e-06
               tree_risk: 0.
               tree_error: 0.
            -
               depth: 3
               sample_count: 7
               value: -7.6954102516174316e-01
               Tn: 0
               complexity: 0
               alpha: 0.
               node_risk: 2.2870060676326298e-07
               tree_risk: 0.
               tree_error: 0.
      -
         best_tree_idx: -1
         nodes:
            -
               depth: 0
               sample_count: 152
               value: 7.1802889732153793e-04
               Tn: 0
               complexity: 0
               alpha: 0.
               node_risk: 4.0321353915391311e-01
               tree_risk: 0.
               tree_error: 0.
               splits:
                  - { var:3, quality:1.2496005743741989e-01,
                      le:-2.1775263547897339e-01 }
            -
               depth: 1
               sample_count: 76
               value: 2.9381421149561281e-02
               Tn: 0
               complexity: 0
               alpha: 0.
               node_risk: 2.7145891451273246e-01
               tree_risk: 0.
               tree_error: 0.
               splits:
                  - { var:1, quality:2.4172182381153107e-01,
                      le:-4.6542203426361084e-01 }
            -
               depth: 2
               sample_count: 40
               value: -1.6286445967853069e-02
               Tn: 0
               complexity: 0
               alpha: 0.
               node_risk: 6.8522191258411316e-02
               tree_risk: 0.
               tree_error: 0.
               splits:
                  - { var:1, quality:7.8212097287178040e-02,
                      le:-1.1974571943283081e+00 }
            -
               depth: 3
               sample_count: 2
               value: 8.9725416898727417e-01
               Tn: 0
               complexity: 0
               alpha: 0.
               node_risk: 3.9339471486421473e-04
               tree_risk: 0.
               tree_error: 0.
            -
               depth: 3
               sample_count: 38
               value: -7.7022349834442139e-01
               Tn: 0
               complexity: 0
               alpha: 0.
               node_risk: 5.2662893110863238e-04
               tree_risk: 0.
               tree_error: 0.
            -
               depth: 2
               sample_count: 36
               value: 8.0123495724466115e-02
               Tn: 0
               complexity: 0
               alpha: 0.
               node_risk: 2.6823267014221247e-02
               tree_risk: 0.
               tree_error: 0.
               splits:
                  - { var:0, quality:2.5793337821960449e-01,
                      le:-2.3151321709156036e-01 }
            -
               depth: 3
               sample_count: 1
               value: 9.8893129825592041e-01
               Tn: 0
               complexity: 0
               alpha: 0.
               node_risk: 0.
               tree_risk: 0.
               tree_error: 0.
            -
               depth: 3
               sample_count: 35
               value: 8.1125843524932861e-01
               Tn: 0
               complexity: 0
               alpha: 0.
               node_risk: 1.7617055787233493e-06
               tree_risk: 0.
               tree_error: 0.
            -
               depth: 1
               sample_count: 76
               value: -2.7945363354918203e-02
               Tn: 0
               complexity: 0
               alpha: 0.
               node_risk: 6.8729362195056390e-03
               tree_risk: 0.
               tree_error: 0.
               splits:
                  - { var:3, quality:6.0760725289583206e-02,
                      le:2.8126892447471619e-01 }
            -
               depth: 2
               sample_count: 9
               value: -7.8821069002151489e-01
               Tn: 0
               complexity: 0
               alpha: 0.
               node_risk: 3.1380966837509308e-03
               tree_risk: 0.
               tree_error: 0.
            -
               depth: 2
               sample_count: 67
               value: -2.6367252414573484e-02
               Tn: 0
               complexity: 0
               alpha: 0.
               node_risk: 2.3258072423034126e-03
               tree_risk: 0.
               tree_error: 0.
               splits:
                  - { var:0, quality:4.6853065490722656e-02,
                      le:1.2941838800907135e-01 }
            -
               depth: 3
               sample_count: 33
               value: -7.7367103099822998e-01
               Tn: 0
               complexity: 0
               alpha: 0.
               node_risk: 2.0454097612917603e-03
               tree_risk: 0.
               tree_error: 0.
            -
               depth: 3
               sample_count: 34
               value: -7.6874965429306030e-01
               Tn: 0
               complexity: 0
               alpha: 0.
               node_risk: 7.8743036829032054e-06
               tree_risk: 0.
               tree_error: 0.
      -
         best_tree_idx: -1
         nodes:
            -
               depth: 0
               sample_count: 152
               value: 2.1691807472196067e-03
               Tn: 0
               complexity: 0
               alpha: 0.
               node_risk: 4.1261755144960915e-01
               tree_risk: 0.
               tree_error: 0.
               splits:
                  - { var:3, quality:1.3019989430904388e-01,
                      le:-2.1775263547897339e-01 }
            -
               depth: 1
               sample_count: 79
               value: 3.0225797497396227e-02
               Tn: 0
               complexity: 0
               alpha: 0.
               node_risk: 2.7513801106401731e-01
               tree_risk: 0.
               tree_error: 0.
               splits:
                  - { var:1, quality:2.5260597467422485e-01,
                      le:-4.7164160013198853e-01 }
            -
               depth: 2
               sample_count: 40
               value: -1.6963675711303951e-02
               Tn: 0
               complexity: 0
               alpha: 0.
               node_risk: 6.8480780869205199e-02
               tree_risk: 0.
               tree_error: 0.
               splits:
                  - { var:1, quality:7.7884882688522339e-02,
                      le:-1.2180416584014893e+00 }
            -
               depth: 3
               sample_count: 2
               value: 8.9476883411407471e-01
               Tn: 0
               complexity: 0
               alpha: 0.
               node_risk: 3.8471085850488862e-04
               tree_risk: 0.
               tree_error: 0.
            -
               depth: 3
               sample_count: 38
               value: -7.7162975072860718e-01
               Tn: 0
               complexity: 0
               alpha: 0.
               node_risk: 1.7218372063270079e-03
               tree_risk: 0.
               tree_error: 0.
            -
               depth: 2
               sample_count: 39
               value: 7.8625257198627174e-02
               Tn: 0
               complexity: 0
               alpha: 0.
               node_risk: 2.6225574650754785e-02
               tree_risk: 0.
               tree_error: 0.
               splits:
                  - { var:0, quality:2.6731890439987183e-01,
                      le:-2.3036833107471466e-01 }
            -
               depth: 3
               sample_count: 1
               value: 9.8486286401748657e-01
               Tn: 0
               complexity: 0
               alpha: 0.
               node_risk: 0.
               tree_risk: 0.
               tree_error: 0.
            -
               depth: 3
               sample_count: 38
               value: 8.1030225753784180e-01
               Tn: 0
               complexity: 0
               alpha: 0.
               node_risk: 1.9890675243272593e-06
               tree_risk: 0.
               tree_error: 0.
            -
               depth: 1
               sample_count: 73
               value: -2.8193459297492080e-02
               Tn: 0
               complexity: 0
               alpha: 0.
               node_risk: 7.9948511863693339e-03
               tree_risk: 0.
               tree_error: 0.
               splits:
                  - { var:3, quality:5.9491336345672607e-02,
                      le:2.8126892447471619e-01 }
            -
               depth: 2
               sample_count: 8
               value: -7.8910523653030396e-01
               Tn: 0
               complexity: 0
               alpha: 0.
               node_risk: 2.8152989062637315e-03
               tree_risk: 0.
               tree_error: 0.
            -
               depth: 2
               sample_count: 65
               value: -2.6621447704159296e-02
               Tn: 0
               complexity: 0
               alpha: 0.
               node_risk: 3.7138096509528248e-03
               tree_risk: 0.
               tree_error: 0.
               splits:
                  - { var:0, quality:4.6488292515277863e-02,
                      le:1.2941838800907135e-01 }
            -
               depth: 3
               sample_count: 34
               value: -7.7509927749633789e-01
               Tn: 0
               complexity: 0
               alpha: 0.
               node_risk: 3.2853985989294981e-03
               tree_risk: 0.
               tree_error: 0.
            -
               depth: 3
               sample_count: 31
               value: -7.6840996742248535e-01
               Tn: 0
               complexity: 0
               alpha: 0.
               node_risk: 5.7143784476208770e-06
               tree_risk: 0.
               tree_error: 0.
      -
         best_tree_idx: -1
         nodes:
            -
               depth: 0
               sample_count: 152
               value: -1.8545651906415035e-04
               Tn: 0
               complexity: 0
               alpha: 0.
               node_risk: 3.7996561955226132e-01
               tree_risk: 0.
               tree_error: 0.
               splits:
                  - { var:3, quality:1.0562258958816528e-01,
                      le:-2.1775263547897339e-01 }
            -
               depth: 1
               sample_count: 78
               value: 2.5489778377306767e-02
               Tn: 0
               complexity: 0
               alpha: 0.
               node_risk: 2.6785007286867624e-01
               tree_risk: 0.
               tree_error: 0.
               splits:
                  - { var:1, quality:2.2576874494552612e-01,
                      le:-4.7052299976348877e-01 }
            -
               depth: 2
               sample_count: 43
               value: -1.7254996611628423e-02
               Tn: 0
               complexity: 0
               alpha: 0.
               node_risk: 6.6721146683054178e-02
               tree_risk: 0.
               tree_error: 0.
               splits:
                  - { var:1, quality:7.7458851039409637e-02,
                      le:-1.2180416584014893e+00 }
            -
               depth: 3
               sample_count: 2
               value: 8.9232826232910156e-01
               Tn: 0
               complexity: 0
               alpha: 0.
               node_risk: 3.7618113885429239e-04
               tree_risk: 0.
               tree_error: 0.
            -
               depth: 3
               sample_count: 41
               value: -7.7114051580429077e-01
               Tn: 0
               complexity: 0
               alpha: 0.
               node_risk: 1.6887185152684066e-03
               tree_risk: 0.
               tree_error: 0.
            -
               depth: 2
               sample_count: 35
               value: 7.8004787649427143e-02
               Tn: 0
               complexity: 0
               alpha: 0.
               node_risk: 2.6039030305088917e-02
               tree_risk: 0.
               tree_error: 0.
               splits:
                  - { var:0, quality:2.3900327086448669e-01,
                      le:-2.3036833107471466e-01 }
            -
               depth: 3
               sample_count: 1
               value: 9.8301762342453003e-01
               Tn: 0
               complexity: 0
               alpha: 0.
               node_risk: 0.
               tree_risk: 0.
               tree_error: 0.
            -
               depth: 3
               sample_count: 34
               value: 8.0934780836105347e-01
               Tn: 0
               complexity: 0
               alpha: 0.
               node_risk: 1.8949369429421825e-06
               tree_risk: 0.
               tree_error: 0.
            -
               depth: 1
               sample_count: 74
               value: -2.7248541950374038e-02
               Tn: 0
               complexity: 0
               alpha: 0.
               node_risk: 6.4981832122304670e-03
               tree_risk: 0.
               tree_error: 0.
               splits:
                  - { var:3, quality:5.6832354515790939e-02,
                      le:2.8126892447471619e-01 }
            -
               depth: 2
               sample_count: 7
               value: -7.9021012783050537e-01
               Tn: 0
               complexity: 0
               alpha: 0.
               node_risk: 2.4033782619440232e-03
               tree_risk: 0.
               tree_error: 0.
            -
               depth: 2
               sample_count: 67
               value: -2.5615614046578975e-02
               Tn: 0
               complexity: 0
               alpha: 0.
               node_risk: 2.2061940008114705e-03
               tree_risk: 0.
               tree_error: 0.
               splits:
                  - { var:0, quality:4.4192850589752197e-02,
                      le:1.2941838800907135e-01 }
            -
               depth: 3
               sample_count: 36
               value: -7.7266842126846313e-01
               Tn: 0
               complexity: 0
               alpha: 0.
               node_risk: 1.9704775989936203e-03
               tree_risk: 0.
               tree_error: 0.
            -
               depth: 3
               sample_count: 31
               value: -7.6814824342727661e-01
               Tn: 0
               complexity: 0
               alpha: 0.
               node_risk: 5.5662627482487570e-06
               tree_risk: 0.
               tree_error: 0.
      -
         best_tree_idx: -1
         nodes:
            -
               depth: 0
               sample_count: 152
               value: 8.9845708326289524e-04
               Tn: 0
               complexity: 0
               alpha: 0.
               node_risk: 3.8184178240540434e-01
               tree_risk: 0.
               tree_error: 0.
               splits:
                  - { var:3, quality:1.2282261252403259e-01,
                      le:-2.1775263547897339e-01 }
            -
               depth: 1
               sample_count: 75
               value: 2.9686693921685218e-02
               Tn: 0
               complexity: 0
               alpha: 0.
               node_risk: 2.5138058968986449e-01
               tree_risk: 0.
               tree_error: 0.
               splits:
                  - { var:1, quality:2.2728833556175232e-01,
                      le:-4.6542203426361084e-01 }
            -
               depth: 2
               sample_count: 38
               value: -1.6058832848150479e-02
               Tn: 0
               complexity: 0
               alpha: 0.
               node_risk: 6.4561918296812654e-02
               tree_risk: 0.
               tree_error: 0.
               splits:
                  - { var:1, quality:7.2360157966613770e-02,
                      le:-1.2180416584014893e+00 }
            -
               depth: 3
               sample_count: 2
               value: 8.8995856046676636e-01
               Tn: 0
               complexity: 0
               alpha: 0.
               node_risk: 3.6771148006664589e-04
               tree_risk: 0.
               tree_error: 0.
            -
               depth: 3
               sample_count: 36
               value: -7.7112382650375366e-01
               Tn: 0
               complexity: 0
               alpha: 0.
               node_risk: 1.6337205441103349e-03
               tree_risk: 0.
               tree_error: 0.
            -
               depth: 2
               sample_count: 37
               value: 7.6668586279894854e-02
               Tn: 0
               complexity: 0
               alpha: 0.
               node_risk: 2.5627815300300505e-02
               tree_risk: 0.
               tree_error: 0.
               splits:
                  - { var:0, quality:2.4311484396457672e-01,
                      le:-2.3036833107471466e-01 }
            -
               depth: 3
               sample_count: 1
               value: 9.7984433174133301e-01
               Tn: 0
               complexity: 0
               alpha: 0.
               node_risk: 0.
               tree_risk: 0.
               tree_error: 0.
            -
               depth: 3
               sample_count: 36
               value: 8.0843621492385864e-01
               Tn: 0
               complexity: 0
               alpha: 0.
               node_risk: 1.6357710527215019e-06
               tree_risk: 0.
               tree_error: 0.
            -
               depth: 1
               sample_count: 77
               value: -2.7142033343771837e-02
               Tn: 0
               complexity: 0
               alpha: 0.
               node_risk: 7.7612782347333958e-03
               tree_risk: 0.
               tree_error: 0.
               splits:
                  - { var:3, quality:5.8224666863679886e-02,
                      le:2.8126892447471619e-01 }
            -
               depth: 2
               sample_count: 8
               value: -7.8822922706604004e-01
               Tn: 0
               complexity: 0
               alpha: 0.
               node_risk: 2.6941990891406684e-03
               tree_risk: 0.
               tree_error: 0.
            -
               depth: 2
               sample_count: 69
               value: -2.5639397483588993e-02
               Tn: 0
               complexity: 0
               alpha: 0.
               node_risk: 3.5675416594805678e-03
               tree_risk: 0.
               tree_error: 0.
               splits:
                  - { var:0, quality:4.5727618038654327e-02,
                      le:1.5481616556644440e-01 }
            -
               depth: 3
               sample_count: 34
               value: -7.7426451444625854e-01
               Tn: 0
               complexity: 0
               alpha: 0.
               node_risk: 3.1918520049759730e-03
               tree_risk: 0.
               tree_error: 0.
            -
               depth: 3
               sample_count: 35
               value: -7.6794731616973877e-01
               Tn: 0
               complexity: 0
               alpha: 0.
               node_risk: 7.2018257784960127e-06
               tree_risk: 0.
               tree_error: 0.
      -
         best_tree_idx: -1
         nodes:
            -
               depth: 0
               sample_count: 152
               value: 4.2374010540937121e-04
               Tn: 0
               complexity: 0
               alpha: 0.
               node_risk: 3.6503860238944325e-01
               tree_risk: 0.
               tree_error: 0.
               splits:
                  - { var:3, quality:9.7937099635601044e-02,
                      le:-2.1775263547897339e-01 }
            -
               depth: 1
               sample_count: 81
               value: 2.4185465257844808e-02
               Tn: 0
               complexity: 0
               alpha: 0.
               node_risk: 2.6089105670428492e-01
               tree_risk: 0.
               tree_error: 0.
               splits:
                  - { var:1, quality:2.1965683996677399e-01,
                      le:-4.6542203426361084e-01 }
            -
               depth: 2
               sample_count: 45
               value: -1.7063787579536437e-02
               Tn: 0
               complexity: 0
               alpha: 0.
               node_risk: 6.3119950566755040e-02
               tree_risk: 0.
               tree_error: 0.
               splits:
                  - { var:1, quality:7.4254274368286133e-02,
                      le:-1.2180416584014893e+00 }
            -
               depth: 3
               sample_count: 2
               value: 8.8760918378829956e-01
               Tn: 0
               complexity: 0
               alpha: 0.
               node_risk: 3.5943094007961918e-04
               tree_risk: 0.
               tree_error: 0.
            -
               depth: 3
               sample_count: 43
               value: -7.7042388916015625e-01
               Tn: 0
               complexity: 0
               alpha: 0.
               node_risk: 1.6090214938376535e-03
               tree_risk: 0.
               tree_error: 0.
            -
               depth: 2
               sample_count: 36
               value: 7.5747031304571361e-02
               Tn: 0
               complexity: 0
               alpha: 0.
               node_risk: 2.5494144098756666e-02
               tree_risk: 0.
               tree_error: 0.
               splits:
                  - { var:0, quality:2.3204685747623444e-01,
                      le:-2.3036833107471466e-01 }
            -
               depth: 3
               sample_count: 1
               value: 9.7806334495544434e-01
               Tn: 0
               complexity: 0
               alpha: 0.
               node_risk: 0.
               tree_risk: 0.
               tree_error: 0.
            -
               depth: 3
               sample_count: 35
               value: 8.0753660202026367e-01
               Tn: 0
               complexity: 0
               alpha: 0.
               node_risk: 1.3445893058128267e-06
               tree_risk: 0.
               tree_error: 0.
            -
               depth: 1
               sample_count: 71
               value: -2.6684706899481759e-02
               Tn: 0
               complexity: 0
               alpha: 0.
               node_risk: 6.2377386951415342e-03
               tree_risk: 0.
               tree_error: 0.
               splits:
                  - { var:3, quality:5.2049882709980011e-02,
                      le:3.0624675750732422e-01 }
            -
               depth: 2
               sample_count: 8
               value: -7.8769600391387939e-01
               Tn: 0
               complexity: 0
               alpha: 0.
               node_risk: 2.6276059826420665e-03
               tree_risk: 0.
               tree_error: 0.
            -
               depth: 2
               sample_count: 63
               value: -2.5050806827724925e-02
               Tn: 0
               complexity: 0
               alpha: 0.
               node_risk: 2.1174761493506986e-03
               tree_risk: 0.
               tree_error: 0.
               splits:
                  - { var:0, quality:3.9735659956932068e-02,
                      le:1.2941838800907135e-01 }
            -
               depth: 3
               sample_count: 35
               value: -7.7215749025344849e-01
               Tn: 0
               complexity: 0
               alpha: 0.
               node_risk: 1.9112158722417658e-03
               tree_risk: 0.
               tree_error: 0.
            -
               depth: 3
               sample_count: 28
               value: -7.6770752668380737e-01
               Tn: 0
               complexity: 0
               alpha: 0.
               node_risk: 5.8057035657744366e-06
               tree_risk: 0.
               tree_error: 0.
      -
         best_tree_idx: -1
         nodes:
            -
               depth: 0
               sample_count: 152
               value: 1.3530685713416652e-03
               Tn: 0
               complexity: 0
               alpha: 0.
               node_risk: 3.5594260474809813e-01
               tree_risk: 0.
               tree_error: 0.
               splits:
                  - { var:3, quality:1.0686999559402466e-01,
                      le:-2.1775263547897339e-01 }
            -
               depth: 1
               sample_count: 78
               value: 2.7146461969002698e-02
               Tn: 0
               complexity: 0
               alpha: 0.
               node_risk: 2.4344485560639337e-01
               tree_risk: 0.
               tree_error: 0.
               splits:
                  - { var:1, quality:2.1541292965412140e-01,
                      le:-4.6542203426361084e-01 }
            -
               depth: 2
               sample_count: 41
               value: -1.5599706732645267e-02
               Tn: 0
               complexity: 0
               alpha: 0.
               node_risk: 6.0647838295570300e-02
               tree_risk: 0.
               tree_error: 0.
               splits:
                  - { var:1, quality:6.9173052906990051e-02,
                      le:-1.2180416584014893e+00 }
            -
               depth: 3
               sample_count: 2
               value: 8.8574844598770142e-01
               Tn: 0
               complexity: 0
               alpha: 0.
               node_risk: 3.2464031463064202e-04
               tree_risk: 0.
               tree_error: 0.
            -
               depth: 3
               sample_count: 39
               value: -7.6954555511474609e-01
               Tn: 0
               complexity: 0
               alpha: 0.
               node_risk: 1.1275331834775283e-03
               tree_risk: 0.
               tree_error: 0.
            -
               depth: 2
               sample_count: 37
               value: 7.4513838097855847e-02
               Tn: 0
               complexity: 0
               alpha: 0.
               node_risk: 2.4864656936070206e-02
               tree_risk: 0.
               tree_error: 0.
               splits:
                  - { var:0, quality:2.3029862344264984e-01,
                      le:-2.3036833107471466e-01 }
            -
               depth: 3
               sample_count: 1
               value: 9.7408759593963623e-01
               Tn: 0
               complexity: 0
               alpha: 0.
               node_risk: 0.
               tree_risk: 0.
               tree_error: 0.
            -
               depth: 3
               sample_count: 36
               value: 8.0661994218826294e-01
               Tn: 0
               complexity: 0
               alpha: 0.
               node_risk: 1.5837189861755974e-06
               tree_risk: 0.
               tree_error: 0.
            -
               depth: 1
               sample_count: 74
               value: -2.5834562307274021e-02
               Tn: 0
               complexity: 0
               alpha: 0.
               node_risk: 5.9060378037198921e-03
               tree_risk: 0.
               tree_error: 0.
               splits:
                  - { var:3, quality:5.0601296126842499e-02,
                      le:2.8126892447471619e-01 }
            -
               depth: 2
               sample_count: 8
               value: -7.8683996200561523e-01
               Tn: 0
               complexity: 0
               alpha: 0.
               node_risk: 2.8054689483330061e-03
               tree_risk: 0.
               tree_error: 0.
            -
               depth: 2
               sample_count: 66
               value: -2.4425643693768616e-02
               Tn: 0
               complexity: 0
               alpha: 0.
               node_risk: 1.8886948172731691e-03
               tree_risk: 0.
               tree_error: 0.
               splits:
                  - { var:3, quality:3.9544116705656052e-02,
                      le:4.3665474653244019e-01 }
            -
               depth: 3
               sample_count: 10
               value: -7.7619236707687378e-01
               Tn: 0
               complexity: 0
               alpha: 0.
               node_risk: 1.5640476504227008e-03
               tree_risk: 0.
               tree_error: 0.
            -
               depth: 3
               sample_count: 56
               value: -7.6834028959274292e-01
               Tn: 0
               complexity: 0
               alpha: 0.
               node_risk: 1.5692649028582056e-04
               tree_risk: 0.
               tree_error: 0.
      -
         best_tree_idx: -1
         nodes:
            -
               depth: 0
               sample_count: 152
               value: -8.5861613287737499e-04
               Tn: 0
               complexity: 0
               alpha: 0.
               node_risk: 3.1790098922202720e-01
               tree_risk: 0.
               tree_error: 0.
               splits:
                  - { var:3, quality:8.2285016775131226e-02,
                      le:-2.1775263547897339e-01 }
            -
               depth: 1
               sample_count: 80
               value: 2.1199271315708756e-02
               Tn: 0
               complexity: 0
               alpha: 0.
               node_risk: 2.3093677702207926e-01
               tree_risk: 0.
               tree_error: 0.
               splits:
                  - { var:1, quality:2.0755395293235779e-01,
                      le:-4.7052299976348877e-01 }
            -
               depth: 2
               sample_count: 45
               value: -1.9646110385656355e-02
               Tn: 0
               complexity: 0
               alpha: 0.
               node_risk: 3.5125195483976433e-02
               tree_risk: 0.
               tree_error: 0.
               splits:
                  - { var:1, quality:5.1344215869903564e-02,
                      le:-1.2180416584014893e+00 }
            -
               depth: 3
               sample_count: 1
               value: 8.9564967155456543e-01
               Tn: 0
               complexity: 0
               alpha: 0.
               node_risk: 0.
               tree_risk: 0.
               tree_error: 0.
            -
               depth: 3
               sample_count: 44
               value: -7.6914149522781372e-01
               Tn: 0
               complexity: 0
               alpha: 0.
               node_risk: 1.1496140261288007e-03
               tree_risk: 0.
               tree_error: 0.
            -
               depth: 2
               sample_count: 35
               value: 7.3714762074606754e-02
               Tn: 0
               complexity: 0
               alpha: 0.
               node_risk: 2.4210360315566781e-02
               tree_risk: 0.
               tree_error: 0.
               splits:
                  - { var:0, quality:2.1439439058303833e-01,
                      le:-2.3036833107471466e-01 }
            -
               depth: 3
               sample_count: 1
               value: 9.7033184766769409e-01
               Tn: 0
               complexity: 0
               alpha: 0.
               node_risk: 0.
               tree_risk: 0.
               tree_error: 0.
            -
               depth: 3
               sample_count: 34
               value: 8.0576270818710327e-01
               Tn: 0
               complexity: 0
               alpha: 0.
               node_risk: 1.2903448492196379e-06
               tree_risk: 0.
               tree_error: 0.
            -
               depth: 1
               sample_count: 72
               value: -2.5367379964639742e-02
               Tn: 0
               complexity: 0
               alpha: 0.
               node_risk: 4.7912559759891310e-03
               tree_risk: 0.
               tree_error: 0.
               splits:
                  - { var:3, quality:4.6875495463609695e-02,
                      le:5.4469513893127441e-01 }
            -
               depth: 2
               sample_count: 19
               value: -2.9954914199678523e-02
               Tn: 0
               complexity: 0
               alpha: 0.
               node_risk: 3.9122681348185417e-03
               tree_risk: 0.
               tree_error: 0.
               splits:
                  - { var:0, quality:2.0249729976058006e-02,
                      le:2.1513871848583221e-02 }
            -
               depth: 3
               sample_count: 5
               value: -7.9315328598022461e-01
               Tn: 0
               complexity: 0
               alpha: 0.
               node_risk: 7.0607532283332650e-04
               tree_risk: 0.
               tree_error: 0.
            -
               depth: 3
               sample_count: 14
               value: -7.6703929901123047e-01
               Tn: 0
               complexity: 0
               alpha: 0.
               node_risk: 5.1039671440569062e-06
               tree_risk: 0.
               tree_error: 0.
            -
               depth: 2
               sample_count: 53
               value: -2.3722792220003199e-02
               Tn: 0
               complexity: 0
               alpha: 0.
               node_risk: 3.3577645533535219e-04
               tree_risk: 0.
               tree_error: 0.
               splits:
                  - { var:3, quality:2.9865505173802376e-02,
                      le:8.7855172157287598e-01 }
            -
               depth: 3
               sample_count: 11
               value: -7.7034980058670044e-01
               Tn: 0
               complexity: 0
               alpha: 0.
               node_risk: 2.8626217991697869e-04
               tree_risk: 0.
               tree_error: 0.
            -
               depth: 3
               sample_count: 42
               value: -7.6788944005966187e-01
               Tn: 0
               complexity: 0
               alpha: 0.
               node_risk: 1.0864385832112106e-05
               tree_risk: 0.
               tree_error: 0.
      -
         best_tree_idx: -1
         nodes:
            -
               depth: 0
               sample_count: 152
               value: 4.9655190914085035e-05
               Tn: 0
               complexity: 0
               alpha: 0.
               node_risk: 3.2903782335525700e-01
               tree_risk: 0.
               tree_error: 0.
               splits:
                  - { var:3, quality:9.7778603434562683e-02,
                      le:-2.1775263547897339e-01 }
            -
               depth: 1
               sample_count: 76
               value: 2.5412576885795908e-02
               Tn: 0
               complexity: 0
               alpha: 0.
               node_risk: 2.2520559033020790e-01
               tree_risk: 0.
               tree_error: 0.
               splits:
                  - { var:1, quality:1.9373181462287903e-01,
                      le:-4.6542203426361084e-01 }
            -
               depth: 2
               sample_count: 41
               value: -1.4895877959888155e-02
               Tn: 0
               complexity: 0
               alpha: 0.
               node_risk: 5.6962405590074233e-02
               tree_risk: 0.
               tree_error: 0.
               splits:
                  - { var:1, quality:6.5290533006191254e-02,
                      le:-1.1974571943283081e+00 }
            -
               depth: 3
               sample_count: 2
               value: 8.8185155391693115e-01
               Tn: 0
               complexity: 0
               alpha: 0.
               node_risk: 2.7687127472297846e-04
               tree_risk: 0.
               tree_error: 0.
            -
               depth: 3
               sample_count: 39
               value: -7.6830238103866577e-01
               Tn: 0
               complexity: 0
               alpha: 0.
               node_risk: 4.9237618848846018e-04
               tree_risk: 0.
               tree_error: 0.
            -
               depth: 2
               sample_count: 35
               value: 7.2631052562168660e-02
               Tn: 0
               complexity: 0
               alpha: 0.
               node_risk: 2.3592096344217911e-02
               tree_risk: 0.
               tree_error: 0.
               splits:
                  - { var:0, quality:2.0822504162788391e-01,
                      le:-2.3151321709156036e-01 }
            -
               depth: 3
               sample_count: 1
               value: 9.6651136875152588e-01
               Tn: 0
               complexity: 0
               alpha: 0.
               node_risk: 0.
               tree_risk: 0.
               tree_error: 0.
            -
               depth: 3
               sample_count: 34
               value: 8.0487585067749023e-01
               Tn: 0
               complexity: 0
               alpha: 0.
               node_risk: 1.5039818117845716e-06
               tree_risk: 0.
               tree_error: 0.
            -
               depth: 1
               sample_count: 76
               value: -2.5313266503967737e-02
               Tn: 0
               complexity: 0
               alpha: 0.
               node_risk: 6.0540078961418553e-03
               tree_risk: 0.
               tree_error: 0.
               splits:
                  - { var:0, quality:4.9520406872034073e-02,
                      le:3.8670465350151062e-02 }
            -
               depth: 2
               sample_count: 38
               value: -2.8603076297593743e-02
               Tn: 0
               complexity: 0
               alpha: 0.
               node_risk: 5.2221652990540463e-03
               tree_risk: 0.
               tree_error: 0.
               splits:
                  - { var:3, quality:3.5262141376733780e-02,
                      le:6.2503910064697266e-01 }
            -
               depth: 3
               sample_count: 6
               value: -7.9383510351181030e-01
               Tn: 0
               complexity: 0
               alpha: 0.
               node_risk: 7.6528913199352261e-04
               tree_risk: 0.
               tree_error: 0.
            -
               depth: 3
               sample_count: 32
               value: -7.6878452301025391e-01
               Tn: 0
               complexity: 0
               alpha: 0.
               node_risk: 2.8390001052599687e-04
               tree_risk: 0.
               tree_error: 0.
            -
               depth: 2
               sample_count: 38
               value: -2.2023456710341730e-02
               Tn: 0
               complexity: 0
               alpha: 0.
               node_risk: 9.3061127417748413e-06
               tree_risk: 0.
               tree_error: 0.
               splits:
                  - { var:3, quality:1.8434811383485794e-02,
                      le:8.2776057720184326e-01 }
            -
               depth: 3
               sample_count: 28
               value: -7.6675283908843994e-01
               Tn: 0
               complexity: 0
               alpha: 0.
               node_risk: 5.4009146175891531e-06
               tree_risk: 0.
               tree_error: 0.
            -
               depth: 3
               sample_count: 10
               value: -7.6729315519332886e-01
               Tn: 0
               complexity: 0
               alpha: 0.
               node_risk: 3.3464757637300530e-07
               tree_risk: 0.
               tree_error: 0.
      -
         best_tree_idx: -1
         nodes:
            -
               depth: 0
               sample_count: 152
               value: 1.0170078419737126e-03
               Tn: 0
               complexity: 0
               alpha: 0.
               node_risk: 3.3076780131932570e-01
               tree_risk: 0.
               tree_error: 0.
               splits:
                  - { var:3, quality:8.9179858565330505e-02,
                      le:-2.1775263547897339e-01 }
            -
               depth: 1
               sample_count: 82
               value: 2.3376943543553352e-02
               Tn: 0
               complexity: 0
               alpha: 0.
               node_risk: 2.3590638300455252e-01
               tree_risk: 0.
               tree_error: 0.
               splits:
                  - { var:1, quality:2.0048767328262329e-01,
                      le:-4.6542203426361084e-01 }
            -
               depth: 2
               sample_count: 45
               value: -1.6132306307554245e-02
               Tn: 0
               complexity: 0
               alpha: 0.
               node_risk: 5.7209163678439590e-02
               tree_risk: 0.
               tree_error: 0.
               splits:
                  - { var:1, quality:6.7047044634819031e-02,
                      le:-1.2180416584014893e+00 }
            -
               depth: 3
               sample_count: 2
               value: 8.7965154647827148e-01
               Tn: 0
               complexity: 0
               alpha: 0.
               node_risk: 2.7058722317185868e-04
               tree_risk: 0.
               tree_error: 0.
            -
               depth: 3
               sample_count: 43
               value: -7.6944237947463989e-01
               Tn: 0
               complexity: 0
               alpha: 0.
               node_risk: 1.6028391684248591e-03
               tree_risk: 0.
               tree_error: 0.
            -
               depth: 2
               sample_count: 37
               value: 7.1428733903008537e-02
               Tn: 0
               complexity: 0
               alpha: 0.
               node_risk: 2.3021023655522777e-02
               tree_risk: 0.
               tree_error: 0.
               splits:
                  - { var:0, quality:2.1179702877998352e-01,
                      le:-2.3151321709156036e-01 }
            -
               depth: 3
               sample_count: 1
               value: 9.6288400888442993e-01
               Tn: 0
               complexity: 0
               alpha: 0.
               node_risk: 0.
               tree_risk: 0.
               tree_error: 0.
            -
               depth: 3
               sample_count: 36
               value: 8.0409264564514160e-01
               Tn: 0
               complexity: 0
               alpha: 0.
               node_risk: 3.6124968816331204e-07
               tree_risk: 0.
               tree_error: 0.
            -
               depth: 1
               sample_count: 70
               value: -2.5176059694162436e-02
               Tn: 0
               complexity: 0
               alpha: 0.
               node_risk: 5.8387718126322458e-03
               tree_risk: 0.
               tree_error: 0.
               splits:
                  - { var:3, quality:4.5318093150854111e-02,
                      le:5.4476654529571533e-01 }
            -
               depth: 2
               sample_count: 19
               value: -3.1210756223452717e-02
               Tn: 0
               complexity: 0
               alpha: 0.
               node_risk: 4.5635272844166998e-03
               tree_risk: 0.
               tree_error: 0.
               splits:
                  - { var:0, quality:2.2320184856653214e-02,
                      le:2.1513871848583221e-02 }
            -
               depth: 3
               sample_count: 6
               value: -7.9319030046463013e-01
               Tn: 0
               complexity: 0
               alpha: 0.
               node_risk: 7.4682827234530402e-04
               tree_risk: 0.
               tree_error: 0.
            -
               depth: 3
               sample_count: 13
               value: -7.6656103134155273e-01
               Tn: 0
               complexity: 0
               alpha: 0.
               node_risk: 4.6297054304466137e-06
               tree_risk: 0.
               tree_error: 0.
            -
               depth: 2
               sample_count: 51
               value: -2.2927839418544489e-02
               Tn: 0
               complexity: 0
               alpha: 0.
               node_risk: 3.2553163161097229e-04
               tree_risk: 0.
               tree_error: 0.
               splits:
                  - { var:0, quality:2.6859920471906662e-02,
                      le:1.2941838800907135e-01 }
            -
               depth: 3
               sample_count: 28
               value: -7.6862543821334839e-01
               Tn: 0
               complexity: 0
               alpha: 0.
               node_risk: 2.7176007418769355e-04
               tree_risk: 0.
               tree_error: 0.
            -
               depth: 3
               sample_count: 23
               value: -7.6674854755401611e-01
               Tn: 0
               complexity: 0
               alpha: 0.
               node_risk: 3.8279508919412258e-06
               tree_risk: 0.
               tree_error: 0.
      -
         best_tree_idx: -1
         nodes:
            -
               depth: 0
               sample_count: 152
               value: 1.3282123438425753e-03
               Tn: 0
               complexity: 0
               alpha: 0.
               node_risk: 3.1844986054283342e-01
               tree_risk: 0.
               tree_error: 0.
               splits:
                  - { var:3, quality:1.0099145025014877e-01,
                      le:-2.1775263547897339e-01 }
            -
               depth: 1
               sample_count: 76
               value: 2.7070265679963325e-02
               Tn: 0
               complexity: 0
               alpha: 0.
               node_risk: 2.1209822786341465e-01
               tree_risk: 0.
               tree_error: 0.
               splits:
                  - { var:1, quality:1.9118683040142059e-01,
                      le:-4.6542203426361084e-01 }
            -
               depth: 2
               sample_count: 39
               value: -1.4056250405235168e-02
               Tn: 0
               complexity: 0
               alpha: 0.
               node_risk: 5.3675472634273205e-02
               tree_risk: 0.
               tree_error: 0.
               splits:
                  - { var:1, quality:6.0620471835136414e-02,
                      le:-1.1974571943283081e+00 }
            -
               depth: 3
               sample_count: 2
               value: 8.7749201059341431e-01
               Tn: 0
               complexity: 0
               alpha: 0.
               node_risk: 2.6441642515528940e-04
               tree_risk: 0.
               tree_error: 0.
            -
               depth: 3
               sample_count: 37
               value: -7.6782345771789551e-01
               Tn: 0
               complexity: 0
               alpha: 0.
               node_risk: 4.9613506239020236e-04
               tree_risk: 0.
               tree_error: 0.
            -
               depth: 2
               sample_count: 37
               value: 7.0419836688686066e-02
               Tn: 0
               complexity: 0
               alpha: 0.
               node_risk: 2.2928676196513009e-02
               tree_risk: 0.
               tree_error: 0.
               splits:
                  - { var:0, quality:2.0640935003757477e-01,
                      le:-2.3151321709156036e-01 }
            -
               depth: 3
               sample_count: 1
               value: 9.6126705408096313e-01
               Tn: 0
               complexity: 0
               alpha: 0.
               node_risk: 0.
               tree_risk: 0.
               tree_error: 0.
            -
               depth: 3
               sample_count: 36
               value: 8.0323106050491333e-01
               Tn: 0
               complexity: 0
               alpha: 0.
               node_risk: 6.0305586294107094e-07
               tree_risk: 0.
               tree_error: 0.
            -
               depth: 1
               sample_count: 76
               value: -2.4413840992278175e-02
               Tn: 0
               complexity: 0
               alpha: 0.
               node_risk: 5.6283295655461460e-03
               tree_risk: 0.
               tree_error: 0.
               splits:
                  - { var:3, quality:4.5967727899551392e-02,
                      le:5.4469513893127441e-01 }
            -
               depth: 2
               sample_count: 24
               value: -2.8781099710613489e-02
               Tn: 0
               complexity: 0
               alpha: 0.
               node_risk: 4.8268524950070765e-03
               tree_risk: 0.
               tree_error: 0.
               splits:
                  - { var:0, quality:2.3971842601895332e-02,
                      le:2.1513871848583221e-02 }
            -
               depth: 3
               sample_count: 6
               value: -7.9261451959609985e-01
               Tn: 0
               complexity: 0
               alpha: 0.
               node_risk: 7.3044099759213971e-04
               tree_risk: 0.
               tree_error: 0.
            -
               depth: 3
               sample_count: 18
               value: -7.6628822088241577e-01
               Tn: 0
               complexity: 0
               alpha: 0.
               node_risk: 5.0094389741905943e-06
               tree_risk: 0.
               tree_error: 0.
            -
               depth: 2
               sample_count: 52
               value: -2.2398183122277260e-02
               Tn: 0
               complexity: 0
               alpha: 0.
               node_risk: 1.3245671568747064e-04
               tree_risk: 0.
               tree_error: 0.
               splits:
                  - { var:0, quality:2.6109460741281509e-02,
                      le:1.2941838800907135e-01 }
            -
               depth: 3
               sample_count: 33
               value: -7.6768362522125244e-01
               Tn: 0
               complexity: 0
               alpha: 0.
               node_risk: 1.0681617183864317e-04
               tree_risk: 0.
               tree_error: 0.
            -
               depth: 3
               sample_count: 19
               value: -7.6651537418365479e-01
               Tn: 0
               complexity: 0
               alpha: 0.
               node_risk: 3.4673743887943254e-06
               tree_risk: 0.
               tree_error: 0.
      -
         best_tree_idx: -1
         nodes:
            -
               depth: 0
               sample_count: 152
               value: 2.7380657480343394e-03
               Tn: 0
               complexity: 0
               alpha: 0.
               node_risk: 3.2377048175903234e-01
               tree_risk: 0.
               tree_error: 0.
               splits:
                  - { var:3, quality:9.4403184950351715e-02,
                      le:-1.8568448722362518e-01 }
            -
               depth: 1
               sample_count: 83
               value: 2.5323054831789201e-02
               Tn: 0
               complexity: 0
               alpha: 0.
               node_risk: 2.2423612939199455e-01
               tree_risk: 0.
               tree_error: 0.
               splits:
                  - { var:1, quality:2.0102873444557190e-01,
                      le:-4.6542203426361084e-01 }
            -
               depth: 2
               sample_count: 43
               value: -1.5377506353827409e-02
               Tn: 0
               complexity: 0
               alpha: 0.
               node_risk: 5.4016408470129867e-02
               tree_risk: 0.
               tree_error: 0.
               splits:
                  - { var:1, quality:6.2327258288860321e-02,
                      le:-1.2180416584014893e+00 }
            -
               depth: 3
               sample_count: 2
               value: 8.7537217140197754e-01
               Tn: 0
               complexity: 0
               alpha: 0.
               node_risk: 2.5835744949809225e-04
               tree_risk: 0.
               tree_error: 0.
            -
               depth: 3
               sample_count: 41
               value: -7.6904159784317017e-01
               Tn: 0
               complexity: 0
               alpha: 0.
               node_risk: 1.5989052719167125e-03
               tree_risk: 0.
               tree_error: 0.
            -
               depth: 2
               sample_count: 40
               value: 6.9076158106327057e-02
               Tn: 0
               complexity: 0
               alpha: 0.
               node_risk: 2.2415324800332481e-02
               tree_risk: 0.
               tree_error: 0.
               splits:
                  - { var:0, quality:2.1327450871467590e-01,
                      le:-2.3151321709156036e-01 }
            -
               depth: 3
               sample_count: 1
               value: 9.5773893594741821e-01
               Tn: 0
               complexity: 0
               alpha: 0.
               node_risk: 0.
               tree_risk: 0.
               tree_error: 0.
            -
               depth: 3
               sample_count: 39
               value: 8.0238467454910278e-01
               Tn: 0
               complexity: 0
               alpha: 0.
               node_risk: 1.4354887242495895e-06
               tree_risk: 0.
               tree_error: 0.
            -
               depth: 1
               sample_count: 69
               value: -2.4429384888946148e-02
               Tn: 0
               complexity: 0
               alpha: 0.
               node_risk: 6.2707128044499835e-03
               tree_risk: 0.
               tree_error: 0.
               splits:
                  - { var:3, quality:4.2407579720020294e-02,
                      le:5.4469513893127441e-01 }
            -
               depth: 2
               sample_count: 17
               value: -3.1809818218736088e-02
               Tn: 0
               complexity: 0
               alpha: 0.
               node_risk: 4.9121013450784540e-03
               tree_risk: 0.
               tree_error: 0.
               splits:
                  - { var:0, quality:2.2111222147941589e-02,
                      le:3.3663474023342133e-02 }
            -
               depth: 3
               sample_count: 5
               value: -7.9629880189895630e-01
               Tn: 0
               complexity: 0
               alpha: 0.
               node_risk: 1.6578580313113267e-06
               tree_risk: 0.
               tree_error: 0.
            -
               depth: 3
               sample_count: 12
               value: -7.6596575975418091e-01
               Tn: 0
               complexity: 0
               alpha: 0.
               node_risk: 9.1900656102716222e-07
               tree_risk: 0.
               tree_error: 0.
            -
               depth: 2
               sample_count: 52
               value: -2.2016550915745590e-02
               Tn: 0
               complexity: 0
               alpha: 0.
               node_risk: 1.2987600039254463e-04
               tree_risk: 0.
               tree_error: 0.
               splits:
                  - { var:0, quality:2.5229142978787422e-02,
                      le:1.2941838800907135e-01 }
            -
               depth: 3
               sample_count: 31
               value: -7.6743173599243164e-01
               Tn: 0
               complexity: 0
               alpha: 0.
               node_risk: 1.0306999673887970e-04
               tree_risk: 0.
               tree_error: 0.
            -
               depth: 3
               sample_count: 21
               value: -7.6625370979309082e-01
               Tn: 0
               complexity: 0
               alpha: 0.
               node_risk: 3.5462567478123513e-06
               tree_risk: 0.
               tree_error: 0.
      -
         best_tree_idx: -1
         nodes:
            -
               depth: 0
               sample_count: 152
               value: 5.3295426952995747e-04
               Tn: 0
               complexity: 0
               alpha: 0.
               node_risk: 3.0017174508644168e-01
               tree_risk: 0.
               tree_error: 0.
               splits:
                  - { var:3, quality:8.4883280098438263e-02,
                      le:-1.8568448722362518e-01 }
            -
               depth: 1
               sample_count: 78
               value: 2.3544583780070145e-02
               Tn: 0
               complexity: 0
               alpha: 0.
               node_risk: 2.1001550810843039e-01
               tree_risk: 0.
               tree_error: 0.
               splits:
                  - { var:1, quality:1.7854674160480499e-01,
                      le:-4.7297990322113037e-01 }
            -
               depth: 2
               sample_count: 42
               value: -1.5015722341125920e-02
               Tn: 0
               complexity: 0
               alpha: 0.
               node_risk: 5.2458104129213493e-02
               tree_risk: 0.
               tree_error: 0.
               splits:
                  - { var:1, quality:6.0115199536085129e-02,
                      le:-1.2180416584014893e+00 }
            -
               depth: 3
               sample_count: 2
               value: 8.7329119443893433e-01
               Tn: 0
               complexity: 0
               alpha: 0.
               node_risk: 2.5240887461741579e-04
               tree_risk: 0.
               tree_error: 0.
            -
               depth: 3
               sample_count: 40
               value: -7.6883083581924438e-01
               Tn: 0
               complexity: 0
               alpha: 0.
               node_risk: 1.5603159927689465e-03
               tree_risk: 0.
               tree_error: 0.
            -
               depth: 2
               sample_count: 36
               value: 6.8531607588132218e-02
               Tn: 0
               complexity: 0
               alpha: 0.
               node_risk: 2.2249758036624989e-02
               tree_risk: 0.
               tree_error: 0.
               splits:
                  - { var:0, quality:1.9132530689239502e-01,
                      le:-2.3151321709156036e-01 }
            -
               depth: 3
               sample_count: 1
               value: 9.5615005493164062e-01
               Tn: 0
               complexity: 0
               alpha: 0.
               node_risk: 0.
               tree_risk: 0.
               tree_error: 0.
            -
               depth: 3
               sample_count: 35
               value: 8.0156475305557251e-01
               Tn: 0
               complexity: 0
               alpha: 0.
               node_risk: 1.3688224831664986e-06
               tree_risk: 0.
               tree_error: 0.
            -
               depth: 1
               sample_count: 74
               value: -2.3722547106444836e-02
               Tn: 0
               complexity: 0
               alpha: 0.
               node_risk: 5.3161280670486963e-03
               tree_risk: 0.
               tree_error: 0.
               splits:
                  - { var:3, quality:4.2693588882684708e-02,
                      le:2.5866913795471191e-01 }
            -
               depth: 2
               sample_count: 5
               value: -7.8555607795715332e-01
               Tn: 0
               complexity: 0
               alpha: 0.
               node_risk: 1.4237124112626391e-03
               tree_risk: 0.
               tree_error: 0.
            -
               depth: 2
               sample_count: 69
               value: -2.2708831489949986e-02
               Tn: 0
               complexity: 0
               alpha: 0.
               node_risk: 2.8430107744167113e-03
               tree_risk: 0.
               tree_error: 0.
               splits:
                  - { var:2, quality:3.5841163247823715e-02,
                      le:-8.6249083280563354e-02 }
            -
               depth: 3
               sample_count: 34
               value: -7.7140134572982788e-01
               Tn: 0
               complexity: 0
               alpha: 0.
               node_risk: 2.5760581417540659e-03
               tree_risk: 0.
               tree_error: 0.
            -
               depth: 3
               sample_count: 35
               value: -7.6594138145446777e-01
               Tn: 0
               complexity: 0
               alpha: 0.
               node_risk: 8.4708534418657944e-06
               tree_risk: 0.
               tree_error: 0.
      -
         best_tree_idx: -1
         nodes:
            -
               depth: 0
               sample_count: 152
               value: -7.2580548983655483e-04
               Tn: 0
               complexity: 0
               alpha: 0.
               node_risk: 2.8594143739325711e-01
               tree_risk: 0.
               tree_error: 0.
               splits:
                  - { var:3, quality:7.9650513827800751e-02,
                      le:-2.1775263547897339e-01 }
            -
               depth: 1
               sample_count: 76
               value: 2.2154092421068958e-02
               Tn: 0
               complexity: 0
               alpha: 0.
               node_risk: 2.0095774653646920e-01
               tree_risk: 0.
               tree_error: 0.
               splits:
                  - { var:1, quality:1.6546390950679779e-01,
                      le:-4.6542203426361084e-01 }
            -
               depth: 2
               sample_count: 42
               value: -1.4793745774243559e-02
               Tn: 0
               complexity: 0
               alpha: 0.
               node_risk: 5.0979635059002555e-02
               tree_risk: 0.
               tree_error: 0.
               splits:
                  - { var:1, quality:5.8406926691532135e-02,
                      le:-1.2180416584014893e+00 }
            -
               depth: 3
               sample_count: 2
               value: 8.7126713991165161e-01
               Tn: 0
               complexity: 0
               alpha: 0.
               node_risk: 2.4650972904538548e-04
               tree_risk: 0.
               tree_error: 0.
            -
               depth: 3
               sample_count: 40
               value: -7.6855188608169556e-01
               Tn: 0
               complexity: 0
               alpha: 0.
               node_risk: 1.5181038552362670e-03
               tree_risk: 0.
               tree_error: 0.
            -
               depth: 2
               sample_count: 34
               value: 6.7795539603513824e-02
               Tn: 0
               complexity: 0
               alpha: 0.
               node_risk: 2.1815298259704158e-02
               tree_risk: 0.
               tree_error: 0.
               splits:
                  - { var:0, quality:1.7808596789836884e-01,
                      le:-2.3036833107471466e-01 }
            -
               depth: 3
               sample_count: 1
               value: 9.5335286855697632e-01
               Tn: 0
               complexity: 0
               alpha: 0.
               node_risk: 0.
               tree_risk: 0.
               tree_error: 0.
            -
               depth: 3
               sample_count: 33
               value: 8.0075752735137939e-01
               Tn: 0
               complexity: 0
               alpha: 0.
               node_risk: 1.3334707278100932e-06
               tree_risk: 0.
               tree_error: 0.
            -
               depth: 1
               sample_count: 76
               value: -2.3605703400742067e-02
               Tn: 0
               complexity: 0
               alpha: 0.
               node_risk: 5.4132521379424217e-03
               tree_risk: 0.
               tree_error: 0.
               splits:
                  - { var:3, quality:4.3678261339664459e-02,
                      le:2.8126892447471619e-01 }
            -
               depth: 2
               sample_count: 8
               value: -7.8431355953216553e-01
               Tn: 0
               complexity: 0
               alpha: 0.
               node_risk: 2.2775631975564745e-03
               tree_risk: 0.
               tree_error: 0.
            -
               depth: 2
               sample_count: 68
               value: -2.2171468939632177e-02
               Tn: 0
               complexity: 0
               alpha: 0.
               node_risk: 1.8068485362108463e-03
               tree_risk: 0.
               tree_error: 0.
               splits:
                  - { var:0, quality:3.3595252782106400e-02,
                      le:1.2941838800907135e-01 }
            -
               depth: 3
               sample_count: 37
               value: -7.6961117982864380e-01
               Tn: 0
               complexity: 0
               alpha: 0.
               node_risk: 1.6343710843341845e-03
               tree_risk: 0.
               tree_error: 0.
            -
               depth: 3
               sample_count: 31
               value: -7.6566541194915771e-01
               Tn: 0
               complexity: 0
               alpha: 0.
               node_risk: 4.2575124042688872e-06
               tree_risk: 0.
               tree_error: 0.
      -
         best_tree_idx: -1
         nodes:
            -
               depth: 0
               sample_count: 152
               value: 9.0194540098309517e-04
               Tn: 0
               complexity: 0
               alpha: 0.
               node_risk: 2.7333421378433498e-01
               tree_risk: 0.
               tree_error: 0.
               splits:
                  - { var:3, quality:7.5858339667320251e-02,
                      le:-2.1775263547897339e-01 }
            -
               depth: 1
               sample_count: 80
               value: 2.2078088903799652e-02
               Tn: 0
               complexity: 0
               alpha: 0.
               node_risk: 1.9367506276422788e-01
               tree_risk: 0.
               tree_error: 0.
               splits:
                  - { var:1, quality:1.8140502274036407e-01,
                      le:-4.6542203426361084e-01 }
            -
               depth: 2
               sample_count: 42
               value: -1.8054012297874407e-02
               Tn: 0
               complexity: 0
               alpha: 0.
               node_risk: 2.9490342534134482e-02
               tree_risk: 0.
               tree_error: 0.
               splits:
                  - { var:1, quality:4.1694317013025284e-02,
                      le:-1.2180416584014893e+00 }
            -
               depth: 3
               sample_count: 1
               value: 8.7954598665237427e-01
               Tn: 0
               complexity: 0
               alpha: 0.
               node_risk: 0.
               tree_risk: 0.
               tree_error: 0.
            -
               depth: 3
               sample_count: 41
               value: -7.6822811365127563e-01
               Tn: 0
               complexity: 0
               alpha: 0.
               node_risk: 1.4858154961832348e-03
               tree_risk: 0.
               tree_error: 0.
            -
               depth: 2
               sample_count: 38
               value: 6.6434621810913086e-02
               Tn: 0
               complexity: 0
               alpha: 0.
               node_risk: 2.1775050823400477e-02
               tree_risk: 0.
               tree_error: 0.
               splits:
                  - { var:0, quality:1.8948943912982941e-01,
                      le:-2.3151321709156036e-01 }
            -
               depth: 3
               sample_count: 1
               value: 9.5182603597640991e-01
               Tn: 0
               complexity: 0
               alpha: 0.
               node_risk: 0.
               tree_risk: 0.
               tree_error: 0.
            -
               depth: 3
               sample_count: 37
               value: 7.9999971389770508e-01
               Tn: 0
               complexity: 0
               alpha: 0.
               node_risk: 8.5713339781356979e-07
               tree_risk: 0.
               tree_error: 0.
            -
               depth: 1
               sample_count: 72
               value: -2.2627102935479745e-02
               Tn: 0
               complexity: 0
               alpha: 0.
               node_risk: 3.9244664033451990e-03
               tree_risk: 0.
               tree_error: 0.
               splits:
                  - { var:3, quality:3.7547841668128967e-02,
                      le:2.8212577104568481e-01 }
            -
               depth: 2
               sample_count: 7
               value: -7.8087437152862549e-01
               Tn: 0
               complexity: 0
               alpha: 0.
               node_risk: 1.6842222009535775e-03
               tree_risk: 0.
               tree_error: 0.
            -
               depth: 2
               sample_count: 65
               value: -2.1614991271725066e-02
               Tn: 0
               complexity: 0
               alpha: 0.
               node_risk: 1.5553796747958537e-03
               tree_risk: 0.
               tree_error: 0.
               splits:
                  - { var:0, quality:3.0490828678011894e-02,
                      le:1.2941838800907135e-01 }
            -
               depth: 3
               sample_count: 33
               value: -7.6911270618438721e-01
               Tn: 0
               complexity: 0
               alpha: 0.
               node_risk: 1.4281723000088113e-03
               tree_risk: 0.
               tree_error: 0.
            -
               depth: 3
               sample_count: 32
               value: -7.6548534631729126e-01
               Tn: 0
               complexity: 0
               alpha: 0.
               node_risk: 4.8881052692913152e-06
               tree_risk: 0.
               tree_error: 0.
      -
         best_tree_idx: -1
         nodes:
            -
               depth: 0
               sample_count: 152
               value: 2.8959759265968672e-03
               Tn: 0
               complexity: 0
               alpha: 0.
               node_risk: 2.9608539105755916e-01
               tree_risk: 0.
               tree_error: 0.
               splits:
                  - { var:3, quality:1.0352092981338501e-01,
                      le:-2.1775263547897339e-01 }
            -
               depth: 1
               sample_count: 77
               value: 2.8492852102045888e-02
               Tn: 0
               complexity: 0
               alpha: 0.
               node_risk: 1.8750665923527543e-01
               tree_risk: 0.
               tree_error: 0.
               splits:
                  - { var:1, quality:1.8081553280353546e-01,
                      le:-4.7052299976348877e-01 }
            -
               depth: 2
               sample_count: 36
               value: -1.3337776840974888e-02
               Tn: 0
               complexity: 0
               alpha: 0.
               node_risk: 4.7870206810987921e-02
               tree_risk: 0.
               tree_error: 0.
               splits:
                  - { var:1, quality:5.2607633173465729e-02,
                      le:-1.2180416584014893e+00 }
            -
               depth: 3
               sample_count: 2
               value: 8.6729955673217773e-01
               Tn: 0
               complexity: 0
               alpha: 0.
               node_risk: 2.3504345141311944e-04
               tree_risk: 0.
               tree_error: 0.
            -
               depth: 3
               sample_count: 34
               value: -7.6839417219161987e-01
               Tn: 0
               complexity: 0
               alpha: 0.
               node_risk: 1.4317972707503304e-03
               tree_risk: 0.
               tree_error: 0.
            -
               depth: 2
               sample_count: 41
               value: 6.5222184832503152e-02
               Tn: 0
               complexity: 0
               alpha: 0.
               node_risk: 2.1332798588804575e-02
               tree_risk: 0.
               tree_error: 0.
               splits:
                  - { var:0, quality:1.9574275612831116e-01,
                      le:-2.3151321709156036e-01 }
            -
               depth: 3
               sample_count: 1
               value: 9.4874632358551025e-01
               Tn: 0
               complexity: 0
               alpha: 0.
               node_risk: 0.
               tree_risk: 0.
               tree_error: 0.
            -
               depth: 3
               sample_count: 40
               value: 7.9924654960632324e-01
               Tn: 0
               complexity: 0
               alpha: 0.
               node_risk: 1.3104786872608631e-06
               tree_risk: 0.
               tree_error: 0.
            -
               depth: 1
               sample_count: 75
               value: -2.3383483613530796e-02
               Tn: 0
               complexity: 0
               alpha: 0.
               node_risk: 6.3325769077155689e-03
               tree_risk: 0.
               tree_error: 0.
               splits:
                  - { var:3, quality:4.2214613407850266e-02,
                      le:2.8126892447471619e-01 }
            -
               depth: 2
               sample_count: 8
               value: -7.8364717960357666e-01
               Tn: 0
               complexity: 0
               alpha: 0.
               node_risk: 2.2252636690224155e-03
               tree_risk: 0.
               tree_error: 0.
            -
               depth: 2
               sample_count: 67
               value: -2.1998093088171376e-02
               Tn: 0
               complexity: 0
               alpha: 0.
               node_risk: 2.9017485872591606e-03
               tree_risk: 0.
               tree_error: 0.
               splits:
                  - { var:3, quality:3.2754078507423401e-02,
                      le:5.4469513893127441e-01 }
            -
               depth: 3
               sample_count: 13
               value: -7.7582854032516479e-01
               Tn: 0
               complexity: 0
               alpha: 0.
               node_risk: 2.3312465848246387e-03
               tree_risk: 0.
               tree_error: 0.
            -
               depth: 3
               sample_count: 54
               value: -7.6618009805679321e-01
               Tn: 0
               complexity: 0
               alpha: 0.
               node_risk: 2.3880044196229744e-04
               tree_risk: 0.
               tree_error: 0.
      -
         best_tree_idx: -1
         nodes:
            -
               depth: 0
               sample_count: 152
               value: 9.2544591691541046e-04
               Tn: 0
               complexity: 0
               alpha: 0.
               node_risk: 2.7396063933180881e-01
               tree_risk: 0.
               tree_error: 0.
               splits:
                  - { var:3, quality:7.6877027750015259e-02,
                      le:-1.5397888422012329e-01 }
            -
               depth: 1
               sample_count: 80
               value: 2.2242624638602139e-02
               Tn: 0
               complexity: 0
               alpha: 0.
               node_risk: 1.9207118327375539e-01
               tree_risk: 0.
               tree_error: 0.
               splits:
                  - { var:1, quality:1.6366051137447357e-01,
                      le:-4.6542203426361084e-01 }
            -
               depth: 2
               sample_count: 43
               value: -1.4289558713519297e-02
               Tn: 0
               complexity: 0
               alpha: 0.
               node_risk: 4.6806351598224563e-02
               tree_risk: 0.
               tree_error: 0.
               splits:
                  - { var:1, quality:5.3944393992424011e-02,
                      le:-1.2180416584014893e+00 }
            -
               depth: 3
               sample_count: 2
               value: 8.6536526679992676e-01
               Tn: 0
               complexity: 0
               alpha: 0.
               node_risk: 2.2953721050278375e-04
               tree_risk: 0.
               tree_error: 0.
            -
               depth: 3
               sample_count: 41
               value: -7.6769846677780151e-01
               Tn: 0
               complexity: 0
               alpha: 0.
               node_risk: 1.4126555925422918e-03
               tree_risk: 0.
               tree_error: 0.
            -
               depth: 2
               sample_count: 37
               value: 6.4698945831608123e-02
               Tn: 0
               complexity: 0
               alpha: 0.
               node_risk: 2.1183062853174589e-02
               tree_risk: 0.
               tree_error: 0.
               splits:
                  - { var:0, quality:1.7606204748153687e-01,
                      le:-2.3151321709156036e-01 }
            -
               depth: 3
               sample_count: 1
               value: 9.4727861881256104e-01
               Tn: 0
               complexity: 0
               alpha: 0.
               node_risk: 0.
               tree_risk: 0.
               tree_error: 0.
            -
               depth: 3
               sample_count: 36
               value: 7.9847693443298340e-01
               Tn: 0
               complexity: 0
               alpha: 0.
               node_risk: 1.3029505994688328e-06
               tree_risk: 0.
               tree_error: 0.
            -
               depth: 1
               sample_count: 72
               value: -2.2760308218292065e-02
               Tn: 0
               complexity: 0
               alpha: 0.
               node_risk: 5.1426110412150922e-03
               tree_risk: 0.
               tree_error: 0.
               splits:
                  - { var:3, quality:3.9054684340953827e-02,
                      le:2.8212577104568481e-01 }
            -
               depth: 2
               sample_count: 6
               value: -7.8629541397094727e-01
               Tn: 0
               complexity: 0
               alpha: 0.
               node_risk: 1.6483083602361233e-03
               tree_risk: 0.
               tree_error: 0.
            -
               depth: 2
               sample_count: 66
               value: -2.1271118640222332e-02
               Tn: 0
               complexity: 0
               alpha: 0.
               node_risk: 1.7378956862292537e-03
               tree_risk: 0.
               tree_error: 0.
               splits:
                  - { var:0, quality:3.0066300183534622e-02,
                      le:1.2941838800907135e-01 }
            -
               depth: 3
               sample_count: 31
               value: -7.6944398880004883e-01
               Tn: 0
               complexity: 0
               alpha: 0.
               node_risk: 1.5288721118799711e-03
               tree_risk: 0.
               tree_error: 0.
            -
               depth: 3
               sample_count: 35
               value: -7.6501286029815674e-01
               Tn: 0
               complexity: 0
               alpha: 0.
               node_risk: 5.1148044350954325e-06
               tree_risk: 0.
               tree_error: 0.
      -
         best_tree_idx: -1
         nodes:
            -
               depth: 0
               sample_count: 152
               value: 1.0279920319781492e-03
               Tn: 0
               complexity: 0
               alpha: 0.
               node_risk: 2.5921745746368396e-01
               tree_risk: 0.
               tree_error: 0.
               splits:
                  - { var:3, quality:7.9272001981735229e-02,
                      le:-2.1775263547897339e-01 }
            -
               depth: 1
               sample_count: 78
               value: 2.3249126803607512e-02
               Tn: 0
               complexity: 0
               alpha: 0.
               node_risk: 1.7509419456378414e-01
               tree_risk: 0.
               tree_error: 0.
               splits:
                  - { var:1, quality:1.6905902326107025e-01,
                      le:-4.6542203426361084e-01 }
            -
               depth: 2
               sample_count: 39
               value: -1.7085740915857829e-02
               Tn: 0
               complexity: 0
               alpha: 0.
               node_risk: 2.7066041512904555e-02
               tree_risk: 0.
               tree_error: 0.
               splits:
                  - { var:1, quality:3.7077695131301880e-02,
                      le:-1.2180416584014893e+00 }
            -
               depth: 3
               sample_count: 1
               value: 8.7324589490890503e-01
               Tn: 0
               complexity: 0
               alpha: 0.
               node_risk: 0.
               tree_risk: 0.
               tree_error: 0.
            -
               depth: 3
               sample_count: 38
               value: -7.6761698722839355e-01
               Tn: 0
               complexity: 0
               alpha: 0.
               node_risk: 1.3733262259948420e-03
               tree_risk: 0.
               tree_error: 0.
            -
               depth: 2
               sample_count: 39
               value: 6.3583994523072854e-02
               Tn: 0
               complexity: 0
               alpha: 0.
               node_risk: 2.1129831843031743e-02
               tree_risk: 0.
               tree_error: 0.
               splits:
                  - { var:0, quality:1.7880244553089142e-01,
                      le:-2.3151321709156036e-01 }
            -
               depth: 3
               sample_count: 1
               value: 9.4585239887237549e-01
               Tn: 0
               complexity: 0
               alpha: 0.
               node_risk: 0.
               tree_risk: 0.
               tree_error: 0.
            -
               depth: 3
               sample_count: 38
               value: 7.9771012067794800e-01
               Tn: 0
               complexity: 0
               alpha: 0.
               node_risk: 1.4370885955683477e-06
               tree_risk: 0.
               tree_error: 0.
            -
               depth: 1
               sample_count: 74
               value: -2.2394285159739288e-02
               Tn: 0
               complexity: 0
               alpha: 0.
               node_risk: 5.0118870232865667e-03
               tree_risk: 0.
               tree_error: 0.
               splits:
                  - { var:3, quality:3.7866707891225815e-02,
                      le:5.4469513893127441e-01 }
            -
               depth: 2
               sample_count: 20
               value: -2.7644260879606010e-02
               Tn: 0
               complexity: 0
               alpha: 0.
               node_risk: 3.9684335569219551e-03
               tree_risk: 0.
               tree_error: 0.
               splits:
                  - { var:0, quality:1.8586298450827599e-02,
                      le:2.1513871848583221e-02 }
            -
               depth: 3
               sample_count: 6
               value: -7.8914421796798706e-01
               Tn: 0
               complexity: 0
               alpha: 0.
               node_risk: 6.6120301465702469e-04
               tree_risk: 0.
               tree_error: 0.
            -
               depth: 3
               sample_count: 14
               value: -7.6472163200378418e-01
               Tn: 0
               complexity: 0
               alpha: 0.
               node_risk: 5.0357593858567362e-06
               tree_risk: 0.
               tree_error: 0.
            -
               depth: 2
               sample_count: 54
               value: -2.0449849707936799e-02
               Tn: 0
               complexity: 0
               alpha: 0.
               node_risk: 2.8804378696464100e-04
               tree_risk: 0.
               tree_error: 0.
               splits:
                  - { var:0, quality:2.2617671638727188e-02,
                      le:1.6354668140411377e-01 }
            -
               depth: 3
               sample_count: 34
               value: -7.6641488075256348e-01
               Tn: 0
               complexity: 0
               alpha: 0.
               node_risk: 2.5057125316306494e-04
               tree_risk: 0.
               tree_error: 0.
            -
               depth: 3
               sample_count: 20
               value: -7.6484203338623047e-01
               Tn: 0
               complexity: 0
               alpha: 0.
               node_risk: 2.4043163510366339e-06
               tree_risk: 0.
               tree_error: 0.
      -
         best_tree_idx: -1
         nodes:
            -
               depth: 0
               sample_count: 152
               value: -5.8875678989448040e-04
               Tn: 0
               complexity: 0
               alpha: 0.
               node_risk: 2.1800921314433117e-01
               tree_risk: 0.
               tree_error: 0.
               splits:
                  - { var:3, quality:6.3618071377277374e-02,
                      le:-3.1305208802223206e-01 }
            -
               depth: 1
               sample_count: 80
               value: 1.8811603309586644e-02
               Tn: 0
               complexity: 0
               alpha: 0.
               node_risk: 1.4958794699647773e-01
               tree_risk: 0.
               tree_error: 0.
               splits:
                  - { var:0, quality:1.3367195427417755e-01,
                      le:-1.5899163484573364e-01 }
            -
               depth: 2
               sample_count: 44
               value: -1.4014671387320215e-02
               Tn: 0
               complexity: 0
               alpha: 0.
               node_risk: 4.4224660636745489e-02
               tree_risk: 0.
               tree_error: 0.
               splits:
                  - { var:1, quality:5.1305368542671204e-02,
                      le:-1.2180416584014893e+00 }
            -
               depth: 3
               sample_count: 2
               value: 8.6160439252853394e-01
               Tn: 0
               complexity: 0
               alpha: 0.
               node_risk: 2.1875417704109168e-04
               tree_risk: 0.
               tree_error: 0.
            -
               depth: 3
               sample_count: 42
               value: -7.6714247465133667e-01
               Tn: 0
               complexity: 0
               alpha: 0.
               node_risk: 1.3426227585013502e-03
               tree_risk: 0.
               tree_error: 0.
            -
               depth: 2
               sample_count: 36
               value: 5.8932605716917247e-02
               Tn: 0
               complexity: 0
               alpha: 0.
               node_risk: 1.4426686685831136e-06
               tree_risk: 0.
               tree_error: 0.
               splits:
                  - { var:3, quality:1.2503091990947723e-01,
                      le:-9.2900770902633667e-01 }
            -
               depth: 3
               sample_count: 29
               value: 7.9703825712203979e-01
               Tn: 0
               complexity: 0
               alpha: 0.
               node_risk: 9.7798112386193736e-09
               tree_risk: 0.
               tree_error: 0.
            -
               depth: 3
               sample_count: 7
               value: 7.9667472839355469e-01
               Tn: 0
               complexity: 0
               alpha: 0.
               node_risk: 3.8875582118735874e-07
               tree_risk: 0.
               tree_error: 0.
            -
               depth: 1
               sample_count: 72
               value: -2.2144712455984619e-02
               Tn: 0
               complexity: 0
               alpha: 0.
               node_risk: 4.8558842118425344e-03
               tree_risk: 0.
               tree_error: 0.
               splits:
                  - { var:3, quality:3.5965658724308014e-02,
                      le:5.4469513893127441e-01 }
            -
               depth: 2
               sample_count: 21
               value: -2.6854743382760456e-02
               Tn: 0
               complexity: 0
               alpha: 0.
               node_risk: 3.9268516110962087e-03
               tree_risk: 0.
               tree_error: 0.
               splits:
                  - { var:0, quality:1.8422961235046387e-02,
                      le:2.1513871848583221e-02 }
            -
               depth: 3
               sample_count: 6
               value: -7.8857064247131348e-01
               Tn: 0
               complexity: 0
               alpha: 0.
               node_risk: 6.4383012083302042e-04
               tree_risk: 0.
               tree_error: 0.
            -
               depth: 3
               sample_count: 15
               value: -7.6450222730636597e-01
               Tn: 0
               complexity: 0
               alpha: 0.
               node_risk: 4.7828416760275355e-06
               tree_risk: 0.
               tree_error: 0.
            -
               depth: 2
               sample_count: 51
               value: -2.0205287956723980e-02
               Tn: 0
               complexity: 0
               alpha: 0.
               node_risk: 2.7133064598654222e-04
               tree_risk: 0.
               tree_error: 0.
               splits:
                  - { var:3, quality:2.0850101485848427e-02,
                      le:8.7398266792297363e-01 }
            -
               depth: 3
               sample_count: 10
               value: -7.6751011610031128e-01
               Tn: 0
               complexity: 0
               alpha: 0.
               node_risk: 2.3424901477022211e-04
               tree_risk: 0.
               tree_error: 0.
            -
               depth: 3
               sample_count: 41
               value: -7.6518243551254272e-01
               Tn: 0
               complexity: 0
               alpha: 0.
               node_risk: 7.9169292522933421e-06
               tree_risk: 0.
               tree_error: 0.
      -
         best_tree_idx: -1
         nodes:
            -
               depth: 0
               sample_count: 152
               value: 1.9160890216498000e-03
               Tn: 0
               complexity: 0
               alpha: 0.
               node_risk: 2.4571818868458992e-01
               tree_risk: 0.
               tree_error: 0.
               splits:
                  - { var:3, quality:7.7068522572517395e-02,
                      le:-1.8568448722362518e-01 }
            -
               depth: 1
               sample_count: 79
               value: 2.3482929608678517e-02
               Tn: 0
               complexity: 0
               alpha: 0.
               node_risk: 1.6456845227756903e-01
               tree_risk: 0.
               tree_error: 0.
               splits:
                  - { var:1, quality:1.6236194968223572e-01,
                      le:-4.6542203426361084e-01 }
            -
               depth: 2
               sample_count: 39
               value: -1.5789511255346812e-02
               Tn: 0
               complexity: 0
               alpha: 0.
               node_risk: 2.4425800366194145e-02
               tree_risk: 0.
               tree_error: 0.
               splits:
                  - { var:1, quality:3.3734738826751709e-02,
                      le:-1.1974571943283081e+00 }
            -
               depth: 3
               sample_count: 1
               value: 8.6923068761825562e-01
               Tn: 0
               complexity: 0
               alpha: 0.
               node_risk: 0.
               tree_risk: 0.
               tree_error: 0.
            -
               depth: 3
               sample_count: 38
               value: -7.6559102535247803e-01
               Tn: 0
               complexity: 0
               alpha: 0.
               node_risk: 4.1410026032690991e-04
               tree_risk: 0.
               tree_error: 0.
            -
               depth: 2
               sample_count: 40
               value: 6.1773559451103209e-02
               Tn: 0
               complexity: 0
               alpha: 0.
               node_risk: 2.1345098716875205e-02
               tree_risk: 0.
               tree_error: 0.
               splits:
                  - { var:0, quality:1.7398260533809662e-01,
                      le:-2.3151321709156036e-01 }
            -
               depth: 3
               sample_count: 1
               value: 9.4462084770202637e-01
               Tn: 0
               complexity: 0
               alpha: 0.
               node_risk: 0.
               tree_risk: 0.
               tree_error: 0.
            -
               depth: 3
               sample_count: 39
               value: 7.9624199867248535e-01
               Tn: 0
               complexity: 0
               alpha: 0.
               node_risk: 1.3930463168276841e-06
               tree_risk: 0.
               tree_error: 0.
            -
               depth: 1
               sample_count: 73
               value: -2.1423368599929223e-02
               Tn: 0
               complexity: 0
               alpha: 0.
               node_risk: 4.6392653963504282e-03
               tree_risk: 0.
               tree_error: 0.
               splits:
                  - { var:3, quality:3.4224554896354675e-02,
                      le:2.3868733644485474e-01 }
            -
               depth: 2
               sample_count: 6
               value: -7.8083240985870361e-01
               Tn: 0
               complexity: 0
               alpha: 0.
               node_risk: 1.4490007417023443e-03
               tree_risk: 0.
               tree_error: 0.
            -
               depth: 2
               sample_count: 67
               value: -2.0483277432286916e-02
               Tn: 0
               complexity: 0
               alpha: 0.
               node_risk: 2.4698436655787651e-03
               tree_risk: 0.
               tree_error: 0.
               splits:
                  - { var:0, quality:2.8331896290183067e-02,
                      le:9.5785871148109436e-02 }
            -
               depth: 3
               sample_count: 32
               value: -7.6963806152343750e-01
               Tn: 0
               complexity: 0
               alpha: 0.
               node_risk: 2.2440421354526369e-03
               tree_risk: 0.
               tree_error: 0.
            -
               depth: 3
               sample_count: 35
               value: -7.6433402299880981e-01
               Tn: 0
               complexity: 0
               alpha: 0.
               node_risk: 4.7378438412636753e-06
               tree_risk: 0.
               tree_error: 0.
      -
         best_tree_idx: -1
         nodes:
            -
               depth: 0
               sample_count: 152
               value: 1.2471842162899282e-03
               Tn: 0
               complexity: 0
               alpha: 0.
               node_risk: 2.4342623376421113e-01
               tree_risk: 0.
               tree_error: 0.
               splits:
                  - { var:3, quality:7.3190867900848389e-02,
                      le:-2.1775263547897339e-01 }
            -
               depth: 1
               sample_count: 77
               value: 2.2868859013179681e-02
               Tn: 0
               complexity: 0
               alpha: 0.
               node_risk: 1.6655888164921684e-01
               tree_risk: 0.
               tree_error: 0.
               splits:
                  - { var:1, quality:1.4481881260871887e-01,
                      le:-4.6542203426361084e-01 }
            -
               depth: 2
               sample_count: 40
               value: -1.2570463679730892e-02
               Tn: 0
               complexity: 0
               alpha: 0.
               node_risk: 4.1271444402429740e-02
               tree_risk: 0.
               tree_error: 0.
               splits:
                  - { var:1, quality:4.6515200287103653e-02,
                      le:-1.2180416584014893e+00 }
            -
               depth: 3
               sample_count: 2
               value: 8.5846042633056641e-01
               Tn: 0
               complexity: 0
               alpha: 0.
               node_risk: 1.8543571161444561e-04
               tree_risk: 0.
               tree_error: 0.
            -
               depth: 3
               sample_count: 38
               value: -7.6610749959945679e-01
               Tn: 0
               complexity: 0
               alpha: 0.
               node_risk: 8.9147017479168471e-04
               tree_risk: 0.
               tree_error: 0.
            -
               depth: 2
               sample_count: 37
               value: 6.1181640302812729e-02
               Tn: 0
               complexity: 0
               alpha: 0.
               node_risk: 2.0738452754048786e-02
               tree_risk: 0.
               tree_error: 0.
               splits:
                  - { var:0, quality:1.5923540294170380e-01,
                      le:-2.3151321709156036e-01 }
            -
               depth: 3
               sample_count: 1
               value: 9.4129657745361328e-01
               Tn: 0
               complexity: 0
               alpha: 0.
               node_risk: 0.
               tree_risk: 0.
               tree_error: 0.
            -
               depth: 3
               sample_count: 36
               value: 7.9553359746932983e-01
               Tn: 0
               complexity: 0
               alpha: 0.
               node_risk: 1.1913579443523226e-06
               tree_risk: 0.
               tree_error: 0.
            -
               depth: 1
               sample_count: 75
               value: -2.0951068575183550e-02
               Tn: 0
               complexity: 0
               alpha: 0.
               node_risk: 3.9129148717032478e-03
               tree_risk: 0.
               tree_error: 0.
               splits:
                  - { var:0, quality:3.3457037061452866e-02,
                      le:3.8670465350151062e-02 }
            -
               depth: 2
               sample_count: 34
               value: -2.3886693258057621e-02
               Tn: 0
               complexity: 0
               alpha: 0.
               node_risk: 3.3684501478272316e-03
               tree_risk: 0.
               tree_error: 0.
               splits:
                  - { var:3, quality:2.1940322592854500e-02,
                      le:6.2503910064697266e-01 }
            -
               depth: 3
               sample_count: 5
               value: -7.8731632232666016e-01
               Tn: 0
               complexity: 0
               alpha: 0.
               node_risk: 6.0154925700319287e-04
               tree_risk: 0.
               tree_error: 0.
            -
               depth: 3
               sample_count: 29
               value: -7.6583856344223022e-01
               Tn: 0
               complexity: 0
               alpha: 0.
               node_risk: 2.2609856462115982e-04
               tree_risk: 0.
               tree_error: 0.
            -
               depth: 2
               sample_count: 41
               value: -1.8516648106458710e-02
               Tn: 0
               complexity: 0
               alpha: 0.
               node_risk: 8.4738626398555422e-06
               tree_risk: 0.
               tree_error: 0.
               splits:
                  - { var:0, quality:1.4060826972126961e-02,
                      le:2.6802664995193481e-01 }
            -
               depth: 3
               sample_count: 1
               value: -7.6555126905441284e-01
               Tn: 0
               complexity: 0
               alpha: 0.
               node_risk: 0.
               tree_risk: 0.
               tree_error: 0.
            -
               depth: 3
               sample_count: 40
               value: -7.6411992311477661e-01
               Tn: 0
               complexity: 0
               alpha: 0.
               node_risk: 5.1634004290621732e-06
               tree_risk: 0.
               tree_error: 0.
      -
         best_tree_idx: -1
         nodes:
            -
               depth: 0
               sample_count: 152
               value: -2.7022220341390684e-04
               Tn: 0
               complexity: 0
               alpha: 0.
               node_risk: 2.2900104446740996e-01
               tree_risk: 0.
               tree_error: 0.
               splits:
                  - { var:3, quality:6.2045782804489136e-02,
                      le:-1.8568448722362518e-01 }
            -
               depth: 1
               sample_count: 77
               value: 1.9667739411453149e-02
               Tn: 0
               complexity: 0
               alpha: 0.
               node_risk: 1.6316450121126602e-01
               tree_risk: 0.
               tree_error: 0.
               splits:
                  - { var:1, quality:1.3218159973621368e-01,
                      le:-4.6542203426361084e-01 }
            -
               depth: 2
               sample_count: 43
               value: -1.2758931101754654e-02
               Tn: 0
               complexity: 0
               alpha: 0.
               node_risk: 4.0602627872697430e-02
               tree_risk: 0.
               tree_error: 0.
               splits:
                  - { var:1, quality:4.6535898000001907e-02,
                      le:-1.2180416584014893e+00 }
            -
               depth: 3
               sample_count: 2
               value: 8.5738718509674072e-01
               Tn: 0
               complexity: 0
               alpha: 0.
               node_risk: 1.7892351846171550e-04
               tree_risk: 0.
               tree_error: 0.
            -
               depth: 3
               sample_count: 41
               value: -7.6575070619583130e-01
               Tn: 0
               complexity: 0
               alpha: 0.
               node_risk: 8.8779015837481441e-04
               tree_risk: 0.
               tree_error: 0.
            -
               depth: 2
               sample_count: 34
               value: 6.0677940354627723e-02
               Tn: 0
               complexity: 0
               alpha: 0.
               node_risk: 2.0165404266381637e-02
               tree_risk: 0.
               tree_error: 0.
               splits:
                  - { var:0, quality:1.4534632861614227e-01,
                      le:-2.3151321709156036e-01 }
            -
               depth: 3
               sample_count: 1
               value: 9.3817609548568726e-01
               Tn: 0
               complexity: 0
               alpha: 0.
               node_risk: 0.
               tree_risk: 0.
               tree_error: 0.
            -
               depth: 3
               sample_count: 33
               value: 7.9486113786697388e-01
               Tn: 0
               complexity: 0
               alpha: 0.
               node_risk: 7.0564702482622810e-07
               tree_risk: 0.
               tree_error: 0.
            -
               depth: 1
               sample_count: 75
               value: -2.0739862794677415e-02
               Tn: 0
               complexity: 0
               alpha: 0.
               node_risk: 3.8018611825764090e-03
               tree_risk: 0.
               tree_error: 0.
               splits:
                  - { var:3, quality:3.2748199999332428e-02,
                      le:5.4469513893127441e-01 }
            -
               depth: 2
               sample_count: 18
               value: -2.5277010061674647e-02
               Tn: 0
               complexity: 0
               alpha: 0.
               node_risk: 3.0583753976292250e-03
               tree_risk: 0.
               tree_error: 0.
               splits:
                  - { var:0, quality:1.3976783491671085e-02,
                      le:3.3663474023342133e-02 }
            -
               depth: 3
               sample_count: 5
               value: -7.8684121370315552e-01
               Tn: 0
               complexity: 0
               alpha: 0.
               node_risk: 5.8171054770593186e-04
               tree_risk: 0.
               tree_error: 0.
            -
               depth: 3
               sample_count: 13
               value: -7.6375186443328857e-01
               Tn: 0
               complexity: 0
               alpha: 0.
               node_risk: 5.7149247682190124e-07
               tree_risk: 0.
               tree_error: 0.
            -
               depth: 2
               sample_count: 57
               value: -1.9307079447204608e-02
               Tn: 0
               complexity: 0
               alpha: 0.
               node_risk: 2.5592960625828512e-04
               tree_risk: 0.
               tree_error: 0.
               splits:
                  - { var:0, quality:2.1276557818055153e-02,
                      le:1.2941838800907135e-01 }
            -
               depth: 3
               sample_count: 35
               value: -7.6545870304107666e-01
               Tn: 0
               complexity: 0
               alpha: 0.
               node_risk: 2.2416415155503480e-04
               tree_risk: 0.
               tree_error: 0.
            -
               depth: 3
               sample_count: 22
               value: -7.6406908035278320e-01
               Tn: 0
               complexity: 0
               alpha: 0.
               node_risk: 2.7168204826070325e-06
               tree_risk: 0.
               tree_error: 0.
      -
         best_tree_idx: -1
         nodes:
            -
               depth: 0
               sample_count: 152
               value: -1.3684830260708143e-03
               Tn: 0
               complexity: 0
               alpha: 0.
               node_risk: 2.1389568951702337e-01
               tree_risk: 0.
               tree_error: 0.
               splits:
                  - { var:3, quality:6.0863662511110306e-02,
                      le:-2.1775263547897339e-01 }
            -
               depth: 1
               sample_count: 76
               value: 1.8595136113856967e-02
               Tn: 0
               complexity: 0
               alpha: 0.
               node_risk: 1.4757497732899713e-01
               tree_risk: 0.
               tree_error: 0.
               splits:
                  - { var:1, quality:1.3569672405719757e-01,
                      le:-4.6542203426361084e-01 }
            -
               depth: 2
               sample_count: 41
               value: -1.6462185397380737e-02
               Tn: 0
               complexity: 0
               alpha: 0.
               node_risk: 1.8501158796477020e-02
               tree_risk: 0.
               tree_error: 0.
               splits:
                  - { var:0, quality:2.8395948931574821e-02,
                      le:-1.1072268486022949e+00 }
            -
               depth: 3
               sample_count: 1
               value: 8.4592473506927490e-01
               Tn: 0
               complexity: 0
               alpha: 0.
               node_risk: 0.
               tree_risk: 0.
               tree_error: 0.
            -
               depth: 3
               sample_count: 40
               value: -7.6628476381301880e-01
               Tn: 0
               complexity: 0
               alpha: 0.
               node_risk: 1.2163553812338714e-03
               tree_risk: 0.
               tree_error: 0.
            -
               depth: 2
               sample_count: 35
               value: 5.9662284169878281e-02
               Tn: 0
               complexity: 0
               alpha: 0.
               node_risk: 1.9656298348355139e-02
               tree_risk: 0.
               tree_error: 0.
               splits:
                  - { var:0, quality:1.4424096047878265e-01,
                      le:-2.3151321709156036e-01 }
            -
               depth: 3
               sample_count: 1
               value: 9.3497860431671143e-01
               Tn: 0
               complexity: 0
               alpha: 0.
               node_risk: 0.
               tree_risk: 0.
               tree_error: 0.
            -
               depth: 3
               sample_count: 34
               value: 7.9415386915206909e-01
               Tn: 0
               complexity: 0
               alpha: 0.
               node_risk: 9.1690177959902197e-07
               tree_risk: 0.
               tree_error: 0.
            -
               depth: 1
               sample_count: 76
               value: -2.1332102165998595e-02
               Tn: 0
               complexity: 0
               alpha: 0.
               node_risk: 5.7417066350846854e-03
               tree_risk: 0.
               tree_error: 0.
               splits:
                  - { var:3, quality:3.5911943763494492e-02,
                      le:2.8126892447471619e-01 }
            -
               depth: 2
               sample_count: 7
               value: -7.8287494182586670e-01
               Tn: 0
               complexity: 0
               alpha: 0.
               node_risk: 1.8182119489938489e-03
               tree_risk: 0.
               tree_error: 0.
            -
               depth: 2
               sample_count: 69
               value: -2.0000932063313499e-02
               Tn: 0
               complexity: 0
               alpha: 0.
               node_risk: 2.5960031733865581e-03
               tree_risk: 0.
               tree_error: 0.
               splits:
                  - { var:0, quality:2.7840565890073776e-02,
                      le:1.5481616556644440e-01 }
            -
               depth: 3
               sample_count: 38
               value: -7.6886516809463501e-01
               Tn: 0
               complexity: 0
               alpha: 0.
               node_risk: 2.3543797076230298e-03
               tree_risk: 0.
               tree_error: 0.
            -
               depth: 3
               sample_count: 31
               value: -7.6370954513549805e-01
               Tn: 0
               complexity: 0
               alpha: 0.
               node_risk: 3.6306735234220566e-06
               tree_risk: 0.
               tree_error: 0.
      -
         best_tree_idx: -1
         nodes:
            -
               depth: 0
               sample_count: 152
               value: 1.9178635342732857e-03
               Tn: 0
               complexity: 0
               alpha: 0.
               node_risk: 2.1316144193171743e-01
               tree_risk: 0.
               tree_error: 0.
               splits:
                  - { var:3, quality:6.3469208776950836e-02,
                      le:-2.1775263547897339e-01 }
            -
               depth: 1
               sample_count: 81
               value: 2.0964800414663774e-02
               Tn: 0
               complexity: 0
               alpha: 0.
               node_risk: 1.4687464947569334e-01
               tree_risk: 0.
               tree_error: 0.
               splits:
                  - { var:1, quality:1.4585332572460175e-01,
                      le:-4.6542203426361084e-01 }
            -
               depth: 2
               sample_count: 41
               value: -1.5476070117296242e-02
               Tn: 0
               complexity: 0
               alpha: 0.
               node_risk: 1.6970720337411330e-02
               tree_risk: 0.
               tree_error: 0.
               splits:
                  - { var:0, quality:2.6411585509777069e-02,
                      le:-1.0989487171173096e+00 }
            -
               depth: 3
               sample_count: 1
               value: 8.4435904026031494e-01
               Tn: 0
               complexity: 0
               alpha: 0.
               node_risk: 0.
               tree_risk: 0.
               tree_error: 0.
            -
               depth: 3
               sample_count: 40
               value: -7.6465433835983276e-01
               Tn: 0
               complexity: 0
               alpha: 0.
               node_risk: 3.7899311425454094e-04
               tree_risk: 0.
               tree_error: 0.
            -
               depth: 2
               sample_count: 40
               value: 5.8316692709922791e-02
               Tn: 0
               complexity: 0
               alpha: 0.
               node_risk: 1.9651955966606849e-02
               tree_risk: 0.
               tree_error: 0.
               splits:
                  - { var:0, quality:1.5568414330482483e-01,
                      le:-2.3151321709156036e-01 }
            -
               depth: 3
               sample_count: 1
               value: 9.3368846178054810e-01
               Tn: 0
               complexity: 0
               alpha: 0.
               node_risk: 0.
               tree_risk: 0.
               tree_error: 0.
            -
               depth: 3
               sample_count: 39
               value: 7.9345607757568359e-01
               Tn: 0
               complexity: 0
               alpha: 0.
               node_risk: 1.2856563502000595e-06
               tree_risk: 0.
               tree_error: 0.
            -
               depth: 1
               sample_count: 71
               value: -1.9811740512369384e-02
               Tn: 0
               complexity: 0
               alpha: 0.
               node_risk: 3.3766681557576318e-03
               tree_risk: 0.
               tree_error: 0.
               splits:
                  - { var:3, quality:2.8319526463747025e-02,
                      le:3.0305111408233643e-01 }
            -
               depth: 2
               sample_count: 7
               value: -7.7775728702545166e-01
               Tn: 0
               complexity: 0
               alpha: 0.
               node_risk: 1.5846918306379907e-03
               tree_risk: 0.
               tree_error: 0.
            -
               depth: 2
               sample_count: 64
               value: -1.8977600033394992e-02
               Tn: 0
               complexity: 0
               alpha: 0.
               node_risk: 1.3403089967071388e-03
               tree_risk: 0.
               tree_error: 0.
               splits:
                  - { var:3, quality:2.3166457191109657e-02,
                      le:4.3389421701431274e-01 }
            -
               depth: 3
               sample_count: 11
               value: -7.7065640687942505e-01
               Tn: 0
               complexity: 0
               alpha: 0.
               node_risk: 1.1729916996778477e-03
               tree_risk: 0.
               tree_error: 0.
            -
               depth: 3
               sample_count: 53
               value: -7.6406931877136230e-01
               Tn: 0
               complexity: 0
               alpha: 0.
               node_risk: 5.0415098107482043e-05
               tree_risk: 0.
               tree_error: 0.
      -
         best_tree_idx: -1
         nodes:
            -
               depth: 0
               sample_count: 152
               value: -1.0667754165632161e-03
               Tn: 0
               complexity: 0
               alpha: 0.
               node_risk: 2.0082816397927286e-01
               tree_risk: 0.
               tree_error: 0.
               splits:
                  - { var:3, quality:5.1079593598842621e-02,
                      le:-1.8568448722362518e-01 }
            -
               depth: 1
               sample_count: 80
               value: 1.6294697951525449e-02
               Tn: 0
               complexity: 0
               alpha: 0.
               node_risk: 1.4524273948516817e-01
               tree_risk: 0.
               tree_error: 0.
               splits:
                  - { var:1, quality:1.2964813411235809e-01,
                      le:-4.6542203426361084e-01 }
            -
               depth: 2
               sample_count: 45
               value: -1.6169970068666668e-02
               Tn: 0
               complexity: 0
               alpha: 0.
               node_risk: 1.7721245352296230e-02
               tree_risk: 0.
               tree_error: 0.
               splits:
                  - { var:0, quality:2.8262455016374588e-02,
                      le:-1.1072268486022949e+00 }
            -
               depth: 3
               sample_count: 1
               value: 8.4348630905151367e-01
               Tn: 0
               complexity: 0
               alpha: 0.
               node_risk: 0.
               tree_risk: 0.
               tree_error: 0.
            -
               depth: 3
               sample_count: 44
               value: -7.6571023464202881e-01
               Tn: 0
               complexity: 0
               alpha: 0.
               node_risk: 1.2248464839659315e-03
               tree_risk: 0.
               tree_error: 0.
            -
               depth: 2
               sample_count: 35
               value: 5.8034985406058177e-02
               Tn: 0
               complexity: 0
               alpha: 0.
               node_risk: 1.9114728110568330e-02
               tree_risk: 0.
               tree_error: 0.
               splits:
                  - { var:0, quality:1.3699591159820557e-01,
                      le:-2.3036833107471466e-01 }
            -
               depth: 3
               sample_count: 1
               value: 9.3086570501327515e-01
               Tn: 0
               complexity: 0
               alpha: 0.
               node_risk: 0.
               tree_risk: 0.
               tree_error: 0.
            -
               depth: 3
               sample_count: 34
               value: 7.9283505678176880e-01
               Tn: 0
               complexity: 0
               alpha: 0.
               node_risk: 9.0436283445294308e-07
               tree_risk: 0.
               tree_error: 0.
            -
               depth: 1
               sample_count: 72
               value: -2.0357301381106179e-02
               Tn: 0
               complexity: 0
               alpha: 0.
               node_risk: 4.6788076700498872e-03
               tree_risk: 0.
               tree_error: 0.
               splits:
                  - { var:3, quality:3.0515432357788086e-02,
                      le:2.3868733644485474e-01 }
            -
               depth: 2
               sample_count: 6
               value: -7.7997052669525146e-01
               Tn: 0
               complexity: 0
               alpha: 0.
               node_risk: 1.4463847019584751e-03
               tree_risk: 0.
               tree_error: 0.
            -
               depth: 2
               sample_count: 66
               value: -1.9432603409796051e-02
               Tn: 0
               complexity: 0
               alpha: 0.
               node_risk: 2.5552104282805244e-03
               tree_risk: 0.
               tree_error: 0.
               splits:
                  - { var:0, quality:2.5201762095093727e-02,
                      le:9.5785871148109436e-02 }
            -
               depth: 3
               sample_count: 33
               value: -7.6898837089538574e-01
               Tn: 0
               complexity: 0
               alpha: 0.
               node_risk: 2.2732978498513703e-03
               tree_risk: 0.
               tree_error: 0.
            -
               depth: 3
               sample_count: 33
               value: -7.6326918601989746e-01
               Tn: 0
               complexity: 0
               alpha: 0.
               node_risk: 3.4716234954476621e-06
               tree_risk: 0.
               tree_error: 0.
      -
         best_tree_idx: -1
         nodes:
            -
               depth: 0
               sample_count: 152
               value: 2.3252858143103751e-03
               Tn: 0
               complexity: 0
               alpha: 0.
               node_risk: 2.2406785768699661e-01
               tree_risk: 0.
               tree_error: 0.
               splits:
                  - { var:3, quality:6.8002671003341675e-02,
                      le:-2.1775263547897339e-01 }
            -
               depth: 1
               sample_count: 82
               value: 2.1749476152585774e-02
               Tn: 0
               complexity: 0
               alpha: 0.
               node_risk: 1.5144501581293918e-01
               tree_risk: 0.
               tree_error: 0.
               splits:
                  - { var:1, quality:1.3406749069690704e-01,
                      le:-4.7164160013198853e-01 }
            -
               depth: 2
               sample_count: 42
               value: -1.1516118244755836e-02
               Tn: 0
               complexity: 0
               alpha: 0.
               node_risk: 3.7483278571438461e-02
               tree_risk: 0.
               tree_error: 0.
               splits:
                  - { var:1, quality:4.2414154857397079e-02,
                      le:-1.1974571943283081e+00 }
            -
               depth: 3
               sample_count: 2
               value: 8.5428404808044434e-01
               Tn: 0
               complexity: 0
               alpha: 0.
               node_risk: 2.7361564740324695e-04
               tree_risk: 0.
               tree_error: 0.
            -
               depth: 3
               sample_count: 40
               value: -7.6424771547317505e-01
               Tn: 0
               complexity: 0
               alpha: 0.
               node_risk: 3.6558942795768615e-04
               tree_risk: 0.
               tree_error: 0.
            -
               depth: 2
               sample_count: 40
               value: 5.6678350269794467e-02
               Tn: 0
               complexity: 0
               alpha: 0.
               node_risk: 1.8683496992113552e-02
               tree_risk: 0.
               tree_error: 0.
               splits:
                  - { var:0, quality:1.4717964828014374e-01,
                      le:-2.3151321709156036e-01 }
            -
               depth: 3
               sample_count: 1
               value: 9.2780673503875732e-01
               Tn: 0
               complexity: 0
               alpha: 0.
               node_risk: 0.
               tree_risk: 0.
               tree_error: 0.
            -
               depth: 3
               sample_count: 39
               value: 7.9215729236602783e-01
               Tn: 0
               complexity: 0
               alpha: 0.
               node_risk: 1.2579465626938457e-06
               tree_risk: 0.
               tree_error: 0.
            -
               depth: 1
               sample_count: 70
               value: -2.0428765724812236e-02
               Tn: 0
               complexity: 0
               alpha: 0.
               node_risk: 5.4420296085050772e-03
               tree_risk: 0.
               tree_error: 0.
               splits:
                  - { var:3, quality:3.0297564342617989e-02,
                      le:2.8126892447471619e-01 }
            -
               depth: 2
               sample_count: 8
               value: -7.8067857027053833e-01
               Tn: 0
               complexity: 0
               alpha: 0.
               node_risk: 1.9866855520309992e-03
               tree_risk: 0.
               tree_error: 0.
            -
               depth: 2
               sample_count: 62
               value: -1.9015105801724618e-02
               Tn: 0
               complexity: 0
               alpha: 0.
               node_risk: 2.3711934063309348e-03
               tree_risk: 0.
               tree_error: 0.
               splits:
                  - { var:3, quality:2.2688036784529686e-02,
                      le:5.4469513893127441e-01 }
            -
               depth: 3
               sample_count: 14
               value: -7.7263563871383667e-01
               Tn: 0
               complexity: 0
               alpha: 0.
               node_risk: 2.0548601313043367e-03
               tree_risk: 0.
               tree_error: 0.
            -
               depth: 3
               sample_count: 48
               value: -7.6370131969451904e-01
               Tn: 0
               complexity: 0
               alpha: 0.
               node_risk: 4.5900489761555724e-05
               tree_risk: 0.
               tree_error: 0.
      -
         best_tree_idx: -1
         nodes:
            -
               depth: 0
               sample_count: 152
               value: 1.3437981864339427e-03
               Tn: 0
               complexity: 0
               alpha: 0.
               node_risk: 2.0054823865184923e-01
               tree_risk: 0.
               tree_error: 0.
               splits:
                  - { var:3, quality:5.2561674267053604e-02,
                      le:-1.8568448722362518e-01 }
            -
               depth: 1
               sample_count: 83
               value: 1.8254490075520723e-02
               Tn: 0
               complexity: 0
               alpha: 0.
               node_risk: 1.4558668832445504e-01
               tree_risk: 0.
               tree_error: 0.
               splits:
                  - { var:1, quality:1.3212805986404419e-01,
                      le:-4.6542203426361084e-01 }
            -
               depth: 2
               sample_count: 44
               value: -1.5146803576499224e-02
               Tn: 0
               complexity: 0
               alpha: 0.
               node_risk: 2.2938962136391062e-02
               tree_risk: 0.
               tree_error: 0.
               splits:
                  - { var:1, quality:3.1877174973487854e-02,
                      le:-1.2180416584014893e+00 }
            -
               depth: 3
               sample_count: 1
               value: 8.6281794309616089e-01
               Tn: 0
               complexity: 0
               alpha: 0.
               node_risk: 0.
               tree_risk: 0.
               tree_error: 0.
            -
               depth: 3
               sample_count: 43
               value: -7.6529878377914429e-01
               Tn: 0
               complexity: 0
               alpha: 0.
               node_risk: 1.1565159553705174e-03
               tree_risk: 0.
               tree_error: 0.
            -
               depth: 2
               sample_count: 39
               value: 5.5938000862415023e-02
               Tn: 0
               complexity: 0
               alpha: 0.
               node_risk: 1.8177451388598234e-02
               tree_risk: 0.
               tree_error: 0.
               splits:
                  - { var:0, quality:1.4020957052707672e-01,
                      le:-2.3151321709156036e-01 }
            -
               depth: 3
               sample_count: 1
               value: 9.2480427026748657e-01
               Tn: 0
               complexity: 0
               alpha: 0.
               node_risk: 0.
               tree_risk: 0.
               tree_error: 0.
            -
               depth: 3
               sample_count: 38
               value: 7.9150366783142090e-01
               Tn: 0
               complexity: 0
               alpha: 0.
               node_risk: 1.2159983295012555e-06
               tree_risk: 0.
               tree_error: 0.
            -
               depth: 1
               sample_count: 69
               value: -1.8998048578699429e-02
               Tn: 0
               complexity: 0
               alpha: 0.
               node_risk: 2.6743554561659694e-03
               tree_risk: 0.
               tree_error: 0.
               splits:
                  - { var:3, quality:2.5266898795962334e-02,
                      le:2.3868733644485474e-01 }
            -
               depth: 2
               sample_count: 4
               value: -7.7770292758941650e-01
               Tn: 0
               complexity: 0
               alpha: 0.
               node_risk: 8.3345596330463689e-04
               tree_risk: 0.
               tree_error: 0.
            -
               depth: 2
               sample_count: 65
               value: -1.8429050193383145e-02
               Tn: 0
               complexity: 0
               alpha: 0.
               node_risk: 1.4778845319165651e-03
               tree_risk: 0.
               tree_error: 0.
               splits:
                  - { var:0, quality:2.2245345637202263e-02,
                      le:9.5785871148109436e-02 }
            -
               depth: 3
               sample_count: 31
               value: -7.6703757047653198e-01
               Tn: 0
               complexity: 0
               alpha: 0.
               node_risk: 1.3050685532041070e-03
               tree_risk: 0.
               tree_error: 0.
            -
               depth: 3
               sample_count: 34
               value: -7.6288783550262451e-01
               Tn: 0
               complexity: 0
               alpha: 0.
               node_risk: 3.4129660721055055e-06
               tree_risk: 0.
               tree_error: 0.
   trees_2:
      -
         best_tree_idx: -1
         nodes:
            -
               depth: 0
               sample_count: 152
               value: 1.9736842105263157e-02
               Tn: 0
               complexity: 0
               alpha: 0.
               node_risk: 2.9940789473684209e+01
               tree_risk: 0.
               tree_error: 0.
               splits:
                  - { var:3, quality:1.4376498222351074e+01,
                      le:9.2784965038299561e-01 }
            -
               depth: 1
               sample_count: 115
               value: -1.5434782608695652e-01
               Tn: 0
               complexity: 0
               alpha: 0.
               node_risk: 9.9478260869565212e+00
               tree_risk: 0.
               tree_error: 0.
               splits:
                  - { var:0, quality:4.5140767097473145e+00,
                      le:-6.9519501924514771e-01 }
            -
               depth: 2
               sample_count: 4
               value: 2.
               Tn: 0
               complexity: 0
               alpha: 0.
               node_risk: 7.5000000000000000e-01
               tree_risk: 0.
               tree_error: 0.
            -
               depth: 2
               sample_count: 111
               value: -1.7792792792792791e-01
               Tn: 0
               complexity: 0
               alpha: 0.
               node_risk: 7.4234234234234240e+00
               tree_risk: 0.
               tree_error: 0.
               splits:
                  - { var:3, quality:4.7660713195800781e+00,
                      le:8.6983807384967804e-02 }
            -
               depth: 3
               sample_count: 76
               value: -1.
               Tn: 0
               complexity: 0
               alpha: 0.
               node_risk: 0.
               tree_risk: 0.
               tree_error: 0.
            -
               depth: 3
               sample_count: 35
               value: -8.5714288055896759e-02
               Tn: 0
               complexity: 0
               alpha: 0.
               node_risk: 6.1714285714285717e+00
               tree_risk: 0.
               tree_error: 0.
            -
               depth: 1
               sample_count: 37
               value: 5.6081081081081086e-01
               Tn: 0
               complexity: 0
               alpha: 0.
               node_risk: 5.6756756756756754e+00
               tree_risk: 0.
               tree_error: 0.
               splits:
                  - { var:0, quality:1.7312500000000000e+01,
                      le:2.3969911038875580e-01 }
            -
               depth: 2
               sample_count: 30
               value: 7.5000000000000000e-01
               Tn: 0
               complexity: 0
               alpha: 0.
               node_risk: 0.
               tree_risk: 0.
               tree_error: 0.
               splits:
                  - { var:0, quality:1.6875000000000000e+01,
                      le:-7.6424670219421387e-01 }
            -
               depth: 3
               sample_count: 1
               value: 3.
               Tn: 0
               complexity: 0
               alpha: 0.
               node_risk: 0.
               tree_risk: 0.
               tree_error: 0.
            -
               depth: 3
               sample_count: 29
               value: 3.
               Tn: 0
               complexity: 0
               alpha: 0.
               node_risk: 0.
               tree_risk: 0.
               tree_error: 0.
            -
               depth: 2
               sample_count: 7
               value: -1.
               Tn: 0
               complexity: 0
               alpha: 0.
               node_risk: 0.
               tree_risk: 0.
               tree_error: 0.
      -
         best_tree_idx: -1
         nodes:
            -
               depth: 0
               sample_count: 152
               value: 6.4832476997061777e-03
               Tn: 0
               complexity: 0
               alpha: 0.
               node_risk: 2.8509681790020505e+01
               tree_risk: 0.
               tree_error: 0.
               splits:
                  - { var:3, quality:1.3802572250366211e+01,
                      le:9.2784965038299561e-01 }
            -
               depth: 1
               sample_count: 118
               value: -1.5523392530316013e-01
               Tn: 0
               complexity: 0
               alpha: 0.
               node_risk: 9.8716261824923635e+00
               tree_risk: 0.
               tree_error: 0.
               splits:
                  - { var:0, quality:4.8733510971069336e+00,
                      le:-6.9519501924514771e-01 }
            -
               depth: 2
               sample_count: 6
               value: 1.6232701539993286e+00
               Tn: 0
               complexity: 0
               alpha: 0.
               node_risk: 1.3299216725515108e+00
               tree_risk: 0.
               tree_error: 0.
            -
               depth: 2
               sample_count: 112
               value: -1.8559074548206159e-01
               Tn: 0
               complexity: 0
               alpha: 0.
               node_risk: 6.5118667101673733e+00
               tree_risk: 0.
               tree_error: 0.
               splits:
                  - { var:3, quality:5.0301098823547363e+00,
                      le:8.6983807384967804e-02 }
            -
               depth: 3
               sample_count: 82
               value: -9.9664473533630371e-01
               Tn: 0
               complexity: 0
               alpha: 0.
               node_risk: 0.
               tree_risk: 0.
               tree_error: 0.
            -
               depth: 3
               sample_count: 30
               value: -6.5801002085208893e-02
               Tn: 0
               complexity: 0
               alpha: 0.
               node_risk: 5.3394765150368144e+00
               tree_risk: 0.
               tree_error: 0.
            -
               depth: 1
               sample_count: 34
               value: 5.6773696576847754e-01
               Tn: 0
               complexity: 0
               alpha: 0.
               node_risk: 4.8418721847668245e+00
               tree_risk: 0.
               tree_error: 0.
               splits:
                  - { var:0, quality:1.5800930976867676e+01,
                      le:2.3969911038875580e-01 }
            -
               depth: 2
               sample_count: 28
               value: 7.4242526292800903e-01
               Tn: 0
               complexity: 0
               alpha: 0.
               node_risk: 0.
               tree_risk: 0.
               tree_error: 0.
               splits:
                  - { var:0, quality:1.5433467864990234e+01,
                      le:-6.0576033592224121e-01 }
            -
               depth: 3
               sample_count: 13
               value: 2.9117763042449951e+00
               Tn: 0
               complexity: 0
               alpha: 0.
               node_risk: 0.
               tree_risk: 0.
               tree_error: 0.
            -
               depth: 3
               sample_count: 15
               value: 2.9117763042449951e+00
               Tn: 0
               complexity: 0
               alpha: 0.
               node_risk: 0.
               tree_risk: 0.
               tree_error: 0.
            -
               depth: 2
               sample_count: 6
               value: -9.9664473533630371e-01
               Tn: 0
               complexity: 0
               alpha: 0.
               node_risk: 0.
               tree_risk: 0.
               tree_error: 0.
      -
         best_tree_idx: -1
         nodes:
            -
               depth: 0
               sample_count: 152
               value: -3.5088019151436656e-05
               Tn: 0
               complexity: 0
               alpha: 0.
               node_risk: 2.7575389780234293e+01
               tree_risk: 0.
               tree_error: 0.
               splits:
                  - { var:3, quality:1.1419295310974121e+01,
                      le:1.1074032783508301e+00 }
            -
               depth: 1
               sample_count: 125
               value: -1.2742197573184966e-01
               Tn: 0
               complexity: 0
               alpha: 0.
               node_risk: 1.2884686361138989e+01
               tree_risk: 0.
               tree_error: 0.
               splits:
                  - { var:3, quality:4.3129892349243164e+00,
                      le:-9.3588817119598389e-01 }
            -
               depth: 2
               sample_count: 71
               value: -2.4529323548498289e-01
               Tn: 0
               complexity: 0
               alpha: 0.
               node_risk: 2.7509277314319291e-04
               tree_risk: 0.
               tree_error: 0.
               splits:
                  - { var:0, quality:4.2722544670104980e+00,
                      le:-8.2366353273391724e-01 }
            -
               depth: 3
               sample_count: 2
               value: -1.0091329813003540e+00
               Tn: 0
               complexity: 0
               alpha: 0.
               node_risk: 3.5072040489581013e-06
               tree_risk: 0.
               tree_error: 0.
            -
               depth: 3
               sample_count: 69
               value: -9.9332517385482788e-01
               Tn: 0
               complexity: 0
               alpha: 0.
               node_risk: 2.7533531010703882e-14
               tree_risk: 0.
               tree_error: 0.
            -
               depth: 2
               sample_count: 54
               value: 2.7556902832455106e-02
               Tn: 0
               complexity: 0
               alpha: 0.
               node_risk: 1.0600966811928041e+01
               tree_risk: 0.
               tree_error: 0.
               splits:
                  - { var:0, quality:9.7236566543579102e+00,
                      le:3.8670465350151062e-02 }
            -
               depth: 3
               sample_count: 16
               value: 2.6693174839019775e+00
               Tn: 0
               complexity: 0
               alpha: 0.
               node_risk: 9.1821612968103050e-01
               tree_risk: 0.
               tree_error: 0.
            -
               depth: 3
               sample_count: 38
               value: -9.9631130695343018e-01
               Tn: 0
               complexity: 0
               alpha: 0.
               node_risk: 1.0025331269014615e-04
               tree_risk: 0.
               tree_error: 0.
            -
               depth: 1
               sample_count: 27
               value: 5.8971902176185886e-01
               Tn: 0
               complexity: 0
               alpha: 0.
               node_risk: 3.2714084538573704e+00
               tree_risk: 0.
               tree_error: 0.
               splits:
                  - { var:0, quality:1.2661158561706543e+01,
                      le:3.1762343645095825e-01 }
            -
               depth: 2
               sample_count: 23
               value: 7.3488056659698486e-01
               Tn: 0
               complexity: 0
               alpha: 0.
               node_risk: 0.
               tree_risk: 0.
               tree_error: 0.
               splits:
                  - { var:0, quality:1.2421136856079102e+01,
                      le:-6.9538462162017822e-01 }
            -
               depth: 3
               sample_count: 4
               value: 2.8289136886596680e+00
               Tn: 0
               complexity: 0
               alpha: 0.
               node_risk: 0.
               tree_risk: 0.
               tree_error: 0.
            -
               depth: 3
               sample_count: 19
               value: 2.8289136886596680e+00
               Tn: 0
               complexity: 0
               alpha: 0.
               node_risk: 0.
               tree_risk: 0.
               tree_error: 0.
            -
               depth: 2
               sample_count: 4
               value: -9.9332469701766968e-01
               Tn: 0
               complexity: 0
               alpha: 0.
               node_risk: 0.
               tree_risk: 0.
               tree_error: 0.
      -
         best_tree_idx: -1
         nodes:
            -
               depth: 0
               sample_count: 152
               value: -6.7511133261417087e-03
               Tn: 0
               complexity: 0
               alpha: 0.
               node_risk: 2.6482073722562607e+01
               tree_risk: 0.
               tree_error: 0.
               splits:
                  - { var:3, quality:1.6711368560791016e+01,
                      le:8.1491279602050781e-01 }
            -
               depth: 1
               sample_count: 111
               value: -2.0822770920422701e-01
               Tn: 0
               complexity: 0
               alpha: 0.
               node_risk: 3.6989974531823142e+00
               tree_risk: 0.
               tree_error: 0.
               splits:
                  - { var:0, quality:5.6428666114807129e+00,
                      le:-8.0733025074005127e-01 }
            -
               depth: 2
               sample_count: 4
               value: 9.2970740795135498e-01
               Tn: 0
               complexity: 0
               alpha: 0.
               node_risk: 9.7284164353445846e-01
               tree_risk: 0.
               tree_error: 0.
            -
               depth: 2
               sample_count: 107
               value: -2.2494733848861445e-01
               Tn: 0
               complexity: 0
               alpha: 0.
               node_risk: 1.8961138390305932e+00
               tree_risk: 0.
               tree_error: 0.
               splits:
                  - { var:3, quality:5.7063064575195312e+00,
                      le:6.8952941894531250e-01 }
            -
               depth: 3
               sample_count: 104
               value: -9.5219421386718750e-01
               Tn: 0
               complexity: 0
               alpha: 0.
               node_risk: 9.5685675841600126e-01
               tree_risk: 0.
               tree_error: 0.
            -
               depth: 3
               sample_count: 3
               value: 3.2990485429763794e-01
               Tn: 0
               complexity: 0
               alpha: 0.
               node_risk: 6.4729031206016563e-01
               tree_risk: 0.
               tree_error: 0.
            -
               depth: 1
               sample_count: 41
               value: 5.3870991453891848e-01
               Tn: 0
               complexity: 0
               alpha: 0.
               node_risk: 6.0786363454613603e+00
               tree_risk: 0.
               tree_error: 0.
               splits:
                  - { var:0, quality:1.7976871490478516e+01,
                      le:2.9438945651054382e-01 }
            -
               depth: 2
               sample_count: 33
               value: 7.2828801472981775e-01
               Tn: 0
               complexity: 0
               alpha: 0.
               node_risk: 2.9097758169527310e-04
               tree_risk: 0.
               tree_error: 0.
               splits:
                  - { var:0, quality:1.7503582000732422e+01,
                      le:-3.5554391145706177e-01 }
            -
               depth: 3
               sample_count: 31
               value: 2.7529444694519043e+00
               Tn: 0
               complexity: 0
               alpha: 0.
               node_risk: 2.2429180667415949e-05
               tree_risk: 0.
               tree_error: 0.
            -
               depth: 3
               sample_count: 2
               value: 2.8792893886566162e+00
               Tn: 0
               complexity: 0
               alpha: 0.
               node_risk: 0.
               tree_risk: 0.
               tree_error: 0.
            -
               depth: 2
               sample_count: 8
               value: -9.9115699529647827e-01
               Tn: 0
               complexity: 0
               alpha: 0.
               node_risk: 1.7209704246012869e-05
               tree_risk: 0.
               tree_error: 0.
      -
         best_tree_idx: -1
         nodes:
            -
               depth: 0
               sample_count: 152
               value: 1.9124026851434456e-02
               Tn: 0
               complexity: 0
               alpha: 0.
               node_risk: 2.7853397253347346e+01
               tree_risk: 0.
               tree_error: 0.
               splits:
                  - { var:3, quality:1.5287964820861816e+01,
                      le:6.8952941894531250e-01 }
            -
               depth: 1
               sample_count: 107
               value: -1.8617002638143915e-01
               Tn: 0
               complexity: 0
               alpha: 0.
               node_risk: 5.4047594648519262e+00
               tree_risk: 0.
               tree_error: 0.
               splits:
                  - { var:0, quality:4.8833346366882324e+00,
                      le:-6.2078249454498291e-01 }
            -
               depth: 2
               sample_count: 6
               value: 9.5998173952102661e-01
               Tn: 0
               complexity: 0
               alpha: 0.
               node_risk: 1.4311303232700152e+00
               tree_risk: 0.
               tree_error: 0.
            -
               depth: 2
               sample_count: 101
               value: -2.1170900496515896e-01
               Tn: 0
               complexity: 0
               alpha: 0.
               node_risk: 2.7988372268041672e+00
               tree_risk: 0.
               tree_error: 0.
               splits:
                  - { var:3, quality:4.8217067718505859e+00,
                      le:1.6267739236354828e-01 }
            -
               depth: 3
               sample_count: 79
               value: -9.8713767528533936e-01
               Tn: 0
               complexity: 0
               alpha: 0.
               node_risk: 1.4315387489283182e-04
               tree_risk: 0.
               tree_error: 0.
            -
               depth: 3
               sample_count: 22
               value: -4.4252124428749084e-01
               Tn: 0
               complexity: 0
               alpha: 0.
               node_risk: 2.5038781405829553e+00
               tree_risk: 0.
               tree_error: 0.
            -
               depth: 1
               sample_count: 45
               value: 5.0726766453848948e-01
               Tn: 0
               complexity: 0
               alpha: 0.
               node_risk: 7.2162639255219663e+00
               tree_risk: 0.
               tree_error: 0.
               splits:
                  - { var:0, quality:1.8795083999633789e+01,
                      le:2.9438945651054382e-01 }
            -
               depth: 2
               sample_count: 35
               value: 7.2130909306662427e-01
               Tn: 0
               complexity: 0
               alpha: 0.
               node_risk: 5.5922983847978003e-04
               tree_risk: 0.
               tree_error: 0.
               splits:
                  - { var:3, quality:1.8210557937622070e+01,
                      le:8.7370610237121582e-01 }
            -
               depth: 3
               sample_count: 3
               value: 2.8184659481048584e+00
               Tn: 0
               complexity: 0
               alpha: 0.
               node_risk: 1.6468545036563143e-05
               tree_risk: 0.
               tree_error: 0.
            -
               depth: 3
               sample_count: 32
               value: 2.6798214912414551e+00
               Tn: 0
               complexity: 0
               alpha: 0.
               node_risk: 2.3381606322203652e-05
               tree_risk: 0.
               tree_error: 0.
            -
               depth: 2
               sample_count: 10
               value: -9.8930835723876953e-01
               Tn: 0
               complexity: 0
               alpha: 0.
               node_risk: 4.1728281050423810e-05
               tree_risk: 0.
               tree_error: 0.
      -
         best_tree_idx: -1
         nodes:
            -
               depth: 0
               sample_count: 152
               value: 1.1588133087283687e-04
               Tn: 0
               complexity: 0
               alpha: 0.
               node_risk: 2.6079266244386996e+01
               tree_risk: 0.
               tree_error: 0.
               splits:
                  - { var:3, quality:1.3533288955688477e+01,
                      le:1.0560052394866943e+00 }
            -
               depth: 1
               sample_count: 125
               value: -1.3856184899806975e-01
               Tn: 0
               complexity: 0
               alpha: 0.
               node_risk: 1.0874747863859962e+01
               tree_risk: 0.
               tree_error: 0.
               splits:
                  - { var:3, quality:4.3948001861572266e+00,
                      le:5.5278208106756210e-02 }
            -
               depth: 2
               sample_count: 84
               value: -2.2682010205019087e-01
               Tn: 0
               complexity: 0
               alpha: 0.
               node_risk: 9.1697342353976641e-01
               tree_risk: 0.
               tree_error: 0.
               splits:
                  - { var:0, quality:4.7582488059997559e+00,
                      le:-1.0468204021453857e+00 }
            -
               depth: 3
               sample_count: 2
               value: 9.0446323156356812e-01
               Tn: 0
               complexity: 0
               alpha: 0.
               node_risk: 4.7959050200098119e-01
               tree_risk: 0.
               tree_error: 0.
            -
               depth: 3
               sample_count: 82
               value: -9.8440283536911011e-01
               Tn: 0
               complexity: 0
               alpha: 0.
               node_risk: 7.1229833134367482e-04
               tree_risk: 0.
               tree_error: 0.
            -
               depth: 2
               sample_count: 41
               value: 4.2259937742861305e-02
               Tn: 0
               complexity: 0
               alpha: 0.
               node_risk: 7.9628975638804835e+00
               tree_risk: 0.
               tree_error: 0.
               splits:
                  - { var:0, quality:8.0346984863281250e+00,
                      le:9.5785871148109436e-02 }
            -
               depth: 3
               sample_count: 12
               value: 2.7517902851104736e+00
               Tn: 0
               complexity: 0
               alpha: 0.
               node_risk: 1.3478560447985899e-03
               tree_risk: 0.
               tree_error: 0.
            -
               depth: 3
               sample_count: 29
               value: -9.8842042684555054e-01
               Tn: 0
               complexity: 0
               alpha: 0.
               node_risk: 7.3028199538471839e-05
               tree_risk: 0.
               tree_error: 0.
            -
               depth: 1
               sample_count: 27
               value: 6.4214241063153299e-01
               Tn: 0
               complexity: 0
               alpha: 0.
               node_risk: 1.6712315325806770e+00
               tree_risk: 0.
               tree_error: 0.
               splits:
                  - { var:0, quality:1.2804595947265625e+01,
                      le:3.5531151294708252e-01 }
            -
               depth: 2
               sample_count: 25
               value: 7.1251139640808103e-01
               Tn: 0
               complexity: 0
               alpha: 0.
               node_risk: 1.0038439199888671e-06
               tree_risk: 0.
               tree_error: 0.
               splits:
                  - { var:1, quality:1.2691813468933105e+01,
                      le:-3.5759353637695312e-01 }
            -
               depth: 3
               sample_count: 21
               value: 2.6080379486083984e+00
               Tn: 0
               complexity: 0
               alpha: 0.
               node_risk: 0.
               tree_risk: 0.
               tree_error: 0.
            -
               depth: 3
               sample_count: 4
               value: 2.6128025054931641e+00
               Tn: 0
               complexity: 0
               alpha: 0.
               node_risk: 7.9958663690149478e-08
               tree_risk: 0.
               tree_error: 0.
            -
               depth: 2
               sample_count: 2
               value: -9.8356777429580688e-01
               Tn: 0
               complexity: 0
               alpha: 0.
               node_risk: 0.
               tree_risk: 0.
               tree_error: 0.
      -
         best_tree_idx: -1
         nodes:
            -
               depth: 0
               sample_count: 152
               value: 2.5256995797941561e-02
               Tn: 0
               complexity: 0
               alpha: 0.
               node_risk: 2.7268498077385964e+01
               tree_risk: 0.
               tree_error: 0.
               splits:
                  - { var:3, quality:1.2246461868286133e+01,
                      le:1.0779366493225098e+00 }
            -
               depth: 1
               sample_count: 121
               value: -1.1784495339413320e-01
               Tn: 0
               complexity: 0
               alpha: 0.
               node_risk: 1.2039863304896883e+01
               tree_risk: 0.
               tree_error: 0.
               splits:
                  - { var:3, quality:4.0682377815246582e+00,
                      le:-9.3588817119598389e-01 }
            -
               depth: 2
               sample_count: 71
               value: -2.3573235999530470e-01
               Tn: 0
               complexity: 0
               alpha: 0.
               node_risk: 9.1877361191539109e-04
               tree_risk: 0.
               tree_error: 0.
               splits:
                  - { var:0, quality:3.9463565349578857e+00,
                      le:-8.2366353273391724e-01 }
            -
               depth: 3
               sample_count: 2
               value: -1.0090179443359375e+00
               Tn: 0
               complexity: 0
               alpha: 0.
               node_risk: 1.9200006069475251e-06
               tree_risk: 0.
               tree_error: 0.
            -
               depth: 3
               sample_count: 69
               value: -9.8055285215377808e-01
               Tn: 0
               complexity: 0
               alpha: 0.
               node_risk: 1.2148066562467363e-05
               tree_risk: 0.
               tree_error: 0.
            -
               depth: 2
               sample_count: 50
               value: 4.9555163979530331e-02
               Tn: 0
               complexity: 0
               alpha: 0.
               node_risk: 9.6510862813535070e+00
               tree_risk: 0.
               tree_error: 0.
               splits:
                  - { var:0, quality:8.8866271972656250e+00,
                      le:5.0820067524909973e-02 }
            -
               depth: 3
               sample_count: 16
               value: 2.4693658351898193e+00
               Tn: 0
               complexity: 0
               alpha: 0.
               node_risk: 8.8709234451723251e-01
               tree_risk: 0.
               tree_error: 0.
            -
               depth: 3
               sample_count: 34
               value: -9.8381632566452026e-01
               Tn: 0
               complexity: 0
               alpha: 0.
               node_risk: 1.5209277427707946e-04
               tree_risk: 0.
               tree_error: 0.
            -
               depth: 1
               sample_count: 31
               value: 5.8381621683797524e-01
               Tn: 0
               complexity: 0
               alpha: 0.
               node_risk: 3.0791359554436379e+00
               tree_risk: 0.
               tree_error: 0.
               splits:
                  - { var:0, quality:1.3645216941833496e+01,
                      le:3.5531151294708252e-01 }
            -
               depth: 2
               sample_count: 27
               value: 7.0512201609434910e-01
               Tn: 0
               complexity: 0
               alpha: 0.
               node_risk: 1.9221657510115620e-06
               tree_risk: 0.
               tree_error: 0.
               splits:
                  - { var:0, quality:1.3424322128295898e+01,
                      le:-5.2377212047576904e-01 }
            -
               depth: 3
               sample_count: 21
               value: 2.5424861907958984e+00
               Tn: 0
               complexity: 0
               alpha: 0.
               node_risk: 0.
               tree_risk: 0.
               tree_error: 0.
            -
               depth: 3
               sample_count: 6
               value: 2.5467171669006348e+00
               Tn: 0
               complexity: 0
               alpha: 0.
               node_risk: 8.0229030663403478e-07
               tree_risk: 0.
               tree_error: 0.
            -
               depth: 2
               sample_count: 4
               value: -9.8038947582244873e-01
               Tn: 0
               complexity: 0
               alpha: 0.
               node_risk: 0.
               tree_risk: 0.
               tree_error: 0.
      -
         best_tree_idx: -1
         nodes:
            -
               depth: 0
               sample_count: 152
               value: 3.0897814682439753e-02
               Tn: 0
               complexity: 0
               alpha: 0.
               node_risk: 2.7073827120454695e+01
               tree_risk: 0.
               tree_error: 0.
               splits:
                  - { var:3, quality:1.4538169860839844e+01,
                      le:9.2784965038299561e-01 }
            -
               depth: 1
               sample_count: 113
               value: -1.4988112924373256e-01
               Tn: 0
               complexity: 0
               alpha: 0.
               node_risk: 8.2864015652495553e+00
               tree_risk: 0.
               tree_error: 0.
               splits:
                  - { var:3, quality:4.0282592773437500e+00,
                      le:-6.7773401737213135e-01 }
            -
               depth: 2
               sample_count: 74
               value: -2.3323760987133593e-01
               Tn: 0
               complexity: 0
               alpha: 0.
               node_risk: 8.9916302895520772e-04
               tree_risk: 0.
               tree_error: 0.
               splits:
                  - { var:0, quality:4.0264687538146973e+00,
                      le:-8.0506658554077148e-01 }
            -
               depth: 3
               sample_count: 2
               value: -1.0053505897521973e+00
               Tn: 0
               complexity: 0
               alpha: 0.
               node_risk: 2.1560636316309001e-06
               tree_risk: 0.
               tree_error: 0.
            -
               depth: 3
               sample_count: 72
               value: -9.7740495204925537e-01
               Tn: 0
               complexity: 0
               alpha: 0.
               node_risk: 1.1982124757725643e-05
               tree_risk: 0.
               tree_error: 0.
            -
               depth: 2
               sample_count: 39
               value: 8.2824493830020614e-03
               Tn: 0
               complexity: 0
               alpha: 0.
               node_risk: 6.7957150038301224e+00
               tree_risk: 0.
               tree_error: 0.
               splits:
                  - { var:0, quality:5.9348978996276855e+00,
                      le:3.8670465350151062e-02 }
            -
               depth: 3
               sample_count: 11
               value: 2.3541898727416992e+00
               Tn: 0
               complexity: 0
               alpha: 0.
               node_risk: 8.6342496143910274e-01
               tree_risk: 0.
               tree_error: 0.
            -
               depth: 3
               sample_count: 28
               value: -9.8190647363662720e-01
               Tn: 0
               complexity: 0
               alpha: 0.
               node_risk: 6.7358243235338122e-05
               tree_risk: 0.
               tree_error: 0.
            -
               depth: 1
               sample_count: 39
               value: 5.5469321631468260e-01
               Tn: 0
               complexity: 0
               alpha: 0.
               node_risk: 4.3943662650548934e+00
               tree_risk: 0.
               tree_error: 0.
               splits:
                  - { var:0, quality:1.6394060134887695e+01,
                      le:2.3969911038875580e-01 }
            -
               depth: 2
               sample_count: 33
               value: 6.9782441131996387e-01
               Tn: 0
               complexity: 0
               alpha: 0.
               node_risk: 3.6518613448777160e-06
               tree_risk: 0.
               tree_error: 0.
               splits:
                  - { var:0, quality:1.6069646835327148e+01,
                      le:-5.0339692831039429e-01 }
            -
               depth: 3
               sample_count: 26
               value: 2.4806978702545166e+00
               Tn: 0
               complexity: 0
               alpha: 0.
               node_risk: 4.3438691044173083e-07
               tree_risk: 0.
               tree_error: 0.
            -
               depth: 3
               sample_count: 7
               value: 2.4868519306182861e+00
               Tn: 0
               complexity: 0
               alpha: 0.
               node_risk: 1.3036601709259799e-07
               tree_risk: 0.
               tree_error: 0.
            -
               depth: 2
               sample_count: 6
               value: -9.7723478078842163e-01
               Tn: 0
               complexity: 0
               alpha: 0.
               node_risk: 1.2027935869518558e-09
               tree_risk: 0.
               tree_error: 0.
      -
         best_tree_idx: -1
         nodes:
            -
               depth: 0
               sample_count: 152
               value: 2.4734097974080788e-02
               Tn: 0
               complexity: 0
               alpha: 0.
               node_risk: 2.6164675930955585e+01
               tree_risk: 0.
               tree_error: 0.
               splits:
                  - { var:3, quality:1.1868386268615723e+01,
                      le:8.1491279602050781e-01 }
            -
               depth: 1
               sample_count: 108
               value: -1.5292212918952661e-01
               Tn: 0
               complexity: 0
               alpha: 0.
               node_risk: 7.3765402870354944e+00
               tree_risk: 0.
               tree_error: 0.
               splits:
                  - { var:0, quality:4.1289839744567871e+00,
                      le:-8.0733025074005127e-01 }
            -
               depth: 2
               sample_count: 4
               value: 1.7392317056655884e+00
               Tn: 0
               complexity: 0
               alpha: 0.
               node_risk: 6.8850132731013503e-01
               tree_risk: 0.
               tree_error: 0.
            -
               depth: 2
               sample_count: 104
               value: -1.7681786188712487e-01
               Tn: 0
               complexity: 0
               alpha: 0.
               node_risk: 5.0846539961619328e+00
               tree_risk: 0.
               tree_error: 0.
               splits:
                  - { var:3, quality:4.0306444168090820e+00,
                      le:5.5278208106756210e-02 }
            -
               depth: 3
               sample_count: 75
               value: -9.7489678859710693e-01
               Tn: 0
               complexity: 0
               alpha: 0.
               node_risk: 8.3585025087806741e-04
               tree_risk: 0.
               tree_error: 0.
            -
               depth: 3
               sample_count: 29
               value: -1.5307986736297607e-01
               Tn: 0
               complexity: 0
               alpha: 0.
               node_risk: 4.3046877231523748e+00
               tree_risk: 0.
               tree_error: 0.
            -
               depth: 1
               sample_count: 44
               value: 4.6079938283020799e-01
               Tn: 0
               complexity: 0
               alpha: 0.
               node_risk: 7.0127392216264699e+00
               tree_risk: 0.
               tree_error: 0.
               splits:
                  - { var:0, quality:1.6355182647705078e+01,
                      le:2.8025838732719421e-01 }
            -
               depth: 2
               sample_count: 33
               value: 6.9128628391208069e-01
               Tn: 0
               complexity: 0
               alpha: 0.
               node_risk: 3.2636594560031540e-04
               tree_risk: 0.
               tree_error: 0.
               splits:
                  - { var:3, quality:1.5770255088806152e+01,
                      le:9.0832185745239258e-01 }
            -
               depth: 3
               sample_count: 2
               value: 2.5303597450256348e+00
               Tn: 0
               complexity: 0
               alpha: 0.
               node_risk: 0.
               tree_risk: 0.
               tree_error: 0.
            -
               depth: 3
               sample_count: 31
               value: 2.4232010841369629e+00
               Tn: 0
               complexity: 0
               alpha: 0.
               node_risk: 3.5745671382869659e-06
               tree_risk: 0.
               tree_error: 0.
            -
               depth: 2
               sample_count: 11
               value: -2.3066132041541013e-01
               Tn: 0
               complexity: 0
               alpha: 0.
               node_risk: 1.6928397969961928e-05
               tree_risk: 0.
               tree_error: 0.
               splits:
                  - { var:3, quality:5.8526802062988281e-01,
                      le:9.3139314651489258e-01 }
            -
               depth: 3
               sample_count: 2
               value: -9.7820913791656494e-01
               Tn: 0
               complexity: 0
               alpha: 0.
               node_risk: 4.3646086744786317e-11
               tree_risk: 0.
               tree_error: 0.
            -
               depth: 3
               sample_count: 9
               value: -9.7412282228469849e-01
               Tn: 0
               complexity: 0
               alpha: 0.
               node_risk: 1.5938192987619004e-09
               tree_risk: 0.
               tree_error: 0.
      -
         best_tree_idx: -1
         nodes:
            -
               depth: 0
               sample_count: 152
               value: 2.4403686488145275e-02
               Tn: 0
               complexity: 0
               alpha: 0.
               node_risk: 2.5635946983874192e+01
               tree_risk: 0.
               tree_error: 0.
               splits:
                  - { var:3, quality:1.2493973731994629e+01,
                      le:6.8952941894531250e-01 }
            -
               depth: 1
               sample_count: 105
               value: -1.6671527070658548e-01
               Tn: 0
               complexity: 0
               alpha: 0.
               node_risk: 5.7661118462780871e+00
               tree_risk: 0.
               tree_error: 0.
               splits:
                  - { var:0, quality:4.8858227729797363e+00,
                      le:-6.2078249454498291e-01 }
            -
               depth: 2
               sample_count: 6
               value: 1.4618736505508423e+00
               Tn: 0
               complexity: 0
               alpha: 0.
               node_risk: 1.1956441350023956e+00
               tree_risk: 0.
               tree_error: 0.
            -
               depth: 2
               sample_count: 99
               value: -2.0041417383184337e-01
               Tn: 0
               complexity: 0
               alpha: 0.
               node_risk: 2.6030128668033439e+00
               tree_risk: 0.
               tree_error: 0.
               splits:
                  - { var:3, quality:4.2581171989440918e+00,
                      le:8.6983807384967804e-02 }
            -
               depth: 3
               sample_count: 78
               value: -9.7167587280273438e-01
               Tn: 0
               complexity: 0
               alpha: 0.
               node_risk: 8.0635980568288801e-04
               tree_risk: 0.
               tree_error: 0.
            -
               depth: 3
               sample_count: 21
               value: -4.0149629116058350e-01
               Tn: 0
               complexity: 0
               alpha: 0.
               node_risk: 2.3205074720657626e+00
               tree_risk: 0.
               tree_error: 0.
            -
               depth: 1
               sample_count: 47
               value: 4.5137156958275654e-01
               Tn: 0
               complexity: 0
               alpha: 0.
               node_risk: 7.4663833385481695e+00
               tree_risk: 0.
               tree_error: 0.
               splits:
                  - { var:0, quality:1.7041074752807617e+01,
                      le:2.1134549379348755e-01 }
            -
               depth: 2
               sample_count: 35
               value: 6.8473682233265465e-01
               Tn: 0
               complexity: 0
               alpha: 0.
               node_risk: 8.5841976985179258e-04
               tree_risk: 0.
               tree_error: 0.
               splits:
                  - { var:3, quality:1.6411008834838867e+01,
                      le:8.7370610237121582e-01 }
            -
               depth: 3
               sample_count: 3
               value: 2.4992423057556152e+00
               Tn: 0
               complexity: 0
               alpha: 0.
               node_risk: 7.9898006371648123e-05
               tree_risk: 0.
               tree_error: 0.
            -
               depth: 3
               sample_count: 32
               value: 2.3683154582977295e+00
               Tn: 0
               complexity: 0
               alpha: 0.
               node_risk: 2.6974937851420577e-05
               tree_risk: 0.
               tree_error: 0.
            -
               depth: 2
               sample_count: 12
               value: -2.2927708427111307e-01
               Tn: 0
               complexity: 0
               alpha: 0.
               node_risk: 5.6897175454428961e-05
               tree_risk: 0.
               tree_error: 0.
               splits:
                  - { var:3, quality:6.3086092472076416e-01,
                      le:9.4599717855453491e-01 }
            -
               depth: 3
               sample_count: 5
               value: -9.7603243589401245e-01
               Tn: 0
               complexity: 0
               alpha: 0.
               node_risk: 1.1722787951751190e-05
               tree_risk: 0.
               tree_error: 0.
            -
               depth: 3
               sample_count: 7
               value: -9.7104638814926147e-01
               Tn: 0
               complexity: 0
               alpha: 0.
               node_risk: 1.5514495244062232e-09
               tree_risk: 0.
               tree_error: 0.
      -
         best_tree_idx: -1
         nodes:
            -
               depth: 0
               sample_count: 152
               value: 2.4145848656955519e-02
               Tn: 0
               complexity: 0
               alpha: 0.
               node_risk: 2.5154211366221851e+01
               tree_risk: 0.
               tree_error: 0.
               splits:
                  - { var:3, quality:1.1783099174499512e+01,
                      le:6.8952941894531250e-01 }
            -
               depth: 1
               sample_count: 104
               value: -1.6429394039397055e-01
               Tn: 0
               complexity: 0
               alpha: 0.
               node_risk: 5.7186140154072991e+00
               tree_risk: 0.
               tree_error: 0.
               splits:
                  - { var:3, quality:3.8409175872802734e+00,
                      le:-6.7773401737213135e-01 }
            -
               depth: 2
               sample_count: 75
               value: -2.2628777404626210e-01
               Tn: 0
               complexity: 0
               alpha: 0.
               node_risk: 2.2035631585430870e-03
               tree_risk: 0.
               tree_error: 0.
               splits:
                  - { var:0, quality:3.8425774574279785e+00,
                      le:-8.0506658554077148e-01 }
            -
               depth: 3
               sample_count: 2
               value: -1.0113706588745117e+00
               Tn: 0
               complexity: 0
               alpha: 0.
               node_risk: 2.9217856134966524e-05
               tree_risk: 0.
               tree_error: 0.
            -
               depth: 3
               sample_count: 73
               value: -9.6825695037841797e-01
               Tn: 0
               complexity: 0
               alpha: 0.
               node_risk: 5.8678011969792720e-05
               tree_risk: 0.
               tree_error: 0.
            -
               depth: 2
               sample_count: 29
               value: -3.9650602587338150e-03
               Tn: 0
               complexity: 0
               alpha: 0.
               node_risk: 4.6827126520735023e+00
               tree_risk: 0.
               tree_error: 0.
               splits:
                  - { var:0, quality:4.6824045181274414e+00,
                      le:8.6693912744522095e-03 }
            -
               depth: 3
               sample_count: 7
               value: 2.5727515220642090e+00
               Tn: 0
               complexity: 0
               alpha: 0.
               node_risk: 6.2432831023340185e-04
               tree_risk: 0.
               tree_error: 0.
            -
               depth: 3
               sample_count: 22
               value: -9.7483706474304199e-01
               Tn: 0
               complexity: 0
               alpha: 0.
               node_risk: 1.3977864594982847e-04
               tree_risk: 0.
               tree_error: 0.
            -
               depth: 1
               sample_count: 48
               value: 4.3243205826729536e-01
               Tn: 0
               complexity: 0
               alpha: 0.
               node_risk: 7.7411175346855750e+00
               tree_risk: 0.
               tree_error: 0.
               splits:
                  - { var:0, quality:1.6716205596923828e+01,
                      le:2.5383019447326660e-01 }
            -
               depth: 2
               sample_count: 35
               value: 6.7716737815311978e-01
               Tn: 0
               complexity: 0
               alpha: 0.
               node_risk: 7.3521095927020497e-04
               tree_risk: 0.
               tree_error: 0.
               splits:
                  - { var:3, quality:1.6050092697143555e+01,
                      le:8.4672790765762329e-01 }
            -
               depth: 3
               sample_count: 2
               value: 2.4560952186584473e+00
               Tn: 0
               complexity: 0
               alpha: 0.
               node_risk: 6.1469379780021427e-05
               tree_risk: 0.
               tree_error: 0.
            -
               depth: 3
               sample_count: 33
               value: 2.3156197071075439e+00
               Tn: 0
               complexity: 0
               alpha: 0.
               node_risk: 2.9629735257330481e-05
               tree_risk: 0.
               tree_error: 0.
            -
               depth: 2
               sample_count: 13
               value: -2.2647072604069343e-01
               Tn: 0
               complexity: 0
               alpha: 0.
               node_risk: 5.6706545046636414e-05
               tree_risk: 0.
               tree_error: 0.
               splits:
                  - { var:3, quality:6.6680276393890381e-01,
                      le:9.3924129009246826e-01 }
            -
               depth: 3
               sample_count: 4
               value: -9.7314214706420898e-01
               Tn: 0
               complexity: 0
               alpha: 0.
               node_risk: 1.0817966945964042e-05
               tree_risk: 0.
               tree_error: 0.
            -
               depth: 3
               sample_count: 9
               value: -9.6801447868347168e-01
               Tn: 0
               complexity: 0
               alpha: 0.
               node_risk: 1.2791930847910749e-09
               tree_risk: 0.
               tree_error: 0.
      -
         best_tree_idx: -1
         nodes:
            -
               depth: 0
               sample_count: 152
               value: 2.3928652762582426e-02
               Tn: 0
               complexity: 0
               alpha: 0.
               node_risk: 2.4705734681375159e+01
               tree_risk: 0.
               tree_error: 0.
               splits:
                  - { var:3, quality:1.1346096038818359e+01,
                      le:6.8788152933120728e-01 }
            -
               depth: 1
               sample_count: 106
               value: -1.5536104437877546e-01
               Tn: 0
               complexity: 0
               alpha: 0.
               node_risk: 6.3542271401895176e+00
               tree_risk: 0.
               tree_error: 0.
               splits:
                  - { var:0, quality:4.0500078201293945e+00,
                      le:-6.2078249454498291e-01 }
            -
               depth: 2
               sample_count: 7
               value: 1.0849958658218384e+00
               Tn: 0
               complexity: 0
               alpha: 0.
               node_risk: 1.5200714179719241e+00
               tree_risk: 0.
               tree_error: 0.
            -
               depth: 2
               sample_count: 99
               value: -1.8690290023582151e-01
               Tn: 0
               complexity: 0
               alpha: 0.
               node_risk: 3.3426754775755096e+00
               tree_risk: 0.
               tree_error: 0.
               splits:
                  - { var:3, quality:3.8944852352142334e+00,
                      le:8.6983807384967804e-02 }
            -
               depth: 3
               sample_count: 76
               value: -9.6588462591171265e-01
               Tn: 0
               complexity: 0
               alpha: 0.
               node_risk: 1.5805866821647641e-03
               tree_risk: 0.
               tree_error: 0.
            -
               depth: 3
               sample_count: 23
               value: -2.7311542630195618e-01
               Tn: 0
               complexity: 0
